#version: 0.2
Ġ t
Ġ a
h e
Ġ w
i n
r e
Ġ s
Ġt he
Ġ o
e r
n d
Ġ b
Ġ f
i t
Ġ c
h a
Ġ m
o u
a s
Ġt o
Ġa nd
e d
Ġ I
i s
Ġ p
in g
Ġ d
o r
e n
e s
l l
Ġ g
o n
Ġ l
i c
a t
Ġ n
Ġw as
a n
o m
o t
Ġ ha
a r
Ġo f
u t
v e
u s
Ġ e
l e
Ġ in
o o
Ġb e
Ġw e
Ġ T
Ġ it
a c
v er
ha t
Ġ re
Ġo n
l y
Ġt h
a l
Ġf or
Ġ is
Ġ y
e t
a y
r i
Ġ h
u r
Ġs t
o w
. .
i d
Ġy ou
oo d
Ġt hat
ĠT he
a ll
l d
en t
g h
s t
Ġ he
k e
it h
m e
Ġw ith
Ġm y
a d
i r
Ġ \
' t
i on
ic e
Ġb ut
r o
Ġn ot
Ġa t
Ġp l
Ġm e
c e
Ġ S
Ġth is
Ġha ve
Ġthe y
Ġo r
Ġa n
Ġ u
ou ld
Ġha d
' s
. \
Ġa s
e c
us t
e l
Ġwe re
Ġ W
as t
Ġa re
p p
om e
all y
Ġs o
Ġ A
an t
Ġl i
t er
i ll
ver y
gh t
ac e
Ġw h
Ġ i
a b
c h
" "
Ġn e
Ġs e
he r
Ġ j
Ġe x
o re
Ġs a
Ġpl ace
s e
Ġs er
Ġt i
Ġf ood
Ġo ut
f f
Ġ M
re d
Ġ B
ac k
ou t
Ġg ood
Ġ C
Ġg o
Ġa l
Ġg et
k ed
Ġ (
u n
es s
Ġ r
Ġf r
er s
Ġthe re
he n
g e
Ġd o
Ġ k
Ġs h
t h
Ġli ke
es t
Ġ us
re at
a in
Ġa ll
Ġa b
Ġs p
i l
q u
a m
Ġu p
e nd
o p
on e
Ġj ust
Ġl o
a k
Ġor d
Ġser v
Ġhe re
Ġs u
Ġw ould
Ġo ur
r y
re s
Ġ H
v en
Ġc om
Ġd id
u l
ic k
m p
Ġti me
Ġon e
Ġw a
ic h
.. .
Ġc h
in k
Ġ N
it e
Ġ very
ĠI t
Ġf ri
Ġ P
Ġfr om
at e
a nd
Ġc an
a ke
i e
Ġb ack
i ve
Ġs ome
c k
ar t
! !
n t
Ġw or
Ġi f
ha n
Ġwa it
Ġab out
n T
Ġ F
at ion
Ġc he
ou s
Ġserv ice
r ou
Ġex p
ĠW e
o s
Ġ v
Ġthe ir
Ġg reat
Ġ O
i ght
ou r
ab le
i z
Ġto o
Ġl e
Ġw hen
s o
n I
in d
a v
Ġd is
Ġc o
c t
Ġ ro
Ġ\ ""
in e
Ġc a
us e
Ġ D
Ġan y
or t
Ġw hat
Ġn o
Ġyou r
c a
id e
Ġf e
a g
Ġo ver
t her
Ġd e
Ġa m
\ ""
w ay
Ġ qu
Ġre ally
Ġ L
Ġp r
oo k
Ġw ill
Ġ $
t y
Ġof f
Ġbe en
Ġ G
i g
e red
Ġ 1
f ter
Ġc on
Ġp ro
Ġon ly
nT he
Ġthe m
i m
Ġre st
Ġbe ca
ec t
Ġwh ich
Ġe ven
Ġg ot
Ġf l
Ġo ther
Ġm ore
Ġbeca use
Ġ -
r a
Ġk n
Ġfri end
Ġse e
ow n
Ġm an
h is
o st
ou gh
Ġw ant
Ġ V
Ġp e
Ġ 2
Ġb y
Ġp re
Ġc ould
in t
he re
Ġs he
Ġd on
on g
Ġc l
ĠThe y
it t
h ing
ar d
Ġa g
Ġ E
ur ant
Ġ en
a urant
o l
u m
Ġt ast
' ve
Ġ R
Ġe very
Ġm in
Ġd r
o y
b le
Ġrest aurant
i ous
is t
Ġs al
p t
Ġ ri
Ġord er
Ġt han
' m
Ġcom p
ar s
Ġha s
o int
t e
res s
0 0
Ġdid n
Ġwh o
u d
Ġe at
er i
Ġkn ow
m ent
Ġt ry
Ġa fter
Ġ Y
av or
it y
Ġbe t
op le
Ġord ered
Ġn ice
ir st
u ch
i le
is h
v ed
Ġdr ink
Ġu n
Ġpe ople
Ġd ec
Ġal so
Ġt e
Ġs ay
re e
ad e
i f
Ġt w
Ġro om
Ġca me
a ge
as s
Ġc r
ing s
Ġg u
c om
th ing
Ġm uch
Ġa pp
Ġs m
Ġhe r
Ġsa id
en ce
Ġl ook
Ġ Ġ
a p
Ġne ver
Ġb u
Ġh ow
at ed
n er
Ġw ent
Ġh ot
Ġd ay
itt le
a ff
i p
k ing
d ay
Ġlo c
ie w
Ġmin ut
Ġag ain
Ġwe ll
Ġl ittle
Ġexp eri
es e
Ġd el
Ġn ight
Ġbet ter
Ġm en
ot her
o nd
way s
Ġa d
Ġgo ing
t o
Ġd own
Ġb re
Ġ 3
Ġthe n
ff e
Ġne ed
Ġb r
e g
Ġw ay
at er
ick en
Ġpre t
Ġth ink
Ġd i
Ġc all
l es
oo ked
a il
g g
ĠM y
Ġb ar
Ġf irst
w e
ion s
u e
Ġm ake
f ore
rou nd
i an
Ġd in
un ch
Ġc ha
f ul
Ġb est
Ġminut es
Ġst aff
u re
x t
Ġc ome
ac h
Ġtw o
a re
Ġmen u
Ġpret ty
ac t
i es
Ġal ways
Ġbe fore
Ġexperi ence
ur n
v ing
ou p
o se
n W
u ally
er t
Ġp art
Ġto ld
ust om
om et
Ġb l
ĠT his
ĠV eg
v iew
Ġt ri
Ġt r
Ġlo ve
Ġy e
g er
Ġm ade
ec i
) .
Ġs l
Ġb us
a ve
Ġw al
Ġ J
Ġb ad
.. ..
Ġh our
f t
ot h
a z
Ġas ked
a pp
ĠVeg as
u ce
Ġre view
Ġri ght
iz z
Ġt ake
s ide
o c
u b
Ġc ustom
Ġb ur
ic es
u ll
Ġt able
Ġa round
e ver
Ġch icken
ou nd
f in
in ce
Ġc le
' re
b e
Ġp er
us h
Ġs omet
oo l
Ġc ar
i gh
w n
Ġst ill
Ġfe w
b er
Ġe ver
Ġa r
m s
ite ly
p er
s el
Ġha pp
m es
Ġg ive
he d
t ing
m ed
Ġ 5
Ġme al
e p
as on
Ġm o
Ġl ong
Ġtoo k
fin itely
Ġs c
Ġl ot
Ġ &
Ġpr ice
Ġfriend ly
Ġwor k
Ġfl avor
Ġne w
Ġ 4
izz a
a me
me nd
n A
Ġwas n
Ġan other
Ġsh ow
Ġsh ould
Ġb it
Ġf ind
Ġwe e
Ġsu re
Ġti mes
on t
Ġ ent
he s
Ġre com
Ġin to
Ġa c
Ġv is
Ġa ct
Ġrecom mend
ĠH e
i x
Ġche ck
! \
Ġsomet hing
Ġd es
Ġo p
Ġm ost
Ġs ince
Ġloc ation
Ġre s
Ġbe ing
Ġsm all
ic ious
Ġa w
o or
l p
Ġh is
Ġsal ad
ĠC h
Ġfe el
Ġth ing
Ġne xt
Ġvis it
en s
Ġche ese
Ġw here
Ġst ay
' ll
ou ght
Ġsa uce
ad y
Ġ ve
e ak
res h
ĠI f
Ġser ver
ĠS o
ĠThe re
Ġp izza
Ġhe lp
Ġl ast
j oy
k s
Ġwh ile
ou nt
er v
Ġf in
ĠB ut
Ġp ay
i ly
ĠA nd
Ġwant ed
Ġde finitely
Ġn ow
n S
Ġdis app
u p
ic ed
Ġman y
Ġdel icious
nd er
Ġex t
ak es
Ġg r
Ġen joy
ers on
Ġe nd
sel f
Ġl unch
Ġe l
Ġhot el
u ff
Ġst ore
Ġdrink s
u ck
Ġc as
Ġdo es
Ġcle an
Ġb ig
Ġ ke
n e
Ġdisapp oint
Ġth ough
Ġst art
Ġf resh
Ġat t
o b
Ġare a
eci al
az ing
pp ed
Ġh ome
Ġme at
ĠS he
Ġ K
Ġexp ect
ĠS t
Ġsa nd
g et
ot t
Ġg l
l f
at o
ffe re
' d
Ġdin ner
Ġm ay
r d
Ġin c
ab ly
Ġi mp
Ġh im
E R
ĠN ot
Ġw r
al ity
one y
Ġel se
Ġop en
Ġle ft
Ġdi ffere
Ġsand w
le ct
at ing
Ġwor th
Ġcha r
p r
Ġh igh
Ġl et
Ġsp ecial
Ġu nder
Ġper f
Ġs ide
Ġgu y
Ġg re
o d
Ġsa me
ri ble
an s
in ess
ud e
id ed
Ġp erson
Ġc han
an ce
Ġcustom er
Ġtri ed
Ġam azing
Ġ U
Ġs ha
Ġre t
ĠY ou
or n
Ġa way
Ġman ag
n O
ĠW hen
T his
Ġad d
Ġlook ing
Ġen ough
Ġre ason
Ġevery thing
Ġe mp
Ġk ind
Ġte ll
Ġp ut
Ġpl ac
T he
Ġtast e
Ġex ce
Ġc oup
ig n
a ir
re am
Ġf avor
er y
Ġdiffere nt
nW e
Ġp h
l ain
rou gh
or k
Ġo ld
Ġp ar
Ġ1 0
ou se
e f
Ġth ought
i ent
l ed
Ġth ings
Ġm oney
Ġo k
) ,
is e
Ġs we
ak ing
Ġp ast
Ġth rough
Ġit s
ut e
Ġnot hing
Ġperf ect
Ġqu ality
i re
M y
Ġst ars
Ġcall ed
Ġany thing
Ġbre ak
is s
Ġd ri
Ġf ree
Ġre f
Ġact ually
ul ar
Ġw ater
ro om
le as
Ġb as
Ġg i
Ġha nd
o g
ush i
l ess
Ġre p
Ġwait ress
Ġret urn
Ġro ll
Ġfriend s
Ġl ine
Ġst ar
Ġre g
Ġf ull
ri p
Ġp at
b ably
Ġmanag er
Ġto p
Ġb oth
Ġbur ger
Ġdec ided
es ome
Ġf ound
Ġhapp y
Ġfri es
Ġl ooked
f e
Ġse lect
Ġbre ad
st e
f ort
!! !
Ġf un
Ġg ir
Ġas k
an c
Ġst eak
ate ly
Ġs ec
Ġit e
Ġbus iness
Ġpr ices
Ġcon t
Ġfr ont
Ġo wn
ab les
Ġwh y
Ġye ars
- -
v es
ul t
os p
w here
ar y
Ġqu ick
Ġplac es
Ġha lf
Ġp ot
Ġde al
i o
Ġd one
Ġha rd
on s
y p
ĠA l
Ġget ting
f ast
rou p
Ġswe et
ffe e
Ġo pt
h o
Ġl ar
Ġb o
Ġc our
s s
Ġar ri
Ġle ast
or m
Ġs ur
Ġsandw ich
ou n
Ġsu per
m ost
e w
ic y
ion al
ĠI n
Ġus ed
Ġs at
Ġf am
Ġfavor ite
ed i
Ġbe er
a le
Ġbu ff
Ġthe se
Ġp oint
at ch
Ġpro bably
ar k
Ġca re
n y
ar ly
ent ion
Ġs ushi
i er
ĠN o
Ġg ave
Ġdis h
Ġre ce
b and
Ġwait ing
Ġaw esome
iz e
Ġcon s
Ġm on
n g
Ġf ar
ĠA s
Ġbreak fast
Ġs it
g ed
e x
ll ent
ess ert
us band
Ġst and
Ġus e
Ġre al
Ġk id
Ġt al
ation s
Ġc ream
Ġdo or
Ġ2 0
Ġtast ed
osp here
Ġe ach
Ġco ffee
Ġsome one
ĠB e
et s
Ġreview s
Ġa v
Ġin side
Ġr ice
Ġh u
t he
Ġl ater
Ġp ick
Ġth ose
n F
Ġh usband
m osphere
Ġre c
e e
u c
it her
Ġcoup le
Ġon ce
Ġqu ite
Ġselect ion
Ġwith out
o ve
i mp
Ġp leas
Ġr un
Ġcomp le
Ġs oup
re n
Ġdisappoint ed
Ġche ap
a red
Ġwee k
i b
ious ly
Ġal most
ĠN O
Ġlar ge
ur ing
Ġcom ing
Ġsp ot
ic an
ver s
Ġcould n
Ġp ort
m er
Ġgir l
a id
Ġt er
ri end
Ġd essert
? ?
Ġg roup
at her
Ġt ables
Ġm us
Ġbus y
Ġl ess
i ld
if e
Ġw on
erv ice
Ġpro ble
b s
Ġhour s
Ġtry ing
ĠT hat
Ġtast y
Ġu nt
Ġout side
Ġserv ed
Ġat mosphere
Ġsh op
pp ing
Ġha ving
Ġt yp
Ġwal ked
Ġe gg
Ġch o
ow d
Ġm ust
it ed
iz ed
es p
Ġst rip
Ġwal k
Ġeat ing
Ġsee med
Ġw ar
u nd
Ġh or
o ke
m on
Ġite ms
Ġst uff
Ġ 6
os ed
so l
ste ad
Ġmon th
el p
or d
Ġbe l
Ġfin ally
ic ally
Ġunt il
Ġpl ay
ro ss
Ġapp et
Ġwr ong
l oy
ond er
Ġwait er
Ġc ra
Ġc ool
i et
ĠA fter
el t
Ġhu ge
ens ive
Ġwho le
ĠH ow
Ġf ish
Ġfri ed
Ġexce llent
t en
Ġw ine
W e
st and
Ġh ouse
u al
ri mp
rou ght
Ġsec ond
Ġimp ress
I N
Ġc ut
at h
n B
Ġdec ent
r u
Ġco ld
Ġke ep
Ġre m
Ġpot ato
Ġi m
Ġf ill
o ck
Ġto wn
Ġbe ef
o ll
Ġfam ily
a w
as h
Ġex c
in o
re me
Ġh op
Ġl ist
n o
Ġb rought
Ġsu ch
Ġc ard
Ġs ign
Ġr ude
Ġc ooked
t s
Ġbuff et
Ġcl ose
Ġth ree
as y
Ġemp loy
end er
Ġoff er
Ġdoes n
ri ll
Ġbr ing
Ġext ra
Ġrestaurant s
ĠO n
i ke
n ing
at es
Ġneed ed
.\ ""
m y
Ġf elt
Ġs et
Ġw onder
Ġdis hes
Ġt urn
w ard
Ġcomp lain
Ġt ac
Ġappet iz
Ġf act
Ġmus ic
Ġli ght
n ot
an y
Ġsu pp
Ġas s
Ġpl ate
Ġevery one
Ġus ually
Ġwait ed
en c
Ġ :
Ġfl oor
ast ic
Ġpart y
p s
3 0
!! !!
Ġse ver
sol ute
i ed
Ġw ife
Ġe ither
Ġdo g
Ġd uring
Ġb ill
Ġj ob
Ġday s
it c
Ġp ic
eci ally
ip s
ar l
Ġt reat
Ġinc l
Ġsever al
Ġcour se
Ġstart ed
Ġb ott
Ġye ar
Ġe t
Ġcomple te
is ed
Ġarri ved
ĠO ur
a h
Ġha ir
Ġis n
a u
Ġc ook
Ġbu y
Ġs k
Ġcustom ers
i a
Ġsa w
or y
Ġrece i
c ha
m ber
Ġf ast
Ġto t
t ed
Ġgu ess
Ġn ame
Ġa p
ĠE very
Ġle ave
Ġph one
Ġd ry
Ġin stead
Ġ ice
Ġmay be
n My
n N
w ner
itt ing
Ġgl ass
an g
ĠW hat
oc ol
Ġ 8
ĠF or
b y
Ġsur pr
Ġre d
Ġin f
m b
Ġcr owd
Ġdin ing
ve l
Ġm edi
Ġwould n
Ġsh rimp
Ġs imp
Ġab le
Ġre l
Ġproble m
Ġm ight
n ess
un g
Ġse ated
Ġg en
ĠW h
Ġcom es
ĠT H
Ġc or
Ġhe ad
Ġ esp
Ġo wner
Ġcl ub
ic al
Ġ .
Ġst y
Ġdec or
c o
i ble
Ġsh o
re ady
qu e
Ġp os
Ġp ack
ĠA ll
a x
Ġst op
Ġm ain
Ġp ri
th ough
Ġsl ow
Ġp ool
Ġal ready
Ġc up
Ġp ork
Ġloc al
Ġco st
Ġenjoy ed
c i
Ġl ack
Ġ1 5
Ġsh ort
g in
Ġp aid
Ġm ar
v ent
Ġf ine
ocol ate
Ġre ad
ail s
Ġwor st
Ġb ag
o ld
en ed
Ġm akes
a ut
Ġac c
Ġkid s
c c
m m
Ġp ur
Ġany one
solute ly
Ġ '
Ġmy self
reme ly
at ter
Ġ 7
Ġp ass
Ġm iss
r it
or s
u mp
Ġb oy
at ur
re st
ert ain
out h
Ġv ar
re ct
av ing
Ġse at
u es
Ġag o
a f
Ġis s
oun ter
Ġw atch
Ġdri ve
Ġtri p
Ġd ress
ent ly
Ġin s
ĠNO T
Ġy et
ĠL as
Ġri d
1 0
Ġf an
) \
at ive
Ġl ate
Ġm ention
ver age
Ġincl ud
ir d
\"" .
Ġhor rible
p m
re et
Ġchar ge
Ġexp ensive
Ġsp icy
ck s
Ġwor king
Ġli ve
y e
in es
Ġa ir
Ġ3 0
itc hen
ĠThe n
g an
Ġpar king
Ġopt ions
Ġin d
Ġdo ing
Ġlo ved
Ġesp ecially
Ġst r
ĠG reat
ĠHow ever
Ġext remely
id er
Ġh ost
Ġcl ass
Ġat e
n C
Ġreg ular
Ġne ar
Ġsee m
ke nd
an ge
Ġb art
L L
n H
n P
it s
on est
Ġend ed
Ġres erv
Ġc ounter
Ġroom s
ĠAl so
Ġp oor
ver all
5 0
ow l
Ġp ie
Ġent ire
Ġch ips
Ġdis c
Ġguy s
ĠF ri
R E
p l
Ġto day
Ġunder stand
Ġb ath
e ll
Ġwee kend
nT his
g ar
it ion
V ER
Ġ 9
r ow
: \
Ġam ount
Ġbel ie
is p
Ġc ur
w h
Ġs itting
n ed
ac on
Ġdel i
Ġs ize
Ġgen er
Ġb ed
e es
Ġr ather
Ġp ol
ĠĠ ĠĠ
Ġsee ms
Ġsp end
ha i
Ġm aking
S T
Ġpr om
Ġter rible
Ġch ocolate
Ġf ix
Ġse en
* *
it er
u ct
g ers
Ġhelp ful
Ġw all
re t
Ġre qu
ĠA t
n D
nI t
Ġpro d
Ġli ked
Ġm ix
st er
Ġd ro
Ġm orn
ĠP ho
Ġto m
ant astic
c ked
Ġhow ever
Ġgi ven
t ic
Ġn um
Ġre me
Ġbl and
ot s
ul ous
an k
f riend
if ul
ĠS p
in s
Ġv iew
ĠV ery
Ġm id
s a
d d
Ġm ind
Ġs me
Ġab solutely
Ġsm o
id es
Ġme an
ce pt
Ġte a
Ġroll s
Ġet c
ĠC he
Ġpre p
gg est
Ġk itchen
ĠM ex
Ġwonder ful
Ġcomplete ly
f ess
Ġso on
Ġok ay
Ġsu b
Ġbe aut
ĠS ervice
Ġ est
l ing
Ġbelie ve
Ġmorn ing
Ġsu ggest
are nt
Ġchan ge
ĠR e
Ġs n
Ġre ady
Ġin te
Ġrecei ved
ĠT h
am b
Ġsme ll
l ish
fort un
2 0
Ġcomp any
we en
Ġp res
Ġl ow
ay be
Ġm ess
Ġimpress ed
Ġtac os
Ġto n
Ġin ter
pp er
ol og
i al
Ġres p
i v
Ġf air
ĠP l
Ġlook s
Ġw ish
fort able
Ġpl an
Ġcas h
Ġexp lain
Ġb owl
Ġl ady
ĠC ha
Ġve get
Ġemploy ees
Ġg one
Ġke pt
atur day
ff ic
or ry
ĠF ood
ir ty
h ind
Ġf antastic
A T
ĠO ne
Ġhe ard
G reat
Ġwar m
Ġcon f
ĠJ ust
Ġb acon
Ġa verage
Ġg rill
ent y
Ġo b
Ġqu est
Ġemp ty
b o
e y
ou d
O U
Ġt aking
Ġbe hind
ĠThe ir
Ġst o
Ġsty le
Ġdo ll
Ġs w
z en
fess ional
Ġquick ly
Ġtw ice
Ġbath room
ĠT o
u red
Ġinte rest
Ġoff ered
Ġti p
ĠS aturday
i me
Ġst ra
IN G
Ġser ve
Ġa ut
ent ive
Ġpur cha
Ġst reet
is hed
l ine
g r
Ġdes k
O N
ĠY elp
Ġse ason
Ġst e
Ġav ail
am p
Ġcr isp
i red
ĠU n
in ese
n L
ren ch
ra p
Ġget s
Ġbet ween
ient s
nThe y
Ġw om
O O
Ġe arly
ĠS c
Ġm om
Ġwere n
Ġh ung
ĠMex ican
Ġsay ing
ĠD on
Ġ ide
z y
Ġpl us
oint ment
Ġkn ew
Ġc ake
Ġmonth s
un k
d ing
Ġexce pt
re w
Ġc ent
Ġcr ab
Ġw ind
ect ion
Ġneed s
Ġcas ino
en ix
is ter
Ġwh ite
nI f
um my
b ur
Ġtom ato
Ġst ick
Ġport ions
Ġac ross
fortun ately
Ġy es
er n
el s
oo se
at t
ak en
al ian
Ġbut ter
Ġreme mber
Ġlo b
us ed
Ġcon c
Ġh onest
nS o
Ġc e
Ġj u
Ġappetiz er
Ġapp ointment
Ġli fe
Ġm ass
Ġn ood
Ġf ro
Ġavail able
Ġbur gers
Ġf our
Ġoff ice
n a
au gh
od y
u res
und ay
Ġse ating
pr iced
ull y
Ġcho ice
Ġit self
Ġhe ar
p ar
ian ce
wh ich
Ġstay ed
Ġf ig
Ġd ou
ic hes
Ġw ings
V E
Ġrep l
Ġord ers
Ġwal king
Ġb ro
? !
o le
Ġsal sa
ĠWe ll
Ġvar iet
ĠD e
Ġgre en
Ġbeaut iful
Ġb ite
Ġpro v
Ġve gg
? \
Ġad v
a j
med i
Ġpotato es
Ġb ook
Ġche f
Ġd irty
Ġexperi enc
Ġm ush
Ġatt entive
Ġgu est
Ġn orm
Ġof ten
Ġan n
Ġpr iced
Ġe asy
Ġgre et
Ġ ,
Ġcons ider
Ġorder ing
al th
ir th
c hed
Ġpay ing
Ġother s
Ġl oud
b ut
n M
Ġt ra
ĠS unday
Ġprod uct
Ġflavor s
Ġhigh ly
Ġco ck
.. .\
Ġexpect ed
Ġco l
it a
Ġ z
ĠPho enix
Ġpat io
Ġtyp e
ĠG ood
Ġeven ing
Ġp ull
Ġnot iced
Ġin t
Ġboy friend
Ġcl os
ĠB B
Ġc ertain
Ġt aken
Ġs y
arl ic
Ġbart ender
ĠN e
Ġh it
Ġsay s
get her
Ġp ain
Ġe vent
irth day
Ġm il
Ġf o
i que
il i
re ad
Ġport ion
Ġf re
g o
ĠS h
Ġrequ est
Ġs ound
Ġex act
Ġ- -
Ġs ing
ĠT hai
Ġam b
iter ally
al s
Ġbe ans
Ġsp eak
ĠB l
Ġegg s
1 5
Ġbl ack
Ġreason able
ore d
ant ly
Ġac com
ow s
ĠN ow
Ġtot ally
Ġpast a
ĠFri day
Ġd ue
im es
b all
Ġide a
C E
O R
Ġc orn
d le
p ort
Ġgi ving
Ġnum ber
Ġal ong
Ġsandw iches
Ġeat en
Ġwee ks
Ġc red
oc re
Ġap olog
Ġvariet y
s w
Ġapp e
age ment
Ġlot s
Ġde p
Ġ ing
Ġo il
Ġp i
Ġbo x
re es
Ġin st
Ġwor d
is f
are ly
ill a
Ġperfect ly
Ġref ill
ĠE ven
Ġserver s
t t
Ġhost ess
Ġcock t
Ġpos s
ĠBB Q
Ġim medi
Ġpl enty
Ġgirl s
ĠCh icken
Ġto gether
Ġsto pped
Ġtal k
Ġcons ist
c he
Ġt ick
ĠT han
ri es
ec es
Ġc al
ent s
Ġha ng
Ġsp r
Ġb irthday
.. ...
ri ed
in i
ĠCh inese
ĠTH E
Ġg ame
oll ow
Ġche cked
c ri
ad a
ou ch
Ġp op
Ġs ad
Ġchar ged
m an
Ġopen ed
Ġexc ited
Ġreserv ation
Ġsimp le
v iously
ri ght
Ġbur rit
Ġhapp ened
Ġyour self
o id
ĠIt alian
Ġing red
en se
Ġsupp osed
A N
it ing
am es
m ing
af ood
g es
Ġlong er
Ġn on
ĠD r
a ked
air s
Ġo cc
Ġtal king
ĠF r
Ġturn ed
Ġan sw
ĠO h
Ġminut e
Ġsp ace
L E
Ġpie ce
Ġsurpr ised
n E
Ġsp ent
ment s
Ġpi eces
Ġse ll
Ġon es
Ġstand ard
Ġcred it
Ġinc red
ĠM aybe
Ġhung ry
pp y
ec h
ke y
Ġover all
Ġb ought
Ġhop e
ot e
Ġfor g
Ġmedi ocre
Ġmo ved
in ed
Ġpack ed
Ġiss ue
ib ly
ic ulous
it ional
Ġatt it
ĠS al
Ġgr ab
c ome
Ġm ach
ĠC a
ic t
ĠL O
Ġimmedi ately
Ġcom fortable
Ġm outh
Ġf ollow
Ġh old
in y
Ġl iterally
Ġar t
Ġpic t
Ġcl osed
Ġg arlic
Ġbott le
ut s
Ġs ort
Ġpart ic
Ġcr ust
Ġcont in
Ġgl ad
Ġcha ir
Ġha ven
f er
Ġch oose
Ġv al
g ing
d e
Ġg y
r act
Ġhe alth
Ġaw ful
) .\
ĠEvery thing
z z
k es
Ġover priced
ĠM ar
g ust
Ġest ab
Ġpl ates
a i
u it
Ġl a
p e
Ġte mp
Ġf ac
un a
Ġd et
c ooked
Ġal though
g s
ĠE x
Ġy ummy
Ġe as
igh b
ap er
Ġpro per
Ġj oint
Ġle vel
Ġcas e
ĠA N
E D
ri gin
Ġm ist
Ġpro fessional
Ġsome where
r t
Ġpres ent
av y
ast ed
b r
9 9
Ġprep ared
i ence
Ġfeel ing
Ġmid dle
d ale
Ġbu ild
Ġchan ce
Ġgrill ed
Ġm et
Ġingred ients
Ġgo es
Ġne ighb
is on
Ġbe ers
c l
ott s
Ġattit ude
s h
Ġf ive
Ġas king
I t
le t
Ġwas te
Ġman agement
Ġco nd
Ġestab lish
he l
A Y
Ġwith in
Ġtot al
Ġl uck
ĠB ur
Ġmo d
Ġapp re
Ġp ost
Ġs ent
otts dale
Ġmo ve
hen tic
Ġco ll
arent ly
Ġe ye
Ġm ac
ĠF irst
ĠA n
Ġs ch
Ġmush room
ber ry
Ġdisappoint ing
Ġare n
ar n
u ly
Ġmeal s
Ġcrisp y
l ike
Ġ Q
Ġsp l
Ġwor se
Ġun less
nW hen
augh ter
Ġth in
Ġsat isf
l o
ĠT V
led ge
s p
Ġcho ices
A R
Ġ1 2
Ġmedi um
Ġse afood
v ious
Ġt akes
n G
ar b
E S
ĠB r
Ġfro zen
at ure
Ġ: )
Ġrel ax
ile t
Ġatt ention
Ġexact ly
Ġcrowd ed
op s
Ġr an
Ġstay ing
Ġsal ty
y s
Ġshow ed
Ġwor ld
Ġappre ci
Ġt ender
Ġin v
u x
Ġloc ated
Ġpartic ular
Ġfill ed
Ġrid iculous
Ġm atter
Ġopt ion
if ic
he ad
Ġsa mp
Ġsho pping
Ġc ount
nO verall
g n
Ġadd ed
at s
ĠN ew
Ġso ft
Ġsimp ly
Ġrec ently
Ġch ild
Ġte xt
ol i
Ġ ...
Ġany where
Ġnood les
Ġf ore
Ġd am
Ġchan ged
Ġbas ed
m ore
ark et
Ġbr own
Ġwr ite
Ġp o
Ġ1 1
ĠS te
Ġrecommend ed
l er
as e
Ġo rigin
i or
Ġup s
Ġf ace
n Y
Ġsu m
um b
Ġfin ish
Ġli m
nThe re
it es
el ess
Ġpe pper
Ġre nt
Ġappetiz ers
l and
ĠO K
c ed
1 2
Ġapp ro
Ġd ate
Ġhand s
Ġto w
s ed
Ġt our
Ġc reat
an e
Ġd ark
ow nt
Ġwor ked
Ġsl ight
Ġlo st
Ġfor ward
w hat
a it
Ġwe l
Ġme et
Ġpleas ant
m ade
Ġthink ing
Ġwom an
Ġspecial s
us age
im ent
Ġburrit o
Ġon line
Ġflavor ful
Ġd aughter
O M
Ġt ap
ĠS e
ow er
Ġe m
sel ves
ownt own
Ġprice y
Ġh um
Ġamb iance
Ġsal mon
Ġite m
Ġne g
ĠG r
ar ian
oo oo
Ġmo v
Ġall ow
Ġann oy
Ġwe ird
p ect
I f
ĠSc ottsdale
Ġon ion
Ġdis t
it ive
Ġlob ster
re en
Ġaut hentic
Ġc ab
Ġha te
Ġe le
Ġcor rect
Ġbu cks
? \""
Ġgreet ed
Ġt iny
Ġfin ished
Ġpleas e
Ġd ance
Ġinclud ing
ĠS ome
Ġab ove
is ing
ĠT e
Ġche es
in a
b ed
k et
Ġinterest ing
Ġsal t
Ġcan not
Ġsing le
ic s
Ġdoll ars
Ġhapp en
ĠBe ll
t uce
Ġown ers
ĠA mer
Ġbr unch
id ent
ag es
Ġb arely
it ies
ĠS er
w w
ĠCha r
ĠWh ile
Ġt ech
Ġdeli very
ĠY es
y es
ar ing
Ġrun ning
Ġtr ain
Ġs our
nO n
Ġs qu
Ġs orry
Ġseat s
Ġs ides
h ood
Ġneighb or
h h
Ġp aper
Ġle aving
Ġb un
Ġserv ing
c on
c ess
Ġdi rect
Ġbas ically
Ġcon ven
Ġy elp
ĠJ o
Ġm ine
an a
Ġgre asy
ĠN E
k y
Ġtac o
Ġun ique
Ġb ud
il ity
Ġp anc
all ey
Ġop in
Ġw ed
Ġm all
Ġestablish ment
ĠW ith
Ġs on
ed ic
Ġsha re
u le
Ġc ute
Ġhe ll
Ġm is
te mp
Ġyou ng
nA s
Ġmass age
Ġso l
Ġser iously
t ime
Ġpic ked
Ġtast ing
Ġair port
ĠA ri
if t
Ġlet tuce
ĠG o
Ġfor get
Ġye ll
Ġto rt
ĠM e
Ġs ection
Ġl ay
L Y
Ġf at
E N
Ġw he
Ġcom m
Ġa ff
Ġdes cri
ur s
Ġdress ing
n am
ĠW ill
Ġon ions
Ġc u
Ġbe gin
ur t
Ġcom b
Ġelse where
Ġent rees
Ġforg ot
Ġdis gust
Ġemploy ee
no on
Ġn ails
ĠP ar
ĠD o
Ġ( $
Ġexpect ing
is c
Ġcomp l
Ġsomet imes
at or
Ġplay ing
ĠC l
h ouse
I S
Ġsa usage
Ġth ick
Ġent ree
Ġst ud
g as
Ġfl at
Ġ Z
Ġcont act
m od
Ġmention ed
ĠR o
Ġpre fer
or med
Ġdog s
Ġad m
Ġe qu
Ġiss ues
E A
pp ings
Ġwind ow
Ġfe e
ort s
it as
ir t
w ise
h ip
ĠP e
Ġfo ot
ĠRe ally
nS ervice
Ġwhat ever
Ġcol or
nF or
Ġopin ion
Ġv i
Ġt ouch
2 5
ĠC an
Ġafter noon
Ġreturn ing
Ġus ing
b ody
Ġ4 5
Ġtast es
uck s
Ġme l
Ġcle arly
Ġcra zy
Ġhe art
Ġpat r
Ġdisc ount
! )
or th
Ġpar k
Ġcent er
Ġsch ool
Ġvegg ies
Ġgot ten
n R
Ġrem ind
in ally
Ġsit u
Ġc ity
Ġcertain ly
ĠF rench
ĠO verall
Ġb other
e ed
Ġse nd
Ġsalad s
bur gh
Ġocc as
ter n
k en
os s
Ġcon vers
ĠA ny
h ile
ad o
Ġri b
ha ps
Ġtr uly
Ġinclud ed
Ġri bs
R I
Ġto ast
. )
Ġexplain ed
Ġav oid
Ġval ue
ru ct
ĠH ot
Ġm as
Ġf a
ĠH ad
T H
ount ain
Ġap art
Ġme ans
Ġbe ll
Ġf il
ĠB oth
oc ked
ĠC al
in ation
Ġprom pt
h ol
Ġsal es
f ully
Ġsh ot
Ġtreat ed
Ġmin s
Ġmist ake
Ġs le
Ġbo oth
Ġout d
Ġto ppings
Ġmix ed
Ġr ating
Ġquest ions
ward s
n ow
Ġinf orm
ĠP r
pt ion
Ġd owntown
Ġstra w
ur ity
Ġb le
ĠO r
on a
i ves
ic ing
Ġi gn
Ġtr ans
Ġbuild ing
il ar
Ġwatch ing
pp ers
Ġm ult
anc y
g ain
O W
Ġcle ar
W ent
Ġch ose
Ġsee ing
ĠF l
Ġsp ec
lf riend
Ġsal on
the y
Ġt una
ant s
Ġcha in
Ġsc hed
Ġnight s
Ġguest s
er ing
Ġaccom mod
Ġglass es
Ġr are
gg y
end ers
Ġfair ly
Ġpro cess
ĠL e
ĠN ever
Ġknow ledge
Ġpull ed
Ġg ross
A S
Ġle mon
ĠA pp
Ġso d
Ġdessert s
ro c
ĠO N
Ġneighbor hood
ĠChar l
U T
Ġnot e
ĠC o
a im
f or
Ġveget arian
Ġfl ight
o on
Ġal one
ĠC r
Ġcoup on
y ing
aj or
Ġhonest ly
S o
m in
Ġquest ion
Ġb ab
Ġsm oke
ve red
Ġst ation
Ġf all
ĠM an
Ġup on
ĠB ar
ir on
Ġnot ice
Ġgir lfriend
Ġfore ver
w ork
Ġb all
w o
Ġsa ve
Ġcor ner
Ġsa uc
Ġposs ible
Ġstand ing
ĠDe finitely
Ġwe bs
Ġhelp ed
Ġtr ue
a use
ĠNot hing
Ġslight ly
Ġob viously
1 4
Ġfe ll
Ġtyp ical
ar i
Ġ5 0
Ġfre qu
ĠAs ian
nA l
Ġimp ort
Ġconsider ing
Ġwas h
Ġknow s
Ġcl ot
Ġstr ong
Ġdon t
Ġmar gar
Ġfr uit
Ġst ory
and s
Ġb unch
Ġco ver
Ġcon st
Ġdisappoint ment
Ġg el
Ġb an
Ġa head
l ight
ĠC om
Ġ4 0
Ġun p
Ġco vered
u g
Ġhe at
Ġe ff
am ed
Ġcomplain t
ĠB E
us hed
l ic
Ġcur ry
ĠUn fortunately
Ġreturn ed
Ġvisit ed
Ġg e
Ġph ot
Ġchair s
Ġn ail
mb ers
re al
Ġvisit ing
Ġsp in
Ġkind a
Ġstra ight
ĠC ar
Ġs im
Ġ =
ĠIt s
Ġne arly
Ġ2 4
Ġshow s
ip le
nO ur
Ġref und
nA fter
Ġstore s
Ġwebs ite
Ġmov ie
Ġd ie
Ġr ound
Ġeas ily
ĠN Y
h ow
ĠI nd
y ond
Ġspl it
Ġim ag
ĠT r
ist s
op e
Ġsy ste
Ġb aked
on es
Ġperson al
il ed
Ġd ra
nI n
Ġcup c
Ġread ing
Ġh ig
Ġpurcha se
d y
oun ge
ĠE VER
Ġmost ly
Ġf it
ive red
Ġf ut
ĠNE VER
Ġthan k
Ġs ick
V ery
Ġtr ad
i pped
Ġcheck ing
Ġm ajor
Ġatt end
Ġpl ain
Ġw in
Ġsitu ation
Ġus ual
m o
Ġv ac
k a
nA nd
Ġbl ue
Ġse par
\"" ,
C K
ag er
ast y
ĠO ther
Ġsmo oth
ot te
st airs
ĠAN D
or ing
o ved
ĠCh r
Ġtell ing
Ġdes ign
stand ing
Ġfill ing
ver t
Ġreserv ations
z e
ĠS T
ap an
ur key
ar ch
ink s
ter s
ĠP al
Ġdel ivered
ĠM ont
Ġany more
Ġcockt ail
Ġdr unk
u ed
n n
Ġsec urity
Ġdo ct
Ġdisgust ing
y ou
Ġdi ffic
Ġph o
Ġn one
ar a
ĠW al
Ġde ep
Ġexperienc ed
Ġbott om
Ġp ub
Ġor gan
Ġr ate
Ġany way
Ġd anc
Ġ ed
Ġpre vious
Ġst ep
Ġf ol
ĠM c
ĠOn ce
ĠLO VE
n U
ĠĠ Ġ
w hel
ĠS u
Ġche w
p et
Ġconven ient
Ġch ili
Ġfut ure
Ġbe yond
1 1
ĠP izza
Ġat temp
Ġp our
Ġconvers ation
ĠAmer ican
_ _
Ġmiss ing
Ġnorm al
Ġproduct s
Ġp an
ĠWh y
Ġpos itive
co hol
Ġpr act
Ġsl ice
Ġso ggy
nB ut
Ġsyste m
ĠSt rip
Ġinf ormed
Ġneg ative
Ġlim ited
n ce
4 0
i ally
b t
Ġth row
Ġfig ured
Ġmach ine
N ot
Ġclean ing
Ġg ames
Ġdes ert
Ġton ight
Ġ #
Ġwed ding
Ġexpect ations
Ġcash ier
Ġw at
Ġqu iet
Ġd ump
ĠG u
Ġo pp
Ġsc r
Ġproble ms
Ġb al
Ġsauc es
Ġorigin al
Ġshow er
ĠL ove
Ġplac ed
ad ed
nA ll
ac hed
ĠP er
Ġwork s
Ġcheap er
Ġk ick
Ġwa ff
Ġt re
ro s
ond ay
Ġhotel s
Ġcom bo
Ġs ister
o ver
Ġt en
c hes
Ġkn own
Ġme m
Ġtick ets
enc y
Ġy og
Ġo dd
Ġve gas
ĠCharl otte
Ġac cept
Ġme mbers
ar m
Ġf ab
Ġcra p
Ġact ual
Ġsha red
1 3
Ġb ooked
Ġgy m
Ġmult iple
Ġserv ices
Ġlove ly
Ġj o
Ġaff ord
Ġoutd oor
Ġbe at
Ġem ail
Ġent r
Ġ2 5
ĠS ince
ĠD el
on i
Ġ !
Ġsh ut
Ġmushroom s
ack s
Ġ1 00
ll a
ĠBur ger
Ġr u
Ġl ad
Ġw ra
t on
Ġl ines
Ġcr aving
Ġsmall er
Ġ ven
j ust
Ġo h
Ġgu ac
Ġ vers
a ven
Ġf rench
Ġfe et
Ġapp arently
Ġsurpr ise
ĠA M
en e
Ġcan ce
ĠW as
ag io
Ġexperienc es
ing er
Ġvi be
us s
u me
er ve
Ġsl ices
D on
Ġdid nt
-- --
ag o
Ġsu cks
Ġdiffic ult
ce ed
Ġca use
Ġpanc akes
er o
Ġhad n
Ġstuff ed
Ġnorm ally
Ġdou ble
J ust
ec ause
ro p
Ġtra vel
Ġele v
Ġimp ro
Ġhealth y
ir c
Ġc re
Ġcompl iment
com ing
Ġseason ed
Ġincred ibly
Ġent ertain
ar r
G E
Ġfol ks
Ġf ail
Ġpri or
Ġmod ern
Ġreg ister
Ġb ars
v is
Ġli ved
ĠB uff
Ġs ense
Ġpurcha sed
ĠThan ks
Ġg ift
ĠN ice
ĠI s
Ġal cohol
Ġwill ing
Ġsim ilar
Ġansw er
Ġtext ure
Ġhig her
Ġlocation s
ĠE n
ac ed
Ġf ancy
Ġup d
Ġn or
Ġres ort
d en
ĠY OU
Ġo l
ame l
Ġp izz
er g
Ġb ri
th is
Ġadd ition
Ġgener ous
ĠM ost
ĠM ac
Ġsum mer
Ġro ck
Ġpict ures
Ġhop ing
t le
Ġsm ile
Ġe yes
Ġreal ized
W hat
ress ed
itt s
Ġg roc
Ġt ax
Ġn ic
ĠG roup
Ġcomp ared
Ġt ough
ĠOn ly
or ies
i est
Ġn ec
al d
I P
Ġsod a
Ġs un
am s
ĠThan k
Ġl amb
s es
Ġbas ic
Ġsk in
Ġveget ables
Ġsol id
g est
Ġbab y
ĠPl us
Ġs el
Ġo me
ĠM onday
apan ese
Ġsp oke
1 00
Ġst uck
ain ed
Ġju ice
ay s
ĠS a
ard s
edi ble
nN ow
en ny
ĠD id
Ġthrough out
Ġsc all
Ġcr unch
Ġf ire
Ġout standing
Ġcar ry
Ġup gr
Ġfun ny
Ġshop s
Ġwall s
ĠW ho
Ġce le
ĠA m
ĠP ro
Ġdrink ing
Ġover cooked
z ona
Ġappreci ate
Ġag ree
leas e
am en
Ġj oke
Ġevery where
Ġmin i
Ġfig ure
ues day
Ġd ip
on se
ĠH ouse
b ack
if orn
ar ned
ree k
Ġfix ed
Ġc art
ĠS O
ak i
ĠW ould
Ġtomato es
Ġrep e
Ġc and
Ġsh it
ĠO k
Ġgener al
Ġen c
Ġcl aim
Ġvegg ie
Ġc hat
ĠAl though
ill s
Ġdoll ar
Ġm ic
Ġlad ies
st ers
Ġdam n
im ate
Ġde f
Ġadd itional
Ġsp orts
Ġarri ve
f u
Ġdes p
Ġlack ing
un ity
I T
Ġrid e
Ġst om
itts burgh
Ġcom ment
Ġbart enders
Ġclean ed
ĠSer iously
Ġbro ken
ĠBell agio
it ch
Ġcockt ails
?? ?
9 5
Ġsu gar
ĠR ed
nF irst
Ġdro p
n ight
ffic ient
Ġst ate
t a
Ġacc ess
Ġups et
ĠT O
Ġspin ach
ust r
ĠQ u
Ġpri me
ĠB est
f ish
Ġpleas ed
iforn ia
Ġli ving
Ġqu e
ĠĠĠĠ ĠĠĠĠ
Ġmo ving
ter day
Ġnice ly
Ġbr oth
Ġmom ent
rd ered
Ġwom en
Ġl ounge
v al
ca le
Ġresp onse
ĠAri zona
Ġh ip
Ġres ult
Ġd a
ĠA r
Ġgr and
Ġincred ible
il ing
av es
re nt
Ġcomp et
Ġchild ren
Ġpro ceed
ĠF inally
Ġle gs
Ġad vert
Ġthan ks
! \""
ĠThe se
ge ous
Ġst ood
ill y
Ġbit es
Ġm arket
Ġdro pped
ain s
Ġmeat s
Ġen v
Ġt urkey
Ġr ich
ĠEvery one
Ġsp a
ĠInd ian
A M
Ġsle ep
ĠFr om
Ġn ach
Ġhome made
oo p
Ġtr ust
Ġt ub
Ġrepl ace
Ġimag ine
Ġmen us
4 5
ale t
Ġpatr ons
ĠL ike
ĠSt arb
i k
ag ed
y nn
Ġfa ult
Ġreal ize
w are
Ġd uck
Ġknowledge able
ret ty
Ġmil k
t hat
ur ance
nY ou
ĠCa fe
Ġr aw
Ġth ird
Ġcream y
s ing
Ġst ated
oc ado
am ole
ub by
am ari
ĠD O
Ġm ag
Ġbr and
all ed
Ġtick et
ast er
Ġpat ient
Ġcele br
Ġsel f
Ġrece ive
Ġsome what
Ġdri ving
ĠP ittsburgh
Ġtrad itional
ĠT ac
ch il
Ġold er
Ġm ood
Ġpizz as
Ġsupp ort
Ġ es
Ġsp ice
Ġdoct or
Ġthem selves
Ġor ange
Ġstom ach
Ġu nd
Ġtast eless
Ġinter ior
B LE
Ġopen ing
a is
ĠT uesday
ĠG rill
h ic
Ġdou bt
Ġpict ure
!! \
Ġdesp ite
ĠStarb ucks
Ġju icy
i um
Ġ *
Ġbo ard
Ġp edic
Ġp et
Ġr ush
ĠChe ese
Ġfood s
nAl so
? )
Ġrecei pt
Ġhe avy
he red
Ġe arl
c es
om b
Ġbig ger
Ġsatisf ied
Ġr ub
Ġbel ow
re ed
Ġacc ount
ĠM ad
ER E
The y
Ġover ly
ow ing
ur ry
Ġpe ppers
Ġcall ing
ĠA gain
on na
or st
ĠY ork
Ġk ill
Ġbuff ets
Ġun com
Ġdec ide
am ing
Ġbuy ing
Ġdeli ver
Ġdiffere nce
Ġd ough
Ġun fortunately
Ġca fe
es ar
im i
Ġprov ide
Ġb urn
Ġcoll e
ER Y
ce llent
Ġ iced
Ġt end
nF ood
ore an
ĠA b
Ġpresent ation
or rible
Ġp m
Ġrec ent
Ġrequest ed
Ġt est
Ġro ad
u ke
Ġtr uck
Ġcook ing
p h
ĠSte ak
Ġo y
ĠS ha
er ved
k in
Ġnear by
Ġfab ulous
iron ment
d ge
ĠGroup on
Ġclot hes
Ġle g
LL Y
ĠMont real
Ġbe come
ri f
Ġcontin ue
Ġlist en
Ġoff ers
Ġins urance
Ġpl astic
ĠSal ad
Ġperf orm
Ġg round
ĠV ERY
nW hat
Ġde ad
Ġimport ant
m a
Ġf ilet
an ch
ĠJ apanese
ĠNe xt
m as
Ġlob by
Ġth ru
Ġbl ock
Ġconf ir
Ġbre w
Ġgi ves
Ġtal ked
Ġa ck
Ġlike ly
ĠB y
Ġthe ater
Ġd im
ĠC ent
Ġvisit s
Ġh ol
** **
r ing
Ġcas ual
Ġto pped
ĠY e
Ġspot s
Ġc atch
ĠB ig
Ġspr ing
r om
Ġsc rew
Ġfrequ ent
we ll
Ġsepar ate
us ing
a a
Ġsuggest ed
Ġack now
ur a
Ġfind ing
Ġannoy ing
Ġsho es
urs day
I C
Ġearl ier
Ġdep art
Ġha ll
al ap
h n
nT o
Ġg as
un t
.... ..
Ġv an
ur ther
if ied
Ġentr ance
ĠS ushi
Ġw ont
ĠL A
Ġn asty
Ġcomplain ts
Ġlight s
Ġpass ed
ĠCal ifornia
m us
Ġven ue
app y
ĠU S
Ġgroc ery
Ġbl ood
ĠCh ic
Ġfor m
act ion
l t
c r
ĠS outh
Ġp arent
nN ot
Ġf ly
Ġcon cept
Ġenv ironment
o k
Ġdet ail
S t
Ġspend ing
ĠW ynn
f l
Ġfr ustr
ĠChr ist
Ġch ill
Ġc at
p ri
Ġgr avy
ĠT ry
Ġ ver
Ġke y
Ġpri v
r on
er k
F irst
Ġcr ack
Ġf urn
Ġro asted
L ove
Ġmas hed
Ġmach ines
Ġref used
ĠA Z
Ġpol ite
Ġr ange
Ġdel ight
Ġome let
Ġwant ing
Ġhas h
Ġmeat ball
ĠTe mp
is ine
ie ld
Ġyes terday
u gg
I D
p or
Ġc ars
Ġdoor s
Ġcon v
Ġav ocado
Ġag reed
Ġprov ided
r ic
Ġc ow
osp it
or able
us ion
Ġguac amole
ĠS m
Ġen chil
Ġbe an
Ġass ist
Ġd ent
Ġh yp
Ġdri ver
Ġv alley
Ġinform ation
Ġm other
if y
O T
n es
Ġmil es
Ġso ld
i ving
Ġword s
Ġare as
Ġexp l
Ġshould n
ĠM on
Ġpop ular
ro fessional
ĠE ng
Ġcall s
Ġallow ed
Ġmin im
r ant
I G
Ġsu ite
ĠO f
Ġs il
is ket
ĠL et
Ġfl av
ĠT wo
A L
Ġpart s
Ġfavor ites
h y
Ġbur nt
A D
b ing
Ġdis pl
ĠNe ed
Ġb right
nH e
Ġimpress ive
Ġb on
ard en
Ġar g
nA ny
and om
Ġother wise
ĠH igh
OO D
Ġw ood
Ġb ak
ĠR est
Ġtech n
ĠChic ago
ot le
Ġha m
ec ond
we et
Ġshe ll
Ġproper ty
Ġchew y
u its
ill as
w esome
az z
p on
ic ked
ay ed
Ġtell s
en o
Ġstr ange
i vers
Ġper haps
B e
Ġc akes
Ġ ur
nt he
iz ing
Ġe fficient
Ġd ine
Ġye ah
Ġh ole
Ġadm it
ri b
Ġsp ac
Ġqu es
Ġad ult
F ood
id ers
ent le
ro ll
Ġdro ve
Ġb and
in ary
ĠI N
Ġvers ion
st aff
Ġsteak s
Ġp ress
es ides
Ġrefill s
Ġn ap
Ġh id
Ġnood le
o ff
ĠH U
Ġen g
ĠG et
Ġclos er
ĠL a
Ġgood ness
al o
Ġcount ry
Ġuncom fortable
Ġsa fe
Ġser ious
Ġca p
Ġst age
nO ne
Ġput ting
Ġw rap
Ġch ip
Ġsha me
Ġmo ist
Ġto fu
Ġsp ect
Ġsa v
w ith
A Z
Ġbott les
Ġsurpr ising
ĠO ut
Ġyog urt
A fter
Ġpr int
ĠC as
Ġr is
Ġve gan
Ġ +
Ġpe an
Ġhe aven
Ġlar ger
Ġcomb ination
e ven
l ist
Ġluck y
Ġp air
Ġin it
Ġprompt ly
G ood
Ġse arch
Ġme mber
Ġsu ck
Ġs ized
Ġb atter
Ġs ix
ĠAn other
Ġt rou
ĠTh ursday
ĠW ent
Ġton s
Ġign ored
Ġnach os
ĠR EA
Ġvar ious
et ch
Ġj e
ook ing
Y ou
Ġwr iting
Ġsc reen
ut er
Ġsa le
Ġr ings
en n
it ure
out s
Ġagain st
j ect
Ġwork ers
b it
Ġinterest ed
Ġf ountain
ch i
Ġ er
ad as
Ġr andom
Ġrep air
Ġtyp es
Ġp ad
il t
Ġreason ably
c her
Ġresp ect
w ood
Ġb i
Ġmiss ed
Ġpr icing
Ġselect ions
ĠBuff et
C H
Ġwant s
Ġgener ally
Ġt art
oo f
Ġbas e
Ġapolog ized
Ġm ed
Ġv o
Ġinter n
ut en
Ġte am
Ġfeel s
Ġve hic
Ġcard s
Ġpl atter
uff le
ash ion
Ġset ting
Ġwaitress es
c han
le an
Ġst ock
Ġl as
ĠW ed
Ġcu isine
end ed
Ġ /
ĠWh ich
ĠR ock
Ġan g
up id
ut ion
Ġpedic ure
ren ce
!! !\
Ġbig gest
ĠBe ef
ĠP h
ĠD J
Ġopt ed
Ġg entle
Ġrepl aced
E L
Ġr amen
iz es
Ġb ody
Ġcont ain
Ġz ero
Ġparent s
Ġsmell ed
as ed
ĠT oo
Ġlo l
Ġnot ch
Ġhelp ing
Ġcal amari
Ġafford able
re ak
Ġperfect ion
Ġrelax ing
Ġd u
Ġge m
Ġfollow ing
, \""
in ing
Ġexc use
Ġoccas ion
ĠA LL
ec ake
Ġunp rofessional
Ġcond ition
Ġde v
ĠE l
ĠS an
Ġreg ard
Ġp u
ef ully
le y
Ġhand le
Ġhigh light
/ /
d ed
nS t
Ġover whel
ĠK orean
Ġp al
Ġcra ppy
Ġcour t
ĠHot el
Ġ ir
Ġli qu
Ġse a
Ġs ong
U ST
Ġ: (
ac ular
Ġb oring
Ġbed s
ex p
ĠSu per
Ġme ant
Ġg or
Ġti red
r al
i oli
Ġproceed ed
Ġ2 00
ne y
Ġbag s
Ġproper ly
Ġj alap
Ġw ide
Ġh oney
am i
Ġtort illa
Ġg onna
Ġan im
Ġc ant
O k
or ough
Ġwat ched
b read
ic he
Ġ1 8
l s
ĠV alley
Ġl at
Ġwel come
ĠI T
Ġr a
Ġ ..
ot hered
Ġon to
ĠEx p
n ers
A s
Ġatt ract
Ġlo ves
Ġt v
end ing
Ġsu cked
ĠL ast
Ġp iss
ent ial
Ġwait ers
is hing
Ġperson ally
Ġcon n
Ġsub st
Ġaw hile
Ġpack age
Ġtr ash
Ġcompliment ary
6 0
ĠRest aurant
Ġsc ene
Ġsched ul
r up
Ġcur rent
in os
Ġmargar ita
Ġcupc akes
Ġh o
Ġsp o
Ġb oun
Ġb isc
ĠIn stead
ĠEng lish
Ġ X
ĠGr and
k ward
Ġd ig
Ġda ily
Ġr av
ĠC ity
Ġfurn iture
ash imi
Ġwhe ther
o f
o h
Ġhapp ens
nA t
Ġfe ed
Ġbr isket
Ġsamp le
Ġclass ic
Ġf urther
Ġhang ing
f ect
Ġb one
ĠE gg
Ġhard ly
ic a
ick s
Ġcost s
Ġt hai
nO h
Ġun s
Ġp ump
E T
c an
Ġal right
Ġclos ing
Ġg ar
por ate
om en
.\"" \
ĠTemp e
bur ger
ant ic
Ġm ot
Ġclub s
b q
Ġth rew
G M
ĠA W
Ġcomp ar
Ġh ospit
Ġown ed
Ġplay ed
Ġseason ing
Ġto wards
Ġposs ibly
f et
Ġe mb
ĠSt aff
Ġrece ption
Ġst ale
ove red
iet nam
Ġcolle ge
Ġscall ops
Ġth orough
Ġvac ation
Ġbring ing
eri a
ĠW H
Ġapp le
Ġaccommod ating
Ġgi ant
Ġref res
Ġtrain ing
Ġcl ient
Ġcom fort
Ġpoint s
ĠS U
Ġv alet
Ġinst ruct
Ġde m
: //
ĠJo hn
Ġspect acular
is ion
Ġfl ag
Ġs ou
Ġparticular ly
B est
Ġo per
Ġwind ows
ĠHU GE
ĠMad ison
ĠA T
Ġl ab
Ġimpro ve
un e
Ġour selves
Ġcomp an
m et
o z
Ġc ig
Ġdanc ing
Ġ ut
nes day
c ut
Ġcar amel
O ne
ip e
Ġst upid
Ġ9 0
Ġc irc
ĠB ecause
Ġlight ing
Ġhum mus
O h
ĠD ay
Ġoy sters
Ġl augh
a o
Ġmar in
Ġrest room
Ġcook ies
Ġflavor less
ci al
Ġcup s
Ġremind ed
Ġdepart ment
ing ly
Ġwel coming
un ks
Ġlow er
ĠS omet
Ġbas ket
Ġno ise
Ġadv ice
Ġsupp ose
Ġbathroom s
H ad
Ġcrunch y
er rible
Ġf oc
Ġre se
Ġman ic
ĠHe re
az y
Ġwa x
p es
ob a
Ġhid den
R e
Ġnec ess
Ġv ent
Ġimpress ion
Ġtreat ment
ĠS pr
ĠB o
Ġm art
tt p
!! !!!
Ġdeal s
Ġpol icy
Ġde fin
ĠL uck
Ġc ro
um ber
Ġmanag ed
Ġsmo ked
aw ai
Ġconf used
Ġcar pet
Ġsched ule
I CE
Ġr ushed
ĠE ast
Ġlack ed
e k
Ġco con
Ġappe ared
Ġm at
U M
Ġv ide
7 5
Ġaw kward
Ġwe ar
Ġgre ens
Ġstraw berry
Ġsy rup
Ġto ilet
AZ ING
ur y
el ie
C ame
ĠG ot
Ġbr other
Ġa u
Ġfr y
Ġcomplain ed
ĠM GM
ĠT om
ĠS ee
Ġmel ted
Ġr ing
Ġsmo king
RI BLE
Ġannoy ed
Ġrent al
t te
Ġj ud
Ġ id
Ġbe gan
Ġweekend s
Ġb bq
Ġle aves
Ġdo zen
s er
Ġcar r
Ġf are
Ġcocon ut
Ġmic row
Ġt ill
Ġsur round
l aw
ac y
Ġup stairs
Ġe ar
am a
Ġde g
r s
han k
Ġresp ond
Ġw ow
Ġpoor ly
Ġdis p
.... \
Ġs ke
Ġj ump
ĠSt ill
ĠV IP
Ġhand ed
Ġru ined
ietnam ese
Ġtre nd
Ġchar ges
Ġhyp e
Ġchan ges
ĠO ld
al ay
ĠR oll
Ġwra pped
ww w
m art
ĠV en
Ġr ot
Ġbu ck
nH ow
d in
Ġeff ort
ĠH appy
ĠTH IS
ĠI S
We ll
r or
onest ly
Ġ ;
ro d
Ġp ound
ber ries
ĠL ots
ĠW I
Ġbell y
ĠNeed less
Ġgl uten
Ġlocal s
Ġ ill
ĠI m
OM E
Ġp ud
Ġco zy
Ġgroup on
il s
Ġoffer ing
Ġha r
ĠK e
Ġrel ative
Ġsh ocked
N o
Ġb en
ant ed
Ġdin er
Don ald
ro l
Ġansw ered
Ġbegin ning
Ġar r
Ġyell ow
ĠH er
Ġenjoy able
ill e
u ght
itt en
ĠSt reet
Ġgroup s
ĠS orry
ĠTac o
Ġs oooo
Ġmay o
Ġrecommend ation
Ġm atch
Ġrefres hing
Ġme x
! ).
k er
Ġp ush
Ġreg ret
Ġincl ude
Ġbeca me
Ġsk ip
me l
um mer
Ġvan illa
et te
ĠH awai
so ci
Ġwe ather
Ġconst antly
E x
Ġsc ream
Ġknow ing
Ġclass es
iss ion
f to
Ġr om
ĠL V
Ġs ite
mm m
Ġr at
Ġenjoy ing
f y
et h
ĠS and
ĠO ver
Ġtemp er
Ġh ubby
er ous
W hen
nE very
if i
Ġreason s
ĠG O
z el
Ġb oo
Ġle fto
ĠG reek
al ing
Ġro ast
re m
Ġcomp uter
Ġp ita
ĠChrist mas
en g
et ian
Ġtow els
id ing
Ġle ad
Ġle arned
Ġban ana
Ġapolog y
Ġboun c
Ġvehic le
ĠB as
are lla
friend ly
Ġserv es
out ine
amp le
Ġpart ies
od ka
her n
Ġ 0
Ġbag el
ĠWed nesday
Ġdri ed
Ġelev ator
Ġfe at
Ġsl iced
Ġref er
Ġti ps
Ġpoint ed
Ġf ight
Ġso y
nT hen
Ġsu cc
ĠMc Donald
Ġfloor s
W ow
y aki
ll en
iv id
Ġsound s
Ġtrou ble
Ġdra w
Ġb ank
Ġm ile
Ġdress ed
Ġp ink
Ġupd ate
.... ....
w ho
eri es
nThe ir
Ġaccom p
Ġun e
he tt
ĠO rdered
uc ed
on ven
ĠB UT
Ġind ust
b l
Ġstart ing
Ġconc ern
!!!! !!!!
at ors
Ġconsist ently
Ġj ack
Ġy um
ustom er
sel s
Ġo ven
ing ers
Ġpol ish
Ġappreci ated
th y
Ġnic er
if ically
Ġattemp t
O S
ĠM and
ĠCa esar
00 0
cc oli
Ġg amb
bo ard
Ġspac ious
ke ep
c orn
ĠD ec
Ġam ong
Ġsl iders
Ġwaff les
Ġs ashimi
Ġb ike
rib ly
riend ly
Ġsound ed
no v
oll y
Ġass um
ĠW est
ip ment
st ar
i ff
Ġgor geous
Ġopp ort
Ġpriv ate
T F
Ġs outh
Ġintern et
he tic
Ġpick y
d on
ĠC H
Ġcontin ued
Ġups cale
Ġcor porate
ĠD is
Ġgel ato
Ġm ad
ist ent
Ġdist ance
Ġdi pping
ĠE X
o be
zz arella
ic ian
Ġmargar itas
ĠChe ck
Ġab solute
Ġupgr ade
Ġt ab
ist ed
nT hat
Ġcook ie
3 5
Ġkind s
1 8
Ġfac ility
te ous
Ġconc er
ot ed
Ġh on
Ġsecond s
Ġtort illas
i pping
Ġti re
Ġgre ase
Ġspecial ty
ĠG reen
ine app
u y
L A
Ġas ada
ĠAM AZING
OU S
Ġexcept ion
Ġwe aring
Ġthat s
Ġl aid
Ġfe m
Ġhol id
Ġadd ress
Ġphot os
1 6
Ġran ch
Ġspec ific
T here
ĠB ay
Ġkid ding
Ġpain t
Ġgo ld
Ġle arn
Ġm ir
Ġwar rant
Ġbak ery
Ġm ild
ir ts
Ġpost ed
is es
ĠP lease
ĠCl ub
Ġble nd
Ġpean ut
n i
Ġas soci
Ġcar ne
Ġsha ke
Ġ edible
ur ger
ĠSh rimp
un ic
ha r
ĠChe f
ĠS ad
pl ant
ou red
ĠPr ices
Ġrep ort
Ġprod uce
Ġc uc
Ġappe ar
Ġapart ment
ag ne
L D
p le
Ġno body
Ġl es
ĠApp arently
ĠP ri
ĠG old
Ġind ivid
at ic
Ġsh ots
Ġf av
Ġn atur
Ġstandard s
Ġvo ice
Ġbl ah
ĠC os
Ġlay out
n Great
Ġt ag
Ġa ud
ĠA re
Ġsn ack
Ġd ad
ĠW ow
Ġcont ract
Ġsign s
I n
Ġhead ed
Ġmeet ing
Ġwaff le
erg y
eri od
u ine
Ġdeal ers
is m
Ġ1 9
Ġrec ord
ened ict
on y
Ġmust ard
Ġfe es
and a
Ġcoup ons
Ġcom fy
itt ed
Ġsh red
e xt
Ġmex ican
Ġdis s
Ġdon uts
Ġman go
Ġri p
ri a
Ġfin al
Ġob vious
Ġd ive
Ġm ill
Ġcra ft
Ġadv ance
Ġstart s
Ġcont rol
ĠRo om
oss ible
ĠVen etian
Ġh ist
Ġwe t
ĠH is
Ġcour teous
Ġlist ed
Ġin exp
h i
ĠA S
ĠJo e
Ġsurprising ly
Ġkeep ing
ĠBl ue
Ġfollow ed
us es
b b
oo o
Ġoccas ions
Ġl azy
ĠT ot
Ġtyp ically
ent ed
Ġp as
ĠN orth
Ġcomp are
Ġgar age
Ġa ge
Ġh ook
nB e
Ġplan ning
l ings
ĠW OR
ĠO F
Ġdescri be
Ġbro ke
ĠM ic
ineapp le
ol a
mes an
Ġcand y
Ġe ast
Ġ8 0
Ġex ample
f ree
ant age
Ġv ol
Ġfull y
Ġaw are
s it
ĠP ort
Ġpleas antly
b elie
Ġdec ision
Ġhe y
Ġsp read
Ġspec ifically
Ġo bs
Ġpud ding
Ġm ail
Ġti res
Ġpot ential
Ġconsist ent
ach i
Ġwhen ever
Ġr ad
Ġ1 6
Ġent er
Ġtemp ura
as p
ĠW a
ain t
Ġne ither
Ġs izes
Ġcupc ake
Ġb f
Ġtr uffle
ĠAny way
s he
Ġm er
Ġconcer ned
ĠV ietnamese
Ġfl ow
ag hett
Ġd en
w arm
Ġwe ak
Ġme h
Ġpresent ed
ĠP retty
Ġdisc overed
Ġc ell
m en
Ġmac ar
Ġm uff
Ġe lect
ĠM o
Ġmeatball s
g round
Ġbas il
Ġsome how
Ġevent ually
Ġfail ed
pl ace
Ġbud get
c le
Ġhim self
Ġshut tle
Ġmess age
Ġcomple x
Ġques ad
Ġch unks
Ġa f
Ġcha mp
ĠB et
Ġschedul ed
Ġhop es
ĠA ng
k ins
ation al
Ġexcept ional
iv al
RE AT
Ġgo d
Ġdispl ay
Ġb reat
oint ed
rif ic
d o
Ġchef s
Ġm ark
r ated
Ġover l
Ġ @
Ġthe me
ill ed
Ġal tern
Ġcom mon
Ġequ ipment
ap le
ĠAri a
s c
ĠW ait
Ġ: -
ir que
ĠE sp
Ġwor ry
aghett i
Ġbooth s
Ġprom ot
y y
Ġrelative ly
2 00
re ly
ĠS un
Ġdirect ly
am ble
Ġcow ork
ĠE ach
ol o
Ġbr us
ĠP ot
Ġfri dge
hen omen
ar ily
Ġstar ving
il es
ĠG l
fe rence
Ġnum erous
y le
Ġn ames
ĠFri ed
__ __
Ġdown stairs
Ġconn ect
ĠEVER Y
Ġrem oved
um bs
Ġtemper ature
Ġth r
Ġchees y
Ġshow ing
Ġgr at
Ġk ing
ĠF resh
eri yaki
Ġsw itch
ĠM arket
Ġf ingers
ĠP ork
ĠREA LLY
ar ant
Ġli me
ĠHigh ly
Ġunder cooked
Ġp a
A l
ĠS qu
ĠU pon
Ġapolog ize
Ġchar ging
Ġopport unity
et t
Ġpre m
Ġresp ons
ĠB ad
ĠR ob
Ġrepe at
Ġbro ccoli
ĠA Y
Ġint rod
Ġf ake
. ,
ri d
arr ass
ast e
I R
Ġan t
owd er
ĠJ e
t here
re ens
Ġlo se
par ag
cl ub
u ity
Ġstick y
nN o
i ri
Ġpast ries
Ġtra ffic
Ġsil ver
etch up
Ġamb ience
l iness
Ġli kes
Ġhe sit
ĠH A
Ġchees ecake
Ġca ught
ĠT own
ĠH our
Ġdi et
Ġn amed
Ġins p
Ġw ines
b oy
Ġha mb
anc es
el ed
Ġr arely
nHow ever
er a
ĠY um
ĠPe ople
ott en
Ġsp eed
Ġdel ish
Ġmem orable
n ut
Ġd ream
Ġway s
parag us
O P
Ġinc onven
Ġcomplain ing
Ġadv antage
ĠAN Y
Ġball s
ĠAY CE
in nam
ic o
Ġind ic
Ġrub ber
ĠBe ing
ĠC on
Ġmanic ure
ĠPro bably
Ġf ans
U S
Ġv odka
Ġvide o
ĠON E
Ġpiss ed
henomen al
ĠBE ST
er m
ĠCh ip
Ġol ive
Ġconfir m
ĠP ark
Ġb othered
Ġcreat ive
Ġpat ty
Ġsmell s
ĠSand w
Ġimp ossible
Ġroll ed
ve t
ign on
Ġpatr on
Ġcance l
innam on
reak fast
Ġbu mp
Ġlo ck
Ġprom ised
im ents
Ġwr itten
Ġhear ing
ĠL ux
Ġst ri
Ġcour ses
O RE
Ġsa ke
Ġmo zzarella
cha r
nD on
ili ar
y al
Ġh int
ĠW or
Ġf ool
Ġl aw
ĠT ex
Ġfam ous
ĠPar is
amp ed
Ġany time
. )\
ĠL oc
Ġhair cut
Ġemb arrass
ĠA ir
res so
Ġ6 0
h ill
es a
ook s
Ġclass y
Ġshred ded
Ġass ume
F or
.. \
Ġbl ow
Ġgrab bed
Ġp ower
an na
ĠR E
Ġfem ale
Ġgo at
Ġrecommend ations
Ġpick ing
han ks
Ġtr ack
Ġs ens
Ġl and
Ġdes erve
ĠA L
Ġsty list
Ġevent s
Ġh urry
Ġ2 1
Ġveget able
it an
Ġpress ure
ĠS weet
w est
Ġd est
Ġfresh ly
Ġview s
ĠMand alay
ate red
mm mm
ĠA d
Ġbook s
Ġcre pe
Ġr ough
Ġman ner
Ġs us
Ġg room
ĠCas ino
Ġce iling
Ġtap as
Ġc ross
ut h
Ġgentle man
il a
ri ous
az ed
r ont
ĠM ore
our met
Ġk etchup
ĠG od
Ġse x
Ġti ght
w as
Ġpepper oni
Ġmess ed
ĠYe ah
ĠBl ack
o ot
ĠS ure
us hing
Ġr ow
ten ance
Ġu lt
Ġdecor ated
Ġas ide
Ġpro f
Ġsoup s
Ġste amed
or iz
Ġwe ight
ĠS am
ĠS ub
Ġdra ft
1 7
ĠS H
Ġsa ved
Ġflav ored
ĠF e
K E
Ġsl aw
ĠMan ager
uff y
Ġmembers hip
8 0
m ond
ain ing
erv es
ob ster
Ġc rew
st ing
ad ing
Ġli e
Ġto ss
Ġturn s
ĠApp le
U L
m all
Ġc op
al k
Ġext ensive
ĠLuck ily
l i
Ġinclud es
Ġgot ta
g ood
mb ered
Ġinst all
Ġminim um
est o
Ġsp ices
ĠAl ways
Ġp eriod
ĠDid n
an ish
ac hel
Ġfor ced
Ġme chan
Ġindivid ual
esp ite
Ġex ec
az e
ob by
Ġcorrect ly
d own
Ġsell ing
Ġhe ld
Ġorigin ally
Ġr ang
Ġcomm unic
W orst
Ġv ine
nd ler
I M
en er
ul a
b ar
Ġw ifi
ĠTH AT
ĠCent er
Ġtrend y
Ġl it
EN T
og rap
ĠPl ace
Ġenchil adas
Ġsc oop
Ġj am
ĠY our
Ġreme mbered
re nd
Ġf ashion
Ġkn ock
uc ked
Ġbre ast
Ġmass ive
Ġwas ted
out hern
nW hile
Ġc am
belie v
Ġt ou
Ġp henomenal
her ry
Ġorgan ic
re g
ott a
Ġsw im
it o
Ġes c
ĠW TF
Ġv ia
or gan
?? ??
Ġwr ote
ust er
ĠR ib
Ġsign ed
ĠK ing
U R
h ib
Ġmush y
ĠA C
Ġindust ry
id s
Ġphot o
Ġwas nt
Ġ ess
Ġstick s
Ġb ra
ON E
Ġf iance
ĠM r
an o
Ġthe at
keep ing
Ġto asted
il ant
Ġaut om
Ġres erved
Ġc ert
Ġburrit os
Ġsh irt
Ġbr ings
Ġcra w
Ġset t
ĠA v
nWe ll
---- ----
ĠFri es
Ġresult s
ord er
Ġc ry
im ately
Ġter ms
Ġb omb
Ġre nov
ot to
ĠH ard
rill ed
$ $
A IN
ĠT ook
Ġcha llen
get ic
Ġf al
Ġconsist ency
Ġcl ients
Ġh i
in c
Ġcut s
Ġcol ors
Ġfoot ball
Ġl uke
ĠCo ffee
or row
Ġarri val
ĠTo day
Ġreview ers
n other
Ġrepl ied
Ġacknow led
Ġpick les
Ġridiculous ly
Ġbal ance
Ġd ust
ar get
Ġb oba
ick y
ĠG REAT
Ġbl ast
ĠI D
Ġgy ro
t r
se e
A C
Ġtreat s
ĠTV s
Ġlefto vers
Ġcre pes
ĠCh ocolate
nd red
ha ppy
an n
Ġacc ord
Ġinexp ensive
Ġsign ature
Ġpract ice
Ġp in
Ġcho pped
Ġbag els
m i
ĠH ar
Ġrelax ed
e finitely
Ġp ineapple
ĠH ave
ĠPal ace
ver se
ĠM ay
Ġdisapp e
Ġp ill
Ġm i
Ġg arb
Ġun like
nAny way
Ġc ous
ir ing
Ġbusiness es
ang ria
Ġsuggest ions
Ġgo lf
be ye
ĠON LY
b ook
Ġg inger
ĠC ome
res ent
A ST
Ġsav ory
Ġsad ly
ĠF OR
f ood
Ġw est
Ġhu ndred
Ġcr it
Ġas ks
ilant ro
ĠC ost
ivers ary
ct ion
b an
Ġoffer ings
IG H
H orrible
Ġsu nd
Ġbox es
ĠM E
ĠC A
Ġmart ini
b ert
Ġfell ow
it ness
Ġcas inos
Ġappro pri
ĠP at
Ġgamb ling
Ġs ca
ĠI r
Ġas paragus
Ġr ave
Ġsha pe
Ġir rit
Ġe v
Ġbe ha
Ġegg plant
ott om
ĠS ER
Ġt an
ĠH olly
Ġclos est
Ġfat ty
Ġeff ect
al a
Ġch op
ĠEsp ecially
Ġch inese
P M
ac cept
Ġmain tenance
ĠS l
ĠH ERE
Ġgen uine
Ġreg ul
nU n
i qu
Ġdet ails
Ġdump lings
Ġfree z
il ies
Ġ1 4
Ġconc ert
Ġhas s
Ġaccommod ate
Ġf uck
le ts
Ġhe ck
ĠPer haps
, \
ess ion
ĠW AY
Ġve t
Ġsp aghetti
Ġsuper b
Ġpub lic
Ġto pping
Ġn uts
ĠPer fect
use um
Ġcomm unity
Ġl ux
ust ard
Ġdown hill
Ġinv iting
Ġtow er
g y
?! ?!
E E
Ġpres cri
Ġne at
Ġent ered
ĠW here
Ġbed room
Ġdr ag
Ġchamp agne
anc ed
Ġsu ff
d es
ĠS econd
Ġhist ory
ĠC ra
Ġso cial
OR RIBLE
Ġca res
Ġthorough ly
ive ly
i ot
Ġs ight
Ġfor k
ĠC irque
Ġnap kins
Ġequ ally
Ġentertain ment
Re ally
Ġbisc uits
a ly
Ġthr own
Ġb ul
Ġ3 5
ĠD in
h r
AT E
I ON
Ġha ha
ack ed
Ġcuc umber
Ġh urt
Ġgu arant
Ġd ude
Ġsubst it
Ġacc ident
Ġpract ically
g ant
Ġcl ue
accept able
Ġc innamon
Ġt ail
ĠA wesome
Ġmel t
S ervice
se y
Ġbu ll
Ġc reme
Ġspeak ing
Ġt ad
Ġb esides
Ġregular ly
Ġbowl s
c ent
Ġrem ove
Ġrom antic
Ġben ef
Ġfil thy
l in
Ġqu ote
ru pt
Ġstud ents
Ġha t
s ually
he t
ĠSomet imes
M G
Ġg oo
Ġunder whel
Ġrem od
to pped
a fter
ĠF riendly
ra id
le x
Ġin edible
Ġol ives
Ġdi v
Ġass ured
Ġsqu ee
d r
ĠS oup
lo in
Ġinv ol
Ġi P
ĠD an
Ġnatur al
Ġquesad illa
Ġint imate
as ure
' .
Ġgood s
Ġmis o
Ġfrequ ently
M e
Ġhead ing
Ġsucc ess
AN T
Ġwonder ing
Ġlat te
Ġf inger
e le
Ġhas n
n el
her s
Ġcance ll
Ġgarb age
Ġ ....
Ġdin ed
ĠP ast
ĠO l
nS he
Ġwater y
Ġp ure
Ġpre viously
A P
ĠA dd
Ġbuff alo
ĠChip otle
ag ue
Ġqu ant
p ed
din burgh
ab i
Ġr ain
Ġpop corn
Ġsa ving
Ġmid night
Ġfam iliar
ĠM ir
Ġweek day
Ġkeep s
Ġsho ot
Ġjud ge
Ġclot hing
umb led
ĠB oy
Ġf ond
Ġc ater
Ġend s
act ory
Ġbun s
Ġlo aded
ĠL ong
Ġmus sels
Ġcent s
ad s
Ġsteak house
ĠCha ndler
Ġch ile
is y
Ġst airs
Ġacknow ledge
ol itan
ag n
Ġpro gr
e rest
Ġl au
Ġinc or
Ġmanag ers
Ġsp oon
i ant
Ġentertain ing
m ary
Ġover p
Ġact ed
u ge
Ġbut t
Ġorgan ized
ac he
ous es
Ġcig are
ing y
Ġad vent
Ġaf raid
Ġp ock
Ġg all
Ġmain t
ent ious
Ġsha ring
7 0
ĠM Y
ĠF ish
m aybe
ĠAm azing
Ġbe verage
ag ing
V ICE
Ġind oor
Ġc amp
Ġmicrow ave
g u
r r
er ry
Ġro cks
Ġwar ned
ĠP ad
Ġjoint s
b age
Ġsk ills
ĠPl an
ll o
Ġo z
Ġsu it
Ġstrip s
Ġcro iss
at a
Ġins ane
Ġpur p
ĠD i
Ġang ry
ĠM ary
Ġpleas ure
Ġadult s
k i
Ġcontain er
Ġwarrant y
Ġchan ging
Ġconst ruct
Ġl ame
Ġplan ned
Ġm al
Ġliqu or
Ġo ily
ist ro
Ġprep are
Ġoverwhel ming
ĠP M
Ġgr as
b ers
Ġal ot
Ġrepe ated
Ġh om
ĠE dinburgh
Ġte en
ĠCr ab
b et
Ġt eriyaki
Ġte eth
Ġann iversary
Ġrefill ed
b ec
Ġrav ioli
Ġg al
Ġcare ful
i res
Ġc ilantro
Ġs ink
Ġtri ps
ew el
Ġhospit al
Ġche dd
az a
Ġnecess ary
ru gg
Ġdisc uss
Ġpart ner
Ġappro ached
Ġun l
ac hes
Ġholid ay
i os
s al
ad es
Ġlet ting
I L
Ġlo yal
Ġdes ired
Ġ: )\
i en
ĠM esa
ĠD enny
Ġcomp ed
Ġinf o
Ġboy s
Ġsec ret
Ġw ise
Ġcook s
D o
Ġen ergy
Ġexc han
Ġve l
nN ext
att ered
Ġcontact ed
ĠSandw ich
Ġco ke
Ġfl o
Ġstud ent
Ġaccept able
ĠS ur
Ġv ou
Ġapp l
Ġcut ting
Ġpo ison
oriz o
O n
Ġnow here
Ġdec l
Ġdes erves
Ġm ale
Ġto oth
Ġbit ter
side red
og n
nP r
at ives
il ities
ĠPr ice
Ġ )
Ġsmooth ie
Ġelev ators
Ġrun s
Ġmov ies
Ġburn ed
Ġdelight ful
i ers
ĠC arl
ut ed
Ġas ian
Ġdescri bed
Ġdent ist
Ġfl uffy
n ger
Ġd er
ĠEx cellent
ĠOther wise
ĠHawai ian
Ġn ut
Ġbu zz
nG ood
e at
s ome
T ER
ĠM ake
Ġve nd
ed y
ĠG OOD
Ġ iron
ĠG arden
ud es
Ġro b
Ġnew s
ac c
Ġam en
Ġm int
Ġab s
Ġchedd ar
Ġevery day
ĠW AS
Ġin qu
Ġcar n
Ġr ated
s on
Ġcon sidered
Ġunder st
Ġp itc
ĠR es
ĠP et
ĠSt ar
Ġadd ing
Ġdem and
ĠM ed
ĠC or
Ġp esto
ĠR ice
Ġb ang
Ġeat s
ĠNY C
r as
Ġen s
ĠU N
Ġyell ing
Ġd irt
ĠL obster
pect ed
Ġexp ress
Ġt am
Ġpay ment
Ġapp s
E very
u per
ĠA G
Ġri pped
at isf
ver ages
os a
g ress
Ġp ants
tt a
n K
Ġf res
Ġcom ments
ĠF RE
Ġbit s
Ġke ys
ent ially
Ġex am
ĠH onestly
nT h
Ġtake out
ĠDel icious
Ex cellent
Ġour s
Ġtour ist
Ġchar ac
Ġhamb urger
Ġany ways
av a
y elp
Ġl eng
azz o
L et
Ġun it
ĠHolly wood
ĠD es
Ġfre aking
am med
ĠK itchen
Ġf u
re l
Ġp edi
Ġdin ers
W as
Ġf aj
Ġcheck s
ell ar
Ġw anna
im ited
s et
Ġe p
Ġin ch
ig iri
Ġy a
Ġad just
Ġpast ry
Ġconven ience
x ious
Ġperson able
Ġsong s
ĠH end
! ),
Ġrequ ired
e m
ĠP an
Ġcan ned
nW ith
Ġbl own
Ġeas ier
ĠIs land
Ġqu oted
Ġass ort
Ġinit ial
A A
Ġg arden
Ġre sol
ĠB L
Ġhass le
ĠC ould
Ġin com
Ġcarr ots
Ġno isy
ĠTex as
p en
an ger
ĠTe a
ĠExp ress
r ami
Ġred ee
ĠC ap
Ġregul ars
Ġsh ock
Ġfre ak
t ail
Ġbrown s
Ġ1 3
Ġesp resso
Ġsuggest ion
Ġadvert ised
Ġhon or
M M
U N
ount ered
Ġent ering
= =
ĠF our
1 9
ĠDr inks
Ġbu ilt
b on
Ġenc ountered
Ġbl ank
organ ized
Ġw ild
o x
Ġbe verages
ĠD ie
Ġfam ilies
m azing
ĠC irc
Ġlau g
- $
Ġbud s
ĠM id
ĠP H
ĠS ave
Ġter rific
Ġconf using
Ġwh ipped
ON G
ar ter
Ġbl ame
w hen
ĠS ch
Ġg ourmet
Ġex hib
ons ider
Ġanim als
Ġbud dy
Ġaccomp an
h ttp
p ro
Ġind eed
Ġfro sting
Ġw atered
ĠB ri
Ġtechn ician
Ġpro s
wh ile
Ġocc up
Ġvine gar
ĠC ustomer
Ġspr ink
\"" \
ĠO MG
ĠAb out
Ġb ust
Ġf est
Ġwait staff
Ġun w
Ġp int
n Just
Ġstraw berries
ĠWal mart
Ġreception ist
n oc
ks ha
ĠC han
ĠC lean
h ot
es ame
ĠW ay
ĠC ream
Ġun acceptable
am ic
Ġno on
AY S
olo getic
r ict
ĠC ame
Ġdes per
Ġfo ie
Ġpanc ake
ent al
ĠM ill
Ġspr outs
ĠL oved
Ġperson ality
Ġcab bage
or a
Ġall erg
-- -
Ġcu z
ĠIr ish
ĠW OW
Ġwh is
st yle
ĠW on
Ġins isted
Ġcoll ect
F F
che tta
Ġsu p
att oo
Ġc ouch
Ġswe at
nHe re
leas ant
op efully
a an
an as
ne w
ĠF ree
Ġsk imp
Ġhand ful
Ġnec k
Ġex ist
av ed
Ġremind s
Ġchat ting
Ġwork out
Ġenchil ada
ĠH orrible
aming o
Ġsamp les
Ġli ves
Ġwall et
Ġhouse keeping
Ġun happy
n J
Ġt all
ha el
Ġtom orrow
nL ast
ĠS w
Ġc ou
ha nd
Ġexc iting
Ġmajor ity
Ġvou cher
Ġrec ogn
ĠAng el
Ġamen ities
ĠY UM
Ġfall ing
c ore
Ġst at
ĠI ce
in is
Ġhold ing
Ġlemon ade
ag na
Ġal mond
ĠChr is
Ġreplace ment
Ġsh irts
Ġco de
ib ility
ĠR io
Ġman age
ich t
U D
Ġb ass
Ġcelebr ate
Ġj ewel
w or
Ġun able
ĠYOU R
n V
Ġto r
Ġfor t
Ġn orth
ud ing
Ġswe ar
al though
Ġact ion
Ġbon us
ĠSqu are
Ġpool s
Ġfor th
Ġexp ert
Ġsn ow
Ġe in
f all
Ġspo iled
b row
Ġsn acks
Ġcompar ison
es tern
Ġr ack
ul es
Ġrespond ed
ed s
ll e
Ġmain ly
Ġp ig
Ġappet ite
2 4
nO ther
if ully
Ġbl ond
Ġsilver ware
he st
Ġp enny
Ġdeal ing
g ency
Ġl ang
ĠS at
TH ING
b ow
ĠHend erson
ĠJ uly
nOn ce
ĠD og
ĠR eg
Ġscream ing
Ġappe ars
Ġar m
ra w
Ġblood y
Ġpro p
Ġp ile
Ġli king
Ġmin or
Ġcert ific
u gs
ĠN ood
Ġforg otten
Ġaltern ative
Ġher self
Ġris otto
g reat
is co
Ġwhat so
app ed
am ond
Ġcreat e
el ing
ĠOk ay
or ter
har m
ĠA u
Ġhappen ing
ot ic
as hed
uc c
O K
ĠB read
Ġwor ried
Ġexpl an
ĠAG AIN
eri or
eri al
Ġentire ly
Ġenc our
Ġc ult
Ġp oured
Ġopp os
Ġh ire
ĠG e
Ġsto pping
o om
Ġdown side
Ġshort ly
Ġske w
Ġwhatso ever
g ie
Ġc ustard
Ġtr ay
Ġhop efully
Ġrude ly
Ġdescri ption
r ane
Ġg un
ak er
ĠH ome
Ġexplain ing
ĠH ORRIBLE
2 2
Ġpurp ose
I LL
Ġacknowled ged
Ġa ve
ĠH aving
Ġdep ending
ES OME
Ġd arn
Ġg ate
Ġl ugg
Ġcur t
att le
Ġart ich
el icious
os it
ĠJ im
Ġprogr am
Ġafter wards
Ġpoison ing
H e
ĠH al
Ġsm art
Ġstud io
Ġgrat uity
op olitan
Ġfac ial
Ġsatisf ying
a e
Ġc ree
min al
ĠKe ep
Ġg amble
Ġst ellar
Ġinit ially
A b
ĠAmer ica
ank ly
Ġwin ter
us i
ur ch
Ġret ail
Ġlet s
Ġst re
Ġti l
ĠSad ly
Ġri beye
Ġarri ving
Ġwas hed
Ġph ys
Ġtime ly
Ġdis co
Ġrese arch
Ġrep resent
asp berry
Ġquant ity
Ġhead s
Ġm im
Ġwhe at
f c
Ġh y
Ġwal ks
i ven
al es
Ġpret zel
Ġinv est
Ġbreat h
T errible
Ġfor mer
Ġdon ut
Ġgre w
e qu
ĠK ind
Ġfast er
ĠQ ue
Ġvel vet
N ice
g ly
Ġinc re
E C
ad ise
Ġdam age
Ġwat ers
Ġdeg rees
Ġt attoo
Ġte le
Ġun friendly
our s
Ġqu al
Ġwork er
rane an
A wesome
i pp
ĠM en
b iz
Ġsett led
Ġappropri ate
m are
E LL
Ġwar ning
Ġhell o
ĠO R
nC he
at ory
Ġcr amped
isp y
ĠB reakfast
C h
Ġp it
ĠWOR ST
Ġthe rap
Ġm edic
ĠT ake
ĠLO L
os h
Ġcl erk
ĠJ ack
Ġchees es
Ġman i
ĠYelp ers
Ġtour ists
P ER
d s
Ġflow ers
Ġfin ishing
ĠCom p
Ġincor rect
Ġcons um
Ġmil ksha
Ġt ank
esp ecially
Ġfoc us
Ġto ne
iter ranean
Ġoppos ite
Ġl oose
ĠAb solutely
3 00
A LLY
nF inally
et a
Ġ7 0
Ġd umb
Ġe mer
ro b
Ġre ach
Ġst ress
Ġhand led
t ies
ĠD uring
ĠU sually
ho ld
Ġprefer red
Ġscrew ed
Ġ x
Ġb oss
ĠO b
ip ing
nW ill
Ġw ing
Ġfl our
Ġyog a
ĠPlan et
, ,
Ġb out
Ġm ignon
ous ly
ĠSp anish
ĠSt ay
m opolitan
Ġappe aling
ĠV al
I OUS
Ġsl ot
n ic
ĠSa uce
Ġsl o
Ġent h
ĠL o
Ġeye brow
P S
Ġun us
Ġrubber y
Ġp age
Ġp ushed
Ġra ised
ĠW orst
Ġsqu are
ĠLux or
ĠMe at
Y es
Ġg rap
Ġv s
ĠR anch
Ġl ic
Ġpaper work
ĠPot ato
s y
u um
Ġter ribly
Ġdel ic
Ġdin ners
Ġact iv
t w
ĠSER VICE
Ġyou nger
ul inary
ĠSp icy
Ġa is
ct ually
ra geous
ĠLO T
Ġconstruct ion
mp t
Ġsho e
ĠF ire
Ġconsist ed
Ġm useum
Ġappointment s
is que
Ġh ur
ĠL os
bo x
Ġse mi
qu ila
ĠV er
E LY
Ġdealers hip
Ġst ations
Ġthrow ing
! )\
ĠC O
d er
Ġs ir
Ġp outine
ce nd
ch o
ĠSal mon
Be en
I E
Ġdress es
ell y
Ġwhe el
c as
ra z
Ġbeaut ifully
OO OO
nY es
Ġign ore
ĠB an
Ġcheese burger
nO k
Ġregard ing
Ġassum ed
Ġf ather
Ġcar p
Ġent ry
Ġstand s
Ġste am
ĠA ut
** *
dd en
Ġb achel
Ġn igiri
Ġch orizo
Ġlevel s
Ġcompan ies
Ġbas is
Ġrep ut
het to
Ġt ack
Ġs ooo
Ġdirect ion
Ġnight club
Ġins ult
nM e
Ġris k
O ut
Ġlugg age
ĠM ike
Ġshe ets
nS ince
Ġfrustr ating
Ġst ocked
Ġfact or
ph ot
le nd
OU R
Ġblock s
Ġcheck out
in at
Ġs angria
ĠWh ite
Ġfrustr ated
Ġf i
ab ility
Ġchip otle
Ġcurrent ly
Ġscr atch
Ġr oof
AN D
ac le
o ly
Ġth ous
Ġun believ
Ġsign ific
ĠSp ecial
Ġupgr aded
Ġnight mare
Ġbutter y
ah i
Ġste pped
Ġst ates
Ġmess y
Ġart ist
ĠPar king
Ġqu i
Ġdis aster
Ġoff ic
nC ons
Ġj erk
il ian
W AYS
ĠT op
ĠM art
ind s
Ġco les
Ġg ig
Ġaud ience
d one
Ġhelp s
Ġrec all
Ġ; )
T o
ou l
Ġh ill
it ary
Ġst one
Ġdesign ed
vis or
Ġlang u
T h
ĠI mp
ĠH a
Ġadvert ise
Ġinter act
id ence
ĠTh ough
Ġcoles law
A CK
I VE
Ġ !!
Ġc herry
ord on
on ly
ĠT W
ĠF un
Ġconfir med
Ġmuff in
Ġclean er
ĠĠĠĠĠĠĠĠ ĠĠĠĠĠĠĠĠ
rem ont
own s
Ġput s
Ġcrowd s
Ġprom ise
Ġpass ion
Ġincom pet
H H
Ġs ets
ĠE ither
ĠCh ili
Ġplan e
Ġscr amb
ĠP LA
Ġte ac
Ġlo ver
orm ally
Ġcheap est
f ace
u ing
ĠG y
nR e
ĠCost co
ri ger
Ġst ew
Ġpr ote
d ate
Ġre v
s ized
Ġback ground
Ġwra ps
ĠAW ESOME
Ġ [
ĠB F
ĠBe er
Ġit alian
ĠL ittle
Ġcon ference
Ġmean ing
ĠCh ina
Ġpol itely
al ed
Ġl ed
Ġas pect
ill age
Ġbad ly
ĠPal azzo
Ġt ang
Ġan tic
ous y
Ġclean liness
Ġbott led
Ġhall way
es ars
ar ge
Ġmis er
Ġa mp
Ġtow el
ĠSpr ing
ĠMic hael
Ġb c
ĠD ON
Ġte as
z ed
Ġclient ele
Ġso ap
hh h
ĠFl amingo
Ġbal con
Ġleg it
Ġlaugh ing
n uts
ĠC ab
Ġsal ted
Ġweek ly
e v
Ġp ap
ri ve
Ġf ile
ir m
ĠTh ree
Ġth rilled
Ġsk ill
n ec
Ġminim al
Ġrep airs
cl uding
Ġed ge
Ġexchan ge
t own
ĠB acon
Ġro ot
Ġre he
Ġref lect
Ġrequ ire
g iving
ain e
Ġattemp ted
Ġsha r
Ġfly ing
Ġenth usi
re p
Ġto ng
Ġbe ware
es y
Ġad equ
Ġpar ked
Ġun he
Ġadv ised
Ġcal ories
af el
it ions
ĠF at
aut iful
A RE
Ġb at
Ġtoss ed
Ġdr ank
ist a
ats u
Ġunp leasant
Ġp un
Ġch ic
nEvery thing
Ġpl ans
Ġbel ong
ĠN ope
Ġomelet te
ĠFr anc
ĠT una
ĠE ur
Ġb ird
Ġg ri
ĠO rd
Ġsha kes
Ġtra il
) ...
Q u
ĠJ u
Ġsn ob
ĠTac os
Ġanim al
Ġpock et
Ġout rageous
Ġkn ife
Ġpret entious
Ġap ologetic
ĠTh ose
ara oke
Ġf if
ĠB enedict
Ġsu dden
Ġca fet
nM aybe
Ġear th
Ġ ident
Ġs esame
f ried
A mazing
as k
ĠBe fore
Ġm or
Ġexplan ation
en ing
Ġn ur
Ġst ating
qu ee
ĠO ct
Ġob no
ve y
ĠJ an
ĠOl ive
Ġpass ing
O ur
ĠR ec
ĠSt r
Ġgener ic
Ġtax i
Ġp en
als amic
Ġunderstand ing
Ġmill ion
ĠF ry
n s
er man
um bo
S topped
Ġsamp ler
Ġcreat ed
Ġpr a
Ġtw enty
nS ome
Ġsupp l
Ġp harm
Ġle ather
g a
l us
Ġhapp ily
ĠAL WAYS
Ġshe l
Ġtrans fer
ĠBet ter
ha d
Ġis t
ec c
ĠM any
Ġr ates
pr ise
Ġ20 13
Ġm ountain
il ton
Ġbo ot
ĠPh illy
red o
ĠF remont
ĠSub way
Ġw ished
Ġso le
ĠN ob
Ġpass es
Ġmed ical
Ġjalap eno
i us
ĠT errible
nA nother
Ġh ttp
ĠM om
Ġdecl ined
g ot
nD efinitely
ad ium
Ġcr an
se ll
Ġcha ins
ĠMar gar
ir l
iz ation
uc ch
Ġestablish ments
Ġmet al
Ġoverwhel med
T W
ĠSt ars
Ġtop s
olog y
Ġrequest s
Ġe arned
ĠS imp
ĠM us
Ġtrain ed
ĠHA VE
Ġcafet eria
ĠF il
he w
ut to
ac es
Ġco ast
Ġsc ore
Ġinc ident
Ġste al
nL et
Ġhum an
Ġse ared
c or
it al
Ġlaug hed
ĠF A
?! ?
Ġregard less
b u
c al
n Very
ĠP a
os as
be at
Ġsc en
Ġdist ract
r us
Ġc ub
Ġref riger
Ġd ut
ter ior
Ġtri es
ĠGu ess
Ġst un
noc chi
phot os
Ġste ep
Ġdisappe ared
er ie
Ġim m
Ġbatter y
Ġpump kin
Ġfac es
Ġlangu age
t ered
am ily
Ġcl ams
Ġpar mesan
ĠWI LL
Ġupd ated
b ecause
Ġs an
\"" .\
Ġcompar able
u h
Ġwel com
Ġinvol ved
nC h
Ġbeha v
Ġcomp ens
Ġpo ker
ĠW ater
Ġme in
Ġti pped
ĠN ight
Ġpr ot
H ow
ow ed
Ġappro x
ĠSm all
Ġbenef it
ucch ini
er iously
Ġsu bs
Ġgreat est
Ġro se
**** ****
am is
b i
at in
Ġin j
Ġmin us
Ġh ooked
ĠF actory
Ġintrod uced
1 50
ger y
ple te
Ġaccord ing
Ġcowork ers
m ail
re ally
ĠM all
Ġun imp
Ġbook ing
Ġdeg ree
t able
ĠW i
nG o
Ġsca red
Ġbrus chetta
Ġlisten ing
Ġtravel ing
Ġluke warm
ĠC urry
Ġinconven ience
ĠW ine
up s
Ġclaim ed
om a
ĠPLA CE
ian o
fortun ate
Ġvac uum
Ġsearch ing
Ġswim ming
Ġb um
ĠR ight
ĠCirc us
ret te
Ġprem ium
pt ical
ĠT on
ier ge
Ġdep osit
it ter
Ġth us
Ġdis m
Ġst ir
ĠD ep
Ġassoci ate
Ġr ules
Ġcoup les
Ġpat ients
Ġrem ote
Ġbounc ers
Ġp unch
Ġreview er
ci utto
Ġcorn ed
Ġarg ue
Ġn aan
Ġca used
Ġdest ination
Ġf ed
Ġnot ed
s omet
Ġca red
um ent
Ġloc ally
Ġlas agna
C he
Ġh un
ent iful
Ġdanc ers
s orry
Ġmarin ara
Ġcous in
ĠL ight
Ġfar m
Ġrecei ving
Ġla pt
ĠRo ad
ĠC ol
Ġ20 14
Ġbowl ing
Ġatt ached
' \
Ġph ones
Ġve al
! ?
Ġst ret
Ġun c
Ġp ec
F UL
Ġh its
ĠIn n
Ġfaj itas
ĠT w
ch y
Ġapp t
Ġdi agn
Ġgr ass
Ġimp ecc
Ġact s
Ġgreet ing
Ġc it
Ġembarrass ed
Ġsc reens
Ġcertific ate
Ġp ies
Ġgr ace
Ġspr ay
Ġmist akes
g able
Ġn erv
Ġbar gain
Ġbounc er
is hes
Ġin vent
ou st
Ġloc ked
Ġsc am
staff ed
xt ure
Ġse ve
Ġsweet ness
ang o
Ġt out
ĠOr ange
ĠCos mopolitan
Ġcharac ter
Ġm ais
Ġj unk
Ġle an
Ġeat er
ĠTot al
ĠB ud
Ġcompet ition
Ġb ored
Ġfish y
Ġf ield
ĠT ower
Ġch unk
Ġinc ons
nD o
Ġje ans
en ess
Ġcree p
Ġmarin ated
ar ning
ĠS ummer
Ġmechan ic
Ġantic ip
Ġbalcon y
A ll
Ġgu ard
Ġattend ant
Ġtheir s
Ġchan ces
ĠI M
Ġd ates
Ġpl entiful
ĠN one
Ġ1 7
Ġchar m
Ġperform ance
ĠWa ited
at ically
se lect
Ġwa nder
ĠP ub
Ġevery time
ush room
Ġboo ze
r am
w ater
Ġpl ant
Ġconcern s
Ġbr ule
con om
amis u
g l
h ost
Ġto ward
Ġsp ir
ĠS on
.... ...
Ġacc ur
Ġcigare tte
il bert
Ġstar ter
rit o
U n
b a
Ġpro ced
ĠR ep
Ġstar ters
Ġcancell ed
itc hed
led gable
nT hank
Ġsha dy
Ġcoll ection
ĠMir age
u v
int age
Ġexc ess
Ġlight ly
Ġconv ention
ĠK obe
nE ven
nUn fortunately
E VER
od e
Ġpast rami
st ick
Ġpe e
Ġyell ed
ĠAv oid
Ġid iot
Ġp ers
orm ous
ĠWH AT
Ġun f
ĠIn tern
O L
b ag
Ġst ains
ĠD espite
Ġam azed
Ġattract ive
a res
ill ing
ĠH all
Ok ay
Ġsurround ing
u nder
Ġst rugg
Ġthink s
Ġunl imited
Ġbehav ior
v y
Ġg rip
Ġcl am
Ġch ow
Ġref use
ir amisu
Ġpro ject
ip es
Ġarr ange
Ġdoct ors
ĠX S
Ġmer cha
ĠL ou
Ġfun ky
Ġcool er
ĠChe es
g le
nS econd
nD r
ĠTHE Y
Ġcroiss ant
Ġl ousy
ĠOb viously
Ġk icked
ĠR oy
Ġ ich
me al
ĠA rt
Ġgr its
Ġattend ed
Ġslow ly
Ġirrit ated
ĠA ve
ate g
Ġbread ed
vel op
IGH T
Ġsh ift
Ġord inary
Ġte quila
5 00
Ġd ated
est eak
ĠH opefully
Ġcle ared
oc ated
Ġsur gery
Ġsing ing
Ġwelcom ed
Ġ ~
ong ol
ub s
ĠSome one
Ġimport antly
Ġprote in
Ġt ucked
Ġp uff
Ġbr ows
ES S
Ġc ulinary
ĠT arget
am ps
tt es
Ġeng ine
Ġth umbs
ign ed
ĠGold en
ĠS k
ĠPri me
u zz
ac ing
O ver
Ġr aspberry
Ġmo j
v d
it os
ĠA ctually
Ġbill s
ĠMed iterranean
Ġj er
ĠCa esars
Ġlay er
f ront
ĠB uy
Ġbu gs
c ious
Ġg hetto
Ġnum bers
Ġfit ness
Ġo m
Ġdis res
Ġtheat re
i ved
Ġy ard
Ġble w
Ġchar ming
Ġsatisf y
ĠW ish
Ġprescri ption
Ġjewel ry
Ġnerv ous
Ġis land
Ġadd s
? ).
u f
ĠD ou
Ġcarr ot
Ġed uc
Ġru in
Ġde bit
ass es
Ġmo ld
ĠSh ould
er c
Ġk im
ĠD av
ĠG ener
on n
Ġknow ledgable
Ġve g
Ġgr own
Ġwin ner
ĠHal f
Ġobno xious
n http
in ations
Ġfl u
Ġunus ual
Ġd om
Ġcar ing
Ġ:- )
on z
Ġlet ter
Ġfac ilities
9 0
e z
m arket
se ason
Ġno se
Ġun fortunate
Ġprep ar
Ġwas ting
ĠH OT
Ġset up
Ġimpro ved
Ġunderst ood
ĠCh ips
Ġstar ing
ongol ian
Ġturn ing
Ġadequ ate
Ġpol ice
Ġtong ue
F i
R Y
ian s
Ġpar m
Ġsamp led
Ġpill ows
Ġfreez er
Ġb alsamic
Ġcl im
ĠE xt
Ġtr ade
Ġscramb led
ĠPe pper
Ġassum ing
Ġc os
ĠWhat ever
p art
Ġf irm
art ed
Ġwor n
Ġrec ipe
Ġfountain s
in ct
ĠA RE
Ab solutely
i ver
Ġf usion
Ġsome body
Ġdro pping
Ġassort ment
l uster
Ġst roll
ĠWor ld
Ġartich oke
P A
ie ce
Ġliqu id
ĠC alled
Ġamazing ly
ĠM in
ell a
d og
ho le
Ġgirlfriend s
ĠS ame
ĠB AD
Ġhop ed
Ġseason al
Ġju ices
ĠW ild
gg ed
nW ould
ĠF ive
ĠF OOD
Ġag ent
Ġrun ny
Ġcond es
Ġb enedict
Ġd as
Ġe conom
Ġevery body
O B
S S
U CH
Ġsha ved
Ġlim it
Ġch oo
ra h
Ġsl ots
Ġz ucchini
ĠDo es
ac ha
Ġtr uth
Ġso aked
Ġ !!!
ĠEn joy
Ġli ft
ĠAl most
Ġinf l
Ġg arn
Ġco at
ĠPal ms
Ġjo in
Ġn icht
Ġpre gn
Ġrefer red
Ġaccompan ied
Ġimpecc able
a way
ver n
ri e
ca pe
ĠBuff alo
Ġguarant ee
Ġleng th
Ġsupposed ly
Ġb isque
ĠC L
Ġqu aint
Ġvol ume
Ġblond e
v iche
in ced
Ġo un
Ġstay s
Ġworth y
!!!! !!
Ġmacar oni
Ġind ul
ĠTot ally
Ġsomet ime
Ġpush y
ĠO UT
ina ig
Ġmag ic
N T
s mo
Ġfr ankly
Ġtri m
Ġaut o
Ġhol es
f rom
Ġstop s
ĠT ried
un ately
Ġp ace
Ġu gly
end s
Ġlo ad
Ġpurcha sing
Ġslo ppy
ĠT urn
ĠU p
ĠSp a
Ġrat io
Ġli ed
ĠM ountain
s ervice
Ġb ands
ĠF ort
UD E
ĠP art
Ġcon temp
Ġoccup ied
op us
Ġsmooth ies
in cluding
Ġfr uits
ian c
Ġpri de
Ġnic est
Ġcommunic ation
u u
Ġs om
ri m
Ġappetiz ing
Ġf eta
gh ter
Ġse ven
Ġr um
Ġus es
Ġle ak
Ġshould er
Ġcou ches
l ich
o ons
Ġd ans
st al
ĠD EL
Ġgr owing
Ġappro ach
Ġave c
S E
am ame
Ġle ase
or ary
oc ha
Ġob l
C an
ĠMex ico
Ġmiser able
i able
ip ed
Y I
h one
Ġt un
ĠT ao
ĠC oke
Ġcom mer
Ġcal m
ĠGr anted
Ġdisco ver
Ġm ax
om p
ĠG erman
v ada
Ġpe ak
Ġbread ing
Ġvent ure
Ġf ired
Ġh itting
Ġneighb ors
ĠEgg s
Ġf le
Ġmem ories
Ġe c
ĠG arlic
Ġjob s
?\"" \
atisf ied
Ġl ing
ĠL I
Ġsc ary
Ġdeal t
Ġ20 12
Ġhe ated
ĠSh ow
Ġlic ense
inaig rette
Ġhapp ier
Ġpat h
Ġpat hetic
Ġcondes cend
i ber
Ġlist ened
Ġassist ant
Ġr ud
Ġsh out
Ġmake up
Ġrep ly
Ġcond iments
Ġoutd ated
Ġr out
ĠH ilton
Ġhighlight s
u a
ĠG ordon
ĠG ilbert
he less
Ġth o
Ġsuper visor
enc ed
aj un
Ġw itness
Ġli l
ber g
Ġpick led
au x
Ġch owder
ĠD owntown
ik i
ĠBL T
d id
ĠS uch
ĠAny ways
Ġag ed
Ġto ts
Ġhe av
ĠFood s
nOn ly
work ers
Ġemer gency
e very
Ġcent ral
ĠWho le
Ġpitc her
Ġreput ation
it ty
ĠL unch
ol f
ĠMcDonald s
Ġm aster
Ġbo iled
Ġest imate
ĠEn core
Ġscall op
Ġut ens
Ġsex y
Ġqu arter
ĠBas ically
oo ps
et heless
Ġsp are
Ġde ath
ition ally
ĠCos mo
.. .\""
ound s
Ġadd ic
Ġcomple ment
Ġconv inced
Ġj ar
air y
Ġsqu ash
Ġimprove ment
Ġl ap
Ġbut ton
Ġcomple ted
Ġprov ides
2 8
Ġbrown ie
Ġsend ing
W H
ic ated
Ġfr anch
ĠC orn
Ġadv ise
Ġe ager
Ġlo ss
Ġsub par
ĠPar mesan
in ated
\"" ...
Ġgr ub
Me h
Ġha l
ĠB raz
th ru
Ġcart e
R O
ĠM il
Ġsu mm
Ġwar n
Ġcost um
j ack
nT hanks
Ġst umbled
ĠWait ress
Ġens ure
Ġha ted
Ġex it
nec ess
t oo
vis ion
ĠDie go
hing s
Ġdisgust ed
ĠB ab
Ġfl ash
ep s
Ġheart y
c ar
Ġf old
W hile
Ġto ler
Ġlack luster
Ġconc ierge
Ġflight s
Ġbisc uit
Ġdut y
Ġexp and
che ck
Ġbrule e
n it
en os
Ġe th
ĠP oor
Ġglad ly
ab out
ĠB IG
Ġadm ission
f it
ha rd
ĠO ff
ru it
ĠEur ope
j o
ĠM UST
Ġsp ort
ol id
Ġnew er
Ġess entially
Ġdeal er
ĠUn less
Ġyelp ers
Ġstep s
ri g
int erest
Ġbread s
nN eed
ĠMon te
v in
ĠT IM
et iz
Ġp ushing
ĠR id
uct ion
Ġsou l
Ġcowork er
m ar
u ary
ore s
Ġsa fet
Ġbar bec
Ġsha ll
Ġsort s
Ġfeat ures
Ġshit ty
Ġrat ings
Ġtou ched
Ġguess ing
Ġsafet y
2 9
it or
Ġfal afel
Ġamp le
Ġchallen ge
Ġs or
Ġs ip
Ġs cale
ad er
Ġch ops
Ġce viche
Ġf ianc
ĠU gh
att ress
Ġkill er
Ġhook ah
mp oo
Ġgenuine ly
F C
Ġr ule
AR S
Ġphot ograp
Ġmem ory
h op
Ġt rop
Ġex terior
ĠBut ter
Ġrav ed
ĠSomet hing
ri ott
st icks
ĠM i
Ġv ous
ĠE nd
H ING
Ġso f
Ġsp ic
Ġpo pped
Ġg f
Ġpa ired
ĠAu gust
Ġv om
ĠGe or
Ġpe ace
ĠE mp
Ġappear ance
Ġstat us
Ġg nocchi
ur al
Ġtw ist
Ġmonth ly
Ġpain ted
ot ch
ĠM uch
Ġgr ade
ay a
ore tte
Ġfac ing
w ait
Ġc ast
alth y
Ġinst alled
Ġf und
ĠM UCH
Ġtr ick
h or
Ġ ?
Ġst aple
ĠM ade
Ġless on
Ġsmo ky
Ġw ond
ac ity
Ġplay ers
f ield
Ġm ars
te en
ud os
s as
Ġk araoke
oint ing
ĠB en
Ġfe ar
Ġreview ed
ott ed
Ġinter rupt
Ġdiss ap
Ġlapt op
5 5
ch ing
ĠG ive
Ġcra ve
Ġb are
ĠM et
Ġsu ites
onder ful
Ġpic s
ay ing
Ġwh om
ĠSee ms
inat own
Ġmercha nd
ĠE ver
ell ow
Ġblue berry
2 3
Ġsp it
ĠK im
Ġch ocol
Ġv intage
Ġcompan ion
Ġcop y
e en
c ream
Ġa hi
ĠC le
Ġover rated
ud ge
Ġbr anch
nB ottom
Ġjalap e
Ġprov iding
r ong
ĠF ashion
Ġpe ach
ĠSunday s
ĠFRE E
6 5
Ġpick le
ven ue
if ts
Ġprint ed
ĠDel i
G H
g ent
in al
Ġbr ick
ĠE at
ĠR amen
ĠDin ner
c ade
Ġm aple
ĠD essert
ĠSt ation
ew are
Ġsw itched
Ġsod as
Ġa st
Ġb ou
ll s
Ġpe as
ĠC ount
Ġca f
ĠL ee
Ġcould nt
ĠMar ch
f orm
Ġc el
Ġst adium
ĠW ings
am ous
Ġfood ie
Ġappe al
Ġsleep ing
Ġl ately
Ġsup erior
Ġo ct
ĠLOVE D
R A
Ġmar ked
Ġincompet ent
Ġs ession
Ġun necess
nW ent
Ġpur se
ĠSh op
Ġch ick
Ġfuck ing
Ġh ide
ood y
ins p
lo ad
Ġflat bread
Ġmir ror
Ġgr ow
ĠSe afood
Ġut ter
p erson
Ġa in
ab ob
Ġdou che
l ers
Ġfe ature
Ġsk etch
Ġfeat ured
d a
Ġdo c
Ġgr ad
Ġtack y
ĠS ty
Ġbr ow
Ġban anas
ĠTom ato
ar o
ect ions
Ġhor ribly
ĠFr ank
e al
ip ino
nS p
Ġlux ury
Ġcondescend ing
ĠP ie
ĠE asy
nP ros
Ġske ptical
Ġlo sing
Ġdrunk en
ĠB esides
ĠC ajun
Ġair line
Ġques o
Ġv inaigrette
our se
Ġer ror
Ġgold en
Ġde velop
Ġmod el
Ġpal ate
et er
ĠO pen
ĠV an
Ġflav our
Ġdiv ine
Ġeyebrow s
u z
Ġto es
Ġlo vers
Ġcha l
ur d
ĠH uge
ĠP anda
Ġche er
ĠD ave
Ġag es
Ġun ex
app ointed
Ġunder staffed
Ġdri zz
Ġvi ol
Ġassist ance
Ġprepar ation
Ġhostess es
Ġrent ed
ĠFranc isco
t f
t op
Ġop ens
Ġter m
ĠNOT HING
ĠCent ral
Ġutens ils
2 6
e ah
Ġthere fore
ag ger
Ġcon co
Ġcont r
att entive
Ġinv ited
hh hh
Ġn et
Ġdr own
rou d
ep end
Ġbal anced
ĠOrd er
ĠT rop
ĠS outhern
Ġli br
um ble
Ġide al
ic otta
ĠSc ott
Ġhip ster
Ġoverp ower
Ġf ave
che ese
Ġmod er
D ER
Ġg ra
ĠWI TH
W W
Ġdes ire
Ġ9 9
Ġcomb ined
Ġcrack ed
!!!! \
Ġe ight
ĠS L
ĠCha mp
Ġconvenient ly
Ġstate ment
Ġpros ciutto
ĠMar quee
h ich
ute lla
Ġdisres pect
Ġinst antly
Ġansw ers
Ġinform ative
s l
y our
ri er
ĠB Y
Ġpri x
Ġadvert ising
ĠC ool
Ġover char
Ġsat ur
Ġconnect ed
f cr
ul ting
Ġ2 2
Ġstaff ed
not hing
Ġattend ing
Ġ7 5
ll i
Ġde b
U CK
ĠS P
Ġany body
Ġbri ef
Ġr ap
Ġall ows
Ġsha mpoo
Ġfav our
Ġp ressed
Ġpan ini
w ful
ĠV illage
Ġsal sas
ute ed
Ġdri vers
Ġsur v
Ġcorn bread
lo af
ĠHawai i
Ġs illy
Ġl ying
Ġam er
ĠY og
Ġconc l
Ġowners hip
2 1
ffere nt
P D
Ġsal ons
ob b
ĠPar adise
Ġelect ron
Ġun app
Ġlack s
Ġstrong ly
ress ing
Ġdi pped
Ġmi xture
H ave
ye ar
o ber
ak y
) !
c ing
ĠT er
ĠA B
Ġall ey
Ġhum or
Ġadm itted
ĠThanks giving
Ġque en
Ġunderwhel ming
o ves
Ġm attress
ĠP erson
Ġsus pect
Ġbarbec ue
Ġmerchand ise
ĠM ushroom
Ġr outine
ĠJ une
r ors
z els
Ġsc rap
Ġrem ain
pri l
Ġsuppl ies
Ġpharm acy
S H
Ġch im
Ġ$ $$
a ud
Ġe ars
Ġshe lf
Ġw ipe
Ġhe els
ca p
ĠL iving
pt ions
Ġchoo sing
ĠC ub
ĠGrill ed
Ġnur se
ist ic
Ġsl ide
Ġtal ented
ĠDav id
Ġt enders
pp ies
ĠF ast
Ġingred ient
ĠI ve
ĠT ru
ĠM AN
ĠO re
ĠC ant
ĠPl enty
Ġdesper ate
ust ed
Ġhundred s
Ġcarn itas
re y
it z
ĠS oc
Ġgood ies
Ġexce ed
ank y
onsider ing
ĠB istro
nt il
Ġsha de
____ ____
th ink
ĠP ap
Ġmatter s
om mend
ĠS ec
av ig
Ġpick up
ph one
Ġsh own
Ġch urch
Ġapp ly
Ġc ateg
ĠT a
Ġmar ried
Ġmass ages
Ġcal z
rend ous
ut es
ag ain
Ġapp les
A LL
Ġs outhern
Ġgr ac
ĠCar ne
ĠDes ert
v ille
it ation
Ġst ack
Ġrestroom s
ĠT ra
Ġover he
Ġselect ed
ĠTh ink
Ġvariet ies
Ġocc ur
Ġcat fish
Ġa ioli
Ġwas abi
Ġh ouses
ĠD ID
Ġed ges
W hy
ak ery
Ġsc an
Ġsell s
ĠBur rito
ĠU m
Ġpast e
ĠB O
ag on
Ġsl im
Ġplay er
Ġstr ict
ĠPast a
Ġst ories
ĠB art
Ġab ility
Ġad orable
Ġele gant
Ġsmoke y
Ġnap kin
P retty
Ġp roud
Ġst ink
Ġhalf way
ĠSer ver
ĠCl ass
u k
ar ound
Ġre ality
oll o
ra ft
Ġcreep y
2 7
Ġd anger
ĠB el
Ġfr ame
r ation
at ched
Ġth reat
Ġpl aza
ect ed
Ġdr ain
Ġdet erm
Ġbu bb
Ġw oke
Ġn ar
id ents
Ġsm iling
Ġpull ing
Ġluck ily
E G
ha ra
Ġcourt esy
Ġl amp
Ġbuck et
k n
Ġcont ent
Ġamount s
nL ike
m ission
Ġsp ark
ĠSh ort
Ġtrans port
Ġpu ppy
Ġsubstit ute
G o
Ġs ont
Ġco d
Ġpre vent
ever al
N ever
ĠB ro
ĠC amel
ĠS ho
Ġsurround ed
Ġl ump
Ġso p
Ġbu g
Ġmar ks
Ġc ri
ll y
Ġsk y
nU pon
Ġtang y
Ġs oo
A t
in ic
ce mber
nH ad
Ġcraw fish
T Y
Ġp owder
ur ous
Ġrel ie
AM E
Ġfl ip
Ġdel ay
Ġemail ed
Ġoy ster
ivers ity
Ġb ones
an es
nAl though
Ġpean uts
ĠC ake
ard less
Ġrid es
Ġbeaut y
Ġautom atically
Ġmaint ained
Ġbe ach
Ġres erve
Ġlat est
Ġp le
ĠP ol
Ġv ib
Ġpain ful
Ġaccomp any
Ġinsp ection
Ġskew ers
Ġb iz
ĠT A
ĠB ack
ĠG R
Ġcu rious
ac uzz
ant a
ĠC all
Ġdin ning
Ġrepeated ly
Ġre ached
mel on
Ġmilksha ke
Ġsp illed
Ġdec iding
Ġcard board
Ġrel ated
ell ed
Ġco le
ell o
Ġsoon er
ĠH am
ĠT urkey
wh y
Ġhospit ality
Ġ icing
ĠF ar
Ġchees esteak
Ġmicrow aved
nNeed less
ĠD IS
og i
ung le
Ġperform ers
a ired
re se
ha s
ĠC OM
ĠSp oon
Ġcam era
ĠS mo
Ġr ace
ĠOn ion
Ġcomment ed
Ġp pl
Ġfriend l
Ġed amame
Ġcamp us
Ġcult ure
Ġincons istent
R ONG
we ed
Ġ20 11
b est
ch icken
ĠIt aly
ĠP ink
Ġd ying
Ġwont on
Ġs in
Ġval id
ĠL ook
ĠAs ked
season ed
Ġp ed
Ġfl aw
ĠMan agement
g her
Ġdecor ations
k ers
Ġdi me
Ġsit s
ĠBl vd
O rdered
ĠM ain
ĠM att
Ġr aving
Ġcom edy
Ġto ys
is a
+ +
Ġprocess ed
Ġh rs
Ġinc hes
ren ched
Ġst are
ub en
be it
Ġdri ven
nF rom
Ġhesit ant
O VE
m ins
Ġend less
uck y
ĠGu ys
ĠIntern et
ĠChees ecake
Ġjust ify
ĠR UDE
Ġsm othered
Ġz u
Ġbe ar
Ġdist ur
t hen
eak ing
Ġtrans action
ĠCar ol
Ġg ut
ass ed
Ġsure ly
Ġcons ult
Ġcontin ues
' ,
f o
ĠT able
ber to
Ġexc uses
OU LD
Ġeas e
Ġskin ny
Ġp ier
Ġe arn
Ġwho se
ĠSt ore
Ġbi en
Ġnecess arily
ĠAS U
c y
ĠT ime
Ġh ired
Ġdoes nt
Ġadd ict
rest aurant
ĠAW AY
ĠNe vada
Ġoct opus
D is
Ġwa ve
ark able
ug ula
s ha
ĠT ER
ĠW he
ĠH oney
ĠG F
ĠCh inatown
ER S
Ġpat ience
Ġconst ant
) :
Ġto dd
Ġbe coming
ĠM ag
ĠHe ll
Ġfresh ness
Ġbill ing
Ġspl ur
Ġarr ay
Ġt a
ĠH H
nB y
Ġdiscount ed
Ġaccur ate
Ġt rees
Ġri ver
uff ed
Ġfreak in
e ar
Ġm ash
Ġr ail
am n
ĠRes ort
Ġf uss
Ġbr ands
Ġhor rendous
Ġav o
Ġter minal
le ep
Ġco vers
nW hy
Ġfor ce
Ġkn ocked
Ġset tle
iv ity
Ġpres ence
Ġopp osed
Ġcondition ing
Ġh ike
ĠP oint
um s
Ġdiscount s
Ġn avig
Ġst all
ĠA pril
Ġreview ing
Ġend ing
Ġarri ves
Ġn urs
le v
ab or
Ġoccasion ally
Ġamong st
ĠW E
Ġground s
ĠR ain
Ġint ended
Ġclos es
Ġh ilar
Ġu pper
Ġsh ip
. '
V O
g en
ĠM ind
Ġres ched
nN ever
Ġart ists
e mp
as m
Ġl un
me h
ĠF R
ĠBe en
Ġcaramel ized
ĠMen u
t ait
w alk
Ġtri o
work er
Ġcontain ers
Ġwhis key
ĠOct ober
D ec
l or
ĠG ross
ol en
Ġfranch ise
Ġb er
ĠS ide
Ġshel ves
Ġdi verse
ĠQue en
ool s
ĠEast ern
Ġbout ique
Ġwe b
ĠFl avor
Ġmag az
Ġmuff ins
Ġt ur
Ġp ist
Ġbr ain
p date
ĠS ky
ĠL ow
ex cept
S p
Ġsc ar
ĠSo le
Ġext ended
Ġsty les
nE n
sp ecial
AS E
Ġaccept ed
b ble
r ist
y an
Ġgu ide
gg ing
ib ur
Ġmom ents
Ġem ails
Ġunderwhel med
Ġexhib it
el per
ĠW aff
ĠN ach
ĠN ormally
Ġno vel
Ġcomb inations
Ġjalap enos
Ġconfirm ation
d ough
f resh
Ġre ar
Ġneed ing
ne ath
Ġla und
r ace
ib ut
Ġprofessional ism
Ġfl aky
eri ence
Ġgr ain
Ġb ent
ĠBe ach
Ġclos et
Ġdirect ions
Ġtor n
T hat
Ġm ary
ĠF ace
ĠBo x
Ġdefin ite
Ġrefriger ator
ac hing
ec k
ĠL ooking
Ġconvers ations
Ġamer ican
Ġar ro
Ġac rob
Ġres ist
Ġsol ution
Ġrese mb
ĠJim my
ĠM ongolian
ĠP ita
D r
D elicious
P P
Ġt ree
Ġar ugula
Ġstick ing
Ġlab or
and y
Ġpat ties
Ġmo b
Ġp or
Ġj oy
ĠB S
Ġbrew s
Ġlibr ary
w ed
ĠS ign
own er
ar se
Ġli mp
nT H
ous se
acuzz i
f i
Ġag gress
Ġsk ipped
mb iance
ĠTIM E
Ġunex pected
Ġb es
Ġwas hing
ĠM ark
ub e
Ġvisit ors
Ġlock er
Ġpregn ant
ad ish
Ġme as
il ted
man ager
ĠST AY
l ace
ĠW orth
Ġdi ed
Ġaccess ories
Ġdent al
Ġfeed back
Ġgoo ey
ĠVal ent
S orry
Ġme asure
ĠL amb
Ġrem o
ĠSte ve
Ġm unch
ĠP re
Ġrel ations
Ġjo ined
Ġa uch
Ġv ast
ĠY ummy
Ġsur f
ĠAs k
ĠDe cember
ĠST ILL
IC IOUS
Ġas se
ĠF ro
Ġheaven ly
Ġt iramisu
Ġsm iles
Ġwater ing
ĠB U
ĠC AN
Ġher bs
Ġcash iers
u el
Ġst ruct
Ġkn ots
is se
Ġd renched
ĠE ve
ĠE arl
Ġlast ed
Ġfil m
Ġfall s
Ġinstruct or
m al
ar king
ak a
Ġar ms
Ġbag u
Ġcur ds
Ġw i
Ġd edic
Ġg in
ess ed
A nd
Ġbe ats
ĠD ad
ĠL ounge
ĠThank fully
Ġcater ing
ĠGener al
ĠH ash
Ġcart s
c hat
Ġnot es
ĠP in
ĠF ilet
Ġpret zels
Ġvend ors
c ake
Ġsa uteed
Ġlo g
Ġdou b
ĠH ut
Ġ$ $
Ġroll ing
Ġclaim s
ot el
Ġdis organized
Ġunder neath
Ġrenov ated
Ġunnecess ary
u eless
Ġc able
ha m
Ġp iping
Ġl ake
me an
ĠC up
Ġpos ition
Ġloud ly
Ġbra ised
Ġredee ming
Ġp ets
Ġli ghter
TH ER
Ġnar row
ĠCamel back
Ġb order
Ġpr icy
Ġen ormous
Al ways
Ġover s
Ġcl ock
Ġrecommend ing
Ġdry er
Ġl in
ĠM al
Ġcas es
f ly
Ġd ense
ĠH oot
ig ner
Ġshe et
Ġsketch y
4 9
i el
Ġst olen
ĠJ er
Ġplay s
ĠHar rah
iqu es
Ġapprox imately
ĠB owl
Ġsp iced
ag ers
ian a
4 00
c er
ĠE d
Ġar ch
ĠAn n
r ay
Ġe h
Ġche m
Ġext reme
Ġcrit ic
Ġunbeliev able
ri but
Ġdirect ed
Ġsquee zed
le ans
com es
Ġsquee ze
Ġadvent urous
Ġm aker
at i
Ġex erc
ON S
ĠLe mon
Ġaccident ally
Ġgrip e
l ines
Ġg ifts
Ġact ing
Ġmeat loaf
I CK
Ġh ood
nT wo
Ġsales man
ĠGu y
b ac
lect ic
-------- --------
ĠG M
oc key
nA pp
ĠB ag
ĠO VER
Ġbel t
iet y
Ġdesert s
ĠSummer lin
at z
Ġti ming
Ġshort s
Ġkill ed
aa aa
ĠR ose
Ġret ro
nAny ways
n we
Ġp oke
Ġbl owing
ĠSe pt
Ġbase ball
ĠB on
Ġv irt
OM G
Ġheav ily
Ġh unt
ur gers
ĠC R
Ġjump ed
Ġdec ad
lp ful
Ġbum med
Ġs i
ath room
or ia
Ġn ous
ass ion
Ġeconom y
Ġb attered
ĠT re
ĠS il
Ġalcohol ic
Ġsus p
Ġoverpower ing
d ies
m ark
Ġin e
Ġlo ving
Ġplac ing
Ġpack ages
Ġansw ering
y o
ĠA F
ĠJ ul
ĠJ ames
Ġmo ves
ĠTo ast
ĠBl oody
ĠAngel es
ĠTER RIBLE
Ġd ingy
Ġrel iable
ĠP ost
Ġthem ed
Ġdi amond
Ġkind ly
Ġfact ory
i i
Ġpre ference
ree ze
Ġfrustr ation
Ġm it
ast ing
ĠD uck
Ġreg ist
Ġtra ve
go ing
Ġaccom od
w orth
Ġsupp ly
Ġwood en
us iness
Ġex ha
ĠC reek
ul f
Ġwa ke
Ġback ed
ap s
Ġpartic ip
Ġsh ipping
irst y
ĠAT M
somet hing
Ġgr an
Ġbachel orette
ĠM ust
ĠH OUR
Ġgl oves
pro bably
cal ibur
D O
n on
ĠH ill
Ġfl ies
ĠJ ason
ĠSal t
Ġmet h
ĠTW O
Ġl ent
ld er
ĠS M
Ġout let
ĠM a
oc o
Ġcorrect ed
Ġoverl ooking
Ġflo ating
E F
Ġb ummer
al king
ĠW end
Ġca pp
Ġtre k
ĠEVERY THING
ĠH ubby
ER O
on ed
Ġbre aking
igh ly
Ġlive ly
Ġapolog ies
Ġneg lect
Ġscr ub
Ġcarp ets
Ġhilar ious
3 2
Ġso ak
Ġcry ing
Ġst ained
st ery
ul ent
OO K
ĠJan uary
al so
Ġher b
ĠSa hara
Ġs ections
ot a
Ġpic o
Ġdam aged
smo king
A K
ĠM other
Ġgreat ly
Ġeat ery
Ġpast as
che e
Ġmim osas
v ia
Ġc y
Ġdri pping
Ġblend ed
Ġunimp ressed
ion ed
Ġserv ings
ate ful
Ġcl ueless
pr ising
nM ost
EN D
Ġexec uted
Ġrehe ated
Ġc one
Ġg aming
ar ched
ill o
ĠD ist
ĠRe al
ĠBur gers
Ġsatisf action
ĠSe a
nd el
ĠF ine
ĠL ol
Ġhard er
Ġspac es
Ġremod eled
G O
Ġm a
ĠCh ile
ĠNo ve
Ġdist inct
ĠSty le
ĠI F
us ages
ost on
ĠR os
Ġar cade
Ġhang over
Ġproced ure
Ġm aid
Ġr icotta
Ġsweet s
au ght
st eak
Ġr ust
Ġarg uing
Ġfavour ite
N O
el come
Ġex agger
Ġco ffe
Ġsm iled
ĠVeg et
anc he
Ġann oun
Ġjo kes
Ġsupport ing
Ġshar p
b oth
at meal
il ty
p ut
Ġ .\
ĠP B
oc he
The se
Ġcelebr ating
Ġholid ays
Ġd are
ĠB rit
ĠD om
Ġwho ever
Ġdec k
nPr ice
Ġsor bet
Ġn erve
Ġli p
ul ate
Ġmeat y
Ġwonder fully
Ġsuck er
ĠSU CK
ĠiP hone
T ried
Ġo ri
Ġcr umb
f est
Ġle af
Ġher s
ĠNood les
Ġres ident
w ill
ĠB u
any on
Ġun re
ert ies
nE x
ĠTurn s
Ġwould nt
Ġhusband s
Ġrout e
e per
Ġtr uff
ason able
IN E
Ġboard ing
n ice
Ġbe et
Ġi l
ĠC arn
Ġhead ache
Ġint ention
ĠTr ust
Ġhand ling
Ġquestion ed
ĠCarl o
Ġs ans
ĠĠĠĠ ĠĠ
Ġcol ored
ĠT ony
id a
me at
ĠE vent
Ġrep aired
nC an
G ot
Ġsw ing
Ġpo ached
ĠS A
art s
Ġind epend
Ġfond ue
ĠDEL ICIOUS
c red
m ate
Ġm ocha
ĠI nt
Ġc ott
Ġn ature
Ġsome place
ĠR d
ĠR ude
ĠChe ap
Ġrefund ed
Ġfal se
Ġm and
Ġj our
Ġfr ites
Ġexc ite
ĠEn ter
ĠLou is
Ġout lets
ĠM el
nO rdered
ĠAt mosphere
ĠCo ast
b ad
or o
Ġch os
Ġdown right
Ġconf usion
Ġdaughter s
Ġsea weed
Ġrad io
ĠM edi
ĠP o
ĠL arge
Ġdel ayed
Ġbar ista
Ġmess ages
Ġcran berry
ri ved
ĠB rew
Ġseem ingly
Ġfil ter
Ġpract ices
Ġrespons ibility
Ġallerg ic
: )
Ġo u
Ġd read
ĠO y
Ġnew ly
let te
t ry
ĠC are
Ġfri day
ĠOr leans
ĠS n
Ġal ter
ĠG ET
ĠEx calibur
Ġexpl ore
Ġr ag
Ġde lect
Ġbr akes
Ġgroc eries
N D
V eg
i kes
l a
Ġg ather
Ġj elly
Ġun even
Ġwr ist
Ġconn ection
Ġadvent ure
om as
Ġso cks
Ġj azz
ĠF ox
Ġbar ber
ye ah
ĠREA L
Ġf itting
ib achi
ĠW icked
Ġbi kes
Ġdelic ate
Ġsir loin
b en
in ter
Ġapp arent
ĠJ UST
nPr ices
Ġais le
M ex
Ġis nt
ĠC anyon
Ġca esar
Ġpro fess
Ġlar gest
l ooking
nd ered
app ointing
ĠTr ader
Ġobl ig
n ever
Ġc av
ke l
Ġge ar
ĠSU PER
ĠPort ions
ĠGeor ge
ar c
ĠF le
Ġhig hest
Ġmag n
Ġeng lish
Ġsof a
ĠFace book
Ġw iped
ĠL ake
um ing
ĠY et
.... .\
ix ed
Ġsqu id
Ġburn ing
Ġfest ival
Ġallerg ies
Ġth read
ad ly
im m
ĠSm ith
Ġmot el
Ġtherap ist
W ARE
Ġab und
Ġpr oof
Ġmart inis
ĠMus ic
ĠF itness
ĠJ ose
Ġt rap
ĠB ill
ĠY ES
Ġpass en
it ect
Ġex otic
ĠM I
Ġus eless
Ġca using
nS orry
ath y
ĠEX T
Ġassoci ates
ĠNood le
Ġec lectic
Ġwond ered
Ġe y
Ġh oll
ĠF ound
ĠF air
Ġqu it
Ġpe ar
nSt aff
Ġden ied
D id
ĠB ACK
qu is
Ġhot dog
Ġhor ser
ĠSole il
e ople
ion ally
ĠH AD
Ġun i
Ġint im
Ġinqu ired
warm a
Ġt arget
ag ine
Ġun if
Ġbit ch
Ġjo king
Ġhar sh
Ġb tw
Ġst ared
ĠBr ing
Ġwed ge
Ġround s
ĠSouth west
Ġsoooo o
ĠDec ent
u an
our bon
av o
ub lic
be e
ĠU r
Ġsn eak
Ġsignific ant
ort ed
Ġsl ammed
less ly
ĠS F
Ġal as
Ġvis ible
ucc ino
ĠTon ight
u rious
ĠI PA
ĠM is
Ġk abob
ican a
Ġextra ord
ux e
Ġlay ers
Ġp iled
Ġchar red
Ġsund ae
S h
a ult
Ġp red
az on
Ġrem aining
Ġorgan ization
Ġcompet itive
n and
ĠS everal
Ġ3 2
Ġbl ind
nS h
Ġdetail ed
m ind
Ġs en
Ġwa re
Ġhorser adish
g ary
Ġin ten
Ġwh im
Ġchill ed
ĠWend y
Ġdecent ly
Ġrel uct
VE N
ĠFriday s
sh ield
Ġoper ation
Ġskimp y
Ġstre ets
Ġl ane
Ġu m
Ġattit udes
S uper
Ġg est
ĠS C
ĠM ine
Ġr ushing
ĠCr ispy
Ġprior ity
Ġinten se
Ġo d
ro bably
ons in
Ġide as
Ġrot ation
ĠAut o
Ġsu c
ens ion
ĠRob ert
Ġsprink led
Ġprop erties
C l
Ġv ary
ca re
Ġcare fully
ĠTH ERE
nD essert
Ġinsp ired
B E
Ġcut ic
LE ASE
ĠBraz ilian
ĠHoot ers
Ġt int
Ġin attentive
Ġsa usages
qu et
Ġbo at
Ġsy mp
Ġcab in
s ch
nT ry
ĠSt ud
ĠMe h
Ġequ al
Ġcolor ful
Ġfoc used
Ġstun ning
av ings
Ġwater melon
Ġhesit ate
g ogi
t ion
w all
Ġsp e
Ġexp ired
Ġfour th
l ower
x im
Ġk ale
isc onsin
ĠFe b
W here
h ouses
Ġh r
ĠS in
Ġtart are
i fferent
s ince
ro it
ĠW RONG
Ġr ac
Ġdes erved
Ġgy ros
umb ers
Ġgig antic
ĠDou ble
or ms
ĠP A
Ġman ger
ach io
ĠP ay
Ġcompl iments
Ġmot or
Ġinstruct ors
me mber
ĠU ntil
yp ical
Ġplan et
ow een
ĠS W
Ġz oo
ĠFil ipino
I s
h our
ĠA lex
ĠP ER
im al
Ġsuper market
Ġpound s
f ty
ĠA h
Ġti le
Ġrespons ible
== ==
ĠM oon
ĠB ottom
... )
Ġcarry ing
Ġw ire
ĠY uck
Ġsl ip
Ġtemp ted
nChe ck
S ome
r ab
ĠD a
nTo day
Ġexec ution
Ġpra wn
? !\
u ri
Ġle arning
Ġbreak s
Ġlefto ver
p oint
Ġat roc
oc ation
Ġwind shield
Ġrecord s
Ġthous ands
Ġseve rely
ĠSoc ial
Ġn om
Ġins pect
Ġdefin ately
Ġgrad u
m or
Ġm ousse
al ked
ri ke
ĠM A
ard ed
The ir
l as
Ġgl ance
Ġpromot ion
Ġesc al
raw berry
st one
ir ls
ĠD en
Ġover done
ĠV el
rop ri
Ġcit rus
H OP
M art
ar re
ĠP izz
ind a
Ġpro ve
Ġtal ent
Ġacc ent
Ġcelebr ation
Ġsuccess ful
Ġmoj ito
Ġl oun
Ġbu bble
ĠSa fe
Ġshell s
Ġcommer cial
Ġc ats
ĠC old
ens es
?? \
plete ly
M aybe
f un
ĠT ort
Ġse w
ĠB obby
ress ive
Ġ20 10
ĠBe autiful
Ġyellow tail
Ġinj ury
ĠG all
Ġpro ps
Ġun insp
Ġtr ucks
Ġfool ed
Ġo re
ĠB akery
Ġpedic ures
Ġben ch
ĠCub an
Ġas leep
ĠB ac
ĠB all
ĠB ian
ĠJ apan
ĠAs ada
Ġinf used
ams ay
EC T
Ġdelect able
Ġas ha
owd ed
ĠP eak
ĠF arm
ĠF amily
ĠZ ERO
Ġmem or
acc io
Ġunhe lpful
Ġfif teen
Ġchos en
Ġre action
ĠP anc
Ġpro xim
Ġarg ued
l ong
Ġp up
Ġd airy
ot es
ess ions
ong r
nS eriously
ign ment
ĠNe ither
ok ay
Ġsudden ly
ĠB oston
il ings
ĠHe y
ĠMargar ita
ĠPa ul
r un
Ġt it
Ġa le
xt ail
Ġcar ried
Ġwater fall
ĠYe ar
Ġwitness ed
Ġsatur day
ĠAF TER
ac ent
ĠWe ek
Ġdes igner
om an
ĠT am
ĠA lf
Ġsub tle
Ġwax ing
Ġcel ery
Ġdecad ent
l ife
ha nt
ce an
Ġlo af
ĠR am
Ġgu ilty
Ġstuff ing
Ġins ist
it i
ĠM ile
ol is
Ġsign age
Ġindic ated
Ġappl ied
ĠNove mber
w a
Ġto st
Ġsal esp
nP lease
Ġkim chi
p ot
Ġneed less
ĠSt ate
Ġconv ince
Ġfreez ing
m ill
s u
Ġcl inic
ĠU nder
nO ver
Ġcream ed
IN T
Ġnon etheless
Ġattemp ts
Ġdough y
Ġhall ways
Ġexception ally
Ġoun ce
t hank
Ġd un
Ġtam ale
ĠCould n
L V
j u
Ġa im
Ġsmell ing
Ġarch itect
* \
~ ~
ĠT R
Ġwait s
Ġle m
ĠBr unch
ĠRoll s
Ġsole ly
Ġcoffe es
? ),
ic han
Ġpl ants
Ġroll er
ĠIn side
Ġblack jack
Ġoccas ional
3 6
C A
j un
Ġb ay
Ġfo am
EL P
nDr inks
c lean
f irst
w ow
Ġf its
Ġg reek
Ġn ative
ĠD rive
ĠQu ality
Ġencour age
m itted
ha ha
ĠH OW
ĠL ooks
Ġbul k
3 9
Ġca pt
Ġgu it
Ġtimes ha
Ġgr ateful
Ġfix ing
Ġstud y
Ġpatient ly
f ull
t ub
Ġexpect ation
ĠSt and
Ġce ilings
Ġcab ana
ĠGl ad
Ġinsane ly
lend ale
Ġb atch
ĠP op
Ġtender loin
Ġpour ing
Ġenc ounter
Ġbrew ery
Ġrose mary
Ġchem ical
N ew
ĠH ope
ol es
Ġac ry
Ġchocol ates
Ġavo ided
Ġsha ped
rill iant
Ġice berg
Ġconf ident
VO ID
Ġexcite ment
Ġasha med
Ġb ik
Ġb istro
Ġre wards
Ġh ust
ow ered
Ġj acuzzi
Ġoff ended
Ġcont ained
ĠSal sa
ĠSha me
Ġinvent ory
8 5
Ġm ent
Ġbe comes
ĠW ife
Ġpurcha ses
nL ove
Ġallow ing
Ġra ise
Ġau f
Ġdanger ous
AR D
s weet
nO f
Ġinst ant
Ġbrow se
ĠT ap
ĠP ool
Ġsun ny
Ġult imately
Ġcurt ains
Ġcalz one
Ġproxim ity
Ġc ities
ĠW isconsin
ĠM ORE
ĠE AT
oc al
ĠSp in
Ġwin ning
anda ise
ĠRib s
ĠNob ody
Ġchal k
Ġe lder
ĠSal on
Ġpho enix
Ġresol ved
Ġrepresent ative
ĠFort unately
m it
Ġm ahi
Ġpro gress
Ġdelicious ness
Ġmar gin
Ġinter action
Ġhun ger
l ow
nP S
Ġmorn ings
Ġforget table
prising ly
a ign
h ome
r um
ri al
st ore
Ġgl or
ouch on
Ġg ay
Ġtech s
Ġstruct ure
b as
Ġre ct
Ġh ockey
ul if
Ġ1 99
Ġfin anc
Ġpic nic
Ġhang out
Ġign oring
U E
e ks
Ġa qu
Ġinstruct ions
Ġb orn
Ġref ried
ĠM ax
ĠF ull
ĠL iterally
ĠR amsay
Ġref e
ĠSte p
Ġthous and
an ged
Ġe ine
ĠP ic
Ġ2 3
ĠY ard
Ġbas ics
Ġparty ing
gust ing
Ġtart ar
Ġlaund ry
m other
ĠI ll
Ġtrip le
Ġspo ken
Ġflag ged
ĠBas il
ett es
Ġhom eless
N E
Ġt ummy
Ġn ugg
Ġal f
Ġvar ied
ĠPl aza
Ġcontemp orary
ĠS um
ĠB TW
ge nd
ĠDep ot
b ie
l ove
he y
Ġw ilted
ick ing
ĠV EG
Ġreturn s
nN ice
ĠDis ney
e mber
ro y
ĠS our
Ġdis like
Ġdi ff
Ġcance led
oz a
ĠWi Fi
N Y
ĠM ango
Ġr ou
ul ation
nI ts
Ġsmall est
Ġatt ack
Ġtend s
Ġconcl usion
Ġcateg ory
m il
Ġd ed
ve gas
Ġtr ays
Ġrec ipes
ĠEx cept
Ġbuild ings
St ayed
e re
ec or
RE E
Ġdispl ayed
Ġskill et
ir s
nA b
Ġremod el
g reens
st r
ĠB un
Ġtoo ls
Ġrid ing
Ġmarket ing
Ġbagu ette
M an
ĠL es
PD ATE
ulif lower
A mer
Ġs not
ĠU P
Ġstick ers
ĠSteak house
p ack
v oid
ĠNot e
gan o
aj a
Ġbother ing
ĠLuck y
Ġelect ric
Ġais les
Ġaggress ive
- \
T ook
Ġse eds
sp icy
Ġaccess ible
Ġsplur ge
p ark
it ors
ĠI HOP
Ġso ber
ĠO ak
app ropri
att a
ĠCal i
ĠCOM P
ĠM ars
ĠC ont
L oved
Ġl amps
us sed
ĠN ap
ĠR A
ru mpt
nP arking
Ġsub ject
Ġlim o
Ġ= )
Ġcap acity
I RE
Ġf ulf
on ut
Ġlunch time
iss erie
Ġexc lus
ump y
nD id
ĠDon uts
Ġtheat ers
j acent
l ists
s mall
Ġc ord
ĠM O
ud ed
Ġeat ers
Ġun organized
Ġpur ple
Ġsto le
Ġbri e
ĠSk ip
interest ed
Ġall ergy
Ġup side
Ġcha i
Ġper cent
ĠMe an
ĠCal amari
UST OM
Ġquestion able
Ġes cape
Ġreport ed
Ġrecogn ize
Ġo atmeal
Ġd udes
Ġl ands
Ġst ain
Ġk ios
Ġbl ows
Ġhealth ier
Ġep ic
WH ERE
Ġconco ction
at ient
ud o
d f
i am
n els
Ġw ound
ĠA cc
ĠH usband
ĠL ater
Ġdedic ated
Ġst iff
ch ie
Ġsp arse
ĠF riend
Ġcr out
umb ing
Ġthank fully
) ;
Ġj us
Ġsu its
loy ees
ĠReg ardless
Ġbe hold
st ill
ĠF YI
Ġpr ic
Ġshow ers
Ġoverl ooked
ĠAdd itionally
Ġabs urd
Ġvirt ually
Ġfl ower
com p
Ġi ve
Ġab er
ĠO H
ĠR a
Ġsign ing
Ġunderstand able
Ġgrab bing
Ġsour dough
OW N
Ġcand le
Ġguarant eed
at hetic
Ġde ce
Ġgre y
Ġoverhe ard
Ġm es
Ġpain ting
sh irt
Ġdisrespect ful
Ġd ull
at ics
ĠT alk
Ġcan s
ra re
Ġcl oth
Ġcrust y
ĠBab y
ĠH ost
Ġcig ar
ri r
ul ated
ĠR ub
Ġsl ab
nG et
Ġactiv ities
Ġwander ing
m ont
Ġentertain ed
ĠWa iter
Ġpromot er
Ġgrac ious
G G
Ġshould ers
ĠC e
ĠĠĠĠ Ġ
ĠDr ink
ĠJer sey
c les
u is
ĠI d
ar ters
Ġsh orter
Ġmar row
Ġcorn ers
Ġpair ing
Ġrough ly
Ġl anes
ĠM as
ĠH IGH
Ġrec ie
mon y
Ġass igned
Ġpos it
ĠEurope an
Ġnavig ate
Ġk inks
ĠR O
oll ar
ell er
Ġbasket ball
ĠLoc ated
V D
Ġf art
ut ions
ĠA hi
Ġjack et
o pped
t wo
hen s
ĠP ure
Ġbo ots
IN K
Ġatroc ious
re te
Ġdr ug
Ġgr ind
Ġperf ormed
ĠDi amond
ĠBian co
2 50
Ġbe g
Ġfun ction
Ġpri m
Ġpec an
t aste
Ġt ent
or se
ĠL uc
Ġcirc us
chat a
rumpt ious
i ots
enc es
Ġsamp ling
Ġcover ing
Ġvehic les
Ġsens itive
d ara
al bi
ri an
Ġthan ked
Ġsk irt
Ġdisc l
unk in
Ġhold s
Ġtax es
Ġer r
Ġdisp ens
Ġsund ay
ĠAlf redo
ĠG lendale
ip ast
Ġad op
Ġad jacent
Ġown s
Ġsepar ately
Ġtele vision
ĠRid iculous
ĠTrop icana
Ġhe nce
Ġgl azed
Ġthought s
AT ION
Ġcomb os
Ġble ed
ĠSch ool
nRe ally
ĠCarol ina
in ner
ĠT ai
al i
Ġthank ful
Ġlead s
B l
g ment
Ġha bit
ri o
ĠS han
ĠC USTOM
ĠO rigin
Ġpast or
ĠMar riott
Ġrandom ly
ĠW A
Ġpret end
nB est
Ġven ues
ĠPH X
Ġstret ch
gher ita
W ith
i ar
Ġn aked
id o
el ine
ĠRoy al
Ġhal ibut
g age
Ġf ails
Ġd ang
ĠT an
ĠC ow
Ġal arm
ĠH um
ĠE nt
ĠE ss
Ġte ars
Ġdep ends
AN K
Ġcompl icated
Ġcompet ent
Ġgroom ing
kn own
Ġb reeze
his tic
ound ed
Ġprom ising
ister s
ond a
isc ount
ĠRo asted
Ġtam ales
ĠGy ro
ĠM S
Ġmist aken
cl aim
Ġapart ments
fo am
ĠA venue
ĠB eware
ĠBe at
Ġdep ressing
Ġbud dies
Ġtub e
Ġnatur ally
ĠHall oween
Ġre ward
et izing
Ġapp alled
Ġwar med
ĠBr own
ĠWith out
ĠEl vis
ĠFR OM
T wo
z o
Ġto e
ĠM od
Ġfill et
ĠCo x
Ġphys ical
Ġtimesha re
o e
ĠA le
un te
ĠH ands
ĠAt t
S A
S O
Ġup sell
Ġco bb
Ġ- --
Ġprep aring
Ġfight ing
Ġbird s
ĠExt remely
ĠCle arly
H ey
ĠN et
Ġsub way
ari um
Ġchat ted
Ġsubst ance
ĠJe ff
Ġintim id
c akes
Ġvar i
Ġrequ ires
Ġmel ts
ĠComp any
nCh icken
Ġlun ches
c use
ha b
ha ve
Ġr ab
ĠF antastic
Ġvegetarian s
ĠTuesday s
ĠAW FUL
Ġmat erial
nLast ly
ĠSept ember
ĠC onsidering
and er
Ġcr umbs
ĠSc all
Ġfil ed
!\"" \
onna ise
ĠLast ly
Ġlux urious
Ġarro gant
b ig
ĠM at
ĠY ellow
Ġ10 1
Ġrem ained
Ġmis le
Ġp iano
ĠT im
ĠH E
Ġchan nel
Ġslow er
Ġconf ront
gr an
ĠSa usage
ĠMart ini
Ġb day
Ġl ined
at hered
ĠC ook
ĠF o
ag ues
ĠG el
Ġbr ag
Ġtrad ition
ser iously
Ġre ll
ĠE R
Ġhor se
Ġcrust ed
ĠBr us
st op
ĠM akes
Ġche st
ĠSp orts
Be ing
Every thing
Ġexerc ise
z ard
Ġr ais
qu ality
Ġste er
Ġgentle men
Ġsignific antly
Ġdissap ointed
Ġdo z
Ġstuff y
A nother
d oor
i ate
j a
ing o
ĠT I
ĠH y
iz on
Ġhand y
ball s
ĠMc C
Ġpriv acy
Ġn ope
ĠC re
ul ty
Ġ$ .
Ġfl an
Ġdeli vers
ĠTo fu
ĠW rong
nA gain
Ġmention ing
Ġmeth od
e ame
ant e
ĠM iss
Ġr ows
OO M
Ġmas ala
char ge
Ġmedic ation
Ġalf redo
t an
Ġb ake
Ġst acked
ĠB ally
ĠN C
ĠD irty
Ġ2 8
Ġper man
Ġtreat ing
Ġread s
iv a
Ġmil itary
Ġimmedi ate
Ġbab ies
ĠSimp le
Ġfle w
b by
Ġb od
Ġsa m
os es
be an
ĠSt op
ĠSe attle
Ġgrand ma
Ġattract ion
c ue
ĠM ass
ĠF IN
ĠSaturday s
N OT
h mall
Ġal beit
mb re
Ġsou ven
Ġincre ase
Ġrelations hip
3 8
W OW
Ġcr ushed
RE M
ST A
IS H
Ġattemp ting
Ġcirc um
OS S
Ġinstall ation
dr ink
b ased
Ġb erry
ĠM er
ĠR i
od d
OU T
ĠUn like
Ġconsist s
ĠRoom s
ĠRep ublic
Ġg um
Ġpe u
Ġpack aged
Ġaut hor
Ġthick er
Ġpu ree
S ince
or age
ĠP L
Ġle aking
Ġcl ar
ĠK ids
ord ing
Ġind ian
Ġsle pt
Ġwont ons
Ġbes ide
D efinitely
V is
p retty
Ġe el
Ġserv iced
Ġ2 7
Ġadd ressed
Ġreg ards
Ġtreat ments
Ġdump ed
Ġte ar
Ġsc rumptious
ĠBe an
?? ?\
Ġrem in
nH onestly
Ġz one
ĠQu ick
nAt mosphere
Ġsou ff
u ous
ent a
ro foam
ĠR ay
by e
amb a
F inally
L ike
f r
n c
o i
Ġa est
as hing
Ġfr uity
ĠN at
Ġeat eries
ĠJ ungle
nN ote
ific ation
din ner
Ġtransfer red
Ġcostum es
Ġber ries
I F
b ab
Ġc her
Ġl atter
Ġst amp
Ġso aking
Ġgl aze
Ġhor rid
ĠWal ked
ival ent
ĠLoc ation
z a
Ġa pr
ir gin
ĠB le
Ġwar mer
ĠAmerican ized
Ġvent ured
ĠOF F
I Z
as co
Ġsp ell
ĠH ills
od ge
pl us
Ġcreat ing
Ġsubst ant
Ġshoot ing
Ġremin isc
A n
Ġf ett
it ude
Ġd ash
Ġin appropri
ull ed
Ġexcess ive
Ġelder ly
T hank
a fe
Ġth irty
Ġ3 00
Ġmo le
nL e
Ġspeak s
Ġutter ly
Ġse hr
be ll
Ġlay ing
Ġunapp etizing
Ġr otten
own ed
Ġstr ang
Ġcompliment ed
ĠYe ars
Ġvide os
Ġaddic ted
Ġbiz arre
Ġl y
ro ve
Ġne on
ĠB ob
qu es
ĠG en
nThe se
ee ee
ĠSe ason
Ġbrew ed
Ġprof it
Ġtodd ler
Ġp il
Ġsp an
Ġfill s
Ġrang ing
Ġcroiss ants
Ġdism iss
B ad
Ġlot ion
ell e
ĠAre a
h t
ut ers
ad d
Ġca jun
Ġcha ndel
nS e
Ġdro ps
Ġoutdoor s
Ġremote ly
ĠPerson ally
r ain
is ch
Ġl b
uit es
Ġdev oured
rim ald
in er
Ġf lex
ac o
Ġy r
ĠG oo
Ġexceed ed
ĠT rip
ĠS OME
Ġlo ads
ĠH oly
br owns
Ġcuc umbers
Ġcheer ful
N OW
ĠA side
est ed
Ġcr avings
nW as
Ġann ual
ĠJohn ny
Ġredee m
Ġod or
I ts
w an
ut ive
Ġfin est
Ġbo ld
ĠPotato es
ĠBan ana
Ġm ap
Ġl ink
an ity
ome gran
ĠC ons
ct or
Ġsepar ated
Ġgarn ish
V S
ĠT asty
ĠB R
ĠB irthday
ĠB ased
ist as
ĠK a
Ġexplain s
enn el
Ġblank et
b les
s k
w estern
Ġye a
the ir
Ġproduct ion
Ġep is
ĠSafe way
Ġguit ar
ĠVEG AS
ing e
est ic
ĠL ot
Ġapp lic
Ġres idents
Ġhost s
ĠUn iversity
Ġapolog izing
i ge
Ġyour s
ĠL ess
Ġbr ake
Ġclean ers
RI CE
Ġpill ow
se qu
Ġfr ames
ĠP enn
Ġsteak houses
Ġce re
Ġcock ro
Ġdeliver ing
Ġbon eless
Ġfort une
Ġspic iness
ĠT asted
Ġpleas ing
light s
3 1
ĠL ONG
to gether
Ġpoint ing
Ġbri de
ĠQu ite
ĠCH E
Ġfashion ed
Ġresol ve
Ġresched ule
y um
Ġh ibachi
ow ers
Ġcan n
iz en
Ġemp an
Ġid iots
Ġdoz ens
Ġre new
Ġth ro
ĠA D
Ġart ific
Ġpost ing
Ġdemand ed
i antly
ĠT oy
ĠR ic
ass y
ĠSh ops
Ġvol unte
Ġpist achio
Ġcapp uccino
ĠB ouchon
ĠH arr
Ġcl ut
Ġest im
Ġfa ith
Ġcigare ttes
Amer ican
Y Y
e ye
oo per
Ġrest urant
Ġeven ings
Ġfree way
Ġenthusi astic
ĠRec ommend
Ġd iced
ĠC ard
nT r
ĠD own
omet own
ee z
Ġrent ing
Ġtouch ing
ĠNach os
aw s
Ġkick er
Ġcompan ions
Y eah
l b
he m
Ġb rilliant
ll ow
Ġwh ip
ĠM IN
ĠH o
Ġbath tub
Ġcelebr ity
Ġstri ke
Ġindepend ent
L ast
g onz
p ic
Ġt act
Ġp owd
st ars
Ġover fl
\"" )
oc onut
ĠAS AP
Ġsop histic
r ice
Ġn ons
Ġme ets
el i
ĠC our
Ġr oo
Ġk atsu
Ġexp ressed
Ġac id
Ġfeel ings
Ġcount less
Ġult imate
C om
ĠT old
Ġexp ense
Ġdis ag
ect ive
Ġext ras
Ġins ulting
nR oom
ĠSm ash
Ġcondition er
nEvery one
On ly
Ġdrizz led
Veg as
p edi
Ġnot ified
Ġqu ir
Ġcirc le
gonz ola
R R
Ġwa ndered
Ġwor ries
Ġde mean
Ġimp atient
Ġsty lists
ĠWal king
ĠDec or
ĠImp erial
l ava
ot al
ĠP E
Ġte e
app ing
Ġspot ty
nP er
Ġhonest y
Ġtrust ed
Ġcatch ing
3 3
in ate
Ġm ud
ĠT ur
ad os
ast ically
ĠV dara
erv ation
Ġju ke
Ġfail ure
Ġpu ppies
ĠEvent ually
L e
ĠA nt
ĠM ast
Ġthere s
Ġno stal
Ġdrink er
ex istent
Ġign or
Ġautom atic
ĠDist rict
p a
Ġst ingy
ĠC af
Ġover night
ĠE D
Ġsha bby
Ġguess ed
Ġcur ly
ĠPl ay
Ġpet ite
ĠEX CE
W ho
Ġup beat
Ġcl oud
ĠAm azon
cr owded
Ġf udge
Ġy uck
un less
Ġar ts
Ġhand ing
Ġrun ner
sh irts
Ġmag ical
Ġobs c
Ġdrag ged
ĠMid dle
Ġteac her
ul ed
Ġcard io
AR N
Ġtap e
Ġtest s
Ġextraord inary
ĠC at
ĠC oll
Ġdifferent ly
Ġstr ing
Ġlow est
Ġware house
L OVE
S eriously
m ers
y ard
Ġsh ipped
Ġtr icks
Ġair y
Ġrefill ing
Ġproceed s
ĠOut back
Ġbachel or
Ġpuff s
y u
al most
Ġmy stery
ĠB a
ĠF RI
\"" ?
Ġaw ard
ĠTr ue
Ġpa ella
Ġmim osa
Ġspir it
Ġeth nic
ĠMet ro
Ġnostal g
Ġt une
ri dge
Ġpri mary
Ġinst ance
Ġchim ichan
Ġholl andaise
ot ally
Ġhe ater
Ġal ive
Ġal ert
Ġr acks
ĠP LEASE
Ġca uliflower
Ġde ar
ste in
ĠPh il
Ġunbeliev ably
Ġoverchar ged
ĠWhe ther
ĠT OO
Ġth ri
ĠH as
ĠE ric
Ġ5 00
Ġpot s
Ġs no
us ive
Ġli es
ĠN ails
ĠF ind
Ġexp osed
!!!! !!!
Ġpass able
Ġexperienc ing
ĠFr ont
Ġble u
nTH E
Ġcrout ons
T A
er ving
ĠY ep
ert z
ĠIM O
Ġa we
Ġha w
ĠA c
Ġli fet
Ġse arched
Ġpast y
Ġfall en
ĠSu gar
Ġtre mend
Ġring ing
Ġindust rial
Ġmir rors
Ġchallen ging
b al
Ġchan nels
ĠDoes n
B y
b ies
c ase
nS al
F antastic
om s
Ġun its
Ġfind s
roll s
uf act
b ucks
Ġbe ets
ĠB arb
ĠC ock
ud s
nC om
ĠTh omas
sh it
ĠKind a
Ġslim y
o ice
ver ted
Ġth irsty
Ġr ant
ĠD C
Ġam use
Ġblack ened
Ġgrand mother
Ġlead ing
Ġoverl ook
believ able
ĠI ced
ĠG rimald
Ġen han
stand ard
Ġoffic ially
Ġcircum st
Ġd il
Ġk its
Ġsh y
ĠG iven
ĠR uss
Ġbr ush
Ġpart ially
Ġome lets
Ġgroom er
Ġmars hmall
Ġf aux
Ġg host
Ġso re
Ġr ye
ĠN utella
ty ard
Ġsha ve
Ġquick er
Ġbreakfast s
ĠRe view
Ġint ent
He re
r ick
Ġp airs
ĠT aste
ĠM or
Ġsh iny
Ġsl am
Ġbus boy
Ġaccord ingly
etiz ers
Ġsnot ty
Ġsp otted
ĠO wner
Ġcr ammed
Ġtv s
Al though
wait ress
Ġme rely
Ġconc rete
ĠAny one
ĠMc D
Ġfry er
Ġweight s
ĠHarr is
Ġ !\
in ness
Ġc ush
Ġm ort
enc hes
Ġ: /
Ġsmell y
IT E
ĠKe vin
Ġsucc ulent
ĠSl ow
wor ks
ack er
if ying
mil k
Ġlifet ime
1 20
c uts
m ble
Ġp oop
en ne
ĠP ick
ĠF ed
Ġqu iche
Ġtrans l
Ġdig ress
Ġembarrass ing
ĠSur prise
Ġt ater
st ruct
Ġsa una
Ġte ach
Ġbefore hand
Ġpop s
Ġlas hes
Ġ:( \
!!!!!!!! !!!!!!!!
ĠB ass
Not hing
Ġmic ro
ĠBet ween
Ġult ra
Ġactiv ity
Ġded uct
he art
ĠSt rawberry
uc ing
Ġrem ains
Ġfab ric
Ġjump ing
Ġmilksha kes
Ġcott on
j i
ly n
Ġst orage
Ġv ra
Ġroom mate
ob o
Ġregister s
ĠWould n
Ġpin ch
Ġcontr ast
ĠRain bow
ĠVel vet
Ġprim arily
Ġw ore
Ġwas her
Ġy o
et ta
Ġpl at
ĠD u
amb oo
Ġvers us
Ġbi ased
ĠAir ways
Ġmaint ain
Ġreminisc ent
k as
ar in
Ġst ools
Ġli ver
Ġk obe
Ġwhat s
gg ie
Ġspl itting
Ġdispl ays
Ġschedul ing
Ġprawn s
S he
p re
w ould
Ġbut cher
Ġdr ool
Ġnew sp
Ġmiss ion
nG ot
Ġmult i
omegran ate
Ġca ve
act us
Ġred uced
Ġrepl acing
Ġequ ivalent
AC T
Ġchunk y
Ġindul ge
Ġtruff les
r ate
Ġt read
at able
Ġy rs
ir ation
Ġsu gary
ĠD unkin
ru g
Ġinconven ient
ĠBri an
ĠSimp ly
t hanks
Ġm ol
Ġnew est
Ġaccom pl
ĠRo berto
Ġsurv ive
Ġposit ives
N ow
c up
Ġa unt
Ġti e
ĠN ic
Ġpr inc
ĠR un
Ġwhere ver
nB oth
Ġele ment
Ġver ify
Ġarg ument
nOk ay
a ited
Ġb in
Ġst ressed
ĠD ry
ĠE in
ĠE ye
ĠWhen ever
Ġste re
Ġdra wn
ĠOver priced
Ġfort un
Ġcub es
O D
Ġc ough
Ġ100 0
Ġlab eled
ONE Y
ĠSec urity
p ing
ĠB ank
ĠWe i
Ġdis gr
Ġpro ved
Ġ2 6
ĠJ enn
AS H
Ġuns ure
M Y
Ġme re
ĠD D
Ġfill ings
Ġgen ius
Ġpain s
Ġdough nuts
ĠExp erience
ĠN on
ĠF urther
ĠWe ird
ĠL ive
Ġcomp uters
Ġhamb urgers
Ġinappropri ate
m ic
ĠS y
Ġsh rugg
Ġwal nut
Ġcal or
ĠEx pect
ĠValent ine
3 4
n Qu
Ġser ies
ĠP ass
ĠF U
ĠK FC
Ġhor ror
ĠGrill e
can o
Ġinfl u
A te
S P
Ġc ider
Ġst air
ĠC VS
ru ary
Ġinqu ire
Ġneglect ed
Ġrell eno
ic ies
ot y
ĠL ady
Ġcar b
Ġcar ries
Ġcount ing
Ġgun s
A G
p ass
r is
Ġd j
ĠG i
Ġsee k
medi um
lo aded
Ġleg al
Ġstrict ly
B ut
p hew
Ġman ufact
ĠDe v
ĠSer ved
Ġheart s
Ġattend ants
Ġdiss atisfied
Ġhist or
ĠCUSTOM ER
er d
ĠI ch
is an
et urn
ĠW ag
ĠH ertz
ort hern
Ġoff ensive
ĠAs h
Ġavoid ing
ĠIm agine
Ġcompens ate
Ġasse mb
H A
Ġt ask
Ġl bs
Ġn ine
ĠT hings
ĠB athroom
ĠD VD
avor ite
Ġar oma
Ġshrimp s
ĠiP ad
Ġnurs es
Ġn ause
ĠC ut
ĠH ospit
ĠF AR
iss ue
umb ling
Ġforget ting
ĠJe an
ĠStud io
ot o
ĠP F
Ġover d
ĠV ict
Ġdisc ussed
Ġcolle agues
Ġesc orted
ĠClass ic
Ġm ug
ĠSer vers
oss ibly
Ġscr amble
Ġn iece
ad ian
ĠC am
ĠD im
Ġconsider ation
rif ied
Ġcrack ers
yy yy
Ġrenov ation
Ġhy g
in n
ĠS AL
ĠW atch
ĠIn s
Ġstick er
ĠAn th
Ġarr anged
Ġbent o
ĠSign ature
ĠMis o
ic ans
ĠS ounds
ĠC D
Ġpre face
Ġsur face
Ġinf ection
cept ion
ĠAir port
c ool
Ġg umbo
le e
Ġcomp on
ap les
Ġac oust
Ġthin ly
Ġdistract ed
ongr ass
Ġartific ial
Ġt ha
ĠW onderful
Ġk orean
ol one
ĠK NOW
Ġmay onnaise
Ġperson nel
nC on
Ġdist rict
Ġspeed y
Ġbul gogi
Ġfu el
did n
Ġepis ode
r ical
v an
Ġw ir
ab ulous
ĠC ash
ĠR ather
ĠR uth
pt own
Ġstr uck
m aid
Ġs izz
Ġmo de
leas ed
Ġspin ning
ĠBY OB
g reen
Ġhe fty
Ġk iss
ous ed
ĠL aw
Ġbill ed
Ġsw all
pect ive
ĠEXT REM
Ġpric ier
l unch
Ġp ou
Ġp itch
nD uring
Ġfres hest
etiz er
Ġvom it
Ġshrugg ed
ing ton
Ġst ream
Ġhe ight
ĠO m
Ġar tic
Ġbig gie
Ġpick s
nC ame
Ġur ban
quis ite
y nam
Ġl oo
ant i
Ġco ated
ĠV alet
Ġri m
if er
Ġpay ed
Ġspeak ers
Ġexhib its
ĠBel g
Ġne phew
Ġmo chi
ĠWal greens
Ġcand les
Ġfrequent ed
Ġoper ated
ĠWor ks
Ġfortun ate
5 9
t ain
er as
ĠW ar
ĠM ight
Ġfe ast
nH aving
Ġart work
chan al
Ġvent il
Ġarrange ment
c us
k ets
im bur
ĠY ELP
Ġpol icies
Ġsw iss
ĠTHE M
Ġhyp ed
reg ular
Ġbrows ing
Ġaccompany ing
Ġthro at
e ep
le ment
Ġh iring
ĠH olid
ĠY ay
Ġph illy
nH ighly
ĠWas n
Ġcow boy
Ġbase ment
Ġsouth west
ĠBart ender
! .
i op
at osphere
hat tan
Ġexp er
Ġshe er
Ġafter ward
nW ait
not ch
Ġchew ing
vis it
ĠEn ough
val u
E M
Ġ .....
ad ia
Ġfr ag
Ġwalk way
Ġur ge
Ġdisp os
g ate
y a
Ġb enches
Ġinte gr
Ġspeak er
Ġbox ed
Ġmot iv
ĠDan ny
Ġa pt
or i
Ġg imm
ad ies
ĠA p
ty pe
Ġpe pp
Ġvis ual
ĠUS A
Ġvoice mail
Ġincorrect ly
Ġcarp accio
Ġjer ky
Ġnugg ets
f ormed
Ġb ol
Ġst inks
ĠS anta
Ġso rely
Ġco b
Ġdown fall
are st
Ġhair s
Ġcount ed
ĠWith in
ĠGu inness
ard ens
Ġsha king
Ġut il
mel ier
Ġgrap e
Ġrud eness
H ands
Ġout f
Ġcomp aring
Ġpart ial
Ġdep th
Ġcontact s
ĠYog urt
ĠPeak s
O INT
Ġre med
Ġup town
ck ing
ass uming
Ġbus ier
Ġpay s
Ġcond itions
ĠFl or
Ġconsum ed
Ġelectron ic
B S
t est
ĠP res
!! )
Ġsl ider
ĠJ es
oooo oooo
nR ec
Ġsitu ated
Ġsav ings
ilt more
nSt ill
Ġdesper ately
Ġinvest ig
ĠJu icy
Ġseve re
every thing
Ġori ented
b ird
Ġh ush
ĠM ONEY
ĠNO W
ĠQ ues
Ġpo pping
AS S
ĠInd ia
ĠNob u
Ġuninsp ired
r ays
t aking
ĠS angria
Ġco ating
ĠR ick
ĠSt one
TH E
Ġbottom less
Ġanticip ated
Ġgest ure
. ).
G R
m ake
o kes
Ġti pping
we ar
ĠRe uben
ĠGr as
ĠGo ing
Ġbegin s
Ġodd ly
Ġbri oche
ĠWH Y
% .
E n
ĠO me
Ġca ffe
ĠCh op
ĠU h
ĠTHE N
Ġcreat ivity
Ġdelight ed
ĠMic hel
Ġquesad illas
Ġlaw s
Ġcompens ation
Ġpers pective
Ġcutic les
ll ing
ĠT art
Ġre imbur
Ġti k
ost er
Ġsc oops
Ġsandw hich
Ġclub bing
Ġfo is
Ġtre asure
Ġcomfort ably
Ġland ed
ĠPap a
Ġsuc ceed
s uper
Ġu don
Ġun cle
Ġgu ards
Ġbl amed
Ġvis ion
ens ed
bur g
Ġfire place
ĠT ender
Ġdr am
ble m
ĠRo ast
ĠBE WARE
Ġdesign s
Ġsport ing
d ry
ha lf
Ġfl ood
Ġloc ate
Ġhor rific
ord ered
Ġwhe els
nBe ing
erest ing
Ġflo at
A re
S te
v a
Ġpl ug
ĠL at
Ġcr u
Ġdi re
Ġcomm it
ĠST ARS
Ġcrack er
Ġrelie f
Ġtrave led
ĠFeb ruary
rir acha
H aving
r ispy
is ions
ac amole
id ently
all ing
Ġout s
ĠB usiness
ĠC ro
Ġsc attered
Ġflavor ing
Ġmat ched
Ġborder line
ĠMS G
6 00
Ġl ec
ĠW ANT
Ġal ike
il ia
Ġsu is
Ġback s
ĠD R
ĠG abi
Ġdi ab
ren ces
Ġpol enta
Ġnet work
ĠBeat les
Ġdisag ree
y n
Ġs ons
Ġre ly
Ġcha os
be ef
Ġfac ed
Ġtrain er
Ġsmooth ly
Ġill eg
Ġs ung
er al
Ġpro port
ra pped
Ġpe el
Ġsl ush
Ġ4 8
ĠSt ick
Ġim age
Ġob ject
Ġnach o
ĠCO LD
Ġrust ic
ĠW ood
ĠB oo
Ġwa ist
Ġpro b
Ġve ter
Ġred uction
Ġview ing
Ġaccommod ated
Ġcap rese
Ġmed s
Ġcommunic ate
B B
n p
Ġf ax
ĠS uites
res p
and oor
ĠE mer
Ġcomp elled
ment ioned
ĠHe aven
Ġimp l
ĠThat s
ord s
Ġdev ice
Ġstre ng
Ġphys ically
Ġclim bing
h ob
ĠN ugg
Ġco ord
Ġcr own
pr int
Ġhum id
Ġsour ce
nU pdate
Ġcompet e
Ġgall o
ĠSw iss
Ġdeterm ined
en a
Ġg ag
et c
ast s
ab e
ĠC LE
Ġch ur
ĠHe ad
ĠK ung
ĠU lt
OO R
Ġsuff er
Ġmedic ine
Ġpen ne
ĠGrimald i
ak ers
Ġsu fficient
Ġbar istas
Ġbl at
Ġhung over
Ġuns atisfied
ĠApple bee
Ġweekday s
Ġnovel ty
ĠEXTREM ELY
d led
Ġw tf
ar got
Ġin nov
ĠP ut
ĠF est
ĠD M
eri enced
ĠY elper
we ek
xt ures
ĠBe ans
olog ist
Ġant ipast
h ips
l asses
or ail
Ġfriend liness
Ġac qu
Ġho ly
Ġrecogn ized
stick ers
Ġsalesp erson
Ġarchitect ure
F ECT
b ro
Ġo we
is ty
Ġg an
Ġg ang
os is
ĠL isa
Ġte pp
ne ed
ĠU PS
Ġrequest ing
F ORE
P lease
ĠT ire
Ġch ipped
ig er
Ġcha p
ĠK now
ino a
Ġsn ag
Ġcrab s
ĠBr ook
Ġindoor s
C OM
P robably
ha ble
as ing
Ġro ach
ĠD ont
Ġfl uke
nP lus
Ġcond iment
Ġchild hood
ĠCom pletely
Ġform al
OS ED
ĠRam sey
M ENT
s ite
Ġ ic
Ġw o
Ġthe r
is er
ĠT eriyaki
Ġso lo
ĠF ORE
ĠO J
ĠR iver
Ġsm ack
ĠAl bert
Ġtal ks
Ġhu h
no isse
ĠFor um
ane er
Ġtou ches
Ġscen ery
Over priced
Ġfriendl ier
0 5
k ind
t ip
ĠI l
Ġgo al
ict ion
Ġdump ling
Ġkick ing
fl ower
ĠUN LV
Ġassort ed
Ġj umbo
Ġch illy
Ġfl akes
Ġcur ries
Ġsn ap
Ġsn obby
ĠUn ited
Ġneg atives
ĠPe i
ĠTry st
Ġhash browns
ĠGet ting
Ġmacar ons
ĠDin er
ĠChamp aign
Ġjour ney
sch ool
Ġmisle ading
w ent
at os
Ġn ational
Ġre n
Ġlo an
ĠF L
Ġtast ier
Ġad ore
pr ice
Ġstar bucks
edi a
RE D
ĠTHE IR
Ġloyal ty
ĠSpin ach
Ġsophistic ated
Ġm ath
Ġwh ites
ĠO P
ĠR yan
Ġconf it
Ġseason ings
nL ong
Ġtext ing
roll ed
ĠWH O
Ġmoder ately
ĠTru ly
m and
r ot
Ġd ug
Ġfl or
ĠJ am
nA dd
Ġgr umpy
ĠU ptown
Ġhand ic
ĠFor get
ĠSu ite
ĠCount ry
3 7
Ġf ait
Ġover head
Ġgr anted
Ġreal izing
- )
S c
ie ux
Ġco verage
nB ecause
ĠTh ought
ĠBE FORE
Ġintrod uce
Ġtan ning
Ġrain bow
ĠMean while
W ould
e h
ĠS ing
ĠA ss
ĠM ur
ĠC amp
ud ging
Ġhot ter
Ġemp has
Ġlab el
Ġdraw back
AP P
Ġteen agers
b acks
t ake
as is
Ġha ts
Ġhe ap
Ġpl umbing
ĠN ick
ĠF u
Ġpr on
im b
Ġpre c
ĠJ alap
Ġmeet ings
ĠFl at
Ġsurround ings
Ġdream s
Ġsen ior
f illed
Ġg ates
uc son
Ġsty lish
ĠChan g
Ġcere mony
P E
c ould
e a
l ol
Ġa ka
Ġo xtail
an other
ĠT ha
Ġre ve
Ġu ber
Ġsa ut
ĠB at
ĠV is
Ġsal ami
the less
imp ly
Ġinst it
Ġcal iber
ĠMar io
ĠTra vel
Ġregist ration
it ters
Ġm ount
al og
ĠW olf
ĠP ig
Ġcomp assion
ens ions
mon th
Ġred o
Ġclear ance
Ġperform ing
Ġant i
8 00
Ġs igh
Ġto y
ĠI ron
Ġp oo
ĠT en
ur b
ĠC ave
ĠF ore
Ġwal nuts
Ġenjoy s
ĠFr ance
cas ino
Ġoccur red
Ġb ourbon
ĠM ignon
ĠH D
ct ions
ig ent
ra ut
um es
Ġside walk
ĠBl and
Ġprofessional s
Ġtext ures
Ġcomfort ing
Ġpatron ize
Ġmagaz ine
Ġtit le
Ġu gh
ge on
Ġmon key
Ġtort a
ĠCra zy
ĠVer izon
nAb out
n is
Ġf oul
as es
es que
Ġam ate
Ġconf idence
Ġcrit ical
Ġappropri ately
Ġvend or
Ġrud est
B ig
P er
Ġt aught
Ġin ner
Ġhome y
Ġacrob atics
ĠPizz eria
ĠGel ato
ĠFORE VER
r ano
an ic
ar th
ft op
be er
anc ing
Ġhor chata
Ġass ure
cc er
ON T
ĠMonday s
Ġeng aging
ĠSpr outs
Ġcharac ters
st rom
Ġli f
ĠD ef
Ġcon noisse
nA n
nS te
Ġsho pped
aut hentic
ĠCon c
Ġdest roy
Ġcross ed
ĠVan illa
c ont
Ġt z
ĠE th
ĠHe alth
Ġcounter s
ĠAt l
ĠLe ft
Ġsister s
ĠANY THING
Ġtur f
b id
Ġf ant
pp e
ĠM ahi
nD espite
ĠDr agon
Ġbri d
ĠFA IL
Ġtrop ical
4 8
T hanks
m id
Ġp ale
ĠS im
ĠH ELL
ĠVeg gie
Ġsty rofoam
Ġfore ign
Ġ200 9
Ġeast ern
Ġcam eras
Ġfres her
Ġarrange ments
Ġs inks
Ġp od
Ġl one
Ġcl o
um in
og o
Ġdisc our
Ġmix ing
Ġgy ms
Ġnic kel
ID E
rem arkable
Ġgall on
Ġflu id
Ġpeace ful
Ġout fit
Ġfr aud
ĠL ooked
Ġdiscuss ion
Ġnut rit
Ġpra ise
Ġspark ling
Ġkios k
ĠOrigin al
w at
Ġb ow
ĠW estern
ĠN ord
and w
Ġdec line
Ġbeat en
Ġupd ating
ĠPan era
F rom
Ġw estern
an ny
Ġare na
ĠH onda
nT ip
Ġbus ser
Ġdelicious ly
Ġfix e
Ġconc ent
Ġint rig
Ġval u
Ġgy oza
Ġmeant ime
Ġinterrupt ed
Ġl id
Ġst ove
op en
ĠJ ess
Ġsec ure
Ġste pping
Ġauthentic ity
Ġbump ed
ucc ine
atz iki
Ġaqu arium
c adia
Ġs ang
ll ed
ĠW in
ĠC u
Ġ( \""
ĠH ATE
Ġfl owing
ĠJ acks
Ġgr ist
ret entious
Ġmechan ics
Ġpitc hers
Ġwire less
Ġpowd ered
A wful
n so
Ġf anc
an ut
ĠA wful
Ġexp ans
os ure
ĠR IGHT
app er
Ġcar bs
Ġsc ent
ĠTH REE
Ġz ip
Ġdent e
ĠCra ig
Ġpock ets
Ġalmond s
asm ine
n ese
Ġa chie
ant y
Ġne arest
ĠH oust
Ġcom for
iz er
ĠE M
Ġind ifferent
Ġtechn ology
ĠRob in
ĠPart y
T r
Ġs arc
Ġst orm
ce ived
ĠD iscount
ĠL ife
Ġcra ps
** \
nBe fore
ĠWA IT
7 9
F riendly
h igh
en ch
on ce
ĠC P
ĠF in
ian ces
Ġcle aring
ath on
Ġste el
ĠST AR
Ġoutf its
A r
ri day
Ġh ub
Ġso ccer
\"" !
ĠL eg
ĠL EA
Ġdel uxe
ob s
Ġgl itter
Ġ9 5
over ing
Ġquir ky
Ġtik ka
andoor i
O verall
v o
Ġs ac
ĠM ix
ĠM useum
ĠHe llo
nS ave
Ġcost ume
H O
Ġt in
Ġfor ms
ate ment
ĠD ip
ap ia
omet imes
Ġgl owing
ĠAm i
Ġirrit ating
ĠSUCK S
ĠNugg et
y l
Ġt at
Ġt id
ĠB iltmore
Ġmo on
ĠRe member
Ġdep end
Ġver de
Ġeffect s
Ġstreng th
u i
ct ic
ĠD ollar
Ġoff ices
Ġter race
Ġhat es
Ġteac hers
Y um
g ang
s m
Ġg ast
Ġha zel
ĠM iche
ĠH O
os c
wh ite
ĠBr and
ĠMac ar
uke e
Ġdust y
Ġta qu
4 2
? )\
ĠD ue
Ġact ive
Ġres orts
Ġgl am
Ġdish onest
Ġcool est
gr av
Ġgross ed
Ġplant ains
Ġunif orm
Ġdemean or
l ot
Ġex isted
th ora
Ġgreat er
uck ily
ĠNE ED
ĠSu pp
ald s
Ġagree ment
ĠDog s
Ġacry lic
ĠHIGH LY
Ġapplic ation
s erve
Ġa fore
he ll
Ġl iter
ter ing
Ġex quisite
Ġout ta
ĠC ry
ĠH aven
Ġro cked
Ġcomp s
owd y
LL ENT
olog nese
with out
Ġprot ect
ĠOff ice
Ġphotograp her
a ust
d elicious
r av
Ġc ass
Ġat op
ĠL iber
oor s
ĠSp ice
Ġmet ro
Ġconnect ing
Ġsca re
Ġrev ol
ĠHolid ay
f ries
Ġl att
Ġha un
ĠT or
ĠB aked
ĠE r
Ġfro st
Ġbrown ies
Ġbak lava
Ġspo ons
ĠJu ice
Ġaest hetic
ĠAnth ony
Ġre ass
Ġv ap
Ġrest rict
Ġdr um
Ġdisappoint s
ĠSt rike
........ ........
ĠSandw iches
Ġrenov ations
Ġsweat y
Ġfi xtures
ĠGoo gle
Ġsno oty
Ġm aze
Ġwas hes
al ways
ĠF red
ĠR oss
nF ast
Ġdet er
ĠNE W
ĠSun set
eps i
ĠEmp loyees
Ġple thora
Ġstrang ers
Ġc atered
Ġqu arters
ig hed
Ġtr out
Ġsl ap
Ġcar bon
ĠAn imal
vis ions
Ġrest o
Ġag grav
be aring
ĠAl as
nP l
Ġele ments
min ute
100 0
Ġinsult ed
ĠTre asure
a ire
Ġw re
ĠB aja
ick et
ĠE le
ĠR el
Ġtaste ful
Ġrel ish
Ġclass ics
Ġdisc onn
Ġavail ability
OR T
ĠWal k
ĠMir acle
Ġrefe rence
k now
ĠT ucson
ĠW arm
Ġj apanese
res ort
Ġless ons
EA L
ĠTa vern
ĠPER FECT
P ho
y ram
Ġs ich
as c
ut ton
Ġan cho
ĠA my
Ġk udos
ĠP ac
ĠL OU
Ġres cue
ire ct
Ġbas kets
Ġrem ar
ĠBB B
Ġcurt ain
C T
Ġs ipping
Ġb om
Ġre e
ad itional
ĠH mmm
Ġgr ay
Ġwed ges
Ġlas er
ĠSee med
Ġmild ly
******** ********
ĠSil ver
ĠBrit ish
ĠOak land
S ee
Ġt issue
Ġs essions
Ġy ol
ĠS E
ĠPl ate
gr ade
cl osed
Ġtour nam
aa a
eat re
Ġfaj ita
hot el
Ġmand atory
I m
Ġb ound
Ġp ole
Ġmusic al
Ġdecor ation
sp ect
EN CE
ĠCharl ie
Ġvers ions
Ġur ine
Ġur gent
Ġm c
ĠT G
ĠA z
se a
ĠK udos
Ġcont est
Ġcond o
Ġtun es
Ġsumm ary
Ġbleed ing
Ġroo ftop
P izza
h rs
Ġm ur
ot i
Ġex ists
ĠC OME
il st
am azing
orm al
ĠBl anc
Ġsle e
elie ve
Ġ:- (
was her
ĠFun ny
Ġp ages
Ġok ra
Ġpost ers
ĠCan ada
Ġnotice able
Ġmax im
ĠFo ie
Ġvra iment
Ġan xious
ter y
Ġun be
Ġun remarkable
Ġlong est
Ġsk ins
Ġcost ing
atin um
ĠFIN ALLY
Ġcalor ie
i h
re asy
Ġh ier
ĠA VOID
Ġal together
Ġcom me
ĠF amous
Ġsee king
Ġbread sticks
Ġpack s
Ġem ot
Ġdescri ptions
ĠCar amel
Ġimag ined
Ġjud ging
Ġprof ile
Ġdiscuss ing
Ġtattoo s
Ġspir its
Ġabund ance
ĠBac chanal
Ġsubstant ial
C al
F L
p iece
us ually
ĠW ant
ĠM ama
ne xt
Ġuse ful
aw esome
nP ro
cl ass
Ġaff ect
Ġrespect ful
Ġrespons ive
Ġhur ting
bag s
ĠWaff le
Ġmob ile
Ġexha usted
ĠCe as
l ook
Ġh ue
ĠV ol
ĠSt arted
Ġaccommod ations
Ġkill ing
Ġincre ased
Ġ !!!!
ĠP R
ĠG rey
Ġsho ved
ON D
ĠDis gusting
ĠHa ha
4 4
Ġv ict
Ġafter taste
Ġtri via
Ġspl ash
Ġtap s
ky o
Ġchimichan ga
i ab
re r
Ġfor ks
Ġse ed
ĠB ru
ĠD I
ĠD EF
Ġworth while
Ġpar f
oooo o
Ġsun set
nthe y
Ġtag s
Ġindividual s
Ġoverp owered
ĠRec ently
Ġafore mentioned
ĠC herry
ĠH eck
ĠE VEN
Ġrem ake
Ġbri des
Ġindic ation
AST IC
ĠPet er
Ġfriendl iest
Ġthri ft
ĠRuss ian
ĠT ons
Ġst aples
Ġab and
iz able
Ġbr at
Ġpar adise
Ġpat tern
ash i
Ġexc l
Ġsmo kers
amp i
Ġtrash y
Ġhar ass
UL OUS
Ġstrugg ling
Ġhust le
st rip
ĠP ros
Ġdis e
Ġprod uced
ĠBr other
ĠCount y
Ġfart her
ĠNet work
ĠEth iop
B r
Ġg arl
ĠS ar
Ġsh ove
Ġmedi a
Ġblue berries
Ġcig ars
Ġcircumst ances
ĠDM V
C L
v i
as se
Ġl enses
ĠA J
ĠP epsi
Ġcon vey
ile ts
Ġbur ro
Ġbro ad
Ġsound ing
che ap
Ġfil ing
Ġround ed
uss i
ĠFro zen
ĠRi beye
Ġjuke box
? \"".
p aper
est on
Ġqu ail
any aki
Ġsmo ker
Ġmas k
Ġban h
alay a
Ġhi king
nit zel
ĠHost ess
i ppers
ĠM int
Ġdec isions
ĠK at
Ġrem arkable
Ġim itation
Ġmall s
Ġtub s
Ġcat ers
ĠĠĠĠĠĠĠĠĠĠĠĠĠĠĠĠ ĠĠĠĠĠĠĠĠĠĠĠĠĠĠĠĠ
rep ared
Ġtrail er
Ġdistur bing
Ġtost ada
Ġw ishing
ri pt
me x
Ġch it
ĠN or
Ġca ution
ĠK elly
Ġspot less
ĠTh ird
Ġprov olone
sh ow
alet te
Ġho pping
Ġinconven i
Ġstress ful
ĠTomato es
Ġcri me
ĠStep han
Ġintrig ued
C D
V OR
ĠH en
ĠG or
Ġdec ade
ĠVeg an
Ġsit es
Ġla wn
Ġdef iantly
Ġrom aine
Ġbump ing
Ġhur ts
To day
uv ian
mor ial
c ook
at en
ĠS her
Ġch ut
Ġ2 9
Ġvisit or
Ġatt ire
Ġsur ly
Ġcons ume
Ġforg ive
ĠCom ing
Ġtechn ique
Ġ200 8
Ġchop sticks
Ġbull shit
Ġrob bed
iven ess
Ġremo ving
! ).\
Ġg ummy
us hes
ĠS aw
Ġu mbre
Ġv ague
Ġtoo l
Ġcon verted
ĠV iew
Ġtr icky
Ġru ining
nNot hing
ĠLoc al
Ġoun ces
ĠHospit al
Ġconnoisse ur
c alled
f amily
re f
ĠB ook
eri als
Ġste aming
Ġfig uring
Ġcomm ission
Ġfa ire
Ġbubb les
worth y
p ay
r ics
in ity
Ġm isters
Ġl ard
Ġse es
ĠB J
ĠF i
ĠR ef
Ġret rie
Ġcour tyard
hol es
Ġtechnician s
v est
v os
Ġs ind
Ġp orter
ĠB M
Ġback yard
Ġcustom ize
Ġsw anky
Ġstraw s
ĠWas hing
Ġcompet itors
Ġawkward ly
Ġencour aged
Ġwrist band
yram id
E ven
l ished
Ġre verse
ice lli
ec ent
Ġfri lls
ag u
Ġweek night
mm mmm
Ġsn apped
20 14
ĠWaff les
Ġventil ation
c ol
ent er
act or
OP LE
Ġeffect ive
Ġmoder ate
n k
s ushi
Ġa us
ĠD ark
Ġdr ama
unch y
nA side
iss a
itc hes
Ġresult ed
Ġcolle ague
Ġcap ers
Ġpu zz
rend ip
bet ter
Ġconsum er
ĠMedi um
Ġey el
r ary
Ġm ut
ĠW ind
ĠB US
Ġch uck
ĠE ll
Ġhid ing
Ġknock ing
Ġdisappe ar
Ġpassion ate
Ġaspect s
Ġdoc ument
ĠHoust on
ĠLOU D
a uc
b es
v ice
Ġc ops
Ġst ro
Ġover bearing
gg in
Ġdefin ition
Ġcraw l
Ġsom melier
Ġnewsp aper
m ust
Ġwe igh
st it
Ġsh ine
th ought
Ġfl air
Ġpe eling
Ġsc he
ob l
Ġtra ils
ĠMan hattan
Ġunimp ressive
ĠTru mp
G et
f bl
w atch
Ġb aking
ro zen
Ġnot icing
ĠW et
ĠC C
ĠD amn
Ġsm ashed
are n
Ġtr am
Ġcas hew
Ġbag gage
Ġthin ner
ĠTr uffle
Ġrub bed
Ġf ur
ĠC reme
Ġup front
ĠF ountain
Ġsl apped
ĠJ osh
ĠK ong
ott i
room s
Ġbel oved
Ġintern ational
Un fortunately
ĠLI KE
8 8
L ocated
r ise
Ġin ex
ĠM otel
am ent
Ġjust ice
ĠH and
Ġcom a
ĠP aid
Ġcr is
Ġpub s
Ġver m
Ġassoci ated
Ġgall ery
ĠMargar itas
Ġclim b
nEn joy
Mex ican
P oor
n my
Ġp ond
Ġpol ished
ĠAr cadia
rr rr
Ch icken
Ġcritic ism
W N
Ġa ux
Ġw ha
is ure
Ġth ier
Ġmon ster
Ġdress ings
come nd
Ġoper ate
Ġinexp erienced
Ġcraw ling
sal ad
Ġblank ets
Ġcann oli
Ġb ord
es h
ir able
Ġli ar
Ġord eal
Ġch ir
ĠR on
cha ir
Ġwarm ly
Ġopin ions
ugg ed
Ġcap able
Ġhom es
ĠSL OW
Ġcobb ler
c ons
Ġb ib
Ġb amboo
ha w
Ġr az
ĠP ollo
Ġcha se
Ġsc ience
Ġsc ript
Ġswe ating
Ġcons cious
Ġhum ble
ĠCar ib
Ġexper iment
s ize
Ġp omegranate
le ttes
Ġth umb
Ġde mon
Ġbl ocked
Ġdri p
Ġequ ipped
how ever
Ġtest ing
Ġplatter s
Ġfu rious
S e
f ire
z ech
Ġp sy
Ġu h
ab ilia
Ġsp as
Ġdi vers
ĠK en
Ġhigh way
ĠUn believable
Ġmas se
Ġpet it
ĠDec ided
Ġess ential
Ġexpand ed
Ġped est
H oly
ar ry
Ġre nd
Ġpl ague
ĠE s
Ġbl aring
nS ee
ĠBe ar
Ġcand ied
ANT ASTIC
Ġunhe althy
Ġmagaz ines
Ġremo val
: (
z ing
Ġex istent
ĠSc r
Ġtow ers
Ġeng aged
Ġvoucher s
ĠCol or
Ġnons ense
Ġsung lasses
T O
ĠI P
ĠW ing
ĠA AA
be que
ĠDe al
sh ould
ĠCom m
Ġaccount s
Ġperform ances
fl oor
Ġant ib
Ġcancell ation
ĠToy ota
ĠPE OPLE
Ġc ore
Ġg ro
us y
ĠM ort
ĠB ou
Ġr anc
Ġr aves
est aurant
ĠV odka
ĠCh uck
Ġplay ground
Ġacc ustom
nC ome
Ġhip sters
Ġwow ed
Ġpaint ings
Ġsuff ered
Ġbod ies
ĠRic hard
Ġsizz ling
wat ukee
$ .
w he
er ks
Ġb ait
Ġsp am
Ġlo go
Ġsur vey
Ġsad d
lo om
Ġairport s
Ġtrans mission
Ġfol k
Ġreceipt s
Ġbenef its
nTh ird
ĠScall ops
H onestly
on ight
Ġl inks
Ġpe eps
Ġfill er
Ġpack ets
Ġmom s
Ġcal ifornia
ĠCan adian
ĠSm oke
Be autiful
Ġdig ging
Ġrefer ring
Ġobs erved
ĠWashing ton
o ha
x y
Ġs ard
ĠM t
ĠH op
ĠG iant
fin ed
unk en
Ġtemp ting
Ġtrain ers
ĠMe morial
Ġmemor abilia
ĠEXCE LLENT
ĠFU LL
d is
Ġh ometown
ĠM eg
ĠC ross
Ġro yal
ĠD os
Ġfl ush
Ġman ners
ĠR ich
Ġsc al
Ġrep res
Ġrot ating
Ġoffic ial
ĠScott ish
ĠMAN Y
nPer haps
ĠNord strom
Ġn it
le ast
ĠT ab
ĠT ip
ay o
ĠW all
Ġcan cer
Ġdish washer
Ġhesit ation
A CH
w ash
Ġp ollo
Ġd ing
ĠL ib
per fect
ĠAnd y
orn ing
Ġmain s
sa fe
Ġce real
Ġannoy ance
Ġneighbor ing
Ġcontact ing
Ġgenerous ly
Ġmat erials
Ġmacar oons
Ġaddic ting
Ġlent il
w y
Ġto ffee
ed ay
ot hing
Ġin ha
ĠT our
ĠT ell
Ġh ubs
Ġr owdy
op ened
ĠE t
Ġ5 5
Ġrec comend
ĠMont a
Ġdef ensive
Ġprem ises
Ġlatt es
A GE
F un
l iterally
w art
st als
Ġsu ms
Ġqu inoa
Ġbr ace
Ġvac c
Ġten ants
Ġ; )\
ĠSecond ly
ĠCra ft
Ġdom estic
Ġcomplement ary
Ġprofess ionally
Ġp ong
ĠT us
ĠC AR
ĠC oconut
th rough
nT oo
ag le
ĠE dd
Ġdec ades
Ġroom y
Ġhot test
Ġac he
Ġsince re
OO O
LE T
Ġho ag
ĠDis appointed
Ġteen age
ĠOR DER
Ġdevelop ed
Ġmagn ific
Ġreluct antly
Vis ited
in cess
Ġco in
ĠE m
Ġri pe
ud y
Ġext ensions
Ġmon orail
Ġsign al
Ġmouth s
Ġsle ek
ĠCom bo
ĠSha dy
obe llo
Ġbump er
AST E
Ġstrugg le
Ġcav iar
Ġpassen gers
Ġcaffe ine
P T
Y elp
h oo
ĠA R
ĠB AR
am m
Ġup coming
ĠE N
ĠR om
Ġsha d
nO K
Ġsweet er
Ġrem ark
Ġcreat ions
ĠRestaurant s
Ġfeat uring
Ġunre asonable
p arent
Ġg ain
Ġn ite
Ġpl ush
Ġj aw
ain ted
ĠF elt
ig an
Ġcha otic
nW here
Ġsc or
uc es
cl ock
Ġham achi
Ġfinanc ial
Ġn est
Ġme llow
ag i
Ġde pt
Ġun cooked
Ġter min
bur gers
Ġtemp s
ĠBr isket
Ġinstruct ed
Ġelect rical
Ġsusp icious
Ġsouff le
C o
e u
Ġen er
ber y
Ġvis ually
Ġimp erson
IR ST
Ġappl iances
Ġbreath taking
kas an
d ar
ar io
ĠT imes
ĠS en
Ġout ing
Ġch icks
iz a
Ġapp ointed
Ġpart ake
Ġmar ble
Ġque ue
Ġfiance e
ĠPerfect ly
Ġeduc ated
Ġempan adas
Ġinnov ative
ĠBrook lyn
ĠLiber ty
b urn
l ots
Ġt aro
ĠC esar
Ġun assuming
Ġpar ks
Ġimpress ions
co ld
Ġ15 0
ĠSp ot
Ġbirthday s
Ġcond uct
ĠEn chil
Ġclaim ing
hens ive
ĠAsh ley
as ically
Ġsh r
Ġlo cks
ĠL ine
Ġdr ugs
Ġtechn ically
Ġprint s
Ġstri kes
Ġskew er
Ġtele visions
ĠStr atosphere
Ġfarm ers
onz u
Ġalter ations
Ġilleg al
6 9
H appy
I ENCE
Ġb attle
ĠT odd
ĠD as
Ġno ch
Ġcar ving
Ġold s
ĠTH ANK
Ġpack ing
ump tion
Ġcarn iv
Ġignor ant
ĠWag yu
Ġintegr ity
Ġf oll
Ġl ick
ay lor
ĠB ed
ĠB oba
pr ised
Ġhair cuts
Ġpol it
Ġbri dge
IT Y
Ġhon ored
ĠPanc akes
U pdate
Ġt ails
Ġd ips
st ate
Ġcan al
ĠF E
ĠD ri
Ġcl ip
ĠR ad
nA void
nS adly
AT ED
ĠTo kyo
Ġnone x
ĠIs n
nSt ay
Ġfeed ing
Ġyum m
Ġaltern atives
hob ic
ĠEthiop ian
Ġener getic
U RE
ĠB ang
ĠH ak
Ġle isure
ĠG ar
ĠY up
lect ion
Ġste aling
Ġcent re
che f
Ġdanc ed
ĠMost ly
Ġang el
Ġunderst atement
Ġinteract ive
ĠSmo ked
rendip ity
Ġm ont
Ġal ignment
Ġle gend
Ġen for
Ġindivid ually
Ġobs essed
Ġdrown ed
rav ag
8 9
Y UM
Ġmind ed
ĠJust in
min utes
Ġflav ours
Ġesc argot
Ġpee ve
Ġmargin al
W onderful
Y E
v ies
Ġo wed
or an
Ġl ining
Ġin n
ĠT J
ast a
Ġj et
nO ut
Ġthought ful
Ġcur b
Ġmess ing
Ġbrus sel
Ġdraft s
Ġdeterm ine
Ġgran ola
Ġrac ist
Ġunbe ar
p lease
Ġb ot
Ġb irth
Ġan x
ink les
ct ional
Ġover crowded
ĠG otta
Ġsl iding
ef ruit
ĠAl ong
Ġclose ly
wor king
Ġaccustom ed
A pp
C ool
p ensive
as hes
Ġto ilets
Ġth ie
ir it
ĠS it
ĠP AR
Ġcle ver
Ġrep s
Ġbo ards
IN IT
Ġair lines
Ġboyfriend s
what ever
Ġge ms
ĠYog a
Ġperman ent
F E
L a
l ocal
n this
y r
Ġb aff
art ing
nI s
ond e
Ġprom ises
ĠSome how
Ġpour s
I X
R ec
Ġn ib
ĠS age
ĠM ist
ip er
nA mbiance
Ġsha des
ign ets
ĠQ U
Ġtow ed
ĠAny thing
iff y
Ġadjust ed
Ġfif th
Ġgather ing
Ġdun no
Ġantib iot
d om
x x
Ġli ps
ĠD OWN
Ġpot stickers
Ġmind s
Ġest ate
Ġpain fully
IS S
IE W
Ġthreat ened
Ġcockro ach
P l
c uter
Ġa ussi
un ities
Ġsh ook
os ity
ĠD et
ĠG ave
itt o
ĠR achel
oc r
Ġel bow
ier a
ertain ly
Ġcent ury
Ġpizz eria
ĠUS E
Ġelectron ics
bac ore
ĠLot us
Ġs ust
Ġbe nd
ood le
Ġlo in
Ġbar bers
Ġinto x
!!!! !\
AT ER
Ġcontin ually
Ġdim ly
Ġbra ve
Ġcert ified
Ġdrag on
Ġpap ers
Ġfold ed
ĠRid ge
________ ________
ĠJenn ifer
D AY
M ost
re nder
Ġp ate
Ġp ars
Ġp unk
Ġn utella
Ġse aled
Ġsp ite
ĠG inger
ra ised
Ġfo il
sh rimp
ĠEng land
Ġpair ings
ĠFire fly
ĠOre gano
ĠFriend s
INIT ELY
: )\
P lace
t es
ha l
at ches
Ġin k
Ġpl ated
ĠS aid
ĠA mbiance
Ġcom ic
nt o
ĠO s
ig on
Ġsl ipped
amb alaya
Ġsing er
Ġwax ed
Ġbreat hing
ĠMi ami
u gh
Ġg als
ĠS ir
Ġout er
ĠC art
Ġsu ited
Ġcon ge
ol er
ott le
ĠAs ia
Ġstr ings
Ġlim its
oooo oo
ĠAM C
ĠCas a
ĠAv ocado
ĠPB R
Ġoverfl owing
Ġmanufact ure
aust rop
S mall
f ix
v ie
Ġf t
Ġf ence
an i
Ġha zard
Ġre lease
ĠB ody
ĠB isc
Ġal a
art ender
Ġdec ides
eg g
Ġbl iss
ĠJ r
Ġsc ottsdale
ĠIn cred
Ġmod est
Ġmel ting
Ġupgr ades
ĠWest in
Ġbelong ings
uz u
Ġaccomod ating
cuter ie
b uds
c ard
g rilled
p her
w ine
Ġhe m
ĠB and
Ġco co
Ġri g
nY eah
Ġprescri ptions
Ch inese
HH HH
Ġvib rant
ĠGR OSS
ĠFlor ida
i w
Ġd ill
ir loom
ĠH ong
ĠF oot
av ail
Ġro aches
Ġbr ushed
ĠJ on
Ġmus cles
Ġturn over
Ġz omb
ĠCharl eston
Ġproced ures
z zy
ĠW TH
Ġfood ies
ul u
Ġ1 10
Ġpe a
Ġte x
Ġass hole
nH ave
Ġfro yo
ĠCo pper
Ġdiffic ulty
Ġpal ace
Ġoper ating
Ġimm ac
Ġexagger ating
as ily
ve get
ĠM ich
Ġgo ss
Ġfr at
act ually
Ġsc otch
Ġcare less
nC ustomer
nL ocation
ĠBell y
ĠBE T
iest a
Ġsuff ering
Ġbutt ons
Ġmal t
Ġenthusi asm
Ġspe ech
U sed
n but
Ġp alette
ic ion
Ġsa u
ĠB ull
art ment
ĠF ANTASTIC
ĠD AY
ĠL in
.... .....
medi ately
Ġrelax ation
ĠOther s
ĠDis appointing
Ġremain der
7 7
T V
e kend
s ers
v als
Ġc ure
Ġcom ed
Ġch ore
Ġle ague
Ġsc ones
ĠK eller
Ġkid d
MM MM
Ġtransport ation
E X
f oot
Ġre ject
ro ck
op a
ĠP AY
os ing
ag g
Ġfl ops
ĠE aster
Ġ3 6
erv ations
ER T
Ġsat ay
the w
ah n
nY our
Ġtour isty
Ġpad s
Ġtor te
ĠTW ICE
Ġscen es
Ġtrim med
Dec ent
L o
ĠS ep
ack ing
Ġexp ed
ĠPar m
Ġimag in
unt il
Ġgrat in
Ġresemb led
m ans
z er
Ġb ac
ust in
Ġab rupt
ound ing
und own
Ġprov ider
Ġoil s
Ġstrong er
ĠMont r
ĠPri m
dr inks
Ġtoler able
Ġstall s
Ġdece iving
Ġbrid al
ĠJacks on
h ia
i ors
s ec
ĠW ash
pl iment
Ġbutter nut
Ġint end
Ġsort a
sc ar
ĠDan iel
Ġartich okes
Ġrab bit
h in
y c
he a
re ne
ĠT ech
Ġre aching
ill ion
ĠM ini
Ġold est
Ġton k
Ġsyste ms
Ġdanc er
ĠSha ke
Ġbreat he
Ġev ident
Ġdemand ing
ĠFRE SH
Ġspic ier
Ġdrizz le
ĠMod ern
us er
al ous
ĠO WN
ĠJ ama
Ġext ravag
Ġhand made
nB ad
Ġlist ing
Ġconc ession
ĠExp ensive
Ġdispens er
Ġflex ible
a iting
p izza
Ġo cean
Ġf ist
Ġg ee
\"" ....
ĠThere fore
Ġdesign ated
ĠTemp ura
ĠAd am
Ġconsult ation
Ġaddict ive
ĠPin ot
ĠVeget arian
Ġnonex istent
P ros
U B
f ine
h um
n b
Ġthe ory
ab a
Ġspecial ist
Ġcra z
Ġhell a
ĠDo ctor
Ġmark ets
US E
Dec ided
Ġexha ust
Ġsouven ir
+ .
. (
f at
s ur
ĠT RY
ĠH or
Ġco aster
Ġav id
nB esides
Ġsk illed
iny l
Ġchill i
iab atta
u ously
v ention
in ating
Ġsa mm
Ġgood bye
ĠO wn
Ġcl austrop
Ġbar rier
Ġsurpr ises
bo ards
Ġsent ence
Ġev il
ĠEnd ed
S al
Ġs ne
Ġwere nt
Ġwh ilst
Ġse per
ĠB uc
and ed
ind er
ĠG PS
com m
Ġgre ets
Ġlarge ly
ĠRe ad
Ġinte ll
ĠMe ad
Ġdepart ure
Ġmanic ures
cap ing
Ġpassen ger
ĠFurther more
ĠMichel in
Ġhazel nut
ĠT ri
ĠT ables
Ġy ork
Ġat h
Ġr ank
Ġsp ecially
Ġde le
ĠAnd re
nH appy
Ġbelie ved
nM an
Ġsatisf actory
light ly
Ġmatch ing
ĠPub lic
ĠAh watukee
T oo
ĠS us
Ġas h
ĠB UR
ĠO dd
Ġbr un
Ġdi es
Ġpot entially
Ġfloor ing
Ġred one
Ġrel ig
AR GE
Ġdisp ute
onven ient
Ġrad i
ĠMo j
ĠMay o
Ġspoon ful
ĠDON T
Ġpap aya
Ġpec ans
ĠTap as
Ġrecie ved
Ġerr ands
Ġly chee
I AN
er ver
Ġyou re
ĠC ute
Ġhost ing
Ġreme mbers
Ġportion ed
oss om
Ġimport ed
Ġcap ital
ĠMill er
Ġdistract ing
Ġlin ens
Ġglor ious
E xt
f ed
g led
p ork
at ures
Ġj ale
ĠB omb
han a
Ġche ated
Ġkn ee
ach o
Ġ8 5
Ġprep aid
Ġexpl os
Ġacoust ics
COM M
Ġfoll ows
0 9
it ially
ĠW onder
Ġlo x
Ġqu otes
Ġcont ains
gr aded
Ġhold er
Ġimprove ments
Ġpin ball
Ġconcert s
Ġjudge ment
ĠBoy s
Ġunf air
ĠMiche lle
obl ano
O THER
f b
m iss
w ord
he ast
Ġc ork
Ġn u
Ġn ation
ĠP RICE
ight s
Ġpe op
Ġbl inds
Ġsl op
Ġwal mart
Ġbutter milk
Ġquiet er
Ġupd ates
ĠDJ s
Ġho ot
Ġbust ling
ĠInt eresting
ĠEss en
Ġamate ur
g irl
i pper
p hant
Ġc irque
Ġl oop
al ia
ĠP ao
ĠL and
Ġbl ess
Ġpay ments
fe rences
Ġste ady
Ġloud er
arb or
Ġcreat ion
Ġheat ers
Ġrip off
Ġswitch ing
ĠCap riott
ipp s
Ġling uine
Ġpron oun
S aturday
Ġw ins
Ġb id
ar ms
Ġst er
ch t
Ġv it
Ġco ats
ĠG irls
Ġbo om
Ġbelie f
Ġappro ved
for get
Ġsil ence
Ġefficient ly
don alds
Ġcraft ed
ĠSon ic
Ġtoler ate
ĠBET TER
h yp
Ġf ennel
Ġy elper
ĠH ab
ĠN V
ĠD iet
ĠL i
Ġpre cious
ative ly
nU PDATE
ĠGu acamole
ĠSalad s
Ġpal m
iff any
Ġgal ore
Ġpint s
Ġchemical s
Ġhaw ai
Ġsarc astic
S uch
me red
ĠW oo
ĠW OULD
Ġfri ggin
Ġam using
Ġby e
Ġcl erks
ond on
ĠJ oy
uff et
yp ically
Ġsto ked
nM ake
cri pt
ĠAmer icans
ser ver
Ġmountain s
Ġinvent ive
G UST
n et
ou ble
ic ilian
Ġe cho
ĠC obb
ĠD rop
Ġte ens
oth s
Ġenjoy ment
ne ll
Ġsub sequ
Ġscream ed
mmmm mmmm
Ġshock ing
ĠCant ina
Ġtz atziki
ĠDEF INITELY
Ġm ats
Ġp onzu
Ġy ay
ĠS AME
ĠS iam
Ġj ars
Ġr undown
ĠH ark
ink le
ĠP T
ĠE arth
Ġgr itty
Ġstr anger
...... \
Ġsafe ly
Ġremod eling
ĠSur prisingly
Ġleng thy
Ġexist ence
Ġident ical
ask an
ĠDen ver
ĠAcc ording
ĠNat han
ĠSeason s
Ġtremend ous
Ġvalu able
Ġmagnific ent
F ound
on c
ĠT so
ri min
Ġhe l
Ġti mer
ĠH un
ĠP ec
Ġdis reg
ĠD er
ĠL ets
im a
ĠJ ew
nB ack
Ġfact s
ia o
Ġval ues
ĠLa ure
ĠTai wan
ĠCour t
Ġcomfor ter
d i
r ange
Ġth rill
st ream
Ġche at
Ġro de
ĠR av
Ġun known
Ġsm ash
Ġgr owl
ĠSt ates
Ġlet ters
ang es
ĠChe ers
Ġsuggest ing
Ġunw illing
ĠUr ban
f ather
l en
l arge
ly ing
Ġj un
Ġv on
Ġact ors
nB TW
Ġdry ing
Ġcal c
ĠMar ia
Ġfly er
ĠSec ret
ĠMass age
U gh
Ġe ve
ur cha
Ġback wards
Ġqu el
oy u
ĠJ erry
Ġgl utton
Ġstand out
co ffee
Ġstr ingy
Ġslight est
nR eg
ug u
Ġeff orts
ĠQu ad
ĠJohn s
Ġein en
Ġeduc ation
Ġexclus ive
Ġyol k
Ġtournam ent
B ar
b ooked
t ails
re ts
Ġg ou
et ic
ĠS ol
ĠS topped
op ract
ĠP u
be es
ĠTh rough
Ġappreci ation
ĠFl ay
Ġrepe ating
Ġassist ed
Ġtherap y
Ġdiagn osed
Ġconfront ed
Ġranc id
S unday
on ge
ĠThe ater
ĠW ON
pp in
ĠB ould
Ġfr action
il arly
ĠH mm
ĠH arbor
ĠG U
Ġcar mel
Ġel abor
nD ecor
Ġsuit able
Ġsom eday
D A
m t
Ġm op
is k
Ġbe gging
ĠW his
Ġover load
Ġimp act
nL ocated
Ġheart beat
Ġtrans ition
Ġgrap es
Ġstink y
S low
c raft
Ġo oz
ill er
ĠG irl
ĠR um
Ġsha warma
nB l
ĠUn ion
sh ip
rif ty
St aff
Ġexpl oring
ĠIN S
ĠOut side
Ġaud acity
Ġcous ins
resent ation
Ġtan ks
acc ia
Ġexist ing
ĠPost ino
ĠTrip le
Ġpeop les
4 7
e aling
t asting
Ġp ant
Ġmy ster
ĠW ont
ĠM s
ĠM ai
ĠB achi
qu er
ĠR ew
act ions
Ġper ks
ĠHe art
nS ure
Ġperson s
pe ople
Ġsitu ations
aa ay
ĠEX PER
Ġrain y
Ġimm ense
Ġsan it
ĠMas ala
ĠStephan ie
M edi
er ole
is ha
Ġme ga
ĠS erv
ĠS ashimi
ĠB ummer
ĠF re
ĠWe re
Ġgl ue
30 6
Ġce as
Ġscr atched
ĠMac y
ĠPol ish
Ġmunch ies
ĠHOW EVER
ĠBrother s
COMM END
l ime
v ol
Ġv oid
Ġro pe
Ġag ents
ĠJ en
Ġgre edy
Ġhost ed
arr hea
ĠDO ES
ĠSpr ings
ĠWa iting
Ġestim ated
ĠMIN UT
; \
at ric
oo s
Ġsp anish
Ġkn ees
Ġclean est
nD O
Ġcoll ar
Ġpan el
ĠPer uvian
ĠWednesday s
ĠPat rick
Ġcontemp l
ĠSmo oth
anche ros
A ny
d el
o vers
ut ch
ĠP ump
Ġdis interested
Ġunder ground
Ġ6 5
nB et
ĠSp eaking
Ġfair ness
OM B
Ġge ared
Ġfurn ishing
Ġteen y
ĠMil k
Ġgrist le
Ġverm icelli
G r
w r
ir o
ĠC ars
ĠC hed
ĠF IRST
Ġfl own
ĠU sed
20 13
Ġpepper corn
Ġabs or
OL UT
ĠSar ah
u ini
Ġf er
Ġp amp
at oni
Ġfr itters
Ġext ract
ĠShe a
Ġdri ves
ru ly
Ġsho pper
Ġacc used
mm ing
Ġdisc rimin
nL ots
Ġcab s
erk raut
Ġpure ly
Ġstun ned
ARN ING
l ad
ou ched
Ġp ir
ĠT aylor
ĠW aste
Ġro ots
ĠL y
um m
ont in
most ly
nB asically
Ġsw ord
Ġtub es
Ġdiagn osis
Ġdrown ing
Ġgarl icky
R OS
a verage
h s
r ained
Ġm ugs
or ous
Ġl ect
ĠT ast
Ġy ards
Ġst reak
Ġst ench
Ġun in
Ġsince rely
Ġeas iest
Ġfa uc
Ġgrand e
Ġstomach s
Ġjud gment
ĠEX P
ĠMarket place
ĠSER IOUS
Ġlean ing
Ġflaw less
Ġinstit ution
Ġdise ase
ĠCarib bean
W ill
] \
b its
f ruit
as so
Ġat m
Ġi p
ĠC ast
Ġget away
Ġwa gy
ĠP ers
ĠO UR
Ġam aze
ĠL atin
ĠL OOK
ĠL ondon
ĠG erm
Ġcomp re
be fore
nS ide
VER Y
ĠSc ot
Ġpost s
ĠYes terday
Ġrefer ral
Ġjam med
Ġgoo gle
ĠFest ival
Ġwagy u
F l
I ST
t or
t han
Ġti ed
ĠB elieve
ous h
Ġdis li
Ġro le
Ġno ises
ĠR OOM
Ġcomp rom
Ġ4 00
Ġtemp orary
Ġcreat es
ĠSha ck
ĠEVERY ONE
ĠCirc le
ĠBelg ian
Ġchut ney
C lean
s n
w ire
Ġd up
et tle
ĠM AC
il and
ĠE NT
Ġbus iest
Ġlist s
ĠEvery time
ĠZ ero
Ġer rors
ĠSam my
Ġrang es
Ġcommer ci
ĠWolf gang
Ġw ann
Ġc attle
Ġth igh
Ġti les
ĠF UN
Ġbu nd
Ġbu eno
Ġve ts
Ġ8 00
ump s
OU GH
ĠUn cle
ĠAN OTHER
Ġimag ination
Ġtravel ers
Ġrot isserie
Ġfight s
Ġfem ales
water ing
Ġom g
ĠHum mus
ĠJes us
T T
Y ummy
Ġd ick
Ġl ava
Ġre visit
ĠL abor
Ġfl ir
Ġhand les
Ġmus cle
pl an
Ġwra pper
Ġblock ing
ĠCH EA
ĠEX ACT
ĠDessert s
Ġfett uccine
f ers
m ates
Ġn ick
ar ies
ay er
ch in
Ġdo orm
ĠK ab
Ġmix es
Ġlay ered
Ġtoilet ries
Ġmoj itos
ĠHOUR S
put ting
Ġlem ongrass
! ?!
H ORRIBLE
c ourse
j e
p ha
s ame
Ġp aneer
Ġd ice
Ġst ones
ent e
ĠH ol
Ġca ge
ĠL ist
ĠL ime
ĠG ame
Ġsal v
Ġmar gherita
Ġmar athon
Ġdist ribut
ĠZ um
ĠWho ever
Ġgroom ed
Ġw ig
Ġo w
Ġf aves
Ġe valu
id den
Ġli v
Ġ( ?)
ĠP O
Ġv ietnamese
be ing
Ġsc ampi
sa uce
OO L
Ġposs ibility
nE nt
ĠSe ars
Ġtest ed
As ian
law s
ĠPort ion
Ġadvertise ment
Ġkabob s
F I
h ire
at re
Ġha vent
qu ite
ĠN ational
ĠP ACK
ĠF rit
ook ie
Ġfew er
Ġlast s
Ġtaste buds
Ġpur ses
ĠSp aghetti
Ġint oler
Ġremind er
Ġbell agio
Ġdough nut
Ġbon ne
Ġbrother s
ĠEnter prise
Ġswall ow
b el
m oon
Ġt ar
Ġg oof
Ġl inger
al cohol
est s
Ġsp ill
Ġaw es
IN ESS
amp les
ĠMe in
Ġpress ured
Ġautom ated
APP OINT
ĠJess ica
ĠEdd ie
) -
w in
Ġw icked
ke red
ĠM rs
Ġad jo
Ġmanag es
Ġstar ch
Ġpack et
Ġslow est
ĠJo es
Ġsol ve
Ġru ins
ĠLet tuce
ĠExt ra
Ġcos met
pliment ary
ĠHark ins
c ustomer
l ounge
Ġst umble
Ġk it
ca use
Ġag ency
Ġgu id
Ġbar beque
Ġbur sting
ĠCh ick
Ġcour ts
nF OOD
enc ies
Ġpool side
dd le
Ġcele b
Ġenc ore
Ġrad ish
Ġsett ings
ĠCL OSED
Ġadmitted ly
Ġbubb ly
ĠStand ard
ĠEXPER IENCE
Z A
c u
g ance
Ġre in
Ġhe ating
ĠM ot
ĠP om
Ġv inyl
ĠE L
ĠY E
Ġad s
Ġbus es
Ġworth less
br unch
ĠSte el
ĠJo el
Ġur gency
Ġ~ $
Ġannoun ce
ĠMat thew
Ġcompon ents
p ret
ch ocolate
est ring
il is
am in
Ġlo ll
ĠP RO
Ġco inc
Ġcl uster
ud ding
Ġdes cent
not e
nP eople
ĠCha se
Ġdescri bing
ĠAny how
St ill
ĠSl iders
Ġbutt ered
Ġhur ried
Ġident ify
Ġescal ator
F resh
he llo
Ġs riracha
Ġf asc
Ġp ans
Ġp yramid
Ġd rap
ur p
est y
ĠO B
ĠG ri
ĠY ikes
Ġbur st
Ġstr ay
Ġpain less
Ġshut t
ĠTO T
Ġver b
ron om
Ġdraw er
iff el
Ġacknowledge ment
ĠBM W
avail able
V IEW
r an
ĠM aster
ĠB one
Ġwa ved
ĠD am
Ġcon es
Ġke bab
ild ren
atur al
ĠChe l
Ġsw ap
LE S
Ġinv is
Ġdark er
Ġcomb ine
Ġadm in
ĠPe anut
Ġsod ium
Ġstri pper
ĠEmer il
Ġraz or
d ress
p rofessional
r ally
Ġw iping
Ġs is
Ġb ast
Ġd ur
Ġg au
Ġhe ctic
ĠF ather
ĠD E
uch on
Ġun real
Ġnight life
ĠJ ones
ft en
Ġsc ored
ER VICE
Ġrun ners
arl s
mb ience
Ġprom o
Ġinter view
Ġsy mpt
de finitely
It alian
Ġmag ically
Ġtechn iques
Ġdev our
Ġdig ital
ĠSee ing
Ġbust le
Ġshout ing
lev ard
ĠOy sters
Ġreluct ant
Ġloun ges
Ġrestrict ions
p op
Ġp ipe
on ic
Ġha gg
ĠT SA
ĠT iffany
Ġat least
Ġgo sh
Ġun att
Ġswe ep
leas ure
?? ???
Ġass ess
Ġincl ined
Ġmar vel
unk y
12 5
ĠSe rendipity
sc reen
Ġtil apia
interest ing
ĠOre o
nApp arently
b orn
b led
Ġpl ugs
ĠS OOOO
ĠB LA
ĠD ining
ĠR iv
oc ados
ĠCh ow
ĠAnd rew
Ġbo iling
nB UT
ern et
ES E
ĠGrand e
Ġinfl ated
Ġcostum er
Ġfund s
Ġclaustrop hobic
3 50
7 00
C C
U U
n if
ha ul
Ġm ing
ĠA verage
ĠE SP
ste re
ib o
nB ig
Ġplan es
Ġalong side
Ġcu is
ĠTr aining
Ġvac ant
St ay
ĠTry ing
Ġpriv ile
Ġaud io
Ġsens es
Ġblast ing
Ġabs ent
Ġsprink le
fc ber
part y
Ġintimid ating
M ar
Ġp om
Ġp ine
Ġd ab
Ġd ai
Ġfor bid
ur st
ĠP ineapple
Ġca ps
ĠD ump
if ies
Ġstaff ing
Ġcount s
ĠSa igon
ĠPet e
Ġgrap efruit
Ġmotor cy
ĠCu isine
W OR
k u
Ġl am
Ġl ung
Ġn a
ish ment
Ġper k
Ġact ions
ĠAl oha
nC lean
ĠSp irit
nL ooking
Ġestab lished
Ġquiet ly
ĠPh x
ext ra
Ġmechan ical
) ..
E h
Ġo asis
ur o
ĠW ERE
Ġr ug
ain er
ĠN FL
ĠP ulled
ĠF ord
nI m
Ġdi arrhea
Ġinf amous
nC ONS
Ġbed ding
Ġtrou bles
ĠMand arin
ĠMo zzarella
ĠAng us
ĠHA PP
Ġteac hing
Ġsan itary
Ġstrugg led
H ello
W ay
s ho
ĠS kin
Ġse am
am iliar
ĠP eriod
av ored
ĠD ick
ĠD ish
ĠL obby
Ġwho pping
ass i
Ġ5 1
Ġcontin uing
Ġinform ing
Ġten nis
OT T
omen ess
Ġscream s
c ous
m outh
as ian
ll ll
ĠS app
Ġse al
ra ps
ason ably
ĠU FC
co al
Ġmiss es
ĠSp end
ĠRE COMMEND
Ġpred ict
ĠPL US
Ġbom bs
J o
O H
y et
Ġh ut
ĠC akes
ĠF ield
ĠL AS
ĠL adies
Ġ3 1
Ġsl ides
Ġent re
Ġhard ware
IN Y
Ġpo ppers
EN S
ĠYe a
Ġfrequent ing
chan ge
Ġobs ervation
ĠDad dy
Ġhistor ic
ĠMacar oni
e et
ĠB rought
ul pt
Ġqu art
Ġdr unks
Ġcr ash
Ġsk ipping
sh op
nR eturn
rib ute
Ġsoooo oo
Ġvacuum ed
ĠEin stein
Ġstere ot
Ġremed y
Ġcass erole
Ġsche me
! ...
: :
e ge
o ir
Ġsh uffle
ĠH ue
ĠF all
Ġv ic
ĠO ri
Ġfl ank
Ġkn ives
Ġun ap
com fort
ĠJ un
Ġgl ory
Ġchar ity
Ġtables p
Ġsho ppers
Ġspr ayed
Ġhope ful
ĠBr ad
Ġbal d
Ġjo e
Ġupset ting
Ġvol cano
ĠComp ared
Ġincompet ence
A B
W alked
b acon
b aked
e arly
n ormal
p ick
an itary
Ġh ose
Ġk ann
Ġk albi
Ġv illage
Ġspecial ties
the se
Ġless er
Ġbuzz ed
Ġresol ution
fr ican
C alled
N ote
r ance
w ar
Ġo le
ĠT ypical
Ġh oo
Ġor gas
Ġfl ipped
Ġsub t
Ġstud ying
Ġpan ang
Ġwat ches
Ġcand ies
Ġregret ted
Ġsau erkraut
c all
g reg
m uch
Ġis ol
ur rent
Ġli ber
ĠH uh
ĠL ind
Ġpe eled
nG u
Ġchat ty
Ġrespect able
Ġannoun ced
ĠSmash burger
Ġvict im
l ie
Ġd ynam
Ġab sol
ink y
ĠO cean
ĠY UCK
Ġdel ays
aw are
ili ated
Ġtech no
Ġsol ved
Ġwra pping
Ġdef ense
ĠThursday s
ĠLoc o
ĠChan gs
Ġpharm ac
Ġcru ise
C ustomer
c at
h ora
k k
Ġm ast
Ġbe ignets
ĠS ake
Ġtr acks
ĠJ ay
Ġchar cuterie
nB r
Ġsk ate
Ġsuggest s
Ġcompet itor
ĠEgg plant
Ġboo bs
yy y
ĠCap ital
Ġcollect ions
Ġdestroy ed
Ġelabor ate
ĠChed dar
Ġloll ip
U P
s ection
om ato
ĠS ix
ĠB ros
ĠF er
Ġext end
Ġsweet heart
ĠBe yond
ww ww
Ġaff air
Ġkick s
Ġadjust ment
Ġgradu ation
ĠCLE AN
Ġbrides maid
GUST ING
C ar
i ency
Ġm gr
ow ell
ĠH air
Ġco z
ra zy
we ight
Ġdet ect
Ġface book
ĠPal m
Ġattract ions
Ġev idence
Ġsubstit uted
ĠSL S
ĠAB S
ĠDev il
Ġreimbur se
ĠHak kasan
hyp ed
ĠRew ards
I LE
n one
or ney
ĠT ree
et ly
ĠC oup
un ts
ĠH isp
ĠN orthern
ĠF ig
ert os
Ġres id
nF riendly
cha in
Ġart isan
ĠCap rese
Ġreput able
somet imes
Ġbou che
ĠBag el
I I
u pp
us as
ĠA te
Ġwa ren
ĠO p
ĠV eal
Ġtr unk
ĠJ erk
Ġfree ze
Ġsoup y
Ġsupp er
ung ry
ĠSer rano
Ġcomm itted
ĠPe oria
Ġodd s
Ġ200 7
bl ack
Ġjer ks
Ġbrief ly
Ġt res
Ġc ried
Ġha nk
st uffed
Ġsp illing
ick ets
Ġexp iration
ine ma
Ġcl owns
Ġsc oot
Ġmanag ing
Ġbreak down
Ġcont ents
Ġav ocados
Ġste ering
Ġmod els
Ġcab anas
Ġscr atches
Ġpump s
Ġden y
Ġphys ician
ĠTw ice
Ġunapp ealing
Ġunbear able
! \"".
? !!
G ER
i ac
k ip
Ġc ured
Ġp all
Ġe tern
ĠA frican
ĠB ec
ĠC ooked
Ġv in
Ġdis ap
ĠD ill
Ġoff ense
Ġcr anky
Ġref resh
Ġgi bt
ier ra
Ġer a
ĠBri e
Ġdiagn ost
Ġcaf es
Ġine pt
ĠOy ster
ĠMINUT ES
A W
b one
Ġc iabatta
Ġl av
ĠB i
Ġal s
\"" ).
Ġpro pri
Ġsm og
ĠK ey
ĠYou ng
Ġcream s
Ġbuy er
Ġbag ged
Ġsalt iness
Ġlay over
Ġdanc es
ĠTom my
Ġmir acle
do es
ĠTha iland
T ry
Ġb ene
Ġf aint
Ġg n
Ġsa ge
ĠC it
Ġab ys
Ġco ach
ĠJ et
Ġsc one
Ġent it
ell ing
Ġcontin uously
head s
ĠCl ose
Ġbak eries
nTh ough
Ġlaug hable
mar ked
Ġexagger ation
==== ====
Ġmasse use
1 30
p as
Ġs hat
Ġor anges
ĠL ost
ĠV ig
ist ant
Ġunt ouched
Ġrel atives
ĠYork er
fl avor
Ġcam per
Ġunlike ly
ĠYUM MY
Ġanticip ation
Ġaccomod ate
ĠSM ALL
Ġexpans ive
ĠPrim anti
ĠPACK ED
b ows
Ġt ant
Ġw er
Ġs hank
Ġp es
Ġp ao
hat e
est ion
ĠP as
ig ence
Ġun safe
Ġcar afe
Ġsc ulpt
od dy
nL uckily
Ġadv anced
ĠLO C
Ġbother s
ĠPro blem
Ġopport unities
unic ation
Ġcomplement ed
ĠMedi ocre
Ġlem ons
cus able
ĠJalap eno
zech uan
F ast
c hen
g ling
l bs
s ons
w ind
Ġl ac
Ġout come
ĠB al
qu il
Ġch imi
nT ake
Ġpr ison
ĠG ate
Ġpack aging
Ġair pl
nD inner
ĠGood will
Ġmis under
arr an
ph ones
Ġspo il
eng u
Ġult ras
ĠMary land
Ġvend ing
Ġhotdog s
Ġchandel iers
Ġpedest rian
Ġhank ering
i ppy
l ast
o a
Ġm mm
ĠB ot
Ġsu itc
Ġv or
Ġtast ings
Ġegg rolls
Ġgen re
Ġsty led
ĠRe ve
ĠSe ating
ĠCr ust
min us
Ġjo hn
Ġmat ches
Ġdeb ating
Ġcord ial
Ġchandel ier
Ġprec ise
K ING
S ushi
l it
s igh
Ġp itas
Ġd rew
Ġg ardens
ad elp
ĠW rap
ĠL ame
Ġcomp ares
Ġreg ion
Ġmight y
Ġpost er
Ġsauc y
ĠNY E
Ġprint ing
ĠWOR TH
ĠGy m
ĠBart enders
ĠDIS APPOINT
Ġmarshmall ow
f bt
h ours
m l
m ain
Ġm ound
Ġp ul
Ġp orn
Ġh overing
ĠF ail
ĠL ola
ong s
Ġun iversity
Ġsl athered
ĠK ore
Ġsha bu
Ġpar lor
ots u
ĠGO D
ĠSH E
AST Y
wor ld
mind ed
Ġsew er
ĠEM P
Ġimmac ulate
c ation
r ous
t urn
Ġs ed
Ġs ips
it age
Ġti med
Ġal b
Ġk al
ĠP uck
ĠD ur
ĠR IP
nW ho
Ġcont ribut
ult iple
Ġsub ur
Ġcoll ard
Ġrent als
ĠPe ach
Ġmel on
Ġsend s
Ġsav or
Ġgor gonzola
Ġindic ate
Ġfres hen
Ġclo gged
I ES
g ies
Ġg er
ĠW ELL
Ġso othing
ĠC ul
Ġsh ining
ak u
ĠF actor
Ġyour selves
Ġqu and
Ġtast iest
ĠR h
pt on
Ġri pping
Ġtri al
ne x
Ġcoup led
Ġsho estring
ret t
ĠGo at
Ġcomm and
Ġsim ilarly
Ġaccept ing
Ġ200 0
ple x
ĠMid west
Ġtherap ists
Ġconsum ing
rob rew
ĠVer de
ĠMushroom s
Ġree ked
ĠChel sea
Ġsympt oms
H ot
Ġd ass
Ġd oused
es ch
ec utive
ĠB ever
ĠB OMB
ĠD ol
ĠV iva
Ġun interested
Ġcr ooked
ĠSo ft
Ġsha ck
Ġcor rid
LE SS
Ġque ens
Ġindic ating
Ġbreast s
Ġqual ify
Ġdread ful
Ġantipast o
Ġchap el
ĠPers ian
0 8
V ING
Ġwe ed
ĠT ik
ri age
ke e
ad or
ad ays
ab led
ĠM imi
nT hings
ĠF OUR
Ġmusic ians
Ġsn apper
sp ot
Ġtext ed
ĠTe eter
Ġten ant
ĠAr rived
Ġdev oid
Ġmarin ade
ĠRE VIEW
Ġperiod s
nK eep
Ġident ity
Ġparticip ate
Ġrect ify
ĠMast ro
Ġdisgr ace
ĠNon etheless
ĠRav ioli
0 1
B A
Ġb ins
Ġe w
ĠL uke
Ġ1 20
Ġdon ate
ĠShe ll
ĠK ID
Ġsweet ened
Ġrec reat
imp le
atter ing
Ġfix ings
Ġsw ore
nE ach
Ġdeep ly
Ġmini ature
Ġmot ion
Ġsup reme
Ġtransport ed
Ġhyg ien
resp ons
Ġwre ck
Ġretrie ve
Ġabys mal
T hai
k ill
ar on
all as
ome nd
Ġde ux
Ġte ams
com mend
ĠK atsu
Ġrec o
Ġattract s
Ġrot ate
Ġhun ting
Ġunf amiliar
Ġglor ified
ĠNic ole
Ġartic le
Ġtepp anyaki
ugu ese
Ġfurnishing s
Ġcommerci als
Ġadjo ining
d ict
Ġm ich
Ġha ban
ĠT INY
ur ate
ĠW ifi
Ġsp ider
ak ase
... ).
ĠD utch
Ġpro claim
ĠE lect
oy ing
ist ently
Ġapp alling
Ġret ire
Ġremember ing
Ġappro val
Ġtour s
Ġtart s
ĠBro ad
Ġmeas ly
Ġrou lette
Ġaband oned
adelp hia
k o
at ers
Ġfor ty
Ġhe ro
Ġv oll
ĠY a
Ġbit ing
ĠCh omp
Ġcare er
ord able
Ġsho ots
Ġpos h
nP retty
Ġwarm th
Ġtravel er
ĠSU V
Ġhar assed
ĠWor se
ĠSH OULD
vern ment
Ġinterrupt ing
Ġgrac iously
ĠDisney land
ĠCock tail
Ġblat antly
Ġachie ve
Ġsac rif
Ġhoag ie
Ġleisure ly
Ġvic inity
O nce
W TF
b owl
at io
ĠT iramisu
Ġpl ump
ĠA round
Ġdo se
ĠG reg
Ġsc old
Ġext ent
Ġel im
Ġbreak er
Ġcho ix
Ġinst rum
Ġcelebr ated
gu ing
Ġbang ing
Ġbust ed
ĠTra il
Ġrelie ved
ĠChile an
Ġcabin et
ĠJew ish
g ars
ll as
ke a
ĠC uc
ĠP C
ĠP ack
ĠG ra
ĠR ES
Ġmo vers
ex cellent
Ġread ily
ĠMar ie
sh ine
Ġinv ite
land s
ĠLA ST
Ġaddict ion
Ġabund ant
ĠMars ala
Ġparf ait
Ġintox icated
A IL
z es
Ġ icy
Ġl itt
ot ing
ĠT IP
ĠA ustin
ĠP udding
ĠF IVE
Ġpret ending
nW ow
app arently
rd onn
Ġcons erv
nF ree
RE SS
Ġpull s
Ġrub bing
Ġuns anitary
Ġlaugh s
ĠAir lines
ĠTA KE
it able
ic le
Ġin ev
Ġfor cing
Ġh orn
ĠA mber
ĠA ustr
ĠC reat
ĠP ep
os her
Ġv irgin
ĠG ord
Ġri val
nF ried
Ġhor ses
Ġcor por
Ġsub standard
Ġhold ers
14 0
Ġunp retentious
Ġrock ing
ĠWest gate
Ġfav s
Ġant ique
Ġprof use
ĠCor ner
Ġbang s
Ġtele phone
Ġvib es
Ġfulf ill
Ġnostalg ia
Ġcuis ines
b ra
n ame
p ool
Ġm onday
Ġas ap
ĠA g
ĠH AL
ĠP S
Ġv ote
Ġde af
ra wn
ĠJ J
Ġke en
Ġwall paper
Ġton ic
Ġble ach
ĠOr gan
ĠCr own
Ġscall ions
Ġhall s
Ġang le
het ically
Ġshar k
Ġchocol at
ĠBro ccoli
ĠSep hora
Ġflir ting
F riday
O KE
l ittle
Ġf ont
ĠT ON
Ġex or
ĠN IGHT
Ġby pass
ĠE iffel
nH er
row head
Ġval ued
Ġdance floor
Ġjo ked
Ġ; -)
ĠGl ass
ĠPrice line
Ġunw el
Ġexpert ise
Ġinvest ment
rus ive
Ġscal p
Medi ocre
Ġawes omeness
c ient
u ki
Ġb olognese
Ġst ool
ad ill
ĠS ak
Ġli mes
ff in
ĠL u
Ġpr inter
ĠR UN
nA r
Ġshow room
Ġfun ctional
Ġbo asts
ĠTh in
ĠDe ep
ĠCa pt
Ġdam ned
ĠBuff ets
Ġstrange ly
Ġpal atable
Ġoper ator
onsider ate
Ġsprink les
Ġmold y
ĠBUS INESS
G u
L C
W hich
Ġw ary
in f
Ġf aded
en u
Ġg am
on ese
Ġl uster
ĠT ed
ent o
ir rel
Ġbut ts
ĠM elt
ĠB er
Ġch ina
Ġch rist
ĠE agle
ĠR oman
Ġwork outs
Ġvis ibly
ĠK id
nC l
Ġlow ered
Ġmass es
Ġtravel s
Ġeng agement
oh l
Ġpump ed
ĠIm mediately
Ġ:- )\
ĠTA O
Ġdoub led
Ġdisconn ected
ĠHisp anic
Ġ **
Ġc iv
Ġst ab
Ġnot ify
ĠW ork
ĠB ik
ĠB WW
ĠH u
Ġche e
ĠJ enny
ĠAl mond
Ġguest list
Ġconsider ably
EA D
Ġrad ius
ĠANY ONE
Ġqual ities
Ġgin ormous
Ġclar ify
Ġinflu ence
D ear
in ch
Ġg ap
ĠN ative
ĠP IZ
ĠF al
ra is
ĠR V
Ġbar rel
nS ERVICE
ĠK A
Ġlet down
Ġsha ker
Ġkind ness
Ġbo k
Ġmust y
Ġcool ed
Ġcent rally
ĠBar rel
Ġnail ed
nIn side
ĠPro v
Ġhospit able
Ġdiet ary
UR ANT
Che ap
Ġobl iv
ĠBraz il
ĠBU Y
Q U
g ame
r ata
Ġ ...\
ĠM oo
ĠC ole
ĠC ertainly
Ġfr ying
ers hip
Ġno dd
Ġcl aws
nW orst
Ġsc ant
ob ile
ĠK ona
ĠU se
Ġref uses
Ġtyp ing
ĠSp e
port s
Ġdet ract
Ġrefund s
Ġexec utive
ograp hic
Ġscoop ed
ĠAut hentic
ĠStr ange
Ġcri minal
Ġdistur b
---------------- ----------------
Ġkits chy
ĠColor ado
ĠCHEA P
C ome
he althy
ĠW tf
ĠM AY
Ġcom ics
Ġch iles
Ġde fe
per haps
Ġreg ional
Ġshort age
Ġvar ies
ĠMar gherita
Ġran ged
Ġfail ing
ĠEl ite
Ġsubstit utions
mitted ly
anty ne
Ġhaun ted
4 6
O Y
k ish
Ġ ).
Ġp its
le g
Ġbe i
ĠT at
Ġfor med
ro ad
ĠS itting
Ġus er
iz ens
Ġdis ting
Ġman eu
Ġ2 15
ĠR ex
Ġspecial ize
Ġtop less
ark y
ah l
Ġcontin ental
Ġcolor ing
ĠLA X
Be fore
Ġlab els
Ġboo st
ograp hy
ĠPast rami
Ġteen ager
ĠCarl os
Ġoutrageous ly
Ġshel ter
bu ild
Ġsam osas
Ġenhan ce
Ġprinc iple
Ext remely
Ġinvis ible
adill ac
d rated
n ces
on to
ic opa
ut ing
al f
ad illa
ant er
ĠN aan
so le
Ġpre made
ĠR is
fin ished
Ġhapp iness
og an
ĠRe m
Ġz um
AN Y
Ġfil ms
ĠSha r
ĠPast or
wor ked
Ġscrap ed
ĠRO CK
nRec ommend
Ġheap ing
Ġpars ley
Ġprofuse ly
S ha
S econd
b ull
ed ish
Ġd ann
ff y
ĠM ajor
un ct
Ġover sized
Ġrest u
ĠV irgin
Ġun seasoned
Ġint ri
ĠQu arter
Ġcirc les
rem ium
Ġdism ay
Ġoverchar ge
Ġshutt les
. ),
Y our
p ho
r ants
v as
w ide
ĠS und
Ġare nt
ĠC ustom
Ġch oy
ĠP oke
Ġde e
ĠG ee
Ġfl uff
ĠR itz
Ġdown s
Ġwhere as
Ġcho ke
Ġrem ade
Ġacc ents
Ġtrip e
row ing
ĠFr ankly
Ġome lettes
ĠPh ili
Ġra ising
ĠSub s
Ġfest iv
nV eg
Ġoblig ed
Ġtid y
ocr ity
b ling
s andw
et e
ĠB re
ĠH R
ie lle
ĠE w
Ġaw ake
Ġaw ards
ĠU s
Ġcont rolled
Ġpop ulation
Ġcomm un
Ġjo ining
Ġtun ed
ĠAp ache
parent s
Ġhaban ero
rdonn ay
Ġexor bit
4 3
D a
d ain
l otte
p aid
st ay
ĠS now
Ġan ts
ĠW ord
Ġse edy
Ġal bacore
Ġpre ferences
ĠE v
Ġdrink ers
Ġun aware
ĠCh urch
Ġopt im
Ġfar mer
ĠBe aut
Ġconsider ate
ĠBl ah
ĠSal es
Ġdev ices
sal ted
Every one
ĠPan ang
ĠCab o
Ġast on
ĠFlavor s
Ġthread ing
ĠCow boy
Ġm ental
al oo
ĠC ourse
ag s
ard ing
Ġgu ilt
nW alking
Ġcar rier
!!! )
ĠAl askan
Ġcond ensed
Ġspec ified
ĠAsian s
UR N
Ġartist ic
ĠIntern ational
ĠDeli very
ĠBlanc o
ĠJama ican
H i
c ast
e ach
Ġp uke
Ġp ipes
ĠA ud
ĠN ut
ĠD AM
um ents
Ġatt ent
Ġswe ater
ock s
Ġcount ries
ane ously
ĠGr ab
nam ed
ĠHouse keeping
Ġdef ault
Ġjack ed
Ġfort unately
ĠBud d
ĠEL SE
K S
W aited
l ay
ha ca
Ġpl ating
Ġj ungle
ĠC S
Ġr asp
ĠH ip
ĠD ental
Ġpe ek
Ġnight ly
Ġstaff s
Ġres our
ĠSt uffed
Ġdiffere nces
Ġport obello
nP izza
nD is
Ġinstruct ion
Ġpromot ers
*** \
Ġlegit imate
Ġtact ics
Ġnostalg ic
ĠRiv iera
Ġisol ated
5 8
A m
f ord
Ġre fined
Ġyou th
ĠS icilian
Ġti er
ĠM ina
Ġwa ived
ich oke
ĠN ail
ĠN ik
ĠL ion
Ġfl ake
Ġpe ut
Ġres et
Ġcas ually
ob viously
ĠU t
Ġsur p
Ġble h
ĠCom b
Ġrich ness
ĠDO LL
Ġburn s
Ġfoc accia
ĠSpr inkles
ĠFA VOR
~~ ~~
ĠOme let
ĠBat ali
Ġtaqu itos
Ġultras ound
? ...
A void
in arily
Ġy ak
ĠS igh
Ġan k
Ġdo ggie
ĠH ER
ous ing
ĠD un
ist ency
Ġad orn
Ġchar t
mon ico
Ġmet iculous
Ġtechn ical
Ġland ing
Ġrap id
Ġporter house
ĠCapriott i
5 2
A BLE
b uy
f ry
Ġn our
ĠThe res
Ġnot ing
ĠS me
Ġsa ves
Ġk ung
ca me
are t
Ġent icing
Ġgr oo
ste ins
ino is
Ġran ks
Ġcu ri
Ġball oon
Ġelev ated
omb oli
ĠMon key
Ġacknowled ging
Ġbuzz ing
yan i
ĠDom ino
nEx cellent
Ġgimm ick
Ġcommit ment
5 7
\ \
Ġg az
Ġha be
Ġe ffic
ur ist
Ġpl ats
ĠS up
ĠB ul
Ġdo ck
ĠD allas
Ġad obo
Ġbr u
Ġsl ack
per ing
nS uper
Ġinc onsiderate
nF our
ather ine
osed ly
ock ing
Ġtra pped
ĠIN C
lin er
Ġoverwhelming ly
Ġcalz ones
ĠDIS GUSTING
Ġchalk board
ĠPhil adelphia
Ġdram atic
imb ap
Ġmanufacture r
ĠServ ices
S aw
d ings
p repared
Ġt ux
Ġc actus
ĠP ets
ĠF ix
Ġmin ced
ile y
les que
ĠCh orizo
Ġcost ly
ĠĠĠĠ ĠĠĠ
Ġpa wn
ĠCA LL
Ġpurpose ly
ĠTer minal
ĠED C
Ġanx iety
F ree
P H
c ond
Ġt urt
Ġbe ars
Ġhe irloom
ĠF avorite
ĠG ourmet
Ġgu ided
ap ore
act ly
Ġpart ners
ĠJ ac
nS ha
Ġend ure
ĠK o
Ġperf ume
nF YI
Ġdrive way
nC o
ĠTr uck
Ġmic robrew
Ġcrack ing
Ġwood s
nthe m
Ġdraw ing
Ġdive y
ĠJu an
Ġling uini
ĠValent ines
Ġintention ally
STA URANT
r ase
ll er
Ġl ord
ĠC ON
Ġr ise
qu iles
ĠN ICE
ĠP it
ĠO il
Ġsal iv
Ġpoint less
Ġrec omend
Ġspec ify
Ġform at
fl avored
Ġdiv ided
Ġexpress ion
AA AA
ĠQue ens
ĠChamp agne
Ġcabin ets
! ,
s ign
s erved
is in
ve gan
Ġst ing
ĠW anted
ĠW ASTE
ĠF ruit
ĠL iqu
um ably
Ġsay in
Ġmake over
oc cup
Ġchar coal
ĠEvery body
Ġins pected
Ġwarm ing
Ġfore most
ĠLove ly
ĠAm anda
ĠPan ini
Ġoffic er
uu uu
Ġvary ing
Ġther most
Ġsard ines
ĠABS OLUT
Ġintri guing
D ING
M A
t i
Ġg athered
st ep
Ġpl um
ĠS esame
ĠH ub
so ft
?? )
Ġim mer
Ġdeli ber
OU P
Ġfig ures
nM ore
ĠBar ry
ĠDi ab
Ġec st
Ġsew age
Ġcher ries
auc oup
Rec ently
1 10
I B
L ong
b reakfast
i ene
l ta
s qu
Ġa y
Ġb ison
Ġp enn
Ġnot able
Ġal tered
ag a
ĠE h
ĠMy stere
rd er
no ld
pl ay
Ġquestion ing
Ġrock et
Ġuns atisf
Ġhar m
Ġgarn ished
Ġlent ils
Ġcrumb ly
tain ment
ĠPIZ ZA
N C
or g
ir k
so ld
ĠR ID
gg er
nW on
ans as
og ies
ang les
Ġmedi ocrity
rit ies
Ġinv oice
Ġsil ent
UN CH
Ġpregn ancy
Did n
Ġdrool ing
Ġpepp ery
Ġunap ologetic
U m
W ait
b ri
u ca
u ated
in ator
Ġf ing
Ġd arts
ar ind
ĠT ina
ad am
Ġi ffy
ĠB order
Ġca uses
ag en
ĠJ ade
nL ook
Ġrepl en
Ġban quet
Ġhoney moon
Ġaccompan iment
Ġmars ala
Ġconco ctions
ICK EN
Ġine fficient
Ġclut tered
BB Q
Ġemphas is
ĠAtl anta
ĠCP K
Ġancho vies
S at
j ours
l ate
t im
Ġb ao
Ġf oo
Ġf oster
ĠT y
Ġth y
Ġwa ive
ĠF abulous
Ġro ses
ĠL inda
aff e
Ġtable t
Ġhome work
Ġexce ll
20 12
Ġdirect or
Ġdig est
Ġbuck ets
Ġsuff ice
ĠiP od
Ġqual ified
ĠMin us
Ġscrap e
ĠJul ie
Ġrais ins
WOR ST
A h
d ated
f ch
i eces
p o
y er
Ġo der
Ġan ger
ĠC ASH
Ġsp onge
Ġun available
Ġcr ay
Ġdes irable
Ġlast ing
Ġdress er
Ġgrill s
nL unch
Ġgreet er
Ġfil th
Ġgross ly
roll ing
men u
ĠRob uchon
Ġtrack ing
Ġcult ural
ĠHOT EL
Ġcast le
ĠCre pe
ĠCHE CK
ĠSus an
ĠBould er
I BLE
S imply
a ay
d ance
l ics
Ġb orrow
it ated
Ġd ye
ri ving
Ġex emp
Ġout right
un s
Ġr amp
ĠD ude
Ġpr ick
eg ie
ail ed
ĠCh opped
ĠK ilt
Ġpat ch
ĠGood year
Ġfore w
Ġmother s
Ġje alous
Ġcry stal
Ġprescri bed
Ġdism al
Ġlift ed
ĠRos ati
ĠMcC arran
Ġmarshmall ows
udging ly
ĠPac ific
Ġinex cusable
ĠTik ka
) ....
O f
Ġa id
he arted
at cher
ĠS om
ĠS to
Ġti mers
ĠC and
Ġen closed
Ġtable cl
Ġchicken s
ĠSo on
Ġstore front
Ġret ired
Ġcont am
orm a
Ġass es
Ġass ault
cha nt
Ġpri ze
Ġunderstand s
Ġwind y
EA K
ĠWal nut
ĠMo ving
Ġlock ers
Ġlift ing
Ġvom iting
Ġfund ido
ĠBrew ery
Ġvari ations
Ġassemb ly
ĠBou levard
Ġseper ate
ĠENT IRE
i j
n ie
p eno
Ġm oo
Ġn os
ĠW ok
Ġj ambalaya
Ġsa ff
ĠH om
ĠH ay
art e
ĠL arry
ass erie
Ġcheck in
Ġgl ow
nB reakfast
nP robably
Ġprom ote
Ġnum b
ank o
ĠRe hab
Ġfre aked
ĠBl oom
nIn stead
IC H
ĠDec atur
ĠBlue berry
ĠSur render
ĠCor porate
Che ck
Ġunif orms
Ġmaxim um
Ġdivers ity
Ġinstrum ents
p an
at on
ĠT ypically
st y
ill et
Ġwh ist
th in
Ġv oted
ĠL GO
ish ly
Ġun ion
Ġsl id
Ġar om
Ġend roit
ĠK ier
Ġspecial izes
ĠU GH
Ġrepl ies
br own
ĠZ en
for ward
Ġpersonal ized
IC ULOUS
ĠLV H
iqu ette
Ġqual it
ĠLow e
ĠVeget able
ĠMI A
ĠBall antyne
ĠLat te
ĠLEA ST
ĠGor gonzola
ĠPump kin
Ġpamp ered
Ġsword fish
Ġmaneu ver
m ills
Ġb ingo
Ġp ha
ic ot
Ġn ast
ĠS oy
ĠC andy
ĠP outine
ĠV ac
ĠE ating
Ġmo i
Ġsand als
Ġgl anced
ĠIn st
nP ROS
amb iance
aim ed
ĠCar rot
nBe ef
Ġbull et
inat ra
Ġfi asco
acha ble
ĠLouis iana
Ġchir opract
L as
M ade
v ation
Ġl ite
ic ular
Ġha ben
Ġh ills
Ġst amps
Ġli fest
ĠWe ekend
ĠU K
Ġemp t
Ġph il
Ġfact ors
ĠSc ore
Ġappro aching
Ġpanc etta
ĠST A
ĠRE F
Ġess ence
Ġdust ed
Ġrefriger ated
ĠSon oran
lev ant
Ġobsc ure
H otel
g ive
m atched
s uch
t ech
Ġf ade
Ġst out
ĠA ff
ĠB rid
ĠC ibo
Ġjust ified
ĠF aj
os op
Ġle ur
ĠG al
Ġinc ome
ĠU mm
nF un
iet te
Ġmain stream
ĠPl atter
Ġcent ers
ĠPe ar
Ġpopular ity
Ġcirc ular
ĠCra w
Ġrob es
nOther wise
Ġnightclub s
Ġore gano
Ġlands caping
Ġadop ted
ĠGerm any
* .
R ude
Ġg rou
le vel
al ong
ĠM ON
ĠC innamon
ĠH oll
ĠE pic
ft a
ĠK rist
yp e
RE AD
Ġdoll op
nE d
ĠApp etizers
ĠPat io
nTh ree
beat able
Ġmeas ured
ĠPic asso
Ġprinc ip
Ġexplos ion
Ġfauc et
A d
B urger
Ġ vert
Ġb ob
Ġm ama
Ġp uck
Ġd amp
ĠA nthem
ĠM ocha
ĠC od
Ġr att
Ġbre ed
Ġstore d
ne ys
ĠK rispy
og s
ĠRe asonable
ĠFr an
ĠMar c
ĠEx cuse
Ġbab a
rif ying
Ġmoist ure
Ġcop ies
ĠCA RE
ĠPat ty
Ġunw elcome
Ġgrain y
pher d
Ġsaff ron
b ana
d oba
Ġo ught
it ly
Ġm ai
Ġha nger
Ġy ucky
ĠC ond
Ġgo vernment
Ġwa aaay
ĠP en
ĠP ower
av ille
Ġde hy
ĠL ord
Ġrest ara
int he
Ġcr umbled
act ive
.... ......
app e
nP ort
?! \""
Ġint rusive
ĠGroup ons
Ġgroom ers
?!?! ?
Ġpig s
Ġbelong s
Ġflu ids
nSp eaking
Ġlip stick
ĠCOMP LET
ĠBrus sels
Ġcoco a
d ep
i u
he lp
Ġw ie
re qu
Ġd re
Ġpl umber
ĠS ay
ĠB ry
ĠB ure
ĠG L
ĠR aw
Ġday time
Ġchar ger
ĠNO PE
rit os
iv able
OU ND
Ġdef ective
ĠAr ts
ĠCheese burger
Ġvan ity
ĠExp edia
Ġdisp leasure
ĠPri or
Ġexpert ly
ĠBO TH
STA KE
ĠMort on
Ġnest led
ĠCars on
Ġthermost at
, .
R ed
Ġt andoori
ed ly
ĠS av
ĠS ierra
ĠB ath
Ġlo ading
ĠP ret
os ition
Ġoff set
ress ion
Ġ4 4
Ġim ages
Ġass holes
ĠSp ent
nM in
Ġtra um
Ġmove ment
ĠNever theless
Ġthrow s
azz led
Ġpromot ions
Ġpatron age
Ġbul bs
Ġfu zzy
Ġfacial s
ĠMart in
ĠGy ros
Ġbik ini
ĠShady side
Ġwann abe
alcohol ic
5 4
g iano
Ġt uesday
at illo
Ġbe ard
ro pped
ust ered
un ched
am as
ĠH on
ĠO LD
ĠO THER
Ġdis gu
ĠD oor
ĠL ab
Ġmo zz
Ġhouse hold
Ġ: ).
Ġdisc ontin
oud a
ĠUn i
Ġconsist ing
ĠZ oo
RI P
enn ial
eth ical
ĠPort land
ĠRE STAURANT
ĠLOT S
ĠGener ally
Ġcrumb les
Ġhawai ian
M ore
O ld
S olid
V R
b re
m ight
v ings
Ġ )\
Ġw aking
Ġp ony
Ġg own
ly mp
ĠA f
ill es
ĠB C
ack aged
ĠC actus
th ree
Ġab use
ĠF usion
Ġgr ated
Ġbox ing
Ġsch on
Ġworld s
Ġyell s
Ġtend on
ma res
Ġver ified
Ġdelight s
rend y
Ġreflect ion
ĠTon k
Ġproject s
Ġstroll er
Dis appointed
ĠYellow tail
ĠKnow ing
Ġceleb rities
Ġreco very
Ġexorbit ant
X X
c ash
Ġb icy
Ġp est
Ġp enc
Ġg oose
Ġl ens
Ġex amples
ĠM ol
red it
ĠP ir
ĠP esto
um i
ĠR ita
ĠJ ump
Ġmo ck
ĠK araoke
ĠNo v
ĠSal ty
ĠZ one
ĠCar p
ph y
AD E
Ġpump ing
OS E
Ġtou jours
Ġwheel chair
Ġdismiss ive
veget arian
ĠBroad way
Ġcuri osity
' '
1 60
6 6
g ross
k ids
Ġa h
Ġw enn
is her
Ġd ucks
Ġe ct
Ġr aining
ĠF iesta
Ġche ek
Ġno d
ĠG host
Ġres ulting
uck ing
nO r
Ġph rase
nN OT
Ġred uce
Ġsty ling
Ġfan atic
ict ure
pect ing
ĠCo ach
ĠQu iz
cr ab
Ġjack ets
Ġmad ness
Ġunc lean
ĠBag els
Ġloun ging
Ġexclus ively
Ġrais in
ĠRecommend ed
ĠBru lee
Ġdisting u
M on
W ish
b rew
d rop
Ġs q
Ġi phone
ĠM im
ĠB ourbon
ĠG a
Ġfl ats
Ġcr acks
Ġaw fully
ĠSt adium
Ġspecial ity
Ġsha res
Ġret our
atur ally
Ġsn ick
ĠDe fin
Ġsy n
AN G
Ġyelp ed
ĠZ e
for got
Ġbatter ies
Ġstri ppers
atisf action
ĠFire house
Ġsof as
struct ed
Ġfanc ier
Ġbaff led
ĠScot land
Ġbene ath
occup ied
9 8
s en
Ġf ame
Ġm ig
ce l
Ġfr a
hen ce
Ġall eg
mp h
ĠL oud
ĠG in
Ġday care
Ġbl anc
ĠU mmm
Ġmon itor
ied er
Ġind ec
ĠBl ues
Ġappre hensive
Ġstud ios
ĠHot els
Ġnotice ably
Ġcance ling
IR TY
ĠDin ers
Ġpurp oses
Ġappl ies
Ġfest ive
Dis appointing
ĠBon us
Ġverb ally
ĠRis otto
C hr
U p
X T
i hana
m int
Ġthe ft
ĠT ob
Ġti es
Ġr hy
... $
ĠP aper
ĠF ollow
ig iana
fter s
ĠIn itially
RE AM
ĠTh us
Ġthick ness
Ġeff ing
Ġdisp leased
Ġquant ities
ĠCarn itas
ĠHen ry
Ġantibiot ics
Ġradi ator
ĠHAL F
b viously
Ġb ir
Ġp am
ot ive
Ġon t
Ġpl ast
ĠM ission
ĠC ane
ĠC oco
ĠF UCK
ĠO scar
ĠL ing
omet hing
ĠJ ale
ub i
Ġsub mitted
Ġsw ipe
Ġbutter cream
ĠZ ipps
orth y
AM AZING
Ġep it
Ġencour aging
Ġdevelop ment
Ġthreat ening
Ġath le
Ġetern ity
b or
Ġl az
le h
ĠThe atre
ke eper
el ve
Ġsh oddy
ĠP OOR
ĠG reens
im mer
Ġfl are
Ġtr amp
ave nder
ĠJ amba
ĠK al
nF l
Ġcool ing
ĠOn ions
Ġbuy s
Ġsk ating
but ter
ĠSteak s
Ġbrew eries
ĠGrand ma
ĠDi fferent
rel ated
,, ,
Ġanticip ating
host ess
Ġpier cing
comm unication
ĠKier land
) :\
B eware
M O
T otally
b usiness
l imited
m ine
z t
in z
Ġha ul
st ra
ĠB arn
ĠC adillac
Ġk ills
Ġsp lend
Ġup wards
ĠF ili
ĠG oose
Ġbr ut
Ġbar ley
oc ate
Ġfin ance
ĠK abob
uc ca
Ġcold er
enc ing
Ġdecor ating
Ġmet er
ĠJohn son
Ġadjust ments
Ġrehe ars
ĠEnjoy ed
ĠMO ST
Ġremar ks
h orrible
i as
Ġm ason
Ġl ured
ĠM ashed
ĠB ought
out e
nT ook
nT ried
nT otal
Ġdr ab
ap ers
Ġ3 3
Ġbl o
Ġcar ved
Ġap athetic
ĠMar icopa
ĠBr avo
Ġyoung est
Ġremind ing
Ġpan ic
Ġmeh r
Ġhy per
Ġinteract ed
Ġling ering
Ġresched uled
ĠBU FF
ĠVict oria
Ġchur ros
Ġmount ed
Ġhue vos
d ecent
m g
p one
Ġw ard
re view
Ġc ul
ĠI CE
Ġha ired
ac ious
Ġst ares
Ġr ink
ĠH elp
ĠH ang
... )\
ĠD one
um mary
Ġbet s
Ġdri ft
vel t
ye re
Ġinst inct
de al
br is
cl ose
Ġsqu ares
Ġcro qu
Ġprogr ams
EC I
nChe ers
Ġfif ty
Ġcutic le
ĠPanc ake
Ġeine m
pack aged
Ġconvey or
Ġkidd os
P rice
e ment
f rozen
s ure
Ġp iles
ur ri
el f
Ġso ir
ĠM AR
ul ations
Ġdon c
ap e
Ġgl ob
Ġju ic
ĠSte lla
Ġboard ed
Ġexchan ged
Ġcertific ates
Ġcy cle
Ġconcent rate
Ġcork age
ĠTaiwan ese
ĠZum anity
Ġlifest yle
M o
p ub
ĠT iger
ri zona
ĠS inatra
Ġsp ouse
ĠH AS
ul s
ink ing
ard i
eri le
Ġbar bac
Ġhard est
ci ence
Ġsn arky
ĠApp etizer
lic ity
Ġ= )\
ene z
Ġbrew ing
Ġexpl od
Ġdream ing
ĠApple bees
Ġcos y
ĠCL T
Ġpor ch
Ġtorte ll
V IP
r ican
Ġb ond
or ig
us ic
Ġso c
th ose
Ġeven ly
Ġun beatable
Ġbu ried
Ġmo ins
ĠHe ather
Ġref using
ĠNO NE
Ġneg l
Ġdescri bes
Ġdesert ed
Ġshell fish
Ġ200 6
Ġear thy
bl owing
ĠGl uten
bet ween
Qu ick
Ġscen ario
Ġwond ers
Ġsatur ated
Ġscan ned
ĠCOMP ANY
Ġvolunte er
Ġoverd ue
Ġliv id
a ise
b ish
u ppies
as ino
Ġl icking
Ġbe e
Ġbe aucoup
ri ka
ĠH ence
Ġche ery
Ġv ie
ĠR ell
ĠR udy
Ġye arly
Ġpast ies
Ġrel ocated
nL a
Ġexcept ions
oose velt
Ġ= (
Ġbri m
ĠMac ayo
Ġdetail ing
nAny how
belie f
Ġsocial izing
ĠOl ives
ĠDep artment
ĠTort illa
Ġacry lics
adam ia
E ST
a es
e ither
f ind
l est
he nd
Ġc ette
Ġv owed
ĠL im
im my
ĠE mb
ĠR od
Ġnow adays
ĠK ay
Ġuncom fort
unt led
Ġdev iled
ĠCH ICKEN
ĠEsp resso
ĠANY WHERE
Ġsex ual
Ġrepresent ation
Ġreflect ed
ĠShort ly
Ġscar f
ĠMI STAKE
Ġarts y
Ġslam ming
Ġhandic ap
Ġdisli ked
Ġunwel coming
B ER
D e
I ve
d ining
g el
v s
Ġthe e
Ġp ills
Ġre iter
Ġout we
ĠM mmm
Ġfr itt
Ġserv icing
ĠH amb
Ġca ut
Ġdown er
nS ometimes
ĠU lta
Ġfavor able
mm a
Ġind ie
ĠTh rifty
nL ater
?! )
ĠDe ad
nR ight
ĠCom es
Ġfire works
omb re
Ġho pped
Ġpatron izing
Ġveg ans
Ġdiscover ing
Ġflor al
Ġhandic apped
Ġpuzz led
ĠLib rary
5 6
F our
i ating
t rip
Ġw it
ou ille
Ġto ro
Ġre leased
ĠS ides
ab ass
ĠC ooper
ĠF AST
Ġdis abled
ĠR aspberry
elt a
Ġinf orms
Ġkitchen ette
nM o
Ġsing ers
ech on
Ġtemp t
Ġdent ists
ĠJe ep
Ġembarrass ment
Ġlie u
Ġbeha lf
Ġneat ly
Ġcarn ival
Ġwhis ky
Ġmiser ably
Ġlump y
Ġnurs ing
ĠCarn egie
ĠDR INK
ĠTor onto
Ġextravag ant
C O
C r
j on
it ol
Ġm ongolian
or ient
ĠS ams
se afood
ĠC OULD
ul ating
ort ez
Ġcon vert
Ġen e
Ġet iquette
Ġinf erior
Ġpres ents
Ġinter pret
Ġsw ift
nL oved
Ġfil tered
Ġgrand parents
Ġthanks giving
St ar
Ġpud dle
Ġoverl ooks
Ġcous cous
ĠMcD owell
Ġrepres ented
Ġenfor ce
v ine
Ġwe ap
ĠC her
Ġcom ical
ĠF lo
Ġgreat ness
Ġdis comfort
ĠD ives
ĠL IT
Ġpr ay
Ġcl ad
Ġbit chy
Ġel ite
Ġsha ded
ĠLas agna
Ġbed side
Ġball park
Ġgel atin
Ġcontain ing
Ġoper ations
ĠAS K
ĠPort uguese
Al right
Ġpers u
hant om
haw k
Ġmotorcy cle
Ġentit led
? '
R estaurant
g irls
t ax
v ino
y ummy
Ġc er
Ġm g
Ġwe ary
Ġr acing
han g
ĠD irect
Ġfl ashing
ĠR ust
Ġcomp r
ĠCh oice
nS mall
ob ada
ĠK albi
Ġbook store
Ġprompt ed
ĠCom mon
Ġrad ar
Ġaf icion
Ġcran berries
Ġresident ial
ĠCook ie
Ġvolunte ers
Ġbarbac oa
d espite
i ked
n al
Ġb s
Ġf ishing
Ġd ot
Ġl ush
ĠT ow
Ġh ic
Ġh unk
ir a
ĠA unt
Ġgo dd
Ġk ettle
ĠP ur
ĠP our
Ġca lend
ĠD IE
ĠG I
ist ing
izz ard
ĠCh im
Ġdri ll
nB ased
oll i
au v
ĠTh under
nM any
Ġint ake
ĠFr isco
ĠSe ared
TH IS
ĠTr ans
ĠAr rowhead
Ġperform er
sc ottsdale
ĠHa us
ĠBud get
Ġintent ions
P r
a ime
b artender
h ub
Ġ q
Ġt icked
Ġa kin
ĠI I
ir in
Ġti x
ĠM J
av ana
Ġdis belief
Ġro pes
Ġfl ame
Ġsmall ish
Ġgr av
ĠK aren
Ġadd itions
ĠTh umbs
20 11
Ġtalk ative
ĠSe an
ident ally
Ġmel ty
ĠPr om
Ġimpro ving
Ġtemper atures
Ġpower ful
ĠPat ron
Ġhaha ha
Sc ottsdale
Ġimagin able
ĠCapt ain
ĠDAM N
ĠRID ICULOUS
) )
C ute
l ined
m ings
p ost
in stead
ha ll
Ġm ature
Ġre think
Ġme ille
ĠB isque
ĠR C
Ġcomp act
Ġun ethical
we ird
Ġper use
nS ushi
loy ee
Ġins ert
nC ar
ĠChe cked
Ġfell a
ĠDel ish
Ġcompet ing
Ġstock ing
ĠBan h
Ġrequire ments
Ġpun ct
Ġmor on
Ġviol ation
Ġdeb ate
Ġdisgr untled
S weet
t ook
re ase
Ġm aki
Ġin put
ro se
ĠS EE
ab l
Ġti ger
ĠG OT
Ġfl ipping
ĠSt ayed
Ġtables ide
au i
ced es
Ġappro ve
Ġtort ure
ĠCar mel
cr ispy
Ġboun ce
Ġintrod uction
nUn less
Ġrequire ment
ĠLuc ille
ĠSERIOUS LY
G Y
Ġw ur
ac les
ĠS zechuan
Ġne ut
Ġdo ggy
Ġwa ving
ind aloo
Ġpre nd
ĠE st
Ġsl ick
Ġdes erving
ĠK reme
Ġrec over
Ġhor rified
loy d
nG ive
Ġupgr ading
rant ed
ĠSU RE
ĠKe ith
olly wood
Ġchallen ged
Th ree
ev iche
ĠAB OUT
Ġscar ce
ĠEnter tainment
Ġaccompl ished
Ġwristband s
Ġrig atoni
Ġdiagnost ic
S ur
U sually
Ġw id
in als
nd es
Ġd ub
out side
ĠH i
Ġsome ones
art en
ĠL avo
Ġfl aming
ĠR et
Ġ3 8
Ġpret t
ĠJ ane
Ġper mission
nA d
Ġlast ly
ĠK ale
Ġcont ro
Ġopt ional
Ġdisc ern
Ġcred its
Ġsour ced
Ġtoast y
Ġeng age
ĠVal ue
Ġreflect s
Ġfield s
Ġphotograp hy
ĠMel issa
Ġcush ions
ĠVict or
ĠLin q
Ġpropri et
ĠFAVOR ITE
Ġuncomfort ably
r ating
w rapped
Ġt u
Ġo s
Ġre un
ĠM erc
ĠM osc
Ġr ancheros
mp his
ie re
ĠD ream
Ġde cept
Ġde bris
\"" ..
Ġen vel
pt ic
ĠJ azz
ĠK eg
AN CE
cl usion
Ġprocess ing
ĠLe ban
ĠBar rio
Ġadvert ises
Ġrese mble
Ġcro st
ĠSun s
Ġiron ic
Ġpedi atric
ĠCO ST
Ġrehe at
Ġregist ered
Ġperman ently
Ġhyg iene
Ġsust ain
ĠBisc uits
ĠMoj ito
ĠCast le
ĠBUFF ET
N eed
U PDATE
a pt
c ot
p oor
Ġw ieder
Ġwe ars
Ġy arn
ĠM ills
ĠB erry
est one
ĠP orter
Ġv ouch
Ġco ins
Ġco des
Ġper m
Ġselect ing
anc han
Ġbo il
Ġread er
Ġinter section
IS E
Ġchew ed
Ġes ca
Ġsil ky
Ġvo ices
Re view
Ġtips y
Ġdraw s
ĠHome made
gl ass
Ġtun nel
ĠCant onese
Ġinsist ing
su pp
bas ically
ĠLaw rence
Ste ak
Ġshad ow
ĠEnchil adas
ĠMich igan
ĠWhis key
ĠEXACT LY
Ġprivile ge
Ġobliv ious
Ġpenn ies
G S
I A
O C
ha us
Ġto go
Ġg ently
ĠT eller
ac ado
Ġpl opped
Ġwh irl
ĠB es
Ġdr astically
we re
Ġshow case
Ġref lex
nB on
au f
ĠPho en
ĠCha llen
ĠBr itt
ĠSe ven
Ġequ als
Ġsauc ed
Ġdem ographic
Ġgamb ler
Ġincor por
ĠBri o
Ġintimid ated
ĠDet roit
Ġdisreg ard
B O
J e
K K
Ġm ouse
as a
ac os
Ġre venue
Ġst erile
all e
ĠS olid
Ġj asmine
ĠM oney
Ġab ack
qu ate
end roit
ĠD RY
Ġpro ven
Ġfl oo
ĠR ig
Ġri ms
Ġcomp ote
Ġafter thought
ĠY ama
Ġpart ly
Ġseason s
Ġconc essions
ĠWell ington
Ġblack berry
Ġban ks
Ġnutrit ion
Ġimmense ly
urrent ly
% ,
Y S
l ining
n h
n for
p ol
s our
t omato
Ġw ack
in se
re c
Ġl icked
Ġha y
Ġin ject
Ġbe ads
ĠS op
ĠA ct
ĠC y
ĠP itt
ĠP RE
Ġexp ire
ĠL ube
ĠG ary
ĠG rap
nA re
Ġrecommend s
Ġthing y
Ġstand by
ee e
sh ort
iment o
Ġneg oti
ĠCo ca
ĠNY NY
Ġnic he
ĠCent ury
Ġform ula
Ġassist ing
Ġcontract or
Ġrespons es
Ġinvol ve
ĠFat burger
fun ction
Ġgrind ing
Ġsouven irs
Ġauthor ity
( ?)
N N
f ive
l ance
n Z
w orst
Ġo o
Ġg a
ĠT ONS
ri um
ro be
Ġlo cale
ĠP itts
nT onight
Ġv ents
Ġwhat not
ĠG olf
.... \""
oc als
ang le
ĠSh ore
ĠPr icing
Ġimport ance
ĠTO P
off s
ĠMic key
ĠDes k
Ġresemb les
Ġgran ite
Ġcompassion ate
ĠTG I
ĠIncred ible
Ġzomb ie
T S
n ier
in ces
ic ia
Ġe arr
ĠM C
ĠM orning
Ġthere after
ide o
Ġover haul
ard o
Ġdec af
if ting
Ġbar k
Ġper using
Ġsweet est
Ġrec yc
Ġshort cake
Ġhost ile
ĠBell a
ĠDel monico
IC Y
Ġsil k
Ġdu h
Ġcraft s
ION AL
ĠQue bec
cas m
Ġsan itation
Ġtruff led
ju ana
nDid n
Ġdismiss ed
ĠSing apore
Ġmyster ious
Ġairpl ane
Ġphil osop
6 8
C ha
p acho
s oup
v l
ou b
Ġe cl
ĠW ong
ĠA ren
Ġout going
Ġdo d
Ġro aming
Ġfl aut
ĠV ic
Ġcl aw
te xt
ĠJ iffy
Ġnew bie
nP ork
Ġprep ackaged
ĠQ doba
ik o
ron ic
Ġstat ues
ĠFashion ed
Ġflaw s
Ġbord ering
Ġene my
A X
i ated
t our
Ġ ??
at ly
at te
Ġis h
Ġst umbling
Ġpl un
Ġj a
un like
ĠF uk
Ġ\"" $
ĠR ET
ĠR oosevelt
Ġlist ens
cha irs
nP lace
Ġcred ited
ĠSqu irrel
Ġinsp iring
ĠPrice y
Ġbat hing
ĠStr ong
every one
ĠTa qu
nWait ress
ĠFore ver
iw i
Ġdoorm an
b rid
Ġw ad
Ġs way
Ġo xy
Ġf itted
Ġp ose
Ġg aw
ĠT al
st en
Ġso fter
Ġti ki
ĠC onvenient
un fortunately
Ġk itty
Ġsp ong
Ġch ipping
ĠD ian
az i
Ġgr u
Ġke g
ĠK n
Ġav ons
ib ertos
amb ling
AT H
AR LY
hh hhh
Ġtoast er
ĠLe af
ĠUS ED
ĠHard ly
Ġunw ind
obb ie
++ ++
Ġore o
Ġutil ize
Ġproport ions
Per fect
Ġtermin als
Ġforew arned
Ġenvel ope
d ie
w urst
Ġd ata
Ġhe n
Ġhe lic
ce ll
ĠS ent
ĠA P
qu ick
ĠK athy
pr ing
Ġpotato e
Ġsho ving
Ġcur d
ĠOh io
Ġval ve
Ġcount y
ĠMe al
ĠON CE
ĠDel ux
Ġassist ants
ĠHer b
ila quiles
Ġpit iful
Ġkim chee
Ġheav ier
ĠMag ic
Ġsalesp eople
claim er
nAdd itionally
ĠEm ily
Ġcorrid or
2 000
H uge
T U
m ie
s ent
Ġ ......
Ġt ak
Ġt ous
Ġw obb
ĠI kea
ke rel
Ġse ar
Ġj ello
ĠM ixed
red ded
Ġr ar
Ġup charge
Ġsu prised
... (
Ġfri ght
ate gy
Ġro be
Ġfe ather
ĠG IVE
Ġcl in
ĠR ang
if ty
oc can
erson ally
Ġhard core
nF resh
Ġport ab
IN D
ING S
par king
Ġbro iled
Ġcol our
ĠDel uxe
Ġshell ac
Ġpal ms
Ġmail ed
ĠEVERY WHERE
Ġsens or
Ġrob ust
ĠCream y
Ġcollect ing
ĠHarrah s
ĠBrus chetta
ĠIch iza
ĠQues adilla
Ġlone ly
urcha sed
Ġhelic op
T C
d ressed
d ouble
l im
Ġbe gr
ri de
ĠP ier
ĠD ar
Ġany how
Ġam mo
ĠV et
ĠR u
Ġtw ists
Ġbl unt
Ġatt orney
get s
iss an
no h
ĠGr ass
Ġconfir ming
Ġcondition ed
Ġemb ar
Ġrese arched
Ġcit izen
car pone
df en
Ġmistaken ly
ĠBrand on
Ġmc donalds
Ġexemp l
0 7
D D
k inda
Ġm umbled
Ġl ag
Ġwe ighed
al beit
ec ifically
ĠM aine
Ġthere of
Ġsp aced
ĠP il
Ġv ale
ĠV enez
Ġpe ars
Ġdr ained
Ġtr ashed
ĠJ ord
Ġ4 2
ĠSo Cal
Ġter rified
!!!! !!!!!
Ġfine ly
ĠTe quila
ĠWill y
Ġdelight fully
Ġham mered
erm at
Ġprot ection
nSecond ly
ĠBO GO
Ġescal ators
ĠWHO LE
Ġslee ve
B ought
F rench
J apanese
R oom
m aking
z oo
Ġt ai
om i
Ġnot re
ĠW elcome
ĠA qu
Ġli ars
se udo
ĠH ARD
ĠF B
ĠR us
to se
Ġ4 9
ĠSo da
joy ed
Ġiss ued
Ġstr ategy
Ġmouth ful
Ġpan inis
Ġcarpet ing
Ġsuccess fully
Ġredee med
ĠMus sels
Ġscore s
Ġdouche bag
ĠSho pping
ĠDa ily
ĠFed Ex
ĠQues o
Ġumbre llas
Ġcraz iness
ĠWON DER
ĠBeaut y
Ġexcell ence
' .\
L ooking
S ometimes
d essert
Ġs ar
Ġc inema
ic ate
Ġj ets
Ġsp elled
Ġcon fess
ist ine
ĠK oi
Ġline up
Ġpos es
nH ot
Ġbelie ver
bur y
ĠSe lection
Ġ200 5
ĠSpr int
Ġmile age
ĠMeat balls
Ġfile ts
Ġstret ched
ĠThink ing
sha ped
Ġasse z
Ġcott age
ĠRA W
Ġvari ation
Ġtread mill
Ġstere o
ĠOP EN
Ġooz ing
Ġeffic iency
0 2
H a
b esides
d ish
Ġw ird
Ġto re
Ġd uct
ot re
ĠT ax
Ġth irst
Ġst unk
ĠW EE
ĠC ES
ĠH aze
ig ans
um n
ĠR ab
gg ies
act s
fin ally
ĠAs paragus
Ġrec onsider
Ġmus s
Ġaut h
ĠSc ar
nE ither
ĠCr acker
Ġdefin etly
ĠGO ING
sc otch
Ġhint s
ĠFe ast
Ġbra z
Ġsocial ize
ĠLow es
Ġretro spect
Ġdiscl aim
ĠCHE ESE
Ġacid ic
Ġobsc ene
Ġwir k
ĠMur phy
Ġhoot ers
4 1
b usy
n as
or ation
Ġre b
ĠD or
Ġbet ting
Ġtr an
Ġright s
Ġext ension
ĠAl ice
the med
Ġrun g
oll en
nH opefully
Ġspend s
Ġcal ming
Ġhang s
Ġpan els
ĠChrist ian
ĠSm art
ĠSH OW
Ġesc ort
some one
Ġprofess ion
nSh rimp
ĠMA KE
Ġment ions
ĠHy att
Ġpod ium
Ġumbre lla
ĠOrgan ic
) ?
/ \
Y uck
b ou
d ifferent
m ati
st uff
Ġme ager
ĠS oul
out door
Ġr aces
ĠP resentation
!! \""
ĠL ulu
ĠG nocchi
Ġcon gest
ĠV W
ved a
Ġcame l
?? !
Ġcomplain s
Ġsupp le
Ġhair dress
Ġtom atillo
Ġapolog izes
Ġdep ressed
Ġtrans actions
Ġsim ult
Ġpositive ly
Ġuncom mon
Ġattract ed
ĠBoy friend
OOOO OOOO
onn ie
Ġdoub les
Ġuninsp iring
Ġtremend ously
ĠPres ident
Ġlect ure
engu in
ĠBik ram
Ġfloo red
7 2
B ack
c ott
h uge
n at
u ality
Ġw oo
ha p
Ġha unt
ĠT erry
ĠS K
ĠM mm
ĠC ru
Ġle aked
Ġfl im
Ġcl ay
Ġcr am
app ointment
ib ilities
Ġgrill ing
Ġfig s
Ġdesign ers
amel a
ĠPro d
Ġscrew s
Ġbright ly
Ġmacar on
Ġmaint aining
ĠChees esteak
Ġshall ow
ĠBen ihana
mean ing
Ġmaid s
wa iter
Ġaccompl ish
ĠBathroom s
Ġcarniv ore
Ġjun ior
Ġadmin ist
Ġlung s
Ġecst atic
e ze
Ġb og
ĠS pl
ĠS OOO
Ġch oc
ĠD ance
Ġshe ep
if ted
ale ment
nH igh
Ġgrab s
sh i
ĠWas abi
ĠOut standing
Ġmed all
ician s
tr aditional
Ġcrit ique
Ġinj ured
Ġunc aring
Ġlap s
WH AT
Ġflash y
ĠFar mer
nSh ort
Ġtha wed
Ġflood ed
ĠDur ango
Ġrasp berries
K EA
M et
O r
b reak
n or
o v
p id
Ġw en
Ġw ok
Ġth ursday
ec a
Ġk le
ĠN om
Ġcan e
Ġde eper
ĠV ista
ol ini
urn s
nA wesome
nS erver
ĠK raft
Ġfound ation
Ġemploy ed
ĠPl atinum
ĠWell s
Ġappreci ative
ĠJo ey
ĠCl aim
ĠPe ppers
ĠCar pet
ĠAT T
Ġill ness
sal sa
Ġbou quet
ĠAB C
ĠMAN AG
Ġcockro aches
Ġtread mills
ĠCeas ar
ĠEll is
Ġpir ate
Ġsalv age
ĠOri ental
C har
S adly
c ca
f ill
l ass
m os
n in
r aine
Ġ ****
Ġp anda
ing ing
ĠC UT
Ġdo l
ich urri
ie urs
nt here
ĠF ogo
ca fe
Ġfl ustered
if es
Ġgl itz
cha l
Ġstate ments
AL K
18 0
Ġblend s
Al so
char ged
ĠME AT
nJ e
ĠHal ibut
Ġexpand ing
ĠCarn ival
Ġlands cape
ĠED M
ĠGi ada
ĠThrough out
ĠSmooth ie
Ġsuitc ase
Ġvoll ey
B C
B reakfast
D el
P ar
P eople
l ery
Ġw itch
re ment
Ġj ams
ĠB ird
ĠN eg
ĠL INE
Ġpr incess
ig ator
Ġcon vent
Ġtw elve
Ġbr anc
Ġsc iss
Ġfavor s
nH ubby
ĠFl ag
Ġbri ghter
cr acker
Ġsuck ing
Ġdu o
Ġune aten
Ġrecord ing
Ġcit izens
WW WW
ĠLemon ade
Ġtost adas
Ġcloth s
Ġpil ot
ĠTus can
Ġlegend ary
Ġash tr
Ġquel ques
Ġpharmac ist
Ġay ce
d ling
f ancy
f ashion
l ock
v ate
v ised
is o
Ġp ity
Ġin ability
ĠT oro
Ġfor um
ĠS EC
ĠA bs
ab eth
ĠN igiri
ĠP V
ĠP ossibly
ĠO lymp
Ġle asing
ĠL CD
ard e
ĠR I
ĠR ush
ĠJ ob
ĠJ asmine
ĠJ OKE
ump ed
ĠLe m
Ġdump ster
Ġtend ed
Ġscrew ing
Ġcat alog
IG N
bb ie
ĠShan g
Ġbrace let
Ġconge aled
Ġrestu arant
ĠDiab lo
Ġcalend ar
I nd
i juana
w ich
Ġ %
is ive
ĠT iv
ĠC hai
... ?
ĠN asty
ie f
ĠD ane
ĠD airy
ig en
ĠV iet
ĠR ou
urn iture
be en
Ġchar ts
ĠIn c
Ġwalk ways
pl aced
oid s
Ġneighb our
Ġble nder
Ġdisgusting ly
ĠWI FI
Ġperiod ically
Ġhi pp
gu ess
rr r
ĠFranc is
Ġlapt ops
Ġpup usas
ĠTur kish
Ġassemb led
ENS IVE
g arlic
i ago
y ed
Ġb anter
Ġm mmm
an ne
om ic
Ġst amped
Ġwith d
ro asted
pp ino
ch ips
ĠD ONE
ĠD elta
ĠR are
ĠR osa
Ġmen s
Ġsl ivers
Ġgir ly
Ġcons ignment
Ġmid st
sh u
Ġsqu ish
ĠFl oor
Ġtrust worthy
Ġjud ged
ĠWOR K
ĠCor ona
ĠIM HO
ĠArt ichoke
sl ow
Ġspell ing
Ġpepp ered
need ed
Ġlac tose
Ġcaut ious
ĠChallen ge
5 3
d ue
e mpt
h ound
m om
s um
nd on
Ġf et
Ġf ires
ĠS oooo
Ġch ilis
and o
ĠG ardens
Ġmen udo
Ġbr ats
Ġbl ues
aw ful
ĠSp ain
ĠSp eed
Ġsub lime
Ġadv is
Ġsch nitzel
Ġaff ected
Ġtend ing
nSt arted
Ġdraw ers
Ġ19 80
Ġblow out
Ġbeha ved
ĠMeat ball
ĠTer race
Ġtodd lers
ĠRose mary
ĠBu ild
ĠCry stal
ĠCry stals
ĠHAPP Y
Ġtortell ini
Ġsoc iety
N EVER
] .
f il
l ive
o asted
Ġl aughter
Ġn ou
ĠC M
Ġwa ft
ĠF LA
ĠR aku
Ġloc o
Ġ3 4
Ġsl ipp
Ġreal istic
Ġcut ter
Ġsupp lement
Ġkitchen s
ĠBl u
nG iven
Ġpo ppy
nR ed
Ġfil ipino
exp erience
Ġlit ter
Do es
ĠSw itch
inds ight
Ġjer sey
Ġhide ous
Ġment ally
ĠOm g
Ġdispos able
Ġdemon str
ĠLaure n
nBet ween
Ġchrist mas
B oy
d irty
i olis
p ress
Ġp c
Ġg ained
Ġn in
ri me
Ġnot or
ge red
\"" -
ĠG rit
Ġ2 50
ment ed
Ġtw in
day s
Ġaw aiting
Ġgre as
iss ant
uc ive
?? !!
Ġet was
Ġinf ant
nH orrible
Ġsme lt
ĠTe am
ĠCom plete
arm a
Ġuns weet
ĠBet ty
Ġsund aes
Ġpint o
Ġdisco very
Ġacrob atic
ĠGall o
Ġbik er
Ġsubsequ ent
Ġcorpor ation
O CK
Y ES
r ude
Ġp seudo
Ġre act
ro st
ĠW ATER
ĠC ulinary
ĠF ett
Ġno ndes
ĠG ab
ĠG RE
Ġcl own
uff led
ĠK ansas
Ġsha vings
Ġrep orts
ĠNo ir
ted ly
Ġbutter scotch
ĠSh ut
Ġforg iving
AR T
Ġtap ed
Ġlemon y
ĠPh ill
Ġrespond s
Ġrot ated
hett a
Ġloose ly
Ġbrows ed
Ġviol ations
Ġcontr ary
Ġey ed
ĠCraft steak
g uy
i ams
he ated
Ġb anchan
st age
ĠS ant
Ġex ited
Ġex iting
ore nt
ĠB ren
Ġr ue
reat ed
ĠH ook
ĠH OR
Ġch ilies
ĠN ASTY
ĠL ARGE
Ġcon verse
Ġcon sole
Ġcl ick
nW hich
uc cess
Ġsimp licity
ĠDe an
Ġtort as
Ġfil ters
ĠAr by
Ġrot ors
nBe er
ĠCon vention
Ġpin ot
EE EE
Ġfinger ling
ĠSw edish
ĠCab ernet
Ġchick pe
nRoom s
forget table
ĠFer r
Ġconserv ative
ĠFili berto
oub tedly
Ġnondes cript
. !
5 1
A ut
Y ay
p ast
Ġw olf
re my
Ġc otta
Ġc umin
ar u
Ġbe ast
ĠT ail
ke pt
ome ver
ĠA aron
ĠC RA
Ġr age
am er
ĠP lain
Ġche eks
ĠL ate
ĠR ent
ist o
te a
Ġpret ended
Ġatt est
ĠK enny
Ġcut est
Ġstr anded
Ġsub mit
Ġpres umably
Ġspr ings
Ġhum ong
Ġdirect ing
bl ue
Ġgamb lers
Ġbump s
ele br
ĠFRE AK
ĠClean ers
,, ,,
Ġchic ago
ĠFA B
ĠRoad house
Ġenhan ced
Ġbib imbap
mans hip
Ġbac ter
Ġabsol ut
ĠBudd ha
ĠPets mart
icular ly
B et
D espite
W or
d aughter
g ence
Ġ icky
Ġw ishes
Ġm u
Ġm akers
Ġp ups
Ġd an
ic ient
et y
Ġpl atinum
ĠS ens
el o
ace y
ĠB ern
ĠB raised
ĠC eviche
Ġgo als
Ġr inse
Ġfr ys
Ġk om
est r
ĠH AND
Ġback up
iz abeth
Ġro d
ĠV ine
Ġpe aches
ol ine
ĠR ue
Ġbr as
nW H
ĠSt icky
Ġunder wear
io ppino
ew orthy
rit ure
Ġpol es
ĠCha p
Ġste m
Ġspr out
Ġcond ucive
lo ved
Ġsqu eak
ĠRo ot
ĠAny time
ĠCr unch
Ġver dict
cher s
ĠLV AC
Ġtab s
ĠMo e
Ġev ol
Ġbul b
ION S
Ġvel ve
Ġmedic ations
ĠEur o
Ġcub an
ĠLI FE
BE WARE
Ġsymp athetic
Ġdispos al
ĠKat ie
Ġrestara unt
f amous
l ooked
n os
Ġf ought
as ures
el ier
Ġsp ons
op y
ul ars
ĠP OS
Ġv otre
Ġman s
Ġpe p
ol ks
ĠR oc
ĠR oma
Ġatt acked
ĠK ai
Ġret arded
ĠBe ers
no ons
nN ew
nAl ways
Ġban king
Ġgamb led
ĠCH AR
In cred
Ġsett ling
Ġbelong ed
Che ese
Ġmaster piece
ĠFle mings
ĠEXT RA
Ġreward ed
ĠCook ies
ĠBle u
ĠYogurt land
Ġdiscour age
nReg ardless
ĠSkin ny
6 2
E l
L unch
U FF
W E
f le
i ert
l ord
m any
it is
or ity
ic her
Ġn orthern
ac her
ec ided
ĠN issan
Ġco pper
ig s
ĠE asily
Ġsm ug
be llo
Ġper used
oor ay
ĠK ha
reme mber
Ġhead aches
ĠUn acceptable
Ġmac haca
Ġsle azy
Ġimpro per
Ġ18 0
Ġwarrant ed
Ġdiss atisfaction
Ġtoss ing
Ġrang oon
Ġnuts hell
?!?! ?!
Ġtail or
ĠDenny s
Ġherb al
Ġkios ks
Ġcompon ent
Ġinvestig ate
ĠMeg an
Ġgau ge
ĠBever ly
Ġflim sy
F ive
Ġ ???
in ent
Ġm os
Ġd itch
en ade
Ġst acks
Ġso ba
ĠC ortez
un ting
il er
nT IP
Ġexp lic
Ġover worked
ĠL azy
im eter
Ġun finished
are l
ush y
Ġsec l
ang ular
Ġob tain
Ġsw amped
nM ain
ĠBur g
ĠMe mphis
Ġsales men
Ġtax is
enn is
Ġsouth western
Ġleng ua
Ġunus ually
Ġscratch ing
Ġstew ed
ĠLou ie
nSp icy
Ġapply ing
ĠDID N
Ġproud ly
ĠFar go
ĠFle ur
Ġplat form
ĠVis it
Ġreass ured
ĠCart el
Ġjale peno
Ġbless ing
Ġguid ance
Ġempt ied
I LY
U h
d ro
f ired
k om
t ap
Ġis le
Ġnot ices
ĠS ou
ĠS ed
Ġ( ~
ĠO G
ĠO ften
ĠD ES
ty p
own ers
ĠV ietnam
Ġye p
ĠCh ildren
Ġcheese burgers
Ġexpect s
Ġdry ers
Ġmis communication
ĠCl am
ĠCl ark
Ġwebs ites
ĠTr acy
ĠEn vy
ais es
Ġang us
Ġcro que
Ġmild ew
Ġgri me
ĠPepper oni
insp ired
Ġta vern
ĠEnt rees
Ġcomed ians
Ġdup lic
Ġintoler ant
Ġmarvel ous
ĠMON TH
D ON
G ross
J OR
K A
h it
r ine
y uck
Ġp ause
Ġg ent
ac ia
al ks
ood oo
ro x
ĠS aint
Ġli b
ĠM ellow
ĠB ord
ĠB arely
Ġk a
ĠP arl
Ġfe ver
Ġover booked
Ġcl ips
ĠE dge
Ġte asp
nW orth
Ġfin ishes
Ġgl imp
Ġban ner
ĠBE EN
Ġsun shine
Ġdeliver ies
ĠMon ro
Ġmanic urist
tr ack
ĠPH O
ht ml
ĠFred dy
Ġwha ck
Ġthie ves
pha zard
Ġdur ation
Ġslipp ery
F r
L ots
j as
j ection
m ale
Ġw is
it ate
Ġg ad
Ġst ages
ĠS ort
Ġso ci
ĠC oors
Ġcom mend
ul i
ĠD H
ĠD Q
ĠG reasy
ect s
to ber
Ġsl ippers
ĠJ oint
Ġsc ammed
nA mazing
ĠHe fe
Ġcons umption
Ġ: \
Ġgener ation
ins ert
ĠChe vy
ĠNE XT
Ġtrans form
ĠCr isp
nthe tic
ĠBo ca
Ġaltern ate
ĠJe remy
reg on
ĠHar vest
Ġcamp ing
Ġcollect ed
ĠNight club
ĠHam achi
Ġdistur bed
Ġsurf aces
ĠPros ciutto
ĠScr amble
ĠDian e
Ġrar ity
ĠTiv oli
b ought
c ou
k t
k on
t ie
Ġha phazard
Ġbe ating
ĠS ting
Ġal oof
Ġsh ish
est yle
op her
ĠH oo
ĠH az
ĠO per
ĠD ire
ca i
ĠR ED
ĠY uk
Ġdec ency
az zy
ĠHe althy
Ġcool ers
Ġdecor ative
nM enu
Ġbrown ed
ĠLOVE S
oop y
Ġdev il
ĠWH ERE
ĠAS S
Ġcell ar
ĠReg ular
ĠJack ie
Ġdiagn ose
ĠSC AM
ĠMer cedes
ĠLess on
Ġmol asses
nCon clusion
Ġmotiv ated
ĠJam ie
Ġroyal ty
ĠTab asco
Ġrelig ious
A H
F il
W AY
b oo
w ish
y ay
Ġb is
Ġbe au
Ġj ail
out heast
and e
Ġle ash
oy e
Ġafter noons
Ġcustom ized
Ġar rest
nS kip
nB read
Ġfast est
Ġinf ested
Ġste ad
nL obster
ait re
ĠPe arl
roc ery
Ġneighborhood s
Ġcomment ing
ta ient
Ġver bal
Ġprote ins
Ġexcess ively
Ġovers had
ĠTort a
Ġblat ant
ĠTG IF
wart z
Ġceas ar
ĠYE ARS
Ġspong y
Ġsimult aneously
Ġvolley ball
P e
S ure
d eli
f are
en ough
Ġl avender
ut o
ĠT LC
ĠA veda
ĠB K
Ġr app
ol ic
oup e
Ġpass word
na ise
Ġcol ada
nE gg
Ġyelp ing
Ġadm ire
Ġsubstit ution
Ġrecogn ition
nV is
Ġcompens ated
Ġsubs cri
nThank fully
SH I
ĠBrew ing
ĠNap ole
ĠBa ha
ĠUlt imate
ĠOwn ers
Ġassess ment
Ġnodd ed
ĠINC RED
Ġdiscontin ued
d ecor
an za
om er
ĠT andoori
ĠM aking
Ġr it
Ġsh oyu
Ġca ges
ĠL imited
Ġfl amingo
Ġpre pped
avor y
Ġdi ves
Ġtake away
fe h
Ġhu g
Ġegg roll
nN eg
Ġspend y
Ġmouth watering
ane ous
Ġsqu ir
Ġsol ic
Ġaff iliated
Ġball oons
Ġlad en
ĠSha bu
Ġschedul es
ĠBu ca
Ġuni verse
ĠIll inois
Ġmol ten
nSte ak
Ġimperson al
ĠMatthew s
Ġcommun al
ĠABSOLUT ELY
orient ed
Ġearr ings
Ġwirk lich
9 00
N ormally
O pen
c ount
m aster
x ic
Ġt ale
Ġt ension
Ġg els
Ġl ids
ĠT owers
Ġh indsight
ent house
Ġhe el
ĠW right
ĠW omen
ĠA PP
ĠC oy
Ġal ien
Ġwa ves
ĠD oc
Ġam used
Ġcon ce
Ġcr ush
Ġinc entive
Ġav ait
Ġrec ession
cc as
Ġsn iff
gr at
Ġsort ed
AR Y
Ġfore st
Ġfa ulty
AZ Y
ĠRock y
bl ah
Ġobs erve
Ġpromot ional
Ġunw anted
ĠFire stone
Ġrev amp
Ġstret ching
Ġaccur ately
BE ST
pot ato
Ġempan ada
ĠTur f
Ġdram atically
Ġcris is
Ġtonk atsu
wr itten
Ġpall et
Ġsubur ban
Ġattent iveness
. -
L T
a iter
n ope
n atural
Ġt ah
it aville
Ġp ian
ĠS ally
Ġse qu
se at
ĠM ia
ĠB ub
ĠP amela
ĠF ra
Ġfl ick
Ġpre fers
Ġdon ation
ĠR icotta
Ġact ively
nS weet
og ue
AT O
nM ac
br ush
umb a
ering ue
lt ry
AL ITY
EL F
ett i
ĠHour s
Ġmal function
ĠCor ral
Out standing
Ġgri ddle
Ġleak s
Ġmattress es
Ġfuss y
Ġamuse ment
ĠSim on
Ġreject ed
ĠAndre a
Ġtablesp oon
ĠKore a
Ġhygien ist
Ġepit ome
ĠWONDER FUL
( $
d ri
d fe
m ails
z one
Ġw ider
Ġw ww
in cl
Ġm aps
Ġg ul
om in
ar ming
ve led
ĠS ex
ĠS ara
Ġan aly
Ġsh ipment
Ġall er
ind y
ag ic
ĠL iz
ĠCh owder
up e
Ġend e
nO bviously
Ġtaste fully
ex cuse
arl ing
Ġice cream
Ġspr ite
ĠSte ven
Ġcarry out
Ġeduc ational
Ġmary s
Ġauthor ized
Ġapr icot
Ġelement ary
Ġnause ous
Ġacqu ired
Ġwo ken
ĠFi eri
ĠNik ki
vl aki
Ġhumong ous
C ons
b uffet
f ounded
m at
Ġs ipped
as ma
Ġp ung
Ġd ort
Ġl ucked
at han
an ks
Ġha v
st ocked
ch on
ĠB ink
Ġfr itter
ĠP asty
ĠP enne
ag ram
ĠK y
Ġpar ade
Ġav ant
vent ually
Ġtemp e
ific ations
Ġpersonal ities
ĠWH EN
Ġnames ake
ĠFe z
Ġnut ty
Ġunhe ard
Ġdisres pected
ĠCorn ish
Ġsumm ar
wa iting
Ġfulf illing
ĠMor occan
Ġcough ing
Ġinconveni encing
Ġvague ly
Ġdele ted
Ġbast ard
Ġdisclaim er
ĠMANAG ER
T ING
W elcome
h ite
.. \""
Ġan cient
ess en
Ġk osher
ĠN J
ake asy
Ġpr is
Ġrest ing
ra ight
ĠV ar
gg ling
Ġsl ur
Ġbur rata
ĠNo Da
Ġdoor way
Ġass umption
reet ed
fortun e
Ġdet erior
Ġsuck ers
Ġreport ing
Ġcontract ed
Ġspread s
Ġpromot ing
ĠCon n
inc ing
Ġshock ingly
Ġbout iques
Ġenthusi ast
Ġfold ing
Ġgra ham
Ġbear able
nRec ently
Ġdiab etic
ĠAlbert son
ĠPec an
nCo ffee
tober fest
6 4
A verage
M E
f ra
m ixed
p rod
t asted
Ġa z
in ach
Ġto en
or ange
Ġg uts
Ġin noc
et es
Ġgo ers
Ġlo ses
Ġwa ge
Ġch i
ĠP harm
ĠL ex
ĠL una
ig os
ĠCh i
ĠK ar
Ġgl ove
Ġpur s
Ġstr ateg
Ġwall ets
pe pper
ĠWill iams
Ġmult itude
Ġtrad itionally
Ġho isin
Ġmail ing
Ġsens ation
ĠAL SO
Qu ite
vey ard
Ġdiff er
ĠRub io
ĠAD D
Ġdeduct ed
Ġvap e
ĠRad io
Ġspeech less
ĠSapp oro
Ġproclaim ed
Ġciv il
orig inal
M B
d ried
n when
w ild
Ġw ynn
Ġm ate
ĠI KEA
ic able
Ġre ndered
ri bs
Ġi ls
ab o
ĠB illy
Ġsh i
ĠH ate
nT errible
ĠF uck
Ġco kes
ĠD ough
ig i
ĠR ings
Ġri vals
Ġpay check
Ġdecided ly
Ġfun k
ang ing
Ġsme ared
Ġsmo kes
ĠCha ndel
ĠSc rew
ĠSc otch
ĠAmerican o
GE T
ĠAr ro
Ġbi as
Ġhighlight ed
Ġgod s
ĠHA IR
li able
Ġdrag ging
ien na
Ġein er
Ġinvest ed
ĠCorn ed
ĠPerson al
Ġstair case
Ġpou let
aaa ay
Ġbot ched
Ġplast ered
4 50
R P
e asy
g i
p aste
Ġt aker
Ġw imp
Ġs icken
ed o
at as
Ġha tte
Ġre llen
Ġh ousing
ad al
ĠS izz
Ġsa fer
Ġal es
Ġsh ines
Ġus ers
ĠD IRTY
Ġde pl
ĠG un
ig o
Ġbl essed
pr oof
Ġcream er
ĠBl ock
Ġsell er
?\"" ,
Ġdim in
ĠBo ard
Ġrespond ing
When ever
Ġcross ing
Ġvine gary
Ġeffect ively
Ġsight s
ĠFree mont
hand ed
Ġmeasure ments
mal ade
nApp etizers
bird s
whe at
Ġabrupt ly
ĠTOT ALLY
ĠCul ver
ĠFaj itas
Ġrehears al
6 7
B ased
t z
y rs
Ġm ak
Ġd orm
Ġha irsty
us al
Ġin ade
Ġon going
ri ad
st reet
Ġthey re
ĠA mel
ab solutely
ĠM ais
ĠB tw
Ġfr amed
ĠP hantom
ĠD ressing
ort ion
Ġover weight
Ġcon sequ
Ġman ual
Ġbl aming
Ġper ception
nS O
io ca
Ġgroup ons
Ġcho ked
nC alled
ai res
Ġsch m
ĠPal mer
Ġpract icing
Ġver ge
Ġpound ing
ĠBas eline
ĠAd v
ĠHar ry
ras se
Ġadequ ately
Ġgra ve
Ġoblig ated
Ġtint ed
ĠMA JOR
Ġgan ache
ĠAlbert sons
ĠFoot ball
user id
Ġnour riture
Ġreun ion
S ON
Ġs izable
Ġf att
ĠI ck
om o
Ġe go
ĠS i
Ġwh ir
ĠM aui
ĠC ellar
Ġgo nd
am an
ĠH it
ĠH el
ĠH ungry
ĠL ines
ĠR eno
ĠR andy
Ġbar king
ĠJ ill
Ġbur den
Ġper plex
Ġar my
Ġel bows
Ġmon it
Ġcut lery
Ġmar riage
Ġbath s
ition er
Ġappro achable
Ġdist ant
ĠST OP
nU sually
Ġpan na
Ġenv y
Ġill usion
Ġmacar oon
ĠCon f
Ġrob bery
Ġtam arind
Ġcos mopolitan
ĠMag giano
Ġlog ic
Ġaim lessly
Ġdispens ers
ĠCock tails
ĠTender loin
Ġrevol ving
Ġpsy ch
Ġaficion ado
Ġphilosop hy
Ġflaut as
/ $
G B
f our
r ich
w tf
is oba
Ġp ing
es ter
Ġl ure
ir y
ĠB achel
ĠP or
ĠF orn
Ġover come
ĠR eturn
Ġun forgettable
Ġcr inge
eg r
fore st
igh ter
Ġsc ope
ĠHe ard
Ġsha pes
lain ed
Ġsur charge
Ġsur geon
ĠIn ter
ĠBe ars
nF ries
Ġrequ iring
nD e
ey es
Ġaut ograp
Ġste ered
Ġbell s
Ġrock in
ĠChrist ina
Ġbak er
Ġrefres hed
Ex pensive
ĠAd ams
Ġformer ly
Ġvacuum ing
Ġcos mo
Ġ$$$ $
ĠClass y
Ġcheesesteak s
ii ii
ĠTam my
ĠSher aton
Ġcris ps
Ġgoss ip
Ġpronoun ce
ĠRem inds
8 2
E ver
K ES
a ver
t ops
t otally
u ries
nd a
Ġf ate
Ġm ates
Ġp imento
Ġbe aring
Ġh mmm
ill i
ĠC ur
ĠC redit
ess a
am ins
ĠF res
ĠO regon
Ġam id
ĠL ET
ĠL ESS
Ġpe ep
ist ics
Ġun agi
Ġ3 9
Ġcha ndler
Ġopen er
Ġbas h
oun g
edi en
Ġcheap ly
Ġclass ier
ĠRe asonably
Ġstraight forward
Ġund oubtedly
ĠCent re
ĠUS PS
bread s
Ġrot i
Ġfool s
Ġprof its
Ġcrit eria
Ġfres co
Ġmor al
Ġstun ts
ĠDep ending
ĠTIM ES
Ġavo ir
ĠCup cake
ĠBrit ney
ĠDom inos
Ġadop t
Ġreimbur sed
Ġflor ist
Ġscor p
Ġank le
ĠCOMPLET ELY
Ġcrost ini
, )
e ating
n acle
r ac
el a
Ġplace ment
ĠM am
ĠM aple
ge e
ĠP ed
Ġv amp
ĠD B
ĠL av
Ġrest ra
Ġdi al
izz y
ĠU gly
uc her
Ġcool ant
co ver
LE NT
Ġneg ot
ĠTe pp
edic ure
mod ern
Ġentr ances
ĠWed ding
Ġmill ions
achi os
Ġmanage able
ĠShould n
ĠWITH OUT
Ġunexpected ly
Ġbagu ettes
ĠGall ery
Ġveter an
resp ond
Ġcarbon ara
Ġinconveni enced
Ġtex as
Ġsaliv ating
ĠJale o
Ġsecl uded
C ould
R es
T onight
b ooks
m orable
Ġa ver
in co
Ġs ect
Ġo x
ĠI V
ic ted
an ical
ĠS ter
ab s
ĠM ach
ĠB our
av is
ĠD odge
Ġkn ick
ĠV ent
ol t
Ġsl ipping
Ġsl iver
ĠK ings
ĠSt an
Ġcost co
Ġbelie ving
Ġmean while
nM usic
ĠDr unken
ighb or
Ġtotal ed
Ġhum ans
ĠPr incess
Ġwin ners
ĠST ORE
ĠREA D
Ġmot ions
Ġdisp atcher
ĠBas ic
Ġ19 70
ĠBL AND
Ġgri ef
Ġident ified
Ġunnecess arily
Ġdiscl osure
Ġbol t
Ġfrost ed
Ġharass ing
Ġcontro ls
Ġhelicop ter
S C
W anted
g ourmet
Ġs ie
Ġs ought
Ġto bac
on ing
Ġre uben
Ġy ams
ri or
Ġst ub
st ory
ir lfriend
Ġnot eworthy
Ġas p
Ġfr azzled
ĠH EA
Ġdis rupt
Ġco al
ort ant
ĠL ad
ĠR ound
Ġsc off
nA m
ĠSt upid
Ġtell er
Ġbo ast
ĠAs soci
Ġappet ites
nN EVER
Ġ7 2
ĠTh ick
Ġplus ieurs
Ġz iti
Ġinst ances
ini est
ĠSte amed
ĠGr ind
ĠHot wire
ĠMc G
Ġdesp ise
Ġpress ing
Ġmed iterranean
Ġdad dy
Ġlaw yer
Ġland mark
Ġbedroom s
ĠDan ielle
tw ice
Ġdoc uments
Ġconsult ant
Ġearn s
CA USE
ĠRub y
nSal ad
Ġdepend able
App arently
ĠDOLL ARS
Ġcompr ised
ĠRab bit
L ook
P ro
i els
p y
p ossibly
r ome
re z
Ġp omp
Ġl oooo
ĠT X
ec he
ĠB us
Ġ( #
Ġr aff
iz ers
ĠR uben
ĠY AY
Ġcr umble
Ġbus sers
ĠJ ared
Ġswe pt
iss on
Ġrep as
Ġsur g
Ġkid ney
Ġemploy er
Ġsk irts
ung en
nH is
ĠBl ossom
ĠCl inic
ĠSU SHI
Ġfoc using
US H
iant e
Ġbuzz er
Ġexpert s
Ġcub e
ĠRep air
Ġstroll ing
Ġcateg ories
Ġoccur rence
Ġsneak y
Ġgradu ate
Ġhistor ical
Ġdrap es
Ġshat tered
ĠMAY BE
Ġadorn ed
ĠJord an
b land
p acked
Ġd ating
Ġe u
Ġbe gged
ĠT ak
Ġat rium
Ġsa ki
ĠM ultiple
ĠB reak
Ġk ennel
op ening
Ġlo ft
res cent
Ġch ives
ĠN W
ĠD U
ĠG round
ĠE sc
Ġun con
Ġun ivers
eg o
uc ci
Ġrem over
!!!! !!\
Ġinf uri
Ġval ent
ract ive
Ġsqu ished
nR estaurant
ĠBE CAUSE
Ġven etian
ĠAr nold
ĠCent ennial
Ġexpl ode
Ġsuck y
she ll
Ġprem ier
Ġcommunic ated
Ġcry stals
Ġcancell ing
ĠBud dy
Ġdeb ated
nDessert s
Ġsymp athy
ĠFRI END
Ġfrag rant
Ġfant asy
Ġemot ional
Ġsadd ened
sec ret
Ġcoinc idence
Ġunatt ended
Ġgaz pacho
Ġpha se
ĠMosc ow
Ġpung ent
9 7
G REAT
h opefully
k ens
m ous
s ub
t ra
v ial
Ġt ing
Ġp ina
Ġp aced
Ġd it
Ġd ome
an ing
ri k
ood les
qu iri
ĠP oblano
so on
ĠD ee
ag in
ĠL ite
Ġman ning
Ġag ing
Ġcr inkle
Ġneed le
Ġcha sed
Ġbur lesque
uff in
Ġph oned
Ġref urb
Ġconf lic
Ġbook marked
Ġpresent ations
ĠQ T
ĠSte w
ĠPe king
Ġstraight en
Ġtrust ing
Ġconv incing
Ġboun ced
ĠX L
ifi able
Ġune asy
Ġintrod ucing
Ġacrob ats
ĠCR AP
ĠPop corn
Ġflex ibility
ĠAnt on
Ġcoord inator
Ġgoss iping
ĠTast es
ĠDump lings
ĠAustr alian
ĠGord o
M ake
S ave
n not
p ill
ic hed
ot ion
Ġre all
ur able
Ġhe he
ie ur
av ier
ĠG A
Ġcomp ing
Ġbl ur
Ġres idence
Ġatt ribut
Ġbas mati
ung y
Ġdep os
Ġcrust s
Ġwed nesday
Ġmis fortune
Ġschool s
Ġbell man
Ġsun light
ĠSouth side
ok i
ĠFe el
Ġshoot ers
Ġens ured
Ġslo pp
Ġresemb ling
Ġfulf illed
Ġclut ch
ĠEXP ENSIVE
nEnt rees
Ġresid ue
Ġdisap ointed
ĠCustom ers
sandw ich
Ġindec isive
Ġathle tic
ĠRET URN
ĠSed ona
L OL
M I
P RICE
T ake
g ia
Ġp ens
Ġp oblano
or al
ic i
an z
us cious
le tt
ĠT rio
Ġhe ed
ĠW y
ĠA w
ĠM EN
ĠB enny
Ġlo ser
ink led
ĠL ay
ĠG er
Ġpro stit
Ġen vision
ĠR ow
ĠR ail
uck le
Ġchar lotte
Ġunder done
Ġtop ic
fe el
Ġhouse keeper
Ġexc r
Ġmar quee
Ġins ides
ĠUn ique
Ġint est
15 00
Ġwed dings
ĠBE ER
Ġsepar ating
that s
Ġspect rum
ĠDis hes
ĠAng ry
Ġinvol ves
Ġappl aud
Ġsoap s
ĠFry s
Ġcub ed
Ġstroll ed
ĠVeget ables
ĠDVD s
bro iled
ĠEle phant
Ġremark ably
Ġscoot er
Ġturt le
ĠCarp accio
orent ine
ĠChandel ier
b ot
c oup
g rill
in side
Ġc ir
Ġre opened
al oupe
Ġmy riad
Ġpl ugged
Ġwa aay
Ġch in
Ġpr aises
ĠV eter
Ġdown grade
nW ine
Ġtr ink
oc ca
Ġfin er
pr om
Ġdecor ate
nC rab
nP ho
Ġcounter part
Ġest hetic
ĠTHE SE
sp a
arb on
Ġhands ome
Ġforget ful
ĠPr inces
Ġsupport ive
Ġaccount ing
ĠLa ura
Ġrav iolis
ĠBo a
Ġindic ates
Ġindic ator
ĠHar ley
Ġev idently
ĠAngel a
Ġgri my
Ġjunk ie
Ġanticip ate
Ġscrap ing
Ġspark ly
Bl ue
ĠAtt entive
Ġaggrav ation
Ġbrun ette
ĠFrit es
ĠLOC ATION
ĠKID DING
Ġsciss ors
Ġglimp se
! ?!?
H E
L ocation
Q ue
Ġs ate
Ġc uss
Ġd ign
Ġst ormed
ĠS N
ĠA k
ĠM L
ĠC E
Ġgo bb
ĠN ine
ĠD ent
ĠD ra
ĠG one
here nt
Ġgr ains
Ġcas hed
Ġter rit
Ġsn ake
ĠTh row
br and
ĠChar les
cr ust
ĠMon ica
Ġuns us
Ġspread ing
Ġmer ry
Ġsus pected
???? ????
ĠSch wartz
Ġdumb founded
ĠIM P
Ġplant ain
Ġshout ed
Ġsurv ived
Ġlin en
ĠAnn iversary
ĠTart are
ĠUt ah
squ are
Ġretour ner
Ġward robe
Ġprend re
Ġteasp oon
Ġtobac co
1 75
A gain
B OD
M ac
T op
f ection
g on
Ġs que
Ġf id
it ably
is en
ic ial
Ġme cca
ĠW ah
Ġso ck
ĠA ce
Ġi e
ĠC iao
ĠH ers
ĠP ope
ĠF ab
Ġpro ves
Ġpre ced
Ġri en
nW ish
Ġgr ows
Ġav acado
und lich
Ġtown ers
no verall
nC r
ĠDe bbie
nM ar
Ġsy nthetic
ĠBr un
ĠSte er
Ġwra ppers
ĠPro fessional
Ġund ers
ok er
ĠIT S
OUS E
Ġsuff ers
Ġinteract ions
ĠPa ella
ĠIM AX
Ġindul ged
Ġgrow th
Ġsuc kered
Ġfaith ful
Ġcush ion
Ġcarmel ized
Ġsweep ing
Ġsplend id
Ġsupple ments
Ġwithd raw
$ ,
+ ,
f aced
g reasy
s me
Ġa mend
Ġb a
Ġp owered
at hing
ĠT C
Ġth ou
al ue
Ġy uzu
ent h
st on
Ġpl ot
ĠS et
Ġor che
Ġse mb
ĠP J
Ġv ul
Ġv ip
Ġover board
Ġsc um
Ġpot atos
Ġsk im
man agement
Ġfac ade
Ġdam ages
Ġele gance
Ġpract ical
Ġdump y
rom pt
Ġir ked
........ ...
Ġtrack ed
Ġexam ined
AND ING
Ġinteract ing
nec k
ĠRoy ale
ĠTurn ed
At mosphere
ĠKab uki
ĠESP N
Ġbridesmaid s
ĠSTA FF
8 6
_ -
d ark
g od
v ironment
Ġt as
Ġa hold
Ġha lo
ĠT reat
Ġy ield
Ġpl a
ĠS we
ĠS ucks
ĠA part
ĠB obbie
ĠC OR
ĠP D
ĠF avor
Ġqu ad
ĠG C
ĠV ons
pt ive
ud el
Ġbl og
ĠJ ewel
nS ur
ĠK ate
ĠU YE
Ġsha ving
Ġpat ios
ĠIn g
ump ing
nM eat
de ep
Ġmac kerel
ĠCr unchy
ĠGu est
Ġrock y
Ġconcept s
ĠCas inos
Ġconcer ning
Ġobs ession
ĠSun rise
Ġchallen ges
Ġwhis ked
Ġsuppl ied
Ġeth ics
ĠFrank ie
Ġmes mer
Ġfett uc
Ġdynam ite
Ġwer den
Ġlitt ered
Ġashtr ay
fashion ed
) !\
? ).\
P al
p ard
w ife
Ġre vers
Ġh oused
ĠS or
ĠS riracha
ust ers
Ġro ped
Ġdon ated
ĠR ack
Ġcr ooks
ĠBe v
Ġ6 00
Ġhead phones
ax y
Ġshort ed
Ġmar g
amb o
Ġconsider able
nG ranted
ĠBr uce
ĠCom fortable
ĠRock s
ĠEl izabeth
Ġmark up
Ġresearch ing
Th ough
Ġgri m
ĠOpen ing
ĠTrop ical
ĠCup cakes
ĠSW E
ĠColl ege
ĠCash ier
Ġreve aled
Ġlif eless
Ġflake y
Ġfing ern
Ġdehy drated
Ġblo ated
Ġdecept ive
0 6
A nn
f old
m ith
x iously
Ġw rest
Ġl ash
Ġl assi
Ġy ada
Ġh obby
ĠS D
Ġsu e
ĠH onest
ĠH ula
ul ce
ick in
ĠF IL
ĠL ag
Ġman g
ĠV i
ĠV u
Ġpre view
Ġdr ums
eg gs
Ġfam ished
Ġrec on
Ġcur se
Ġroad s
ĠCas ual
Ġcontract s
Ġ19 50
Ġrecord ed
Ġinsp iration
Ġcop ay
Ġincom plete
Ġpun ched
Ġeager ly
Ġlog ical
ĠScall op
Ġproport ion
Ġtepp an
Ġemphas ize
watch ing
Ġcomed ian
Ġlinger ie
ĠSteel ers
Ġbog us
U CE
u er
Ġw ires
Ġc ue
Ġm s
ou ry
Ġp ushes
Ġl echon
Ġn uis
ĠT ag
Ġli ability
ĠC F
ĠC affe
end ant
op ita
ĠH IS
Ġback ing
ĠO xtail
Ġdis ast
\"" ),
ĠL on
im ilar
Ġshe d
ĠE V
ĠR ye
Ġtw eak
Ġdi aper
gg gg
Ġcha sing
are r
nS ad
uck er
Ġatt ach
ĠSt out
uc asian
Ġmusic ian
ĠTH INK
Ġpri zes
Ġmar ch
Ġrid ic
ĠSp ace
Ġmass aged
nE xt
ĠLe ith
ĠGu adal
ĠMad ness
ĠSha wn
nWhat ever
Ġfly ers
UM P
Ġinstall er
Ġunl ocked
sal mon
ĠDes ign
Ġneck lace
Ġstat ue
fc n
nChe ap
Ġpen al
Ġbargain s
Ġflash light
Ġroutine ly
Ġpier ogies
ĠSUCK ED
arc ia
Ġnugg et
Ġlec hes
ĠVol cano
Ġintell igent
Ġscold ed
Ġunsus pecting
S L
T e
l oo
m ay
r als
t ly
w rong
Ġ ^
he at
in ters
Ġb ind
Ġb att
Ġp anko
Ġl uscious
Ġha ting
ĠS lightly
el ines
ĠB in
ĠC ott
Ġjust e
ĠH ibachi
ist ry
eri as
Ġdec ked
Ġtw ins
Ġdown load
Ġnew bies
leas antly
nF ish
uc iating
und ry
Ġcor respond
Ġread ers
Ġconf use
Ġsent iment
Ġsch le
ette bello
Ġdealers hips
Ġcop ious
Ġinstall ing
Ġunl ucky
ĠSur f
Ġconsum ers
Ġshar ks
ĠOrd ering
ups cale
Ġparm igiana
Ġtoler ance
Ġflavour ful
Ġinspect or
Ġslee ves
Ġmont real
arls ru
ij ing
Ġbicy cle
ĠLem ongrass
Ġunsweet ened
H ouse
T L
b ul
t ight
t ons
Ġw ipes
Ġha bits
ke ye
Ġu mm
ĠA H
ĠM ule
ĠB AC
ĠH ometown
ĠN ike
Ġcan vas
ĠO pt
ct ors
ĠV ers
ĠVeg gies
ound er
Ġent ice
Ġres c
ens us
Ġswe ars
-- \
ny ou
Ġcomple ting
Ġbel ts
oll a
Ġpass port
Ġins ight
nP ool
nD es
Ġcrisp iness
sh ot
Ġtrad ed
Ġweak ness
ĠRE I
Ġinvol ving
fc ck
Ġtattoo ed
ĠAut om
Ġminimal ist
Ġsnob s
ĠArt isan
ĠHam pton
Ġdread ed
Ġsen iors
Ġment ality
ĠNap a
nGet ting
ĠSOME THING
Ġglam orous
Ġdemon st
Ġinha led
ĠEnchil ada
ĠBrid al
ĠBritt any
BOD Y
, ...
8 7
T R
c ra
c ough
c ents
c overed
p at
t imes
in arian
re commend
ac ies
ri ence
Ġhe s
ff iti
ĠB olognese
out ique
am o
Ġle eks
Ġco arse
ĠD rove
ĠG eez
Ġtw isted
Ġgu ava
ond ale
ĠJ C
Ġgr out
Ġgr ands
Ġmust er
pl ate
Ġmid west
Ġob t
Ġob st
Ġfro g
ĠNe arly
ĠEx ecutive
ED I
12 00
Ġele phant
Ġtrain s
con ven
ĠCl os
Ġvi el
ĠST K
nU ntil
Ġpet ty
Ġdev ast
Ġmot to
Ġvent uring
Ġelect ed
Ġdouche bags
Ġvalid ate
Ġfunction ing
ĠPlay boy
Ġkits ch
bro ken
Ġgrowl er
Ġming le
Ġlollip op
Ġdee med
ĠBure au
Ġfra iche
nMo ving
Ġmedall ions
ĠParl or
Ġdepl orable
D R
d ont
n our
Ġm eringue
as ingly
ed uc
ĠT aking
ĠT aj
Ġme aly
ĠS ab
ĠA mbience
Ġus hered
ĠH aw
Ġcan y
av id
ort heast
Ġ- \
ob ody
ĠSt arting
nB athroom
amb led
Ġton es
Ġsw apped
ĠFirst ly
ĠBr at
nY elp
Ġcreat ures
ĠNice ly
ĠSO L
ĠĠĠĠĠĠĠĠ Ġ
ĠCas ey
Ġintern al
Ġjack pot
Ġdiss appointed
Ġhook ers
Ġpower ing
oriz ation
Ġabs ence
Ġdistract ion
Ġeduc ate
ĠCR AZY
ĠYard house
Ġpercent age
Ġalert ed
Per haps
Ġrepres ents
Ġtonk otsu
ĠOWN ER
Ġmisunder standing
ĠHR H
ĠSto ck
ĠTob y
B UT
Y OU
g un
m ax
p res
t astic
w er
Ġ |
Ġt iniest
Ġg ew
us ions
Ġin acc
Ġre hab
id i
ĠS ooo
ĠS amba
Ġse m
ĠB FF
ĠB eds
Ġfr ank
il worth
Ġup hol
ĠN aturally
ĠD EAL
ĠG us
ĠY u
Ġun used
az es
Ġmon op
IN N
nH ope
Ġsw irl
Ġaut res
Ġspr int
Ġgame y
ĠBur GR
lo ading
Ġtext s
ĠCar rab
Ġbrand y
**** *
Ġmed ley
ĠBo om
Ġconnect ions
was n
Ġcommunic ating
ĠImp ossible
Ġpap rika
ns ervice
lli ptical
emp ty
ĠFle ming
Ġstain less
Ġsouff l
ĠUlt imately
Ġfasc inating
Ġscant ily
Ġoptim istic
Ġrapid ly
Ġgroo ve
Ġprincip al
nPort ions
Ġbrut al
rican e
ĠHamb urger
Ġbegr udgingly
ighbor hood
E P
m ass
Ġw ired
Ġto ken
is che
Ġl ur
Ġl ug
Ġn osh
ld om
ad din
ĠS ke
Ġor th
ĠW inter
ĠC ARD
Ġk iwi
Ġsp at
ĠP ant
ĠP ist
Ġexp enses
Ġro e
Ġde er
ig ible
Ġ1 30
ap olitan
ach t
Ġrem n
ĠTH e
Ġmix er
Ġsn atched
Ġce ment
Ġtre asures
uy a
mmmm mm
ĠID s
nTh ose
Ġgarn ishes
Ġchim ichurri
Ġsky line
Ġvalid ated
Ġpier c
ĠTre k
Ġcapt ure
print s
umin um
ĠRel ax
Ġremar ked
ĠOs so
Ġcomprom ise
nEd it
Ġreflex ology
ĠRang oon
Ġhairdress er
Ġbacter ia
ĠHaz el
Ġrellen os
0 3
M r
c os
c ata
e uf
t out
Ġf aut
Ġp ending
ĠT iny
Ġre eks
Ġh orm
Ġare pas
Ġwh omever
Ġse rene
ĠC ola
Ġgo in
ĠN am
ĠN orm
ag rap
ĠL ack
ĠL ED
Ġfl esh
ĠV illa
Ġcr owed
be lly
Ġaw some
lp ool
uff ice
ĠK om
Ġcream iness
nF r
Ġcho ck
Ġbuy ers
nC omp
Ġchill ing
Ġfurn ished
Ġrespect ively
Ġstri pped
Ġtight ly
ĠFe els
Ġinqu iring
ĠSat ay
Ġexplan ations
Ġbum s
Ġmercha nt
Ġpath s
Ġpist achios
ĠCat fish
ĠWar ner
Ġnib ble
nell oni
ĠCuc umber
ĠTat um
Ġexcr uciating
C AR
D irty
G reen
N G
S U
T ypical
m ushroom
r ink
Ġm ural
Ġp imp
ic les
Ġwe eds
Ġh uff
ch io
ĠB rend
ĠB ottle
ĠB edien
Ġk ar
Ġus her
ĠN AS
ĠP enguin
art enders
ĠD T
ra it
ĠV iv
Ġcha nt
Ġper imeter
Ġgr asp
ĠK arlsru
ss ss
Ġwar rants
ath om
Ġrecei ves
friend s
Ġsmo k
OR K
Ġcorn meal
ĠMar cus
ĠMon ster
Ġtrou ve
chi ato
Ġdev oted
Ġbounc ing
Ġaddress ing
Ġrang oons
Ġacknowled gment
Ġminor ity
ĠOct opus
Ġobno xiously
ĠMargar itaville
Ġimm ature
Ġtout ed
Ġisland s
ĠSoc iety
Ġped is
Ġ199 0
Ġbeg un
Ġcave at
ĠConc ord
Ġnutrit ional
Ġgast ronom
Ġfrost y
Ġneut ral
Ġbranc hes
Aut hentic
B U
B ur
N A
O mg
S a
g ian
k itchen
l os
m ini
p ad
s is
s econd
~ \
ĠI an
Ġg ust
Ġe lliptical
Ġbe cu
Ġhe aling
ĠA IR
Ġwh oop
Ġr d
il ight
ry s
Ġch oco
Ġv ocal
Ġdis dain
ort unately
Ġpe arl
ĠR ENT
Ġlook in
Ġ3 60
Ġbl ink
ĠJ ake
Ġsc re
Ġdes ires
Ġgr ungy
Ġfree ly
oun c
atch ing
Ġstand outs
Ġcra pp
nB eware
Ġacc um
RE ALLY
sa usage
Ġsn ide
zz le
nG rilled
ĠGr avy
Ġsol utions
ĠNY PD
Ġspice y
Ġrespect ed
Ġhon oring
Ġbrus hes
Ġjam ais
Ġconstruct ed
ĠCor on
Ġhy brid
Ġlean ed
Ġcalm ly
Ġdeb acle
Ġtrave lling
home made
bal anced
ĠTHANK S
ĠWont on
ĠPhili ppe
Ġoxy gen
Ġneighbour hood
Ġsquish y
Ġterrit ory
D inner
U nder
W ARNING
b in
c ock
f ound
l ux
l ooks
t asty
u ah
Ġc ooper
ou li
or arily
oo ze
ac an
ur ope
me morable
Ġpl asma
ter m
Ġse abass
ĠB right
ĠB ento
ĠC rap
Ġal uminum
Ġr ay
Ġus age
ĠN ancy
ĠP ain
ĠF urniture
Ġv est
Ġno vice
Ġpro hib
Ġun load
Ġdi am
ĠJ our
ĠJ OB
ub er
Ġ5 4
Ġlot ions
ĠK r
Ġ10 5
iss ance
Ġpot ent
Ġhouse made
Ġglass ware
Ġpass ive
ell i
Ġmix ers
gr ading
Ġmass aging
ĠBl iss
Ġappreci ates
ĠLe ave
ĠChrist opher
Ġir re
Ġsyrup s
Ġsoooo ooo
ĠWait ers
Ġknock s
Ġdecl ared
ĠUN DER
Ġengine er
Ġom akase
Ġviol ently
Ġvast ly
Ġwhim s
ĠShan e
ĠCre pes
Ġmethod s
ĠBelg ium
ĠQU ALITY
Ġsubt ract
ĠBry an
Ġpam pering
Ġwur de
ĠLeban ese
Ġwobb ly
ĠShang hai
Ġtah ini
D uring
D amn
Y a
c ant
h rid
n any
w oman
Ġ !!!\
Ġa x
nd ed
ot hes
Ġre levant
ri ly
ro id
ĠM agn
Ġdo s
Ġv a
ĠD OU
Ġde ba
ĠL au
Ġgot o
ĠR en
eg u
ĠSt ack
nO H
Ġemp athy
Ġfree bies
rip e
Ġrec overing
Ġmus sel
ĠAfter wards
nB oy
Ġrem orse
nP art
Ġcur sing
Ġfix es
Ġwind ing
Ġconc ur
VE D
Ġz ing
Ġmac adamia
isc hen
nU p
Ġscall ion
IT CH
Ġdepart ments
ĠOut door
Ġreception ists
ĠSun ny
ann ah
ĠChan nel
osit ives
Ġsuppl ier
Ġboot y
Ġfirm ly
Ġgra veyard
Ġscan ning
ĠNach o
Ġexerc ises
Ġmort gage
nQu ick
ĠAtl antic
Ġdiscour aged
ĠLeg s
Pho enix
Ġessential s
Ġhagg is
Ġjohn s
ĠDISAPPOINT ED
ĠHu go
ĠPret zel
ĠPir ates
Ġbir yani
ĠGrit s
estr one
U pon
g les
n ormally
p ower
p uppies
Ġt roll
Ġd art
Ġre arr
Ġy uk
id en
ĠS ound
ĠC B
ĠC atherine
Ġdo pe
Ġsh ifts
am ata
ĠN aked
ĠP app
ĠP iper
!! ).
ĠF O
Ġco x
ĠD ress
ag ged
Ġover loaded
Ġqu int
ĠG ru
ĠG arcia
ist ically
ud ged
Ġbr isk
Ġtri b
mes ter
Ġsc raps
ĠSt uff
Ġstar ved
ste m
Ġopt omet
enc er
Ġsimp lest
Ġhead lights
gan off
nP ersonally
Ġprod uits
Ġsn ail
ĠCha rdonnay
Ġcol a
Ġmod ified
Ġbud ge
Ġbell e
Ġbell ies
ĠOk toberfest
ĠĠĠĠĠĠĠĠ ĠĠ
Ġinit i
Ġ200 4
ĠX mas
Ġid k
Ġcomplex ity
Ġincre asingly
nYes terday
Ġfi xture
Ġoffic ers
Th ought
nCh ocolate
ĠDou g
ĠDEL ISH
Ġchal ked
Ġgradu ated
ĠSir loin
ĠHol steins
ĠChomp ie
Ġarom atic
Ġpenc il
, '
6 3
7 8
F YI
T E
Z Z
d uh
v iting
v ana
Ġt so
Ġw ifes
Ġl ion
ĠS ING
ĠW arning
se en
ĠM ole
Ġcom pt
ul ing
ĠG ina
Ġrest a
ect ar
ist en
Ġad obada
Ġ5 2
Ġprice less
uff alo
ĠK ee
Ġpar agrap
ient e
ĠAl right
Ġmon itors
ĠNO N
nN O
Ġ7 00
RE AK
Ġ9 8
ĠRe y
Ġbutter fl
Ġint ro
Ġmil ky
ĠBl ood
Ġforg iven
zz a
ĠEx change
Ġmas ks
Ġorgan ize
iest o
St op
ugg ing
ĠRock ets
nSt rike
Ġlead er
IR D
Ġflo ats
ĠMid wood
Ġsprink ling
Ab out
Ġrepresent atives
Ġmuseum s
ĠTA BLE
Ġdiamond s
Ġdistinct ive
Ġaesthetic s
ĠCraw fish
Ġos so
Ġnou ve
oye mon
Ġbecu ase
S un
T hen
t in
Ġw iz
Ġb ore
ha pp
Ġto kens
ve ggie
us able
Ġon site
Ġh mm
.. )
ĠC ath
Ġk ha
Ġab ilities
Ġsp iked
ĠH alo
ĠP ine
ĠP ong
ĠP ress
ĠO ops
so cial
ĠD ays
Ġthem es
Ġfl ab
Ġcomp ress
ĠY EA
ass ic
Ġcr ud
oc ial
nS ummary
Ġopen ly
Ġreason ing
ĠHow ard
nB ring
Ġ8 30
ĠSp ort
ĠRe ceived
iv ated
Ġint ric
ĠBr asserie
Ġbegin ner
Ġfoot age
ĠCan not
ĠBar ro
Ġstory line
ĠAr m
ĠBuffet t
Ġcirc uit
Ġlead ership
Ġshred s
???? \
nUn like
rep are
Ġrout es
Ġpor c
Ġaggress ively
Ġdoub ts
Ġine bri
Ġrag u
ĠUr bana
Sh ould
ĠFarm ers
Ġaest hetically
RR RR
Ġip ad
Ġoutwe igh
Ġgelatin ous
Ġcer amic
ĠAnton io
Ġnuis ance
7 4
? ,
H igh
I r
c ounter
k ok
m ist
Ġt ans
Ġa ria
in en
Ġs ous
as ha
ĠI gn
ĠT alking
Ġre leas
st a
ĠW ars
ĠA mb
ĠM D
un ted
Ġr ats
Ġfr own
ĠN ell
ĠO C
Ġle ider
ĠD oll
Ġper me
Ġ5 9
Ġshow ering
ens ity
Ġgr in
Ġgl aring
Ġstar k
ons ieur
Ġter rasse
Ġbill ion
nN ormally
ĠNOT E
nP oor
ĠSp ago
ĠRe vol
Ġsn ippy
Ġsw ung
Ġste ms
nE mp
Ġpict ured
TH Y
ĠIs ra
ĠSouth western
Ġdem ol
Ġoper ates
Ġbank rupt
ĠAd vent
gy pt
Ġadvent ures
Ġaccompan iments
--- \
nGo ing
ĠTw in
ĠPepper mill
Ġmunch ing
Ġori ent
Ġsneak ers
ĠGen erous
waitress es
Ġmode m
Ġrend ition
Ġorgas m
ĠEMP TY
respons ive
Ġsacrif ice
ĠBul gogi
nMin us
ĠLawrence ville
Ġbraz ilian
Ġwis dom
Ġpierc ings
F ried
T otal
n all
o is
Ġw itty
Ġc us
Ġy ah
.. .\""\
all ic
Ġhe al
ĠS ue
Ġan s
Ġ( &
ess ential
qu arters
Ġup loaded
Ġche z
Ġca ked
Ġfl irt
ĠE lev
Ġgu ides
gg ers
Ġcar wash
ĠSt art
ĠBe ijing
nF urther
Ġred s
nH ouse
nH ey
Ġcur ls
ĠTh urs
Ġsw iped
Ġfre ed
Ġsing les
che red
ĠSal v
ĠSal ted
Ġsum med
ĠZ in
Ġcand id
Ġir ish
ĠAd mittedly
ĠSH IT
Ġdisappe aring
ĠOl iv
ĠClean ing
cas es
Ġdissap ointing
Ġprevent ed
ĠFar ms
Ġparticip ating
Ġunre liable
Ġeyel ashes
Ġcashew s
Ġthie f
ĠIncred ibly
Ġster oids
Ġsubsequ ently
ĠLind sey
ccas ionally
A tt
H ighly
I nt
T able
c ited
k id
w on
z ak
Ġ zen
re ci
Ġg le
ri ers
Ġh oops
Ġst im
ĠA RI
Ġse ldom
ĠB EA
Ġr ash
Ġdo dge
ĠH I
ĠH ur
ĠN avy
ĠF reak
Ġv ir
Ġ1 15
ĠV in
ist or
com mod
Ġnever theless
Ġbu re
Ġbar ked
Ġbl oom
az ine
Ġbit ters
Ġsomething s
nO nto
ĠBe et
Ġpol ar
nD ay
nL ess
Ġbro ch
Ġkey board
Ġvo ir
ĠPark way
ĠMore over
ĠAC TU
inds or
Ġmor ons
Ġunc alled
ĠTw itter
ĠWild flower
itor ium
ĠCarne vino
Ġextraord inarily
Ġsymp ath
nCom ing
Ġheight s
nPl enty
Ġhem med
Ġsamm ich
ĠFAB ULOUS
ĠMonro e
PRICE D
S w
f usion
g us
Ġ !!\
he avy
Ġo t
Ġb ons
or ge
Ġn an
ĠT ELL
al ine
et ime
Ġj ones
ĠB aker
Ġlo s
ĠN ame
ĠN umber
ĠP leasant
os itive
ag an
ĠR U
ĠY o
Ġday light
Ġbr ains
nW alked
Ġtri mming
ĠCh in
Ġimp lement
nO rder
Ġroll ers
ho e
oun ced
ĠDon ald
Ġz e
ĠEx actly
ĠAn na
mus ic
ĠChrist ine
Ġconv o
ĠLa undry
Ġscreen ing
exp ensive
Ġcant aloupe
Ġcro ck
Ġsyrup y
ĠMo vie
ĠSqu ash
ĠAL OT
UL T
ener ally
Ġshoot er
Ġappl iance
Che f
ĠKim chi
Ġconcl uded
Ġovers ight
Ġparticip ation
ĠJose ph
wa ited
Ġrou ter
Vis iting
Ġignor ance
ĠSupp osedly
Ġbund le
Ġfreshen er
pho enix
ĠSund ae
Ġtablecl oths
Ġdistingu ish
ĠHoo ver
Ġinade quate
! ?\
F it
M ed
R un
e ms
h mm
r usted
s ave
y i
in ers
Ġs ighed
it ous
on ion
ĠT akes
Ġst ur
st ood
ter rible
Ġdo lp
Ġsh u
th m
Ġall es
Ġall igator
Ġab used
ĠL ush
Ġcon sol
ost ed
um a
Ġcr uel
Ġneed les
Ġbr ack
nW aiter
Ġdri pped
ĠTH AN
Ġmar ry
iv an
Ġplan ner
Ġsw ollen
zz zz
Ġappro aches
Ġsqu at
isc us
OW EVER
ĠCr owd
ays ian
Ġgrand father
ĠNeed s
ĠWOR SE
Ġland lord
itan ic
IM E
tr usive
Ġdesper ation
Ġstre wn
ĠGy oza
Ġincons istency
ĠBuy er
Ġprepar ations
Ġling ered
Ġmeas ures
Ġcy l
ĠEXCE PT
Ġcloud y
Ġgimm icky
Ġinvestig ation
En core
Ġantipast i
could n
ĠList en
Ġprick ly
ĠRell eno
ĠCHAR G
Ġnegot iate
M c
c oll
c rew
f ig
u ate
u pt
he ther
Ġf ren
Ġf ucked
ou ver
en joy
Ġre vis
Ġfor ming
Ġme ld
ĠS AY
ĠA vis
ĠC ass
ĠC ob
am oto
ĠH orse
Ġno ir
ĠV inc
um er
ĠR and
Ġbar re
Ġper mit
nA ND
Ġdes cend
ĠK az
pr ices
ĠIn cluding
Ġcons ensus
Ġplay ful
nB ar
Ġbeef y
Ġinf est
ĠPl ant
gr own
Ġsoft ware
Ġdam per
ĠSe lect
Ġhum us
Ġdist aste
Ġmis ery
ĠCom plimentary
ĠTr aditional
Ġthrow back
Ġda wn
Ġmot if
nBe en
Ġstri king
see ing
ĠCost a
after noon
Ġrob ot
ĠMed ical
Ġretail er
ĠBab a
ĠMal bec
ĠEd amame
Ġswing ing
Ġslab s
ĠShan non
Ġmud dled
ĠSAL AD
ĠWatch ing
Ġsnag ged
Ġeyel ash
Ġretire ment
ĠBren ner
B Y
H ome
M onday
c ule
l ocated
he e
Ġf ir
Ġp out
om g
Ġbe es
ĠT iki
ad ult
Ġal ors
Ġr am
Ġk ay
Ġsp or
Ġsp raw
ĠH app
ĠP remium
ĠF ew
ĠD ob
ĠL ately
Ġpre cooked
Ġun interesting
ass ing
Ġsm ith
Ġad apt
Ġ3 7
nW ant
Ġbl ossom
Ġgl ued
iss ions
Ġfun ctions
ĠAl addin
Ġass ign
Ġmar malade
nC al
nC onsidering
olog ical
OU NT
ĠTo pped
OR M
Ġart if
Ġtemp orarily
Ġmis in
ĠMc F
rop ub
Ġflag s
nCh ips
Ġexceed ingly
Ġsop ap
ĠJul ian
Ġfinanc ing
Ġpil af
Ġawe ful
ĠOdd ly
ĠHab it
umm ies
Ġcosmet ic
ĠDol ce
ĠAud i
typ ical
ĠSting ray
ĠPope ye
Ġcany on
E d
F U
S outh
f re
as per
ed nesday
Ġg aud
al one
al ph
ad dy
pp es
Ġwh isp
ore sc
ĠB AM
ĠC ounter
op er
ĠN a
ĠP rest
ĠF ork
Ġv ice
av arian
av ais
Ġpr istine
Ġsal ade
Ġtw ink
Ġcr ummy
Ġbr ass
Ġbl azing
Ġbus sed
Ġper pet
ĠK ohl
Ġfun n
ĠAl ready
Ġcour age
nF inal
Ġmus ubi
Ġhuge ly
rit ing
Ġsme ar
ĠSh it
Ġla unch
Ġdet our
Ġtap ioca
Ġbab ys
ĠCom me
vert on
Ġmic rop
ĠQu est
Ġund es
omb ie
ron ics
Ġvol umes
Ġworry ing
was hed
Ġexec ute
Ġtou gher
Ġdelic ous
nRe member
Ġpap a
rep air
Ġbat hed
Ġproject or
restaurant s
Sh ort
nTr ac
Com ing
Ġacoust ic
Ġlec he
Ġaggrav ated
Ġcroqu ettes
Ġgru yere
Ġadvis or
+ \
B ecause
G od
M ike
c ups
j our
p asta
he ard
as u
ic ts
ĠT ee
ac i
Ġre vel
Ġy up
ĠS ettebello
ĠB ED
ĠB oss
Ġr ame
Ġr ins
th s
qu al
ĠH umble
ĠO uch
use ment
Ġover kill
ĠV IS
ĠR oo
oy al
ud dled
ip ers
nW ay
ĠK yle
ĠSt re
Ġrep et
Ġsec rets
Ġturn around
Ġstr omboli
Ġbutter fly
Ġran ked
ĠGr an
ĠCal iforn
ĠCal vin
Ġstraight ened
mo king
St rip
ĠOut let
Ġ200 3
Ġlic ensed
Ġscen ic
Ġstret ches
Ġgra ffiti
Ġhumor ous
Ġlump ia
rug ula
HA HA
Ar rived
col ored
Ġgee k
Ġlollip ops
does n
ĠAff ordable
ĠPhoen ician
Ġsar casm
rompt u
3 000
B uy
H aven
d amn
e ate
v ous
Ġp ak
Ġp ix
Ġd arling
at us
Ġn y
Ġfor ces
ĠM az
out ube
Ġsh rive
Ġab ras
ĠH OME
nT ips
ĠF und
ĠO t
ĠL loyd
im agin
Ġdrink able
Ġun for
Ġwell ington
Ġbl ob
Ġtr icked
Ġunder age
Ġrec y
ang a
Ġ9 30
Ġpol o
ĠChe v
Ġstra p
nM on
AN GE
Ġpresent able
br ing
Ġfore head
Ġmis placed
ĠTr ain
ĠMc K
pet ta
Ġrot ting
Ġ; -
ĠRes ervations
Ġmor sel
Ġeth ic
Ġoblig atory
ĠMean ing
Ġsanit izer
Ġatm osp
ĠBre ast
empt ion
Ġsummar ize
ĠBAC ON
ĠSING LE
D ay
L ooks
M C
M s
U GE
b ottle
l ake
m ac
m ix
n food
p in
Ġd unk
Ġd ermat
an ca
om ing
ĠT iesto
ac ial
Ġon s
Ġbut chered
Ġwh iz
ch or
ĠM ale
ĠM aid
ĠB uck
ĠH mmmm
ick ory
ĠP aneer
and el
ĠF IRE
Ġcon greg
Ġrest ric
ĠV isa
Ġag rees
Ġdi ving
Ġtri pping
Ġtr ace
Ġke eper
Ġdisappoint ments
ĠSt acy
Ġsandw iched
od a
Ġret reat
Ġ10 30
ung al
Ġ7 30
nP e
pl er
Ġchocolate y
ĠPl umbing
Ġnon chal
Re ad
Ġbrus sels
Ġtooth paste
acc ording
bu ilt
ĠJul ia
Ġspe akeasy
ĠPA ID
clean ing
ĠBle h
ĠMast ers
ĠFind ing
ĠJes se
ĠFore st
Ġexpans ion
Ġzomb ies
Ġpronoun ced
Ġinev itably
Ġcray ons
A VOID
T I
c any
r ons
Ġg eez
Ġg ouda
an os
om y
ar med
ĠT asting
Ġth under
Ġpl ut
ĠS ac
ec co
ĠC indy
Ġsp itting
Ġwa iver
ĠP RI
Ġv indaloo
ĠO no
ct uary
ĠV ida
Ġcl imate
Ġhour ly
Ġ5 6
ĠHe inz
Ġfun eral
Ġsec ured
Ġsweet ener
Ġfill ers
Ġlight ning
nD ecent
Ġmid way
Ġhit ch
ĠDel ight
Ġdef rost
iche ver
Ġuns uccess
Ġflag ging
Ġcontract ors
ĠMo jo
Ġpure ed
Ġincre asing
nSome one
Ġindul gent
Ġdissap ointment
Go ing
aught y
ĠEnt ree
Ġargument ative
Ġstreak s
Ġthigh s
ĠSak ana
Ġreplen ished
hearted ly
ĠQuiz nos
ĠChap el
Ġdiam eter
Ġtrib ute
( (
M ay
c reat
d uring
u itto
Ġ !!!!!
ha ving
Ġd anish
ĠS lo
pp a
Ġwh ore
ch u
Ġsa mb
ĠM B
ĠB ond
ĠB oring
hen t
Ġdo sa
op h
Ġlo aves
ĠP ak
ĠP edi
ĠF IX
av oid
ĠL ock
ĠG ree
Ġman che
ĠV A
ert s
Ġ4 3
Ġbit ches
Ġgl oss
ult ure
any thing
Ġins ists
pm an
Ġcur l
nL es
Ġmet allic
Ġeye ing
ledge able
ĠBr ick
ĠCl ips
Ġpad dle
Ġbi king
Ġnecess ity
Ġspeed s
17 0
Ġbang ers
ĠCap itol
Th ursday
Ġom lette
Ġsin ful
ĠPre is
Ġdedic ation
ĠFE Z
ĠDri ver
Ġabsor b
ĠVirgin ia
Ġovershad owed
Ġsect ional
educ ated
Ġdeba ucher
! '
e ur
Ġf urry
Ġp ittsburgh
ll ite
ĠT od
ro g
ĠS IGN
ĠB OO
ĠP ale
ĠP assion
ĠP rawn
ĠF oster
ine e
ĠD ilworth
ĠL AME
Ġrest ored
Ġpre occupied
Ġshe s
Ġag r
Ġag ave
ĠE cho
ol as
Ġdec re
we izen
urn ed
Ġsl ime
Ġbus sing
nS T
Ġclean s
ne ar
Ġgl itch
Ġreg rets
nF rench
nF ortunately
Ġsk i
Ġ8 8
nC ool
Ġseem ing
Ġpres ume
AT CH
Ġcorn y
Ġdep ot
nE D
nG reen
Ġtrans formed
Ġsun rise
Ġspect acle
Ġcirc ling
Ġcraw led
Ġbeha ve
EE P
Ġsecret ly
Ġiron ing
Ġfreak y
Ġignore s
HH H
Ġcoast ers
ĠPap ago
Ġlump s
ĠJames on
ĠBall s
Ġmemor ial
ĠBun s
nQu ality
Ġdai kon
E at
F e
F ESS
P ED
a its
d les
g io
o il
p it
t ast
Ġa int
Ġs hen
Ġs assy
Ġm attered
Ġd inky
Ġe lle
ĠA way
Ġli que
ĠM ess
ĠN ak
Ġback pack
ĠD A
ĠG oyemon
im an
Ġfl ipp
ol s
Ġcomp osed
Ġdec on
ater n
Ġrecom mand
Ġhis p
Ġunder seasoned
Ġstand point
nF ive
co ast
ĠSp oke
Ġprov iders
Ġsatisf ies
ĠNew s
Ġitem ized
Ġmis hap
Ġsmile y
Ġtend ency
Ġtest ament
Ġur chin
Ġpal ates
ĠBo iling
ĠRoll er
!!!!!!!! !!
Ġgrap hic
Ġrev amped
Ġprot ocol
nDr ink
Ġpor ridge
su ite
Ġrect angular
nAb solutely
Ġelectric ity
ĠLuc y
ĠSAL TY
Ġdisconn ect
Ġgou ge
Jo hn
Ġfestiv ities
ĠHub ert
Ġpropriet or
E gg
b uster
c reen
f ach
f air
k ong
l is
t ions
u ation
Ġa rizona
er vers
Ġm um
Ġm onde
Ġd ile
ll es
Ġn ook
Ġh ollywood
all el
ir vana
ĠS ud
ĠS amb
ĠM eth
ĠC ustard
Ġch lor
ĠP ERS
our t
ĠL odge
ĠG rove
Ġpro g
Ġte pid
com fortable
Ġapp arel
Ġbr ittle
Ġbar n
az er
ĠSo ggy
ĠK iss
Ġgl are
Ġside ways
od es
Ġret ain
Ġmoney s
Ġsur tout
ib il
ib les
Ġcut let
nN on
ĠTH ING
ST AY
ST ANDING
Ġcock y
ĠSh ir
Ġsour ces
Ġmas carpone
Ġtrans plant
nAl most
Ġmembers hips
Ġru gs
Ġcre ma
Ġoverwhel m
Ġmill ing
ĠSH OP
Ġtail ored
Ġboss es
Ġhal ves
Ġast ronom
ĠMag azine
Ġore os
Ġprogress ively
Ġsam osa
ĠGen ius
ĠGi ants
Ġic onic
Ġconge e
ĠMot or
Ġpredict able
Ġrit ual
0 4
C on
M S
l obster
n ered
ha els
Ġl ions
le ar
le mon
ĠT EN
ab y
ĠB ites
ĠC elebr
ĠC arbon
Ġsh oo
ĠH avana
ĠP enny
ĠD ana
ĠL am
Ġpro sc
Ġfl ock
ĠV erm
Ġcr ank
com b
Ġbr on
Ġsl acks
Ġke ine
ĠK ool
ĠU don
Ġemp feh
anc ouver
Ġeach other
Ġpleas urable
Ġexc urs
Ġhop s
Ġsupp orts
Ġbelie ves
ST ER
ulous ly
ĠCha pman
Ġaut re
gr and
Ġlob sters
Ġz esty
Ġpo ppin
ĠMe ats
ĠTr uth
Ġattend ees
Ġdump ing
Ġven ison
ĠAb solute
Ġdem ands
Ġsou vlaki
Ġmir age
ĠWOR LD
Ġcell phone
ien ne
pen os
He ard
ĠRanch o
ĠSpecial s
Ġlaund rom
Man ager
Ġrenew al
Ġinflu enced
ĠOme lette
ĠSupp ort
ĠAlas ka
sec urity
ĠBUR GER
Ġlav ish
Ġdowns ides
Ġresour ces
nNOT E
Ġlaz iness
Ġexplod ed
Ġvale ts
Ġgobb led
ĠNAS CAR
Ġcompress or
F G
N ESS
S ad
T ime
T asty
b us
d ef
h mmm
l oud
r ust
s ad
w au
re land
Ġg owns
ic key
Ġis les
Ġh og
ter ol
ĠM ustard
Ġ( :
Ġsp ur
Ġup keep
Ġup load
Ġover hyped
ĠR ental
Ġprice line
Ġshow ered
ily n
Ġend ured
ER ALLY
Ġcont re
ier d
Ġ20 15
nH otel
pl ugs
ĠCha d
Ġsw ank
ĠYelp ing
Ġcrisp ier
Ġrepl icate
Ġz est
ĠSh owed
Ġ11 30
Ġtrans it
pri me
Ġham mer
Ġsav ored
chan ging
Ġpound ed
Ġtheat res
Ġsund ried
Ġinqu iry
ĠPet ite
Ġens uring
Ġexam ine
ĠBri dge
nV alue
Ġadvertise ments
Over rated
ĠMain ly
Dis gusting
ĠWhe el
Ġlun che
Ġbrain er
Ġmeas uring
ĠAnn oying
Ġcav ities
Cl osed
ĠNap oli
Ġtact ic
Ġveter inarian
Ġic i
Ġloan er
ĠHO A
Ġantibiot ic
Ġrein for
nGu ess
Ġshrive led
J oe
S ELF
c ling
s ort
t rendy
he alth
Ġm esa
Ġd ict
Ġg ros
Ġg esch
Ġl uv
us a
Ġe hh
Ġst oned
ĠS ora
Ġj ew
Ġj aded
se nd
ĠC ilantro
ĠN BA
ĠIt ems
ĠP aying
han y
ĠF ill
ĠF reed
os sed
Ġam azon
ĠG VR
ard in
um ed
Ġsm id
ner gy
Ġday bed
ĠJ ava
Ġaw aited
uck ers
Ġclean se
Ġimp romptu
nC asino
nD elicious
Ġsn uck
Ġob ese
ey ond
ĠMar co
Ġcoll ap
Ġcomm ute
ĠCan al
ĠBE EF
Ġfab rics
ĠStarb uck
ĠNeed ed
Ġune mp
Ġwild ly
ĠImp ro
ĠFil ibertos
Ġhuman ity
mail ed
Ġbrag ging
ĠCro que
Ġstro ke
ĠFountain s
ĠDrop out
Ġcompre hensive
Ġinev itable
cond ition
sign ature
Ġinterpret ation
Ġauth orization
Ġimproper ly
ĠIng red
Ġwhims ical
wau kee
B ell
S an
Ġ ***
he im
Ġf athom
Ġc et
Ġm out
as ide
ĠI reland
Ġp ins
Ġg ab
oo h
ĠT ar
ĠT ost
al ie
ĠS auv
ec akes
ĠW indsor
ĠA us
ĠM ISS
ĠC eline
Ġgo ble
un es
Ġsh rug
Ġsp ills
Ġlo d
ĠN u
ĠP icture
nT otally
Ġche ating
ĠV on
Ġag itated
ĠR ao
Ġun imagin
com pet
ĠBut cher
nS a
Ġmeat less
Ġexce eds
Ġpat ches
!!! \""
anc er
Ġhard wood
Ġbo ats
cha mel
ĠTH R
ĠRe minded
go ers
ĠSh ower
nE ventually
Ġtender ness
Ġsqu irt
ĠRo ku
RI LL
Ġconst it
Ġdu per
Ġgor ge
Ġra ison
Ġra unchy
bl estone
Ġspecific s
Ġhook er
Ġprem ise
Ġbitter ness
Ġbust ing
Ġcult ures
cas ual
Ġdom inated
mar ks
Ġsi u
Ġma ison
Ġindepend ently
Ġcapt ain
Ġsubject ed
Ġmisle ad
Ġapr on
YY YY
ĠCro issant
Ġexcl aimed
Ġscor ching
Co ffee
Ġyumm iness
ĠBomb ay
Ġcontempl ating
Ġannounce ment
ĠFal afel
aret to
Ġmicrobrew s
Ġexempl ary
ĠFLA VOR
Ġstead ily
ĠLex us
Ġperplex ed
Ġdign ity
Ġmanche go
+ )
P IC
T er
b ets
e au
i achi
m aker
n w
u haus
Ġt ed
Ġb ahn
Ġn erd
ĠT ouch
ent re
ter ies
ĠM ec
ĠN M
ĠF ee
Ġv ig
ĠO nTrac
Ġle ek
ĠD ennis
Ġpro jection
Ġkn ot
itt on
ĠR at
ĠR ies
oy aki
ap y
to day
Ġdown graded
Ġar med
Ġshould nt
Ġswe aring
ĠBe e
nF riend
Ġsecond ary
30 4
Ġpres erve
nM uch
Ġsound track
ĠBur ritos
uss y
ĠPh ot
Ex cuse
Ġroast ing
iff ed
Ġconnect s
ĠAv ondale
Ġbomb arded
Ġdisappe ars
Ġspray ing
Ġindul gence
ĠUp date
Ġfund ra
ĠPol ice
ĠDom in
try ing
ĠTR UST
oles terol
ĠCont in
ĠMer lot
Ġmort ified
Ġutil ized
ĠEr in
Ġpsy ched
Ġchore ography
ĠINS IDE
ECI ALLY
Ġincorpor ated
Ġplun ge
ĠScar petta
ĠAbs inthe
ĠBaha ma
Ġesthetic ian
ĠCE O
Ġremn ants
oresc ent
8 3
B rought
c ur
m ount
t otal
Ġs es
Ġb itten
Ġd aring
ll ah
Ġl u
an igans
Ġha st
st orm
ĠS AND
Ġse ule
ĠM mmmm
ĠB ib
Ġwa aaaa
ĠP ra
ĠP oker
ĠO asis
ĠD ynam
ĠL IVE
Ġcon text
int a
Ġcl ipped
ard elle
ĠE qu
ol n
ol esome
ĠR ot
Ġri o
Ġthan king
Ġun attentive
Ġun know
Ġlook out
Ġbu c
Ġdi ese
Ġ9 11
Ġcur ried
ĠChe z
ĠRe qu
20 10
Ġcent ered
Ġpi qu
Ġpepper mint
ĠOK AY
Ġunique ly
lic ieux
Ġjump s
ĠKe pt
ĠHer itage
Ġregret ting
Ġrom ance
Ġexam ination
Was n
ucc ini
ĠGe isha
Ġretail ers
Ġrepresent ing
Ġbalcon ies
Ġspir al
Ġrap ide
Ġjoking ly
ĠSpin ato
Ġadop tion
ARN ED
TA BLE
Ġmotiv ation
Ġimpl ies
ĠSim ilar
ĠGor geous
ĠSen or
ĠHue vos
Ġorgas mic
Ġalb um
ĠCreat ive
ĠAren a
Ġhipp ie
Ġamid st
Ġtrink ets
Ġinacc urate
FESS IONAL
ĠPERS ON
D S
M AN
T LE
d ew
d iscount
g roup
h ics
n me
n no
t ables
Ġ _
Ġt acked
Ġa i
Ġa uction
Ġa cai
ĠI vy
Ġp als
Ġl ors
at he
Ġn at
ar ones
Ġy ucca
Ġwh it
Ġex ams
Ġsa kes
ĠC U
ĠC inco
Ġr ising
Ġdo om
Ġab ound
ĠF ud
Ġv ag
ĠD uke
ĠL il
ĠL ie
im me
Ġfl ushed
ĠR ip
oy er
Ġte aring
if etime
Ġcr aved
ert ime
Ġwork manship
nS everal
Ġatt ribute
rd s
Ġbas es
Ġcard ed
Ġwife y
nC ould
Ġprom oted
ĠCha o
Ġwind s
Ġing r
Ġweird est
ĠBell ini
Ġmas c
Ġed gy
Ġagree ing
ĠSpr ite
........ ....
In s
ĠSure ly
Ġgoo gled
Ġsquee zing
Ġconstruct ive
Ġmal es
Ġwise ly
ĠCarl s
TER RIBLE
Ġskimp ed
Ġpun ishment
Ġeconom ic
Dis claimer
Ġscrub bing
cred it
nSh ould
Ġsubstant ially
ĠFed eral
ĠHELL O
col or
Ġip od
Ġcompre hend
Ġsurp assed
Ġcontam ination
Ġwhir lpool
8 1
C afe
M ax
S mart
U GH
b ons
d am
e er
l ar
n ies
s pl
er ly
Ġm ant
Ġp ager
es co
Ġl ube
ĠT in
ĠT res
Ġh over
ur ally
gh orn
est e
ĠH ipp
Ġch ilaquiles
ĠN ah
ĠP i
ĠP av
Ġco ve
Ġde mo
ĠL E
Ġun ob
Ġher itage
Ġpart ied
ĠJ acuzzi
Ġper mitted
Ġres erving
ĠCh ino
ĠCh ih
Ġfin ale
uff s
nO pen
Ġdri er
Ġstar chy
ib u
ib iscus
Ġstr ands
nD ie
Ġmom my
Ġplus es
Ġfig ur
Ġbro c
Ġtap enade
ĠRo ger
ĠST EAK
Ġimpro ves
Ġnor i
ĠAb ove
IC AN
Ġlat in
Ġbisc otti
inc oln
Ġmi en
ĠME H
Ġiron ically
MM M
Ġbare foot
Ġcontr ad
ĠUm ami
ĠWhe at
ĠUr gent
ĠCard inals
Ġrant ing
En joyed
ĠCamp bell
Ġdevour ing
ĠCoup le
ĠEMP L
ĠElect ric
Ġresour ce
Ġunsatisf ying
Ġchiropract or
hub arb
Ġgad gets
Ġrapp ort
Ġinnoc ent
ĠPharm acy
ĠMEN U
zak aya
Ġgaud y
Ġprosc uitto
F T
F OOD
I FUL
c uz
l ady
Ġm aitre
le te
et arian
ĠA V
ĠB usy
ĠC ine
ĠC REAM
ĠH of
ĠH ELP
ĠN ous
ĠD AYS
Ġcon ver
ĠV oodoo
Ġcl ippers
Ġsal oon
Ġdel is
are tte
Ġtr av
Ġtr ump
Ġsl urp
Ġsc ented
ĠU ne
Ġsha ken
fe ld
ĠNo ble
cc olini
ell ini
row s
Ġmess es
ĠDon na
Ġamb ient
Ġcal i
fer red
land o
Ġattend ance
ĠSu z
Ġdef end
Ġtrust y
Ġarg u
Ġemb race
Ġsens it
Ġgall ons
Ġloss es
Ġbou ffe
Ġdouche y
cap able
Ġthreat en
ĠSA UCE
Ġmand arin
Ġmargin ally
ĠId k
Bl ack
drink ing
Ġestim ates
ĠFRI ED
dry er
Ġdiab etes
ĠTech n
Gr and
Ġrecreat e
ĠLiqu id
fra me
Ġhairsty list
Ġhisp anic
C hic
G A
P a
S ocial
U r
g one
m ack
p ie
w ares
Ġt ainted
re k
Ġc ows
Ġm oco
Ġp enthouse
on o
ic chio
Ġin fin
Ġfor go
Ġme ine
ĠS als
ĠS EA
ec urity
ĠA ged
ĠA ug
ab b
Ġse ams
Ġj ed
ĠM ak
ĠB ars
ĠC oney
ĠC OOL
th ings
ĠH old
Ġle urs
Ġro am
ĠD RI
ra ve
ner y
Ġway yy
Ġbl u
Ġgr ingo
Ġend orse
ĠK le
Ġtaste y
Ġpar is
ire ns
Ġav g
Ġ8 9
Ġacc idents
Ġpres erved
ĠPl ates
ĠCa use
sp ecially
ĠSe ats
Ġmis matched
Ġbegin ners
gas m
Ġmas a
Ġmas ked
Ġsle w
ĠLe gend
ĠCom fort
Ġdra ught
Ġsick ly
Ġpan or
ĠMad ame
Be er
Be ef
mel ted
Ġaud itorium
Ġadjust ing
nJ o
nChe ese
Ġskill ets
ĠMil waukee
Ġbubb ling
Ġaim ed
NE W
ĠOrigin ally
Ġartic les
Ġfrag rance
Ġmur als
ĠCeas ars
AGE MENT
ĠTus cany
nBet ter
ĠJump er
ĠEmb assy
Ġrestra unt
Ġcir ca
Ġms g
Ġdisast rous
Ġoptomet rist
Ġinebri ated
nED IT
O ther
T alk
Ġt ut
in fect
Ġto ned
Ġn erves
Ġbe ep
ĠT EA
ur ai
ĠW ALK
ant ically
ĠM edic
ĠM IL
ĠH ubs
ĠN P
ĠL ore
Ġfl ames
ĠE gypt
oth y
ĠK ick
ĠSt raight
Ġspecial ized
Ġpar an
.\"" .
Ġrel ation
Ġclub house
Ġsn appy
Ġpres erv
Ġtra ps
Ġhealth care
ĠMar ilyn
Ġsoft ball
Ġpo ked
Ġweird ly
Ġrib bon
ĠPr ince
ĠCr acked
Ġball et
ĠBE L
ĠWal green
GE OUS
Ġsleep y
Ġund ert
ĠChef s
Ġmail box
ĠMo ist
Ġunderst ated
ĠBan anas
ĠSon oma
smo ked
sl iced
Sp icy
nApp etizer
Ġfinanc ially
Ġchimichan gas
ĠConc ierge
ĠMead ows
ĠTOT AL
Ġfestiv als
ĠTy ler
Ġdre ary
ĠRus sell
Ġcongest ed
Ġvelve ty
Ġrevers ed
ĠSWE ET
urope an
Ġfreed om
Ġspor ad
atern ity
P h
c ooking
d ec
m aint
n also
r aged
t il
v re
Ġb ould
Ġb ount
Ġb inge
Ġf etch
as i
as car
Ġp iped
ĠT AC
Ġst ake
id dy
ec ue
ĠW ords
Ġare pa
ĠC av
Ġlo dge
ĠN ora
Ġback drop
Ġv u
ĠD ub
Ġam ber
ĠL akes
Ġcon grat
Ġfl ap
ĠR ome
ĠY an
Ġcr ashed
Ġher d
ap or
ĠMy self
app le
nA mbience
Ġwr iter
ĠAl iante
Ġunt rained
Ġhor rifying
Ġred iculous
Ġ' '
ĠSp am
ĠRe ason
AT IVE
bo iled
ĠYelp ed
els on
Ġju g
na fter
ĠNe apolitan
ĠSal oon
Ġmove ments
Ġpo king
Ġbun ny
nR es
Ġbottom s
bt w
Ġwilling ness
ĠDid nt
ĠAm ong
ĠĠĠĠĠĠĠĠ ĠĠĠ
ĠAr rib
ĠAr gent
ĠReg al
Ġengine ering
rie ur
Ġlength s
Ġ$$ .
ĠSil verton
mark ets
ĠMel ting
Ġuneven ly
ĠPizz as
ĠBle ch
ige rent
Ġbarbers hop
Ġimagin ative
Ġabsor bed
je un
Ġkebab s
ĠChomp ies
Ġaston ished
nSha me
Chr ist
Bet ter
Ġlib ations
Ġslopp ily
Ġdebaucher y
9 6
H mmm
M a
R o
R ight
S W
W arning
c amp
c iting
i ander
s kin
y ep
Ġf eces
Ġm aj
Ġto ll
Ġp aj
Ġg aze
Ġn ifty
Ġn ectar
oo b
Ġbe ck
ĠT ough
ĠT icket
ay enne
gh is
ĠS law
Ġso ll
Ġse iz
Ġse ren
Ġse mester
Ġfr ickin
... ),
Ġch olesterol
ĠF AT
ĠF uel
ĠO ven
ĠL ynn
ĠL ATER
ĠL UNCH
ra ge
ĠV ino
Ġcr ude
Ġcr uc
aff les
Ġad am
ach os
Ġbl vd
be lls
Ġar teries
ĠCh ir
nS topped
Ġemploy ment
Ġinf ected
ĠWh it
Ġslow ed
ĠPl aces
?! ?\
ict ures
Ġfac el
Ġtow ing
ĠDo ctors
ĠWal ker
Ġvers ed
den ly
nFirst ly
Ġsav vy
Ġfeed s
Ġ80 8
Ġhesit ated
Ġirrit ation
iqu eness
Ġhat ch
ĠAdd ed
Ġcree ps
oul ade
Qu ality
Ġminus cule
Ġvacuum s
ĠTw enty
ĠGeor gia
ĠPoint e
nEn ter
Ġspe ars
Ġwaterfall s
Ġlaws uit
Ġhaun ts
Ġmaxim ize
Ġinex pl
Ġunin viting
Ġevalu ation
ĠSup reme
Ġdeliber ately
Pr ices
ĠSEC OND
ĠKarlsru he
A I
H ard
d et
f ar
s ale
t iny
w alks
Ġt rough
ic ama
Ġst up
st all
ĠA na
ĠA rugula
Ġwh ining
ĠM RI
Ġ( !)
end o
ck er
nt hat
ĠF if
ĠF oc
ĠF inal
Ġexp osure
ĠD iv
Ġoff end
ĠG eno
ĠV ia
ĠV ancouver
Ġpre pping
Ġdr aining
nA ctually
Ġstay cation
ĠShe l
ott ie
Ġwr ites
Ġsha ft
nO VER
Ġfar ms
Ġrec line
Ġport able
Ġhor iz
nN one
ung eness
vent ful
nH OWEVER
ĠBr on
Ġfoot long
ĠTr avis
Ġcre ole
Ġfire arms
fl ix
ĠLux ury
bar ro
ĠPat isserie
Ġunl ock
sal t
Ġstir red
ĠLight s
Ġaccur acy
ESS ERT
Ġast ounding
Ġsplur ged
OOK ED
Ġrect ified
ĠDI Y
Ġpolit ical
nBl ack
ĠPRO BLE
Ġstereot ypical
hate au
ĠThunder bird
Ġrecyc led
rink able
Ġprog ressed
7 6
9 2
F abulous
J OY
S M
b ay
c ost
f rench
r ub
s un
he ld
Ġb unk
Ġm ou
om ination
ot er
oo ke
Ġre named
ĠW ich
ĠB atter
ĠB alsamic
ĠC urt
Ġk itt
Ġk ool
Ġwa res
ĠP NC
nt e
ĠF ly
ĠF el
Ġche ering
Ġover se
ĠG ucci
ĠY ELL
Ġun responsive
Ġ3 50
Ġway yyyy
Ġcha shu
Ġsl ut
Ġsc ents
ĠK C
Ġcons cience
Ġ6 4
Ġlight ed
Ġrel i
Ġpos itions
nH alf
Ġcrisp ness
nL ets
nM ust
ĠMar g
let es
Ġcreat ure
ĠSe ated
ĠCl ams
Ġadm itting
Ġbell hop
Ġfil es
Ġbal ancing
Ġcart oon
Ġchat ter
Ġsports book
ric a
Ġliqu ors
Ġdefin it
ineapp les
Ġrad ishes
Ġmer cy
US ED
oriz on
Ġhi res
erest ingly
ĠChan el
ĠWay ne
Ġeconom ical
itor i
Dr inks
ĠFair ly
Ġpred omin
ĠPay less
ĠGall eria
ĠCD s
Ġuncle ar
ĠGar age
Ġsculpt ures
Ġunsatisf actory
Ġnast iest
nBon us
Ġquint essential
8 4
B ay
H or
H ubby
S ub
V P
W ife
b ars
c ute
f ixed
g al
r ather
r aint
Ġb aja
es se
ic ably
Ġy ikes
ke mpt
Ġmy st
ad da
Ġnot ion
Ġme zz
Ġor al
el and
Ġso it
Ġout back
ĠB reeze
ĠB ahn
ĠC OUR
Ġal t
ĠF eta
ĠO w
ĠD uh
ĠG em
Ġpre st
Ġshe pherd
ĠE p
ĠE ACH
ol te
Ġun memorable
Ġsm other
ions hip
wn ing
Ġsc owl
ĠCh ops
gan os
Ġhost age
Ġcur sed
Ġprom inent
ĠDon ut
Ġsy mb
Ġfre undlich
Ġposs ibilities
Ġhealth iest
arb age
ĠBell e
Ġfat ten
ĠLe arn
UT IFUL
ug al
nU gh
Ġlad der
ĠQu iet
ik er
azz a
Ġfoc uses
boy s
tr ust
Ġhass led
ĠCra ppy
sal ty
ĠWater loo
Un less
Ġgra vel
ĠPap aya
Ġple in
ĠMa ison
ĠUnder stand
Ġoverfl ow
Ġnewsp apers
Ġimpl ied
Ġlif egu
Ġtat aki
ĠComm unity
agg io
ĠBLA CK
ĠESP ECIALLY
Ġtant al
Ġprecise ly
Ġdisgu ise
ĠGI ANT
Ġsustain able
pill ar
Ġdile mma
Ġlunche on
E ast
P ark
b ins
j angles
l ost
n ings
t ant
Ġo ops
it en
is ms
Ġp p
Ġp onder
Ġp oll
Ġd yed
or geous
Ġl end
le arly
Ġth rive
ri el
Ġst ern
ĠW ig
pp o
Ġse gment
Ġr aven
ĠP am
ĠF RO
ĠG io
ĠG iving
Ġdec o
Ġdown ed
Ġbur g
Ġac ade
ĠCh oy
ĠK itty
ĠSt ory
get ting
ĠU nd
Ġsha kers
Ġpar ap
Ġreal tor
ib ar
und y
rill s
Ġpri des
nL as
Ġrepl ica
nM r
ote in
ĠMar in
nG arlic
ĠSte wart
ĠPar ma
ĠCl osed
Ġround ing
ĠTr ade
ĠTO LD
Ġannoying ly
Ġshame ful
Ġear plugs
ĠCH ARGE
ĠEX C
ĠMic haels
ĠAng ie
ĠSam pler
li ge
li fter
Ġfond ant
Ġcou gars
Ġmor sels
Ġinj era
ĠCol umb
ĠOUT STANDING
ĠWaitress es
person al
ĠSP ICY
ĠFlavor ful
Ġrecie pt
ĠFRI ES
Ġcircumst ance
Ġlec ker
Ġwaist line
craft ed
Ġtablesp oons
Ġunemp loy
Ġargu ably
0 15
A ctually
D ont
L S
M ic
R OOM
b ang
d ive
f uck
he ure
in th
Ġf og
Ġc ust
Ġm am
ing os
Ġg ated
Ġit ching
ur se
ĠS AT
ĠS ister
ĠS OR
Ġu pped
ĠW ide
ĠW IN
ĠW ARNING
ĠA A
ĠA ure
ill ian
Ġse in
Ġk itten
Ġus hers
ĠN ich
ĠF ond
ĠO ccasionally
ĠD EAD
ĠL EG
Ġpro active
Ġman ually
ĠE GG
ĠY ak
Ġbl izzard
ĠJ ap
nS omething
Ġwr inkled
Ġopen ings
Ġfun nel
Ġsweet ie
Ġmon te
ng reat
Ġcomple tion
Ġim o
Ġsimp ler
pl aces
ret ched
AT ING
Ġserve use
LE D
ina ire
ĠSer ving
ĠCom edy
ĠInd eed
ĠInd epend
ara age
Ġcart on
ĠAr chi
Ġexpl ored
Ġpal azzo
Ġ:( .
ĠRib bon
ATE LY
lin ers
Ġflo ppy
ĠStar wood
Ġblank ly
Ġhy ster
Ġtong s
nDo es
Ġgrip es
Ġpier ced
Ġarro gance
UE ST
ere lla
Ġremed ied
Ġgoof y
Ġliber al
Ġrefresh ments
ĠCOST S
ĠSpl it
Ġduplic ate
ĠINCRED IBLE
nNeg atives
Ġfacel ift
' ...
B Q
H op
I mp
M P
M ust
O rigin
S am
b ud
p age
t re
Ġb ree
Ġd ank
Ġg erman
ic ide
Ġn er
Ġha ter
ĠT ips
st ri
Ġwh olesome
ĠB os
ĠB ooked
ĠB ike
th ur
Ġall a
Ġfri g
ĠP ASS
Ġco aches
ĠD raft
Ġde bt
Ġpr aying
Ġrest ocking
Ġfl am
um ai
Ġun iqueness
Ġdi ver
Ġsc ient
Ġac hes
nO ff
iss y
Ġrec ip
IN O
Ġsk ates
nH uge
ĠChe esy
Ġsn ails
Ġsw oop
Ġbro s
Ġz we
Ġint act
Ġclos ets
Ġappe aled
Ġpresent ing
Ġsle eper
for ms
ĠCr an
ĠMc donalds
Ġmarket place
Ġvo iced
ĠPh one
Ġdiss ervice
Ġautom otive
ĠPat hetic
Ġgall eries
bec ca
Ġexhib ition
Ġtall er
ĠPa wn
ĠWater front
Ġast h
ĠSty rofoam
Ġdistinct ly
su gar
ĠRO LL
erd ings
ĠFlat bread
ĠLEA VE
nMan ager
Ġmyster iously
Ġvert ical
Ġpediatric ian
ĠWEE K
Ġexplic itly
Ġmonop oly
C U
G old
S D
b ite
b ridge
c ustom
[...]
