{"<pad>":0,"<cls>":1,"<sep>":2,"!":3,"\"":4,"#":5,"$":6,"%":7,"&":8,"'":9,"(":10,")":11,"*":12,"+":13,",":14,"-":15,".":16,"/":17,"0":18,"1":19,"2":20,"3":21,"4":22,"5":23,"6":24,"7":25,"8":26,"9":27,":":28,";":29,"<":30,"=":31,">":32,"?":33,"@":34,"A":35,"B":36,"C":37,"D":38,"E":39,"F":40,"G":41,"H":42,"I":43,"J":44,"K":45,"L":46,"M":47,"N":48,"O":49,"P":50,"Q":51,"R":52,"S":53,"T":54,"U":55,"V":56,"W":57,"X":58,"Y":59,"Z":60,"[":61,"\\":62,"]":63,"^":64,"_":65,"`":66,"a":67,"b":68,"c":69,"d":70,"e":71,"f":72,"g":73,"h":74,"i":75,"j":76,"k":77,"l":78,"m":79,"n":80,"o":81,"p":82,"q":83,"r":84,"s":85,"t":86,"u":87,"v":88,"w":89,"x":90,"y":91,"z":92,"{":93,"|":94,"}":95,"~":96,"¡":97,"¢":98,"£":99,"¤":100,"¥":101,"¦":102,"§":103,"¨":104,"©":105,"ª":106,"«":107,"¬":108,"®":109,"¯":110,"°":111,"±":112,"²":113,"³":114,"´":115,"µ":116,"¶":117,"·":118,"¸":119,"¹":120,"º":121,"»":122,"¼":123,"½":124,"¾":125,"¿":126,"À":127,"Á":128,"Â":129,"Ã":130,"Ä":131,"Å":132,"Æ":133,"Ç":134,"È":135,"É":136,"Ê":137,"Ë":138,"Ì":139,"Í":140,"Î":141,"Ï":142,"Ð":143,"Ñ":144,"Ò":145,"Ó":146,"Ô":147,"Õ":148,"Ö":149,"×":150,"Ø":151,"Ù":152,"Ú":153,"Û":154,"Ü":155,"Ý":156,"Þ":157,"ß":158,"à":159,"á":160,"â":161,"ã":162,"ä":163,"å":164,"æ":165,"ç":166,"è":167,"é":168,"ê":169,"ë":170,"ì":171,"í":172,"î":173,"ï":174,"ð":175,"ñ":176,"ò":177,"ó":178,"ô":179,"õ":180,"ö":181,"÷":182,"ø":183,"ù":184,"ú":185,"û":186,"ü":187,"ý":188,"þ":189,"ÿ":190,"Ā":191,"ā":192,"Ă":193,"ă":194,"Ą":195,"ą":196,"Ć":197,"ć":198,"Ĉ":199,"ĉ":200,"Ċ":201,"ċ":202,"Č":203,"č":204,"Ď":205,"ď":206,"Đ":207,"đ":208,"Ē":209,"ē":210,"Ĕ":211,"ĕ":212,"Ė":213,"ė":214,"Ę":215,"ę":216,"Ě":217,"ě":218,"Ĝ":219,"ĝ":220,"Ğ":221,"ğ":222,"Ġ":223,"ġ":224,"Ģ":225,"ģ":226,"Ĥ":227,"ĥ":228,"Ħ":229,"ħ":230,"Ĩ":231,"ĩ":232,"Ī":233,"ī":234,"Ĭ":235,"ĭ":236,"Į":237,"į":238,"İ":239,"ı":240,"Ĳ":241,"ĳ":242,"Ĵ":243,"ĵ":244,"Ķ":245,"ķ":246,"ĸ":247,"Ĺ":248,"ĺ":249,"Ļ":250,"ļ":251,"Ľ":252,"ľ":253,"Ŀ":254,"ŀ":255,"Ł":256,"ł":257,"Ń":258,"Ġt":259,"Ġa":260,"he":261,"Ġw":262,"in":263,"re":264,"Ġs":265,"Ġthe":266,"Ġo":267,"er":268,"nd":269,"Ġb":270,"Ġf":271,"it":272,"Ġc":273,"ha":274,"Ġm":275,"ou":276,"as":277,"Ġto":278,"Ġand":279,"ed":280,"ĠI":281,"is":282,"Ġp":283,"ing":284,"Ġd":285,"or":286,"en":287,"es":288,"ll":289,"Ġg":290,"on":291,"Ġl":292,"ic":293,"at":294,"Ġn":295,"Ġwas":296,"an":297,"om":298,"ot":299,"Ġha":300,"ar":301,"Ġof":302,"ut":303,"ve":304,"us":305,"Ġe":306,"le":307,"Ġin":308,"oo":309,"Ġbe":310,"Ġwe":311,"ĠT":312,"Ġit":313,"ac":314,"ver":315,"hat":316,"Ġre":317,"Ġon":318,"ly":319,"Ġth":320,"al":321,"Ġfor":322,"Ġis":323,"Ġy":324,"et":325,"ay":326,"ri":327,"Ġh":328,"ur":329,"Ġst":330,"ow":331,"..":332,"id":333,"Ġyou":334,"ood":335,"Ġthat":336,"ĠThe":337,"all":338,"ld":339,"ent":340,"gh":341,"st":342,"Ġhe":343,"ke":344,"ith":345,"me":346,"Ġwith":347,"Ġmy":348,"ad":349,"ir":350,"Ġ\\":351,"'t":352,"ion":353,"ice":354,"Ġbut":355,"ro":356,"Ġnot":357,"Ġat":358,"Ġpl":359,"Ġme":360,"ce":361,"ĠS":362,"Ġthis":363,"Ġhave":364,"Ġthey":365,"Ġor":366,"Ġan":367,"Ġu":368,"ould":369,"Ġhad":370,"'s":371,".\\":372,"Ġas":373,"ec":374,"ust":375,"el":376,"Ġwere":377,"ĠW":378,"ast":379,"Ġare":380,"pp":381,"ome":382,"ally":383,"Ġso":384,"ĠA":385,"ant":386,"Ġli":387,"ter":388,"ill":389,"very":390,"ght":391,"ace":392,"Ġwh":393,"Ġi":394,"ab":395,"ch":396,"\"\"":397,"Ġne":398,"Ġse":399,"her":400,"Ġj":401,"Ġex":402,"ore":403,"Ġsa":404,"Ġplace":405,"se":406,"Ġser":407,"Ġti":408,"Ġfood":409,"Ġout":410,"ff":411,"ĠM":412,"red":413,"ĠB":414,"ack":415,"out":416,"Ġgood":417,"ĠC":418,"Ġgo":419,"Ġal":420,"Ġget":421,"ked":422,"Ġ(":423,"un":424,"ess":425,"Ġr":426,"Ġfr":427,"ers":428,"Ġthere":429,"hen":430,"ge":431,"Ġdo":432,"Ġk":433,"Ġsh":434,"th":435,"Ġlike":436,"est":437,"Ġus":438,"reat":439,"ain":440,"Ġall":441,"Ġab":442,"Ġsp":443,"il":444,"qu":445,"am":446,"Ġup":447,"end":448,"op":449,"one":450,"Ġjust":451,"Ġlo":452,"ak":453,"Ġord":454,"Ġserv":455,"Ġhere":456,"Ġsu":457,"Ġwould":458,"Ġour":459,"ry":460,"res":461,"ĠH":462,"ven":463,"Ġcom":464,"Ġdid":465,"ul":466,"ick":467,"mp":468,"Ġtime":469,"Ġone":470,"Ġwa":471,"ich":472,"...":473,"Ġch":474,"ink":475,"ĠN":476,"ite":477,"Ġvery":478,"ĠIt":479,"Ġfri":480,"ĠP":481,"Ġfrom":482,"ate":483,"and":484,"Ġcan":485,"ake":486,"ie":487,"Ġback":488,"ive":489,"Ġsome":490,"ck":491,"art":492,"!!":493,"nt":494,"Ġwor":495,"Ġif":496,"han":497,"Ġwait":498,"Ġabout":499,"nT":500,"ĠF":501,"ation":502,"Ġche":503,"ous":504,"Ġservice":505,"rou":506,"Ġexp":507,"ĠWe":508,"os":509,"Ġv":510,"Ġtheir":511,"Ġgreat":512,"ĠO":513,"ight":514,"our":515,"able":516,"iz":517,"Ġtoo":518,"Ġle":519,"Ġwhen":520,"so":521,"nI":522,"ind":523,"av":524,"Ġdis":525,"Ġco":526,"ct":527,"Ġro":528,"Ġ\\\"\"":529,"ine":530,"Ġca":531,"use":532,"ĠD":533,"Ġany":534,"ort":535,"Ġwhat":536,"Ġno":537,"Ġyour":538,"ca":539,"ide":540,"Ġfe":541,"ag":542,"Ġover":543,"ther":544,"Ġde":545,"Ġam":546,"\\\"\"":547,"way":548,"Ġqu":549,"Ġreally":550,"ĠL":551,"Ġpr":552,"ook":553,"Ġwill":554,"Ġ$":555,"ty":556,"Ġoff":557,"Ġbeen":558,"ĠG":559,"ig":560,"ered":561,"Ġ1":562,"fter":563,"Ġcon":564,"Ġpro":565,"Ġonly":566,"nThe":567,"Ġthem":568,"im":569,"Ġrest":570,"Ġbeca":571,"ect":572,"Ġwhich":573,"Ġeven":574,"Ġgot":575,"Ġfl":576,"Ġother":577,"Ġmore":578,"Ġbecause":579,"Ġ-":580,"ra":581,"Ġkn":582,"Ġfriend":583,"Ġsee":584,"own":585,"Ġman":586,"his":587,"ost":588,"ough":589,"Ġwant":590,"ĠV":591,"Ġpe":592,"Ġ2":593,"Ġby":594,"Ġpre":595,"Ġcould":596,"int":597,"here":598,"Ġshe":599,"Ġdon":600,"ong":601,"Ġcl":602,"ĠThey":603,"itt":604,"hing":605,"ard":606,"Ġag":607,"ĠE":608,"urant":609,"Ġen":610,"aurant":611,"ol":612,"um":613,"Ġtast":614,"'ve":615,"ĠR":616,"Ġevery":617,"Ġmin":618,"Ġdr":619,"oy":620,"ble":621,"Ġrestaurant":622,"ious":623,"ist":624,"Ġsal":625,"pt":626,"Ġri":627,"Ġorder":628,"Ġthan":629,"'m":630,"Ġcomp":631,"ars":632,"Ġhas":633,"oint":634,"te":635,"ress":636,"00":637,"Ġdidn":638,"Ġwho":639,"ud":640,"Ġeat":641,"eri":642,"Ġknow":643,"ment":644,"Ġtry":645,"Ġafter":646,"ĠY":647,"avor":648,"ity":649,"Ġbet":650,"ople":651,"Ġordered":652,"Ġnice":653,"irst":654,"uch":655,"ile":656,"ish":657,"ved":658,"Ġdrink":659,"Ġun":660,"Ġpeople":661,"Ġdec":662,"Ġalso":663,"Ġte":664,"Ġsay":665,"ree":666,"ade":667,"if":668,"Ġtw":669,"Ġroom":670,"Ġcame":671,"age":672,"ass":673,"Ġcr":674,"ings":675,"Ġgu":676,"com":677,"thing":678,"Ġmuch":679,"Ġapp":680,"Ġsm":681,"Ġher":682,"Ġsaid":683,"ence":684,"Ġlook":685,"ĠĠ":686,"ap":687,"Ġnever":688,"Ġbu":689,"Ġhow":690,"ated":691,"ner":692,"Ġwent":693,"Ġhot":694,"Ġday":695,"ittle":696,"aff":697,"ip":698,"king":699,"day":700,"Ġloc":701,"iew":702,"Ġminut":703,"Ġagain":704,"Ġwell":705,"Ġlittle":706,"Ġexperi":707,"ese":708,"Ġdel":709,"Ġnight":710,"Ġbetter":711,"Ġmen":712,"other":713,"ond":714,"ways":715,"Ġad":716,"Ġgoing":717,"to":718,"Ġdown":719,"Ġbre":720,"Ġ3":721,"Ġthen":722,"ffe":723,"Ġneed":724,"Ġbr":725,"eg":726,"Ġway":727,"ater":728,"icken":729,"Ġpret":730,"Ġthink":731,"Ġdi":732,"Ġcall":733,"les":734,"ooked":735,"ail":736,"gg":737,"ĠMy":738,"Ġbar":739,"Ġfirst":740,"we":741,"ions":742,"ue":743,"Ġmake":744,"fore":745,"round":746,"ian":747,"Ġdin":748,"unch":749,"Ġcha":750,"ful":751,"Ġbest":752,"Ġminutes":753,"Ġstaff":754,"ure":755,"xt":756,"Ġcome":757,"ach":758,"Ġtwo":759,"are":760,"Ġmenu":761,"Ġpretty":762,"act":763,"ies":764,"Ġalways":765,"Ġbefore":766,"Ġexperience":767,"urn":768,"ving":769,"oup":770,"ose":771,"nW":772,"ually":773,"ert":774,"Ġpart":775,"Ġtold":776,"ustom":777,"omet":778,"Ġbl":779,"ĠThis":780,"ĠVeg":781,"view":782,"Ġtri":783,"Ġtr":784,"Ġlove":785,"Ġye":786,"ger":787,"Ġmade":788,"eci":789,").":790,"Ġsl":791,"Ġbus":792,"ave":793,"Ġwal":794,"ĠJ":795,"Ġbad":796,"....":797,"Ġhour":798,"ft":799,"oth":800,"az":801,"Ġasked":802,"app":803,"ĠVegas":804,"uce":805,"Ġreview":806,"Ġright":807,"izz":808,"Ġtake":809,"side":810,"oc":811,"ub":812,"Ġcustom":813,"Ġbur":814,"ices":815,"ull":816,"Ġtable":817,"Ġaround":818,"ever":819,"Ġchicken":820,"ound":821,"fin":822,"ince":823,"Ġcle":824,"'re":825,"be":826,"Ġper":827,"ush":828,"Ġsomet":829,"ool":830,"Ġcar":831,"igh":832,"wn":833,"Ġstill":834,"Ġfew":835,"ber":836,"Ġever":837,"Ġar":838,"ms":839,"itely":840,"per":841,"sel":842,"Ġhapp":843,"mes":844,"Ġgive":845,"hed":846,"ting":847,"med":848,"Ġ5":849,"Ġmeal":850,"ep":851,"ason":852,"Ġmo":853,"Ġlong":854,"Ġtook":855,"finitely":856,"Ġsc":857,"Ġlot":858,"Ġ&":859,"Ġprice":860,"Ġfriendly":861,"Ġwork":862,"Ġflavor":863,"Ġnew":864,"Ġ4":865,"izza":866,"ame":867,"mend":868,"nA":869,"Ġwasn":870,"Ġanother":871,"Ġshow":872,"Ġshould":873,"Ġbit":874,"Ġfind":875,"Ġwee":876,"Ġsure":877,"Ġtimes":878,"ont":879,"Ġent":880,"hes":881,"Ġrecom":882,"Ġinto":883,"Ġac":884,"Ġvis":885,"Ġact":886,"Ġrecommend":887,"ĠHe":888,"ix":889,"Ġcheck":890,"!\\":891,"Ġsomething":892,"Ġdes":893,"Ġop":894,"Ġmost":895,"Ġsince":896,"Ġlocation":897,"Ġres":898,"Ġbeing":899,"Ġsmall":900,"icious":901,"Ġaw":902,"oor":903,"lp":904,"Ġhis":905,"Ġsalad":906,"ĠCh":907,"Ġfeel":908,"Ġthing":909,"Ġnext":910,"Ġvisit":911,"ens":912,"Ġcheese":913,"Ġwhere":914,"Ġstay":915,"'ll":916,"ought":917,"Ġsauce":918,"ady":919,"Ġve":920,"eak":921,"resh":922,"ĠIf":923,"Ġserver":924,"ĠSo":925,"ĠThere":926,"Ġpizza":927,"Ġhelp":928,"Ġlast":929,"joy":930,"ks":931,"Ġwhile":932,"ount":933,"erv":934,"Ġfin":935,"ĠBut":936,"Ġpay":937,"ily":938,"ĠAnd":939,"Ġwanted":940,"Ġdefinitely":941,"Ġnow":942,"nS":943,"Ġdisapp":944,"up":945,"iced":946,"Ġmany":947,"Ġdelicious":948,"nder":949,"Ġext":950,"akes":951,"Ġgr":952,"Ġenjoy":953,"erson":954,"Ġend":955,"self":956,"Ġlunch":957,"Ġel":958,"Ġhotel":959,"uff":960,"Ġstore":961,"Ġdrinks":962,"uck":963,"Ġcas":964,"Ġdoes":965,"Ġclean":966,"Ġbig":967,"Ġke":968,"ne":969,"Ġdisappoint":970,"Ġthough":971,"Ġstart":972,"Ġfresh":973,"Ġatt":974,"ob":975,"Ġarea":976,"ecial":977,"azing":978,"pped":979,"Ġhome":980,"Ġmeat":981,"ĠShe":982,"ĠK":983,"Ġexpect":984,"ĠSt":985,"Ġsand":986,"get":987,"ott":988,"Ġgl":989,"lf":990,"ato":991,"ffere":992,"'d":993,"Ġdinner":994,"Ġmay":995,"rd":996,"Ġinc":997,"ably":998,"Ġimp":999,"Ġhim":1000,"ER":1001,"ĠNot":1002,"Ġwr":1003,"ality":1004,"oney":1005,"Ġelse":1006,"Ġopen":1007,"Ġleft":1008,"Ġdiffere":1009,"Ġsandw":1010,"lect":1011,"ating":1012,"Ġworth":1013,"Ġchar":1014,"pr":1015,"Ġhigh":1016,"Ġlet":1017,"Ġspecial":1018,"Ġunder":1019,"Ġperf":1020,"Ġside":1021,"Ġguy":1022,"Ġgre":1023,"od":1024,"Ġsame":1025,"rible":1026,"ans":1027,"iness":1028,"ude":1029,"ided":1030,"Ġperson":1031,"Ġchan":1032,"ance":1033,"Ġcustomer":1034,"Ġtried":1035,"Ġamazing":1036,"ĠU":1037,"Ġsha":1038,"Ġret":1039,"ĠYou":1040,"orn":1041,"Ġaway":1042,"Ġmanag":1043,"nO":1044,"ĠWhen":1045,"This":1046,"Ġadd":1047,"Ġlooking":1048,"Ġenough":1049,"Ġreason":1050,"Ġeverything":1051,"Ġemp":1052,"Ġkind":1053,"Ġtell":1054,"Ġput":1055,"Ġplac":1056,"The":1057,"Ġtaste":1058,"Ġexce":1059,"Ġcoup":1060,"ign":1061,"air":1062,"ream":1063,"Ġfavor":1064,"ery":1065,"Ġdifferent":1066,"nWe":1067,"Ġph":1068,"lain":1069,"rough":1070,"ork":1071,"Ġold":1072,"Ġpar":1073,"Ġ10":1074,"ouse":1075,"ef":1076,"Ġthought":1077,"ient":1078,"led":1079,"Ġthings":1080,"Ġmoney":1081,"Ġok":1082,"),":1083,"ise":1084,"Ġswe":1085,"aking":1086,"Ġpast":1087,"Ġthrough":1088,"Ġits":1089,"ute":1090,"Ġnothing":1091,"Ġperfect":1092,"Ġquality":1093,"ire":1094,"My":1095,"Ġstars":1096,"Ġcalled":1097,"Ġanything":1098,"Ġbreak":1099,"iss":1100,"Ġdri":1101,"Ġfree":1102,"Ġref":1103,"Ġactually":1104,"ular":1105,"Ġwater":1106,"room":1107,"leas":1108,"Ġbas":1109,"Ġgi":1110,"Ġhand":1111,"og":1112,"ushi":1113,"less":1114,"Ġrep":1115,"Ġwaitress":1116,"Ġreturn":1117,"Ġroll":1118,"Ġfriends":1119,"Ġline":1120,"Ġstar":1121,"Ġreg":1122,"Ġfull":1123,"rip":1124,"Ġpat":1125,"bably":1126,"Ġmanager":1127,"Ġtop":1128,"Ġboth":1129,"Ġburger":1130,"Ġdecided":1131,"esome":1132,"Ġfound":1133,"Ġhappy":1134,"Ġfries":1135,"Ġlooked":1136,"fe":1137,"Ġselect":1138,"Ġbread":1139,"ste":1140,"fort":1141,"!!!":1142,"Ġfun":1143,"Ġgir":1144,"Ġask":1145,"anc":1146,"Ġsteak":1147,"ately":1148,"Ġsec":1149,"Ġite":1150,"Ġbusiness":1151,"Ġprices":1152,"Ġcont":1153,"Ġfront":1154,"Ġown":1155,"ables":1156,"Ġwhy":1157,"Ġyears":1158,"--":1159,"ves":1160,"ult":1161,"osp":1162,"where":1163,"ary":1164,"Ġquick":1165,"Ġplaces":1166,"Ġhalf":1167,"Ġpot":1168,"Ġdeal":1169,"io":1170,"Ġdone":1171,"Ġhard":1172,"ons":1173,"yp":1174,"ĠAl":1175,"Ġgetting":1176,"fast":1177,"roup":1178,"Ġsweet":1179,"ffee":1180,"Ġopt":1181,"ho":1182,"Ġlar":1183,"Ġbo":1184,"Ġcour":1185,"ss":1186,"Ġarri":1187,"Ġleast":1188,"orm":1189,"Ġsur":1190,"Ġsandwich":1191,"oun":1192,"Ġsuper":1193,"most":1194,"ew":1195,"icy":1196,"ional":1197,"ĠIn":1198,"Ġused":1199,"Ġsat":1200,"Ġfam":1201,"Ġfavorite":1202,"edi":1203,"Ġbeer":1204,"ale":1205,"Ġbuff":1206,"Ġthese":1207,"Ġpoint":1208,"atch":1209,"Ġprobably":1210,"ark":1211,"Ġcare":1212,"ny":1213,"arly":1214,"ention":1215,"Ġsushi":1216,"ier":1217,"ĠNo":1218,"Ġgave":1219,"Ġdish":1220,"Ġrece":1221,"band":1222,"Ġwaiting":1223,"Ġawesome":1224,"ize":1225,"Ġcons":1226,"Ġmon":1227,"ng":1228,"Ġfar":1229,"ĠAs":1230,"Ġbreakfast":1231,"Ġsit":1232,"ged":1233,"ex":1234,"llent":1235,"essert":1236,"usband":1237,"Ġstand":1238,"Ġuse":1239,"Ġreal":1240,"Ġkid":1241,"Ġtal":1242,"ations":1243,"Ġcream":1244,"Ġdoor":1245,"Ġ20":1246,"Ġtasted":1247,"osphere":1248,"Ġeach":1249,"Ġcoffee":1250,"Ġsomeone":1251,"ĠBe":1252,"ets":1253,"Ġreviews":1254,"Ġav":1255,"Ġinside":1256,"Ġrice":1257,"Ġhu":1258,"the":1259,"Ġlater":1260,"Ġpick":1261,"Ġthose":1262,"nF":1263,"Ġhusband":1264,"mosphere":1265,"Ġrec":1266,"ee":1267,"uc":1268,"ither":1269,"Ġcouple":1270,"Ġonce":1271,"Ġquite":1272,"Ġselection":1273,"Ġwithout":1274,"ove":1275,"imp":1276,"Ġpleas":1277,"Ġrun":1278,"Ġcomple":1279,"Ġsoup":1280,"ren":1281,"Ġdisappointed":1282,"Ġcheap":1283,"ared":1284,"Ġweek":1285,"ib":1286,"iously":1287,"Ġalmost":1288,"ĠNO":1289,"Ġlarge":1290,"uring":1291,"Ġcoming":1292,"Ġspot":1293,"ican":1294,"vers":1295,"Ġcouldn":1296,"Ġport":1297,"mer":1298,"Ġgirl":1299,"aid":1300,"Ġter":1301,"riend":1302,"Ġdessert":1303,"??":1304,"Ġgroup":1305,"ather":1306,"Ġtables":1307,"Ġmus":1308,"Ġbusy":1309,"Ġless":1310,"ild":1311,"ife":1312,"Ġwon":1313,"ervice":1314,"Ġproble":1315,"bs":1316,"Ġhours":1317,"Ġtrying":1318,"ĠThat":1319,"Ġtasty":1320,"Ġunt":1321,"Ġoutside":1322,"Ġserved":1323,"Ġatmosphere":1324,"Ġshop":1325,"pping":1326,"Ġhaving":1327,"Ġtyp":1328,"Ġwalked":1329,"Ġegg":1330,"Ġcho":1331,"owd":1332,"Ġmust":1333,"ited":1334,"ized":1335,"esp":1336,"Ġstrip":1337,"Ġwalk":1338,"Ġeating":1339,"Ġseemed":1340,"Ġwar":1341,"und":1342,"Ġhor":1343,"oke":1344,"mon":1345,"Ġitems":1346,"Ġstuff":1347,"Ġ6":1348,"osed":1349,"sol":1350,"stead":1351,"Ġmonth":1352,"elp":1353,"ord":1354,"Ġbel":1355,"Ġfinally":1356,"ically":1357,"Ġuntil":1358,"Ġplay":1359,"ross":1360,"Ġappet":1361,"Ġwrong":1362,"loy":1363,"onder":1364,"Ġwaiter":1365,"Ġcra":1366,"Ġcool":1367,"iet":1368,"ĠAfter":1369,"elt":1370,"Ġhuge":1371,"ensive":1372,"Ġwhole":1373,"ĠHow":1374,"Ġfish":1375,"Ġfried":1376,"Ġexcellent":1377,"ten":1378,"Ġwine":1379,"We":1380,"stand":1381,"Ġhouse":1382,"ual":1383,"rimp":1384,"rought":1385,"Ġsecond":1386,"Ġimpress":1387,"IN":1388,"Ġcut":1389,"ath":1390,"nB":1391,"Ġdecent":1392,"ru":1393,"Ġcold":1394,"Ġkeep":1395,"Ġrem":1396,"Ġpotato":1397,"Ġim":1398,"Ġfill":1399,"ock":1400,"Ġtown":1401,"Ġbeef":1402,"oll":1403,"Ġfamily":1404,"aw":1405,"ash":1406,"Ġexc":1407,"ino":1408,"reme":1409,"Ġhop":1410,"Ġlist":1411,"no":1412,"Ġbrought":1413,"Ġsuch":1414,"Ġcard":1415,"Ġsign":1416,"Ġrude":1417,"Ġcooked":1418,"ts":1419,"Ġbuffet":1420,"Ġclose":1421,"Ġthree":1422,"asy":1423,"Ġemploy":1424,"ender":1425,"Ġoffer":1426,"Ġdoesn":1427,"rill":1428,"Ġbring":1429,"Ġextra":1430,"Ġrestaurants":1431,"ĠOn":1432,"ike":1433,"ning":1434,"ates":1435,"Ġneeded":1436,".\\\"\"":1437,"my":1438,"Ġfelt":1439,"Ġset":1440,"Ġwonder":1441,"Ġdishes":1442,"Ġturn":1443,"ward":1444,"Ġcomplain":1445,"Ġtac":1446,"Ġappetiz":1447,"Ġfact":1448,"Ġmusic":1449,"Ġlight":1450,"not":1451,"any":1452,"Ġsupp":1453,"Ġass":1454,"Ġplate":1455,"Ġeveryone":1456,"Ġusually":1457,"Ġwaited":1458,"enc":1459,"Ġ:":1460,"Ġfloor":1461,"astic":1462,"Ġparty":1463,"ps":1464,"30":1465,"!!!!":1466,"Ġsever":1467,"solute":1468,"ied":1469,"Ġwife":1470,"Ġeither":1471,"Ġdog":1472,"Ġduring":1473,"Ġbill":1474,"Ġjob":1475,"Ġdays":1476,"itc":1477,"Ġpic":1478,"ecially":1479,"ips":1480,"arl":1481,"Ġtreat":1482,"Ġincl":1483,"Ġseveral":1484,"Ġcourse":1485,"Ġstarted":1486,"Ġbott":1487,"Ġyear":1488,"Ġet":1489,"Ġcomplete":1490,"ised":1491,"Ġarrived":1492,"ĠOur":1493,"ah":1494,"Ġhair":1495,"Ġisn":1496,"au":1497,"Ġcook":1498,"Ġbuy":1499,"Ġsk":1500,"Ġcustomers":1501,"ia":1502,"Ġsaw":1503,"ory":1504,"Ġrecei":1505,"cha":1506,"mber":1507,"Ġfast":1508,"Ġtot":1509,"ted":1510,"Ġguess":1511,"Ġname":1512,"Ġap":1513,"ĠEvery":1514,"Ġleave":1515,"Ġphone":1516,"Ġdry":1517,"Ġinstead":1518,"Ġice":1519,"Ġmaybe":1520,"nMy":1521,"nN":1522,"wner":1523,"itting":1524,"Ġglass":1525,"ang":1526,"ĠWhat":1527,"ocol":1528,"Ġ8":1529,"ĠFor":1530,"by":1531,"Ġsurpr":1532,"Ġred":1533,"Ġinf":1534,"mb":1535,"Ġcrowd":1536,"Ġdining":1537,"vel":1538,"Ġmedi":1539,"Ġwouldn":1540,"Ġshrimp":1541,"Ġsimp":1542,"Ġable":1543,"Ġrel":1544,"Ġproblem":1545,"Ġmight":1546,"ness":1547,"ung":1548,"Ġseated":1549,"Ġgen":1550,"ĠWh":1551,"Ġcomes":1552,"ĠTH":1553,"Ġcor":1554,"Ġhead":1555,"Ġesp":1556,"Ġowner":1557,"Ġclub":1558,"ical":1559,"Ġ.":1560,"Ġsty":1561,"Ġdecor":1562,"co":1563,"ible":1564,"Ġsho":1565,"ready":1566,"que":1567,"Ġpos":1568,"Ġpack":1569,"ĠAll":1570,"ax":1571,"Ġstop":1572,"Ġmain":1573,"Ġpri":1574,"though":1575,"Ġslow":1576,"Ġpool":1577,"Ġalready":1578,"Ġcup":1579,"Ġpork":1580,"Ġlocal":1581,"Ġcost":1582,"Ġenjoyed":1583,"ci":1584,"Ġlack":1585,"Ġ15":1586,"Ġshort":1587,"gin":1588,"Ġpaid":1589,"Ġmar":1590,"vent":1591,"Ġfine":1592,"ocolate":1593,"Ġread":1594,"ails":1595,"Ġworst":1596,"Ġbag":1597,"old":1598,"ened":1599,"Ġmakes":1600,"aut":1601,"Ġacc":1602,"Ġkids":1603,"cc":1604,"mm":1605,"Ġpur":1606,"Ġanyone":1607,"solutely":1608,"Ġ'":1609,"Ġmyself":1610,"remely":1611,"atter":1612,"Ġ7":1613,"Ġpass":1614,"Ġmiss":1615,"rit":1616,"ors":1617,"ump":1618,"Ġboy":1619,"atur":1620,"rest":1621,"ertain":1622,"outh":1623,"Ġvar":1624,"rect":1625,"aving":1626,"Ġseat":1627,"ues":1628,"Ġago":1629,"af":1630,"Ġiss":1631,"ounter":1632,"Ġwatch":1633,"Ġdrive":1634,"Ġtrip":1635,"Ġdress":1636,"ently":1637,"Ġins":1638,"ĠNOT":1639,"Ġyet":1640,"ĠLas":1641,"Ġrid":1642,"10":1643,"Ġfan":1644,")\\":1645,"ative":1646,"Ġlate":1647,"Ġmention":1648,"verage":1649,"Ġinclud":1650,"ird":1651,"\\\"\".":1652,"Ġhorrible":1653,"pm":1654,"reet":1655,"Ġcharge":1656,"Ġexpensive":1657,"Ġspicy":1658,"cks":1659,"Ġworking":1660,"Ġlive":1661,"ye":1662,"ines":1663,"Ġair":1664,"Ġ30":1665,"itchen":1666,"ĠThen":1667,"gan":1668,"Ġparking":1669,"Ġoptions":1670,"Ġind":1671,"Ġdoing":1672,"Ġloved":1673,"Ġespecially":1674,"Ġstr":1675,"ĠGreat":1676,"ĠHowever":1677,"Ġextremely":1678,"ider":1679,"Ġhost":1680,"Ġclass":1681,"Ġate":1682,"nC":1683,"Ġregular":1684,"Ġnear":1685,"Ġseem":1686,"kend":1687,"ange":1688,"Ġbart":1689,"LL":1690,"nH":1691,"nP":1692,"its":1693,"onest":1694,"Ġended":1695,"Ġreserv":1696,"Ġcounter":1697,"Ġrooms":1698,"ĠAlso":1699,"Ġpoor":1700,"verall":1701,"50":1702,"owl":1703,"Ġpie":1704,"Ġentire":1705,"Ġchips":1706,"Ġdisc":1707,"Ġguys":1708,"ĠFri":1709,"RE":1710,"pl":1711,"Ġtoday":1712,"Ġunderstand":1713,"Ġbath":1714,"ell":1715,"Ġweekend":1716,"nThis":1717,"gar":1718,"ition":1719,"VER":1720,"Ġ9":1721,"row":1722,":\\":1723,"Ġamount":1724,"Ġbelie":1725,"isp":1726,"Ġcur":1727,"wh":1728,"Ġsitting":1729,"ned":1730,"acon":1731,"Ġdeli":1732,"Ġsize":1733,"Ġgener":1734,"Ġbed":1735,"ees":1736,"Ġrather":1737,"Ġpol":1738,"ĠĠĠĠ":1739,"Ġseems":1740,"Ġspend":1741,"hai":1742,"Ġmaking":1743,"ST":1744,"Ġprom":1745,"Ġterrible":1746,"Ġchocolate":1747,"Ġfix":1748,"Ġseen":1749,"**":1750,"iter":1751,"uct":1752,"gers":1753,"Ġhelpful":1754,"Ġwall":1755,"ret":1756,"Ġrequ":1757,"ĠAt":1758,"nD":1759,"nIt":1760,"Ġprod":1761,"Ġliked":1762,"Ġmix":1763,"ster":1764,"Ġdro":1765,"Ġmorn":1766,"ĠPho":1767,"Ġtom":1768,"antastic":1769,"cked":1770,"Ġhowever":1771,"Ġgiven":1772,"tic":1773,"Ġnum":1774,"Ġreme":1775,"Ġbland":1776,"ots":1777,"ulous":1778,"ank":1779,"friend":1780,"iful":1781,"ĠSp":1782,"ins":1783,"Ġview":1784,"ĠVery":1785,"Ġmid":1786,"sa":1787,"dd":1788,"Ġmind":1789,"Ġsme":1790,"Ġabsolutely":1791,"Ġsmo":1792,"ides":1793,"Ġmean":1794,"cept":1795,"Ġtea":1796,"Ġrolls":1797,"Ġetc":1798,"ĠChe":1799,"Ġprep":1800,"ggest":1801,"Ġkitchen":1802,"ĠMex":1803,"Ġwonderful":1804,"Ġcompletely":1805,"fess":1806,"Ġsoon":1807,"Ġokay":1808,"Ġsub":1809,"Ġbeaut":1810,"ĠService":1811,"Ġest":1812,"ling":1813,"Ġbelieve":1814,"Ġmorning":1815,"Ġsuggest":1816,"arent":1817,"Ġchange":1818,"ĠRe":1819,"Ġsn":1820,"Ġready":1821,"Ġinte":1822,"Ġreceived":1823,"ĠTh":1824,"amb":1825,"Ġsmell":1826,"lish":1827,"fortun":1828,"20":1829,"Ġcompany":1830,"ween":1831,"Ġpres":1832,"Ġlow":1833,"aybe":1834,"Ġmess":1835,"Ġimpressed":1836,"Ġtacos":1837,"Ġton":1838,"Ġinter":1839,"pper":1840,"olog":1841,"ial":1842,"Ġresp":1843,"iv":1844,"Ġfair":1845,"ĠPl":1846,"Ġlooks":1847,"Ġwish":1848,"fortable":1849,"Ġplan":1850,"Ġcash":1851,"Ġexplain":1852,"Ġbowl":1853,"Ġlady":1854,"ĠCha":1855,"Ġveget":1856,"Ġemployees":1857,"Ġgone":1858,"Ġkept":1859,"aturday":1860,"ffic":1861,"orry":1862,"ĠFood":1863,"irty":1864,"hind":1865,"Ġfantastic":1866,"AT":1867,"ĠOne":1868,"Ġheard":1869,"Great":1870,"Ġwarm":1871,"Ġconf":1872,"ĠJust":1873,"Ġbacon":1874,"Ġaverage":1875,"Ġgrill":1876,"enty":1877,"Ġob":1878,"Ġquest":1879,"Ġempty":1880,"bo":1881,"ey":1882,"oud":1883,"OU":1884,"Ġtaking":1885,"Ġbehind":1886,"ĠTheir":1887,"Ġsto":1888,"Ġstyle":1889,"Ġdoll":1890,"Ġsw":1891,"zen":1892,"fessional":1893,"Ġquickly":1894,"Ġtwice":1895,"Ġbathroom":1896,"ĠTo":1897,"ured":1898,"Ġinterest":1899,"Ġoffered":1900,"Ġtip":1901,"ĠSaturday":1902,"ime":1903,"Ġstra":1904,"ING":1905,"Ġserve":1906,"Ġaut":1907,"entive":1908,"Ġpurcha":1909,"Ġstreet":1910,"ished":1911,"line":1912,"gr":1913,"Ġdesk":1914,"ON":1915,"ĠYelp":1916,"Ġseason":1917,"Ġste":1918,"Ġavail":1919,"amp":1920,"Ġcrisp":1921,"ired":1922,"ĠUn":1923,"inese":1924,"nL":1925,"rench":1926,"rap":1927,"Ġgets":1928,"Ġbetween":1929,"ients":1930,"nThey":1931,"Ġwom":1932,"OO":1933,"Ġearly":1934,"ĠSc":1935,"Ġmom":1936,"Ġweren":1937,"Ġhung":1938,"ĠMexican":1939,"Ġsaying":1940,"ĠDon":1941,"Ġide":1942,"zy":1943,"Ġplus":1944,"ointment":1945,"Ġknew":1946,"Ġcake":1947,"Ġmonths":1948,"unk":1949,"ding":1950,"Ġexcept":1951,"rew":1952,"Ġcent":1953,"Ġcrab":1954,"Ġwind":1955,"ection":1956,"Ġneeds":1957,"Ġcasino":1958,"enix":1959,"ister":1960,"Ġwhite":1961,"nIf":1962,"ummy":1963,"bur":1964,"Ġtomato":1965,"Ġstick":1966,"Ġportions":1967,"Ġacross":1968,"fortunately":1969,"Ġyes":1970,"ern":1971,"els":1972,"oose":1973,"att":1974,"aken":1975,"alian":1976,"Ġbutter":1977,"Ġremember":1978,"Ġlob":1979,"used":1980,"Ġconc":1981,"Ġhonest":1982,"nSo":1983,"Ġce":1984,"Ġju":1985,"Ġappetizer":1986,"Ġappointment":1987,"Ġlife":1988,"Ġmass":1989,"Ġnood":1990,"Ġfro":1991,"Ġavailable":1992,"Ġburgers":1993,"Ġfour":1994,"Ġoffice":1995,"na":1996,"augh":1997,"ody":1998,"ures":1999,"unday":2000,"Ġseating":2001,"priced":2002,"ully":2003,"Ġchoice":2004,"Ġitself":2005,"Ġhear":2006,"par":2007,"iance":2008,"which":2009,"Ġstayed":2010,"Ġfig":2011,"Ġdou":2012,"iches":2013,"Ġwings":2014,"VE":2015,"Ġrepl":2016,"Ġorders":2017,"Ġwalking":2018,"Ġbro":2019,"?!":2020,"ole":2021,"Ġsalsa":2022,"ĠWell":2023,"Ġvariet":2024,"ĠDe":2025,"Ġgreen":2026,"Ġbeautiful":2027,"Ġbite":2028,"Ġprov":2029,"Ġvegg":2030,"?\\":2031,"Ġadv":2032,"aj":2033,"medi":2034,"Ġpotatoes":2035,"Ġbook":2036,"Ġchef":2037,"Ġdirty":2038,"Ġexperienc":2039,"Ġmush":2040,"Ġattentive":2041,"Ġguest":2042,"Ġnorm":2043,"Ġoften":2044,"Ġann":2045,"Ġpriced":2046,"Ġeasy":2047,"Ġgreet":2048,"Ġ,":2049,"Ġconsider":2050,"Ġordering":2051,"alth":2052,"irth":2053,"ched":2054,"Ġpaying":2055,"Ġothers":2056,"Ġloud":2057,"but":2058,"nM":2059,"Ġtra":2060,"ĠSunday":2061,"Ġproduct":2062,"Ġflavors":2063,"Ġhighly":2064,"Ġcock":2065,"...\\":2066,"Ġexpected":2067,"Ġcol":2068,"ita":2069,"Ġz":2070,"ĠPhoenix":2071,"Ġpatio":2072,"Ġtype":2073,"ĠGood":2074,"Ġevening":2075,"Ġpull":2076,"Ġnoticed":2077,"Ġint":2078,"Ġboyfriend":2079,"Ġclos":2080,"ĠBB":2081,"Ġcertain":2082,"Ġtaken":2083,"Ġsy":2084,"arlic":2085,"Ġbartender":2086,"ĠNe":2087,"Ġhit":2088,"Ġsays":2089,"gether":2090,"Ġpain":2091,"Ġevent":2092,"irthday":2093,"Ġmil":2094,"Ġfo":2095,"ique":2096,"ili":2097,"read":2098,"Ġportion":2099,"Ġfre":2100,"go":2101,"ĠSh":2102,"Ġrequest":2103,"Ġsound":2104,"Ġexact":2105,"Ġ--":2106,"Ġsing":2107,"ĠThai":2108,"Ġamb":2109,"iterally":2110,"als":2111,"Ġbeans":2112,"Ġspeak":2113,"ĠBl":2114,"Ġeggs":2115,"15":2116,"Ġblack":2117,"Ġreasonable":2118,"ored":2119,"antly":2120,"Ġaccom":2121,"ows":2122,"ĠNow":2123,"Ġtotally":2124,"Ġpasta":2125,"ĠFriday":2126,"Ġdue":2127,"imes":2128,"ball":2129,"Ġidea":2130,"CE":2131,"OR":2132,"Ġcorn":2133,"dle":2134,"port":2135,"Ġgiving":2136,"Ġnumber":2137,"Ġalong":2138,"Ġsandwiches":2139,"Ġeaten":2140,"Ġweeks":2141,"Ġcred":2142,"ocre":2143,"Ġapolog":2144,"Ġvariety":2145,"sw":2146,"Ġappe":2147,"agement":2148,"Ġlots":2149,"Ġdep":2150,"Ġing":2151,"Ġoil":2152,"Ġpi":2153,"Ġbox":2154,"rees":2155,"Ġinst":2156,"Ġword":2157,"isf":2158,"arely":2159,"illa":2160,"Ġperfectly":2161,"Ġrefill":2162,"ĠEven":2163,"Ġservers":2164,"tt":2165,"Ġhostess":2166,"Ġcockt":2167,"Ġposs":2168,"ĠBBQ":2169,"Ġimmedi":2170,"Ġplenty":2171,"Ġgirls":2172,"ĠChicken":2173,"Ġtogether":2174,"Ġstopped":2175,"Ġtalk":2176,"Ġconsist":2177,"che":2178,"Ġtick":2179,"ĠThan":2180,"ries":2181,"eces":2182,"Ġcal":2183,"ents":2184,"Ġhang":2185,"Ġspr":2186,"Ġbirthday":2187,".....":2188,"ried":2189,"ini":2190,"ĠChinese":2191,"ĠTHE":2192,"Ġgame":2193,"ollow":2194,"Ġchecked":2195,"cri":2196,"ada":2197,"ouch":2198,"Ġpop":2199,"Ġsad":2200,"Ġcharged":2201,"man":2202,"Ġopened":2203,"Ġexcited":2204,"Ġreservation":2205,"Ġsimple":2206,"viously":2207,"right":2208,"Ġburrit":2209,"Ġhappened":2210,"Ġyourself":2211,"oid":2212,"ĠItalian":2213,"Ġingred":2214,"ense":2215,"Ġsupposed":2216,"AN":2217,"iting":2218,"ames":2219,"ming":2220,"afood":2221,"ges":2222,"Ġlonger":2223,"Ġnon":2224,"ĠDr":2225,"aked":2226,"airs":2227,"Ġocc":2228,"Ġtalking":2229,"ĠFr":2230,"Ġturned":2231,"Ġansw":2232,"ĠOh":2233,"Ġminute":2234,"Ġspace":2235,"LE":2236,"Ġpiece":2237,"Ġsurprised":2238,"nE":2239,"Ġspent":2240,"ments":2241,"Ġpieces":2242,"Ġsell":2243,"Ġones":2244,"Ġstandard":2245,"Ġcredit":2246,"Ġincred":2247,"ĠMaybe":2248,"Ġhungry":2249,"ppy":2250,"ech":2251,"key":2252,"Ġoverall":2253,"Ġbought":2254,"Ġhope":2255,"ote":2256,"Ġforg":2257,"Ġmediocre":2258,"Ġmoved":2259,"ined":2260,"Ġpacked":2261,"Ġissue":2262,"ibly":2263,"iculous":2264,"itional":2265,"Ġattit":2266,"ĠSal":2267,"Ġgrab":2268,"come":2269,"Ġmach":2270,"ĠCa":2271,"ict":2272,"ĠLO":2273,"Ġimmediately":2274,"Ġcomfortable":2275,"Ġmouth":2276,"Ġfollow":2277,"Ġhold":2278,"iny":2279,"Ġliterally":2280,"Ġart":2281,"Ġpict":2282,"Ġclosed":2283,"Ġgarlic":2284,"Ġbottle":2285,"uts":2286,"Ġsort":2287,"Ġpartic":2288,"Ġcrust":2289,"Ġcontin":2290,"Ġglad":2291,"Ġchair":2292,"Ġhaven":2293,"fer":2294,"Ġchoose":2295,"Ġval":2296,"ging":2297,"de":2298,"Ġgy":2299,"ract":2300,"Ġhealth":2301,"Ġawful":2302,").\\":2303,"ĠEverything":2304,"zz":2305,"kes":2306,"Ġoverpriced":2307,"ĠMar":2308,"gust":2309,"Ġestab":2310,"Ġplates":2311,"ai":2312,"uit":2313,"Ġla":2314,"pe":2315,"Ġtemp":2316,"Ġfac":2317,"una":2318,"Ġdet":2319,"cooked":2320,"Ġalthough":2321,"gs":2322,"ĠEx":2323,"Ġyummy":2324,"Ġeas":2325,"ighb":2326,"aper":2327,"Ġproper":2328,"Ġjoint":2329,"Ġlevel":2330,"Ġcase":2331,"ĠAN":2332,"ED":2333,"rigin":2334,"Ġmist":2335,"Ġprofessional":2336,"Ġsomewhere":2337,"rt":2338,"Ġpresent":2339,"avy":2340,"asted":2341,"br":2342,"99":2343,"Ġprepared":2344,"ience":2345,"Ġfeeling":2346,"Ġmiddle":2347,"dale":2348,"Ġbuild":2349,"Ġchance":2350,"Ġgrilled":2351,"Ġmet":2352,"Ġingredients":2353,"Ġgoes":2354,"Ġneighb":2355,"ison":2356,"Ġbeers":2357,"cl":2358,"otts":2359,"Ġattitude":2360,"sh":2361,"Ġfive":2362,"Ġasking":2363,"It":2364,"let":2365,"Ġwaste":2366,"Ġmanagement":2367,"Ġcond":2368,"Ġestablish":2369,"hel":2370,"AY":2371,"Ġwithin":2372,"Ġtotal":2373,"Ġluck":2374,"ĠBur":2375,"Ġmod":2376,"Ġappre":2377,"Ġpost":2378,"Ġsent":2379,"ottsdale":2380,"Ġmove":2381,"hentic":2382,"Ġcoll":2383,"arently":2384,"Ġeye":2385,"Ġmac":2386,"ĠFirst":2387,"ĠAn":2388,"Ġsch":2389,"Ġmushroom":2390,"berry":2391,"Ġdisappointing":2392,"Ġaren":2393,"arn":2394,"uly":2395,"Ġmeals":2396,"Ġcrispy":2397,"like":2398,"ĠQ":2399,"Ġspl":2400,"Ġworse":2401,"Ġunless":2402,"nWhen":2403,"aughter":2404,"Ġthin":2405,"Ġsatisf":2406,"lo":2407,"ĠTV":2408,"ledge":2409,"sp":2410,"Ġchoices":2411,"AR":2412,"Ġ12":2413,"Ġmedium":2414,"Ġseafood":2415,"vious":2416,"Ġtakes":2417,"nG":2418,"arb":2419,"ES":2420,"ĠBr":2421,"Ġfrozen":2422,"ature":2423,"Ġ:)":2424,"Ġrelax":2425,"ilet":2426,"Ġattention":2427,"Ġexactly":2428,"Ġcrowded":2429,"ops":2430,"Ġran":2431,"Ġstaying":2432,"Ġsalty":2433,"ys":2434,"Ġshowed":2435,"Ġworld":2436,"Ġappreci":2437,"Ġtender":2438,"Ġinv":2439,"ux":2440,"Ġlocated":2441,"Ġparticular":2442,"Ġfilled":2443,"Ġridiculous":2444,"Ġmatter":2445,"Ġoption":2446,"ific":2447,"head":2448,"Ġsamp":2449,"Ġshopping":2450,"Ġcount":2451,"nOverall":2452,"gn":2453,"Ġadded":2454,"ats":2455,"ĠNew":2456,"Ġsoft":2457,"Ġsimply":2458,"Ġrecently":2459,"Ġchild":2460,"Ġtext":2461,"oli":2462,"Ġ...":2463,"Ġanywhere":2464,"Ġnoodles":2465,"Ġfore":2466,"Ġdam":2467,"Ġchanged":2468,"Ġbased":2469,"more":2470,"arket":2471,"Ġbrown":2472,"Ġwrite":2473,"Ġpo":2474,"Ġ11":2475,"ĠSte":2476,"Ġrecommended":2477,"ler":2478,"ase":2479,"Ġorigin":2480,"ior":2481,"Ġups":2482,"Ġface":2483,"nY":2484,"Ġsum":2485,"umb":2486,"Ġfinish":2487,"Ġlim":2488,"nThere":2489,"ites":2490,"eless":2491,"Ġpepper":2492,"Ġrent":2493,"Ġappetizers":2494,"land":2495,"ĠOK":2496,"ced":2497,"12":2498,"Ġappro":2499,"Ġdate":2500,"Ġhands":2501,"Ġtow":2502,"sed":2503,"Ġtour":2504,"Ġcreat":2505,"ane":2506,"Ġdark":2507,"ownt":2508,"Ġworked":2509,"Ġslight":2510,"Ġlost":2511,"Ġforward":2512,"what":2513,"ait":2514,"Ġwel":2515,"Ġmeet":2516,"Ġpleasant":2517,"made":2518,"Ġthinking":2519,"Ġwoman":2520,"Ġspecials":2521,"usage":2522,"iment":2523,"Ġburrito":2524,"Ġonline":2525,"Ġflavorful":2526,"Ġdaughter":2527,"OM":2528,"Ġtap":2529,"ĠSe":2530,"ower":2531,"Ġem":2532,"selves":2533,"owntown":2534,"Ġpricey":2535,"Ġhum":2536,"Ġambiance":2537,"Ġsalmon":2538,"Ġitem":2539,"Ġneg":2540,"ĠGr":2541,"arian":2542,"oooo":2543,"Ġmov":2544,"Ġallow":2545,"Ġannoy":2546,"Ġweird":2547,"pect":2548,"If":2549,"ĠScottsdale":2550,"Ġonion":2551,"Ġdist":2552,"itive":2553,"Ġlobster":2554,"reen":2555,"Ġauthentic":2556,"Ġcab":2557,"Ġhate":2558,"Ġele":2559,"Ġcorrect":2560,"Ġbucks":2561,"?\\\"\"":2562,"Ġgreeted":2563,"Ġtiny":2564,"Ġfinished":2565,"Ġplease":2566,"Ġdance":2567,"Ġincluding":2568,"ĠSome":2569,"Ġabove":2570,"ising":2571,"ĠTe":2572,"Ġchees":2573,"ina":2574,"bed":2575,"ket":2576,"Ġinteresting":2577,"Ġsalt":2578,"Ġcannot":2579,"Ġsingle":2580,"ics":2581,"Ġdollars":2582,"Ġhappen":2583,"ĠBell":2584,"tuce":2585,"Ġowners":2586,"ĠAmer":2587,"Ġbrunch":2588,"ident":2589,"ages":2590,"Ġbarely":2591,"ities":2592,"ĠSer":2593,"ww":2594,"ĠChar":2595,"ĠWhile":2596,"Ġtech":2597,"Ġdelivery":2598,"ĠYes":2599,"yes":2600,"aring":2601,"Ġrunning":2602,"Ġtrain":2603,"Ġsour":2604,"nOn":2605,"Ġsqu":2606,"Ġsorry":2607,"Ġseats":2608,"Ġsides":2609,"hood":2610,"Ġneighbor":2611,"hh":2612,"Ġpaper":2613,"Ġleaving":2614,"Ġbun":2615,"Ġserving":2616,"con":2617,"cess":2618,"Ġdirect":2619,"Ġbasically":2620,"Ġconven":2621,"Ġyelp":2622,"ĠJo":2623,"Ġmine":2624,"ana":2625,"Ġgreasy":2626,"ĠNE":2627,"ky":2628,"Ġtaco":2629,"Ġunique":2630,"Ġbud":2631,"ility":2632,"Ġpanc":2633,"alley":2634,"Ġopin":2635,"Ġwed":2636,"Ġmall":2637,"Ġestablishment":2638,"ĠWith":2639,"Ġson":2640,"edic":2641,"Ġshare":2642,"ule":2643,"Ġcute":2644,"Ġhell":2645,"Ġmis":2646,"temp":2647,"Ġyoung":2648,"nAs":2649,"Ġmassage":2650,"Ġsol":2651,"Ġseriously":2652,"time":2653,"Ġpicked":2654,"Ġtasting":2655,"Ġairport":2656,"ĠAri":2657,"ift":2658,"Ġlettuce":2659,"ĠGo":2660,"Ġforget":2661,"Ġyell":2662,"Ġtort":2663,"ĠMe":2664,"Ġsection":2665,"Ġlay":2666,"LY":2667,"Ġfat":2668,"EN":2669,"Ġwhe":2670,"Ġcomm":2671,"Ġaff":2672,"Ġdescri":2673,"urs":2674,"Ġdressing":2675,"nam":2676,"ĠWill":2677,"Ġonions":2678,"Ġcu":2679,"Ġbegin":2680,"urt":2681,"Ġcomb":2682,"Ġelsewhere":2683,"Ġentrees":2684,"Ġforgot":2685,"Ġdisgust":2686,"Ġemployee":2687,"noon":2688,"Ġnails":2689,"ĠPar":2690,"ĠDo":2691,"Ġ($":2692,"Ġexpecting":2693,"isc":2694,"Ġcompl":2695,"Ġsometimes":2696,"ator":2697,"Ġplaying":2698,"ĠCl":2699,"house":2700,"IS":2701,"Ġsausage":2702,"Ġthick":2703,"Ġentree":2704,"Ġstud":2705,"gas":2706,"Ġflat":2707,"ĠZ":2708,"Ġcontact":2709,"mod":2710,"Ġmentioned":2711,"ĠRo":2712,"Ġprefer":2713,"ormed":2714,"Ġdogs":2715,"Ġadm":2716,"Ġequ":2717,"Ġissues":2718,"EA":2719,"ppings":2720,"Ġwindow":2721,"Ġfee":2722,"orts":2723,"itas":2724,"irt":2725,"wise":2726,"hip":2727,"ĠPe":2728,"Ġfoot":2729,"ĠReally":2730,"nService":2731,"Ġwhatever":2732,"Ġcolor":2733,"nFor":2734,"Ġopinion":2735,"Ġvi":2736,"Ġtouch":2737,"25":2738,"ĠCan":2739,"Ġafternoon":2740,"Ġreturning":2741,"Ġusing":2742,"body":2743,"Ġ45":2744,"Ġtastes":2745,"ucks":2746,"Ġmel":2747,"Ġclearly":2748,"Ġcrazy":2749,"Ġheart":2750,"Ġpatr":2751,"Ġdiscount":2752,"!)":2753,"orth":2754,"Ġpark":2755,"Ġcenter":2756,"Ġschool":2757,"Ġveggies":2758,"Ġgotten":2759,"nR":2760,"Ġremind":2761,"inally":2762,"Ġsitu":2763,"Ġcity":2764,"Ġcertainly":2765,"ĠFrench":2766,"ĠOverall":2767,"Ġbother":2768,"eed":2769,"Ġsend":2770,"Ġsalads":2771,"burgh":2772,"Ġoccas":2773,"tern":2774,"ken":2775,"oss":2776,"Ġconvers":2777,"ĠAny":2778,"hile":2779,"ado":2780,"Ġrib":2781,"haps":2782,"Ġtruly":2783,"Ġincluded":2784,"Ġribs":2785,"RI":2786,"Ġtoast":2787,".)":2788,"Ġexplained":2789,"Ġavoid":2790,"Ġvalue":2791,"ruct":2792,"ĠHot":2793,"Ġmas":2794,"Ġfa":2795,"ĠHad":2796,"TH":2797,"ountain":2798,"Ġapart":2799,"Ġmeans":2800,"Ġbell":2801,"Ġfil":2802,"ĠBoth":2803,"ocked":2804,"ĠCal":2805,"ination":2806,"Ġprompt":2807,"hol":2808,"Ġsales":2809,"fully":2810,"Ġshot":2811,"Ġtreated":2812,"Ġmins":2813,"Ġmistake":2814,"Ġsle":2815,"Ġbooth":2816,"Ġoutd":2817,"Ġtoppings":2818,"Ġmixed":2819,"Ġrating":2820,"Ġquestions":2821,"wards":2822,"now":2823,"Ġinform":2824,"ĠPr":2825,"ption":2826,"Ġdowntown":2827,"Ġstraw":2828,"urity":2829,"Ġble":2830,"ĠOr":2831,"ona":2832,"ives":2833,"icing":2834,"Ġign":2835,"Ġtrans":2836,"Ġbuilding":2837,"ilar":2838,"Ġwatching":2839,"ppers":2840,"Ġmult":2841,"ancy":2842,"gain":2843,"OW":2844,"Ġclear":2845,"Went":2846,"Ġchose":2847,"Ġseeing":2848,"ĠFl":2849,"Ġspec":2850,"lfriend":2851,"Ġsalon":2852,"they":2853,"Ġtuna":2854,"ants":2855,"Ġchain":2856,"Ġsched":2857,"Ġnights":2858,"Ġguests":2859,"ering":2860,"Ġaccommod":2861,"Ġglasses":2862,"Ġrare":2863,"ggy":2864,"enders":2865,"Ġfairly":2866,"Ġprocess":2867,"ĠLe":2868,"ĠNever":2869,"Ġknowledge":2870,"Ġpulled":2871,"Ġgross":2872,"AS":2873,"Ġlemon":2874,"ĠApp":2875,"Ġsod":2876,"Ġdesserts":2877,"roc":2878,"ĠON":2879,"Ġneighborhood":2880,"ĠCharl":2881,"UT":2882,"Ġnote":2883,"ĠCo":2884,"aim":2885,"for":2886,"Ġvegetarian":2887,"Ġflight":2888,"oon":2889,"Ġalone":2890,"ĠCr":2891,"Ġcoupon":2892,"ying":2893,"ajor":2894,"Ġhonestly":2895,"So":2896,"min":2897,"Ġquestion":2898,"Ġbab":2899,"Ġsmoke":2900,"vered":2901,"Ġstation":2902,"Ġfall":2903,"ĠMan":2904,"Ġupon":2905,"ĠBar":2906,"iron":2907,"Ġnotice":2908,"Ġgirlfriend":2909,"Ġforever":2910,"work":2911,"Ġball":2912,"wo":2913,"Ġsave":2914,"Ġcorner":2915,"Ġsauc":2916,"Ġpossible":2917,"Ġstanding":2918,"ĠDefinitely":2919,"Ġwebs":2920,"Ġhelped":2921,"Ġtrue":2922,"ause":2923,"ĠNothing":2924,"Ġslightly":2925,"Ġobviously":2926,"14":2927,"Ġfell":2928,"Ġtypical":2929,"ari":2930,"Ġ50":2931,"Ġfrequ":2932,"ĠAsian":2933,"nAl":2934,"Ġimport":2935,"Ġconsidering":2936,"Ġwash":2937,"Ġknows":2938,"Ġclot":2939,"Ġstrong":2940,"Ġdont":2941,"Ġmargar":2942,"Ġfruit":2943,"Ġstory":2944,"ands":2945,"Ġbunch":2946,"Ġcover":2947,"Ġconst":2948,"Ġdisappointment":2949,"Ġgel":2950,"Ġban":2951,"Ġahead":2952,"light":2953,"ĠCom":2954,"Ġ40":2955,"Ġunp":2956,"Ġcovered":2957,"ug":2958,"Ġheat":2959,"Ġeff":2960,"amed":2961,"Ġcomplaint":2962,"ĠBE":2963,"ushed":2964,"lic":2965,"Ġcurry":2966,"ĠUnfortunately":2967,"Ġreturned":2968,"Ġvisited":2969,"Ġge":2970,"Ġphot":2971,"Ġchairs":2972,"Ġnail":2973,"mbers":2974,"real":2975,"Ġvisiting":2976,"Ġspin":2977,"Ġkinda":2978,"Ġstraight":2979,"ĠCar":2980,"Ġsim":2981,"Ġ=":2982,"ĠIts":2983,"Ġnearly":2984,"Ġ24":2985,"Ġshows":2986,"iple":2987,"nOur":2988,"Ġrefund":2989,"nAfter":2990,"Ġstores":2991,"Ġwebsite":2992,"Ġmovie":2993,"Ġdie":2994,"Ġround":2995,"Ġeasily":2996,"ĠNY":2997,"how":2998,"ĠInd":2999,"yond":3000,"Ġsplit":3001,"Ġimag":3002,"ĠTr":3003,"ists":3004,"ope":3005,"Ġsyste":3006,"Ġbaked":3007,"ones":3008,"Ġpersonal":3009,"iled":3010,"Ġdra":3011,"nIn":3012,"Ġcupc":3013,"Ġreading":3014,"Ġhig":3015,"Ġpurchase":3016,"dy":3017,"ounge":3018,"ĠEVER":3019,"Ġmostly":3020,"Ġfit":3021,"ivered":3022,"Ġfut":3023,"ĠNEVER":3024,"Ġthank":3025,"Ġsick":3026,"Very":3027,"Ġtrad":3028,"ipped":3029,"Ġchecking":3030,"Ġmajor":3031,"Ġattend":3032,"Ġplain":3033,"Ġwin":3034,"Ġsituation":3035,"Ġusual":3036,"mo":3037,"Ġvac":3038,"ka":3039,"nAnd":3040,"Ġblue":3041,"Ġsepar":3042,"\\\"\",":3043,"CK":3044,"ager":3045,"asty":3046,"ĠOther":3047,"Ġsmooth":3048,"otte":3049,"stairs":3050,"ĠAND":3051,"oring":3052,"oved":3053,"ĠChr":3054,"Ġtelling":3055,"Ġdesign":3056,"standing":3057,"Ġfilling":3058,"vert":3059,"Ġreservations":3060,"ze":3061,"ĠST":3062,"apan":3063,"urkey":3064,"arch":3065,"inks":3066,"ters":3067,"ĠPal":3068,"Ġdelivered":3069,"ĠMont":3070,"Ġanymore":3071,"Ġcocktail":3072,"Ġdrunk":3073,"ued":3074,"nn":3075,"Ġsecurity":3076,"Ġdoct":3077,"Ġdisgusting":3078,"you":3079,"Ġdiffic":3080,"Ġpho":3081,"Ġnone":3082,"ara":3083,"ĠWal":3084,"Ġdeep":3085,"Ġexperienced":3086,"Ġbottom":3087,"Ġpub":3088,"Ġorgan":3089,"Ġrate":3090,"Ġanyway":3091,"Ġdanc":3092,"Ġed":3093,"Ġprevious":3094,"Ġstep":3095,"Ġfol":3096,"ĠMc":3097,"ĠOnce":3098,"ĠLOVE":3099,"nU":3100,"ĠĠĠ":3101,"whel":3102,"ĠSu":3103,"Ġchew":3104,"pet":3105,"Ġconvenient":3106,"Ġchili":3107,"Ġfuture":3108,"Ġbeyond":3109,"11":3110,"ĠPizza":3111,"Ġattemp":3112,"Ġpour":3113,"Ġconversation":3114,"ĠAmerican":3115,"__":3116,"Ġmissing":3117,"Ġnormal":3118,"Ġproducts":3119,"Ġpan":3120,"ĠWhy":3121,"Ġpositive":3122,"cohol":3123,"Ġpract":3124,"Ġslice":3125,"Ġsoggy":3126,"nBut":3127,"Ġsystem":3128,"ĠStrip":3129,"Ġinformed":3130,"Ġnegative":3131,"Ġlimited":3132,"nce":3133,"40":3134,"ially":3135,"bt":3136,"Ġthrow":3137,"Ġfigured":3138,"Ġmachine":3139,"Not":3140,"Ġcleaning":3141,"Ġgames":3142,"Ġdesert":3143,"Ġtonight":3144,"Ġ#":3145,"Ġwedding":3146,"Ġexpectations":3147,"Ġcashier":3148,"Ġwat":3149,"Ġquiet":3150,"Ġdump":3151,"ĠGu":3152,"Ġopp":3153,"Ġscr":3154,"Ġproblems":3155,"Ġbal":3156,"Ġsauces":3157,"Ġoriginal":3158,"Ġshower":3159,"ĠLove":3160,"Ġplaced":3161,"aded":3162,"nAll":3163,"ached":3164,"ĠPer":3165,"Ġworks":3166,"Ġcheaper":3167,"Ġkick":3168,"Ġwaff":3169,"Ġtre":3170,"ros":3171,"onday":3172,"Ġhotels":3173,"Ġcombo":3174,"Ġsister":3175,"over":3176,"Ġten":3177,"ches":3178,"Ġknown":3179,"Ġmem":3180,"Ġtickets":3181,"ency":3182,"Ġyog":3183,"Ġodd":3184,"Ġvegas":3185,"ĠCharlotte":3186,"Ġaccept":3187,"Ġmembers":3188,"arm":3189,"Ġfab":3190,"Ġcrap":3191,"Ġactual":3192,"Ġshared":3193,"13":3194,"Ġbooked":3195,"Ġgym":3196,"Ġmultiple":3197,"Ġservices":3198,"Ġlovely":3199,"Ġjo":3200,"Ġafford":3201,"Ġoutdoor":3202,"Ġbeat":3203,"Ġemail":3204,"Ġentr":3205,"Ġ25":3206,"ĠSince":3207,"ĠDel":3208,"oni":3209,"Ġ!":3210,"Ġshut":3211,"Ġmushrooms":3212,"acks":3213,"Ġ100":3214,"lla":3215,"ĠBurger":3216,"Ġru":3217,"Ġlad":3218,"Ġwra":3219,"ton":3220,"Ġlines":3221,"Ġcraving":3222,"Ġsmaller":3223,"Ġven":3224,"just":3225,"Ġoh":3226,"Ġguac":3227,"Ġvers":3228,"aven":3229,"Ġfrench":3230,"Ġfeet":3231,"Ġapparently":3232,"Ġsurprise":3233,"ĠAM":3234,"ene":3235,"Ġcance":3236,"ĠWas":3237,"agio":3238,"Ġexperiences":3239,"inger":3240,"Ġvibe":3241,"uss":3242,"ume":3243,"erve":3244,"Ġslices":3245,"Don":3246,"Ġdidnt":3247,"----":3248,"ago":3249,"Ġsucks":3250,"Ġdifficult":3251,"ceed":3252,"Ġcause":3253,"Ġpancakes":3254,"ero":3255,"Ġhadn":3256,"Ġstuffed":3257,"Ġnormally":3258,"Ġdouble":3259,"Just":3260,"ecause":3261,"rop":3262,"Ġtravel":3263,"Ġelev":3264,"Ġimpro":3265,"Ġhealthy":3266,"irc":3267,"Ġcre":3268,"Ġcompliment":3269,"coming":3270,"Ġseasoned":3271,"Ġincredibly":3272,"Ġentertain":3273,"arr":3274,"GE":3275,"Ġfolks":3276,"Ġfail":3277,"Ġprior":3278,"Ġmodern":3279,"Ġregister":3280,"Ġbars":3281,"vis":3282,"Ġlived":3283,"ĠBuff":3284,"Ġsense":3285,"Ġpurchased":3286,"ĠThanks":3287,"Ġgift":3288,"ĠNice":3289,"ĠIs":3290,"Ġalcohol":3291,"Ġwilling":3292,"Ġsimilar":3293,"Ġanswer":3294,"Ġtexture":3295,"Ġhigher":3296,"Ġlocations":3297,"ĠEn":3298,"aced":3299,"Ġfancy":3300,"Ġupd":3301,"Ġnor":3302,"Ġresort":3303,"den":3304,"ĠYOU":3305,"Ġol":3306,"amel":3307,"Ġpizz":3308,"erg":3309,"Ġbri":3310,"this":3311,"Ġaddition":3312,"Ġgenerous":3313,"ĠMost":3314,"ĠMac":3315,"Ġsummer":3316,"Ġrock":3317,"Ġpictures":3318,"Ġhoping":3319,"tle":3320,"Ġsmile":3321,"Ġeyes":3322,"Ġrealized":3323,"What":3324,"ressed":3325,"itts":3326,"Ġgroc":3327,"Ġtax":3328,"Ġnic":3329,"ĠGroup":3330,"Ġcompared":3331,"Ġtough":3332,"ĠOnly":3333,"ories":3334,"iest":3335,"Ġnec":3336,"ald":3337,"IP":3338,"Ġsoda":3339,"Ġsun":3340,"ams":3341,"ĠThank":3342,"Ġlamb":3343,"ses":3344,"Ġbasic":3345,"Ġskin":3346,"Ġvegetables":3347,"Ġsolid":3348,"gest":3349,"Ġbaby":3350,"ĠPlus":3351,"Ġsel":3352,"Ġome":3353,"ĠMonday":3354,"apanese":3355,"Ġspoke":3356,"100":3357,"Ġstuck":3358,"ained":3359,"Ġjuice":3360,"ays":3361,"ĠSa":3362,"ards":3363,"edible":3364,"nNow":3365,"enny":3366,"ĠDid":3367,"Ġthroughout":3368,"Ġscall":3369,"Ġcrunch":3370,"Ġfire":3371,"Ġoutstanding":3372,"Ġcarry":3373,"Ġupgr":3374,"Ġfunny":3375,"Ġshops":3376,"Ġwalls":3377,"ĠWho":3378,"Ġcele":3379,"ĠAm":3380,"ĠPro":3381,"Ġdrinking":3382,"Ġovercooked":3383,"zona":3384,"Ġappreciate":3385,"Ġagree":3386,"lease":3387,"amen":3388,"Ġjoke":3389,"Ġeverywhere":3390,"Ġmini":3391,"Ġfigure":3392,"uesday":3393,"Ġdip":3394,"onse":3395,"ĠHouse":3396,"back":3397,"iforn":3398,"arned":3399,"reek":3400,"Ġfixed":3401,"Ġcart":3402,"ĠSO":3403,"aki":3404,"ĠWould":3405,"Ġtomatoes":3406,"Ġrepe":3407,"Ġcand":3408,"Ġshit":3409,"ĠOk":3410,"Ġgeneral":3411,"Ġenc":3412,"Ġclaim":3413,"Ġveggie":3414,"Ġchat":3415,"ĠAlthough":3416,"ills":3417,"Ġdollar":3418,"Ġmic":3419,"Ġladies":3420,"sters":3421,"Ġdamn":3422,"imate":3423,"Ġdef":3424,"Ġadditional":3425,"Ġsports":3426,"Ġarrive":3427,"fu":3428,"Ġdesp":3429,"Ġlacking":3430,"unity":3431,"IT":3432,"Ġride":3433,"Ġstom":3434,"ittsburgh":3435,"Ġcomment":3436,"Ġbartenders":3437,"Ġcleaned":3438,"ĠSeriously":3439,"Ġbroken":3440,"ĠBellagio":3441,"itch":3442,"Ġcocktails":3443,"???":3444,"95":3445,"Ġsugar":3446,"ĠRed":3447,"nFirst":3448,"Ġdrop":3449,"night":3450,"fficient":3451,"Ġstate":3452,"ta":3453,"Ġaccess":3454,"Ġupset":3455,"ĠTO":3456,"Ġspinach":3457,"ustr":3458,"ĠQu":3459,"Ġprime":3460,"ĠBest":3461,"fish":3462,"Ġpleased":3463,"ifornia":3464,"Ġliving":3465,"Ġque":3466,"ĠĠĠĠĠĠĠĠ":3467,"Ġmoving":3468,"terday":3469,"Ġnicely":3470,"Ġbroth":3471,"Ġmoment":3472,"rdered":3473,"Ġwomen":3474,"Ġlounge":3475,"val":3476,"cale":3477,"Ġresponse":3478,"ĠArizona":3479,"Ġhip":3480,"Ġresult":3481,"Ġda":3482,"ĠAr":3483,"Ġgrand":3484,"Ġincredible":3485,"iling":3486,"aves":3487,"rent":3488,"Ġcompet":3489,"Ġchildren":3490,"Ġproceed":3491,"ĠFinally":3492,"Ġlegs":3493,"Ġadvert":3494,"Ġthanks":3495,"!\\\"\"":3496,"ĠThese":3497,"geous":3498,"Ġstood":3499,"illy":3500,"Ġbites":3501,"Ġmarket":3502,"Ġdropped":3503,"ains":3504,"Ġmeats":3505,"Ġenv":3506,"Ġturkey":3507,"Ġrich":3508,"ĠEveryone":3509,"Ġspa":3510,"ĠIndian":3511,"AM":3512,"Ġsleep":3513,"ĠFrom":3514,"Ġnach":3515,"Ġhomemade":3516,"oop":3517,"Ġtrust":3518,"Ġtub":3519,"Ġreplace":3520,"Ġimagine":3521,"Ġmenus":3522,"45":3523,"alet":3524,"Ġpatrons":3525,"ĠLike":3526,"ĠStarb":3527,"ik":3528,"aged":3529,"ynn":3530,"Ġfault":3531,"Ġrealize":3532,"ware":3533,"Ġduck":3534,"Ġknowledgeable":3535,"retty":3536,"Ġmilk":3537,"that":3538,"urance":3539,"nYou":3540,"ĠCafe":3541,"Ġraw":3542,"Ġthird":3543,"Ġcreamy":3544,"sing":3545,"Ġstated":3546,"ocado":3547,"amole":3548,"ubby":3549,"amari":3550,"ĠDO":3551,"Ġmag":3552,"Ġbrand":3553,"alled":3554,"Ġticket":3555,"aster":3556,"Ġpatient":3557,"Ġcelebr":3558,"Ġself":3559,"Ġreceive":3560,"Ġsomewhat":3561,"Ġdriving":3562,"ĠPittsburgh":3563,"Ġtraditional":3564,"ĠTac":3565,"chil":3566,"Ġolder":3567,"Ġmood":3568,"Ġpizzas":3569,"Ġsupport":3570,"Ġes":3571,"Ġspice":3572,"Ġdoctor":3573,"Ġthemselves":3574,"Ġorange":3575,"Ġstomach":3576,"Ġund":3577,"Ġtasteless":3578,"Ġinterior":3579,"BLE":3580,"Ġopening":3581,"ais":3582,"ĠTuesday":3583,"ĠGrill":3584,"hic":3585,"Ġdoubt":3586,"Ġpicture":3587,"!!\\":3588,"Ġdespite":3589,"ĠStarbucks":3590,"Ġjuicy":3591,"ium":3592,"Ġ*":3593,"Ġboard":3594,"Ġpedic":3595,"Ġpet":3596,"Ġrush":3597,"ĠCheese":3598,"Ġfoods":3599,"nAlso":3600,"?)":3601,"Ġreceipt":3602,"Ġheavy":3603,"hered":3604,"Ġearl":3605,"ces":3606,"omb":3607,"Ġbigger":3608,"Ġsatisfied":3609,"Ġrub":3610,"Ġbelow":3611,"reed":3612,"Ġaccount":3613,"ĠMad":3614,"ERE":3615,"They":3616,"Ġoverly":3617,"owing":3618,"urry":3619,"Ġpeppers":3620,"Ġcalling":3621,"ĠAgain":3622,"onna":3623,"orst":3624,"ĠYork":3625,"Ġkill":3626,"Ġbuffets":3627,"Ġuncom":3628,"Ġdecide":3629,"aming":3630,"Ġbuying":3631,"Ġdeliver":3632,"Ġdifference":3633,"Ġdough":3634,"Ġunfortunately":3635,"Ġcafe":3636,"esar":3637,"imi":3638,"Ġprovide":3639,"Ġburn":3640,"Ġcolle":3641,"ERY":3642,"cellent":3643,"Ġiced":3644,"Ġtend":3645,"nFood":3646,"orean":3647,"ĠAb":3648,"Ġpresentation":3649,"orrible":3650,"Ġpm":3651,"Ġrecent":3652,"Ġrequested":3653,"Ġtest":3654,"Ġroad":3655,"uke":3656,"Ġtruck":3657,"Ġcooking":3658,"ph":3659,"ĠSteak":3660,"Ġoy":3661,"ĠSha":3662,"erved":3663,"kin":3664,"Ġnearby":3665,"Ġfabulous":3666,"ironment":3667,"dge":3668,"ĠGroupon":3669,"Ġclothes":3670,"Ġleg":3671,"LLY":3672,"ĠMontreal":3673,"Ġbecome":3674,"rif":3675,"Ġcontinue":3676,"Ġlisten":3677,"Ġoffers":3678,"Ġinsurance":3679,"Ġplastic":3680,"ĠSalad":3681,"Ġperform":3682,"Ġground":3683,"ĠVERY":3684,"nWhat":3685,"Ġdead":3686,"Ġimportant":3687,"ma":3688,"Ġfilet":3689,"anch":3690,"ĠJapanese":3691,"ĠNext":3692,"mas":3693,"Ġlobby":3694,"Ġthru":3695,"Ġblock":3696,"Ġconfir":3697,"Ġbrew":3698,"Ġgives":3699,"Ġtalked":3700,"Ġack":3701,"Ġlikely":3702,"ĠBy":3703,"Ġtheater":3704,"Ġdim":3705,"ĠCent":3706,"Ġvisits":3707,"Ġhol":3708,"****":3709,"ring":3710,"Ġcasual":3711,"Ġtopped":3712,"ĠYe":3713,"Ġspots":3714,"Ġcatch":3715,"ĠBig":3716,"Ġspring":3717,"rom":3718,"Ġscrew":3719,"Ġfrequent":3720,"well":3721,"Ġseparate":3722,"using":3723,"aa":3724,"Ġsuggested":3725,"Ġacknow":3726,"ura":3727,"Ġfinding":3728,"Ġannoying":3729,"Ġshoes":3730,"ursday":3731,"IC":3732,"Ġearlier":3733,"Ġdepart":3734,"Ġhall":3735,"alap":3736,"hn":3737,"nTo":3738,"Ġgas":3739,"unt":3740,"......":3741,"Ġvan":3742,"urther":3743,"ified":3744,"Ġentrance":3745,"ĠSushi":3746,"Ġwont":3747,"ĠLA":3748,"Ġnasty":3749,"Ġcomplaints":3750,"Ġlights":3751,"Ġpassed":3752,"ĠCalifornia":3753,"mus":3754,"Ġvenue":3755,"appy":3756,"ĠUS":3757,"Ġgrocery":3758,"Ġblood":3759,"ĠChic":3760,"Ġform":3761,"action":3762,"lt":3763,"cr":3764,"ĠSouth":3765,"Ġparent":3766,"nNot":3767,"Ġfly":3768,"Ġconcept":3769,"Ġenvironment":3770,"ok":3771,"Ġdetail":3772,"St":3773,"Ġspending":3774,"ĠWynn":3775,"fl":3776,"Ġfrustr":3777,"ĠChrist":3778,"Ġchill":3779,"Ġcat":3780,"pri":3781,"Ġgravy":3782,"ĠTry":3783,"Ġver":3784,"Ġkey":3785,"Ġpriv":3786,"ron":3787,"erk":3788,"First":3789,"Ġcrack":3790,"Ġfurn":3791,"Ġroasted":3792,"Love":3793,"Ġmashed":3794,"Ġmachines":3795,"Ġrefused":3796,"ĠAZ":3797,"Ġpolite":3798,"Ġrange":3799,"Ġdelight":3800,"Ġomelet":3801,"Ġwanting":3802,"Ġhash":3803,"Ġmeatball":3804,"ĠTemp":3805,"isine":3806,"ield":3807,"Ġyesterday":3808,"ugg":3809,"ID":3810,"por":3811,"Ġcars":3812,"Ġdoors":3813,"Ġconv":3814,"Ġavocado":3815,"Ġagreed":3816,"Ġprovided":3817,"ric":3818,"Ġcow":3819,"ospit":3820,"orable":3821,"usion":3822,"Ġguacamole":3823,"ĠSm":3824,"Ġenchil":3825,"Ġbean":3826,"Ġassist":3827,"Ġdent":3828,"Ġhyp":3829,"Ġdriver":3830,"Ġvalley":3831,"Ġinformation":3832,"Ġmother":3833,"ify":3834,"OT":3835,"nes":3836,"Ġmiles":3837,"Ġsold":3838,"iving":3839,"Ġwords":3840,"Ġareas":3841,"Ġexpl":3842,"Ġshouldn":3843,"ĠMon":3844,"Ġpopular":3845,"rofessional":3846,"ĠEng":3847,"Ġcalls":3848,"Ġallowed":3849,"Ġminim":3850,"rant":3851,"IG":3852,"Ġsuite":3853,"ĠOf":3854,"Ġsil":3855,"isket":3856,"ĠLet":3857,"Ġflav":3858,"ĠTwo":3859,"AL":3860,"Ġparts":3861,"Ġfavorites":3862,"hy":3863,"Ġburnt":3864,"AD":3865,"bing":3866,"Ġdispl":3867,"ĠNeed":3868,"Ġbright":3869,"nHe":3870,"Ġimpressive":3871,"Ġbon":3872,"arden":3873,"Ġarg":3874,"nAny":3875,"andom":3876,"Ġotherwise":3877,"ĠHigh":3878,"OOD":3879,"Ġwood":3880,"Ġbak":3881,"ĠRest":3882,"Ġtechn":3883,"ĠChicago":3884,"otle":3885,"Ġham":3886,"econd":3887,"weet":3888,"Ġshell":3889,"Ġproperty":3890,"Ġchewy":3891,"uits":3892,"illas":3893,"wesome":3894,"azz":3895,"pon":3896,"icked":3897,"ayed":3898,"Ġtells":3899,"eno":3900,"Ġstrange":3901,"ivers":3902,"Ġperhaps":3903,"Be":3904,"Ġcakes":3905,"Ġur":3906,"nthe":3907,"izing":3908,"Ġefficient":3909,"Ġdine":3910,"Ġyeah":3911,"Ġhole":3912,"Ġadmit":3913,"rib":3914,"Ġspac":3915,"Ġques":3916,"Ġadult":3917,"Food":3918,"iders":3919,"entle":3920,"roll":3921,"Ġdrove":3922,"Ġband":3923,"inary":3924,"ĠIN":3925,"Ġversion":3926,"staff":3927,"Ġsteaks":3928,"Ġpress":3929,"esides":3930,"Ġrefills":3931,"Ġnap":3932,"Ġhid":3933,"Ġnoodle":3934,"off":3935,"ĠHU":3936,"Ġeng":3937,"ĠGet":3938,"Ġcloser":3939,"ĠLa":3940,"Ġgoodness":3941,"alo":3942,"Ġcountry":3943,"Ġuncomfortable":3944,"Ġsafe":3945,"Ġserious":3946,"Ġcap":3947,"Ġstage":3948,"nOne":3949,"Ġputting":3950,"Ġwrap":3951,"Ġchip":3952,"Ġshame":3953,"Ġmoist":3954,"Ġtofu":3955,"Ġspect":3956,"Ġsav":3957,"with":3958,"AZ":3959,"Ġbottles":3960,"Ġsurprising":3961,"ĠOut":3962,"Ġyogurt":3963,"After":3964,"Ġprint":3965,"ĠCas":3966,"Ġris":3967,"Ġvegan":3968,"Ġ+":3969,"Ġpean":3970,"Ġheaven":3971,"Ġlarger":3972,"Ġcombination":3973,"even":3974,"list":3975,"Ġlucky":3976,"Ġpair":3977,"Ġinit":3978,"Ġpromptly":3979,"Good":3980,"Ġsearch":3981,"Ġmember":3982,"Ġsuck":3983,"Ġsized":3984,"Ġbatter":3985,"Ġsix":3986,"ĠAnother":3987,"Ġtrou":3988,"ĠThursday":3989,"ĠWent":3990,"Ġtons":3991,"Ġignored":3992,"Ġnachos":3993,"ĠREA":3994,"Ġvarious":3995,"etch":3996,"Ġje":3997,"ooking":3998,"You":3999,"Ġwriting":4000,"Ġscreen":4001,"uter":4002,"Ġsale":4003,"Ġrings":4004,"enn":4005,"iture":4006,"outs":4007,"Ġagainst":4008,"ject":4009,"Ġworkers":4010,"bit":4011,"Ġinterested":4012,"Ġfountain":4013,"chi":4014,"Ġer":4015,"adas":4016,"Ġrandom":4017,"Ġrepair":4018,"Ġtypes":4019,"Ġpad":4020,"ilt":4021,"Ġreasonably":4022,"cher":4023,"Ġrespect":4024,"wood":4025,"Ġbi":4026,"Ġmissed":4027,"Ġpricing":4028,"Ġselections":4029,"ĠBuffet":4030,"CH":4031,"Ġwants":4032,"Ġgenerally":4033,"Ġtart":4034,"oof":4035,"Ġbase":4036,"Ġapologized":4037,"Ġmed":4038,"Ġvo":4039,"Ġintern":4040,"uten":4041,"Ġteam":4042,"Ġfeels":4043,"Ġvehic":4044,"Ġcards":4045,"Ġplatter":4046,"uffle":4047,"ashion":4048,"Ġsetting":4049,"Ġwaitresses":4050,"chan":4051,"lean":4052,"Ġstock":4053,"Ġlas":4054,"ĠWed":4055,"Ġcuisine":4056,"ended":4057,"Ġ/":4058,"ĠWhich":4059,"ĠRock":4060,"Ġang":4061,"upid":4062,"ution":4063,"Ġpedicure":4064,"rence":4065,"!!!\\":4066,"Ġbiggest":4067,"ĠBeef":4068,"ĠPh":4069,"ĠDJ":4070,"Ġopted":4071,"Ġgentle":4072,"Ġreplaced":4073,"EL":4074,"Ġramen":4075,"izes":4076,"Ġbody":4077,"Ġcontain":4078,"Ġzero":4079,"Ġparents":4080,"Ġsmelled":4081,"ased":4082,"ĠToo":4083,"Ġlol":4084,"Ġnotch":4085,"Ġhelping":4086,"Ġcalamari":4087,"Ġaffordable":4088,"reak":4089,"Ġperfection":4090,"Ġrelaxing":4091,"Ġdu":4092,"Ġgem":4093,"Ġfollowing":4094,",\\\"\"":4095,"ining":4096,"Ġexcuse":4097,"Ġoccasion":4098,"ĠALL":4099,"ecake":4100,"Ġunprofessional":4101,"Ġcondition":4102,"Ġdev":4103,"ĠEl":4104,"ĠSan":4105,"Ġregard":4106,"Ġpu":4107,"efully":4108,"ley":4109,"Ġhandle":4110,"Ġhighlight":4111,"//":4112,"ded":4113,"nSt":4114,"Ġoverwhel":4115,"ĠKorean":4116,"Ġpal":4117,"Ġcrappy":4118,"Ġcourt":4119,"ĠHotel":4120,"Ġir":4121,"Ġliqu":4122,"Ġsea":4123,"Ġsong":4124,"UST":4125,"Ġ:(":4126,"acular":4127,"Ġboring":4128,"Ġbeds":4129,"exp":4130,"ĠSuper":4131,"Ġmeant":4132,"Ġgor":4133,"Ġtired":4134,"ral":4135,"ioli":4136,"Ġproceeded":4137,"Ġ200":4138,"ney":4139,"Ġbags":4140,"Ġproperly":4141,"Ġjalap":4142,"Ġwide":4143,"Ġhoney":4144,"ami":4145,"Ġtortilla":4146,"Ġgonna":4147,"Ġanim":4148,"Ġcant":4149,"Ok":4150,"orough":4151,"Ġwatched":4152,"bread":4153,"iche":4154,"Ġ18":4155,"ls":4156,"ĠValley":4157,"Ġlat":4158,"Ġwelcome":4159,"ĠIT":4160,"Ġra":4161,"Ġ..":4162,"othered":4163,"Ġonto":4164,"ĠExp":4165,"ners":4166,"As":4167,"Ġattract":4168,"Ġloves":4169,"Ġtv":4170,"ending":4171,"Ġsucked":4172,"ĠLast":4173,"Ġpiss":4174,"ential":4175,"Ġwaiters":4176,"ishing":4177,"Ġpersonally":4178,"Ġconn":4179,"Ġsubst":4180,"Ġawhile":4181,"Ġpackage":4182,"Ġtrash":4183,"Ġcomplimentary":4184,"60":4185,"ĠRestaurant":4186,"Ġscene":4187,"Ġschedul":4188,"rup":4189,"Ġcurrent":4190,"inos":4191,"Ġmargarita":4192,"Ġcupcakes":4193,"Ġho":4194,"Ġspo":4195,"Ġboun":4196,"Ġbisc":4197,"ĠInstead":4198,"ĠEnglish":4199,"ĠX":4200,"ĠGrand":4201,"kward":4202,"Ġdig":4203,"Ġdaily":4204,"Ġrav":4205,"ĠCity":4206,"Ġfurniture":4207,"ashimi":4208,"Ġwhether":4209,"of":4210,"oh":4211,"Ġhappens":4212,"nAt":4213,"Ġfeed":4214,"Ġbrisket":4215,"Ġsample":4216,"Ġclassic":4217,"Ġfurther":4218,"Ġhanging":4219,"fect":4220,"Ġbone":4221,"ĠEgg":4222,"Ġhardly":4223,"ica":4224,"icks":4225,"Ġcosts":4226,"Ġthai":4227,"nOh":4228,"Ġuns":4229,"Ġpump":4230,"ET":4231,"can":4232,"Ġalright":4233,"Ġclosing":4234,"Ġgar":4235,"porate":4236,"omen":4237,".\\\"\"\\":4238,"ĠTempe":4239,"burger":4240,"antic":4241,"Ġmot":4242,"Ġclubs":4243,"bq":4244,"Ġthrew":4245,"GM":4246,"ĠAW":4247,"Ġcompar":4248,"Ġhospit":4249,"Ġowned":4250,"Ġplayed":4251,"Ġseasoning":4252,"Ġtowards":4253,"Ġpossibly":4254,"fet":4255,"Ġemb":4256,"ĠStaff":4257,"Ġreception":4258,"Ġstale":4259,"overed":4260,"ietnam":4261,"Ġcollege":4262,"Ġscallops":4263,"Ġthorough":4264,"Ġvacation":4265,"Ġbringing":4266,"eria":4267,"ĠWH":4268,"Ġapple":4269,"Ġaccommodating":4270,"Ġgiant":4271,"Ġrefres":4272,"Ġtraining":4273,"Ġclient":4274,"Ġcomfort":4275,"Ġpoints":4276,"ĠSU":4277,"Ġvalet":4278,"Ġinstruct":4279,"Ġdem":4280,"://":4281,"ĠJohn":4282,"Ġspectacular":4283,"ision":4284,"Ġflag":4285,"Ġsou":4286,"Ġparticularly":4287,"Best":4288,"Ġoper":4289,"Ġwindows":4290,"ĠHUGE":4291,"ĠMadison":4292,"ĠAT":4293,"Ġlab":4294,"Ġimprove":4295,"une":4296,"Ġourselves":4297,"Ġcompan":4298,"met":4299,"oz":4300,"Ġcig":4301,"Ġdancing":4302,"Ġut":4303,"nesday":4304,"cut":4305,"Ġcaramel":4306,"One":4307,"ipe":4308,"Ġstupid":4309,"Ġ90":4310,"Ġcirc":4311,"ĠBecause":4312,"Ġlighting":4313,"Ġhummus":4314,"Oh":4315,"ĠDay":4316,"Ġoysters":4317,"Ġlaugh":4318,"ao":4319,"Ġmarin":4320,"Ġrestroom":4321,"Ġcookies":4322,"Ġflavorless":4323,"cial":4324,"Ġcups":4325,"Ġreminded":4326,"Ġdepartment":4327,"ingly":4328,"Ġwelcoming":4329,"unks":4330,"Ġlower":4331,"ĠSomet":4332,"Ġbasket":4333,"Ġnoise":4334,"Ġadvice":4335,"Ġsuppose":4336,"Ġbathrooms":4337,"Had":4338,"Ġcrunchy":4339,"errible":4340,"Ġfoc":4341,"Ġrese":4342,"Ġmanic":4343,"ĠHere":4344,"azy":4345,"Ġwax":4346,"pes":4347,"oba":4348,"Ġhidden":4349,"Re":4350,"Ġnecess":4351,"Ġvent":4352,"Ġimpression":4353,"Ġtreatment":4354,"ĠSpr":4355,"ĠBo":4356,"Ġmart":4357,"ttp":4358,"!!!!!":4359,"Ġdeals":4360,"Ġpolicy":4361,"Ġdefin":4362,"ĠLuck":4363,"Ġcro":4364,"umber":4365,"Ġmanaged":4366,"Ġsmoked":4367,"awai":4368,"Ġconfused":4369,"Ġcarpet":4370,"Ġschedule":4371,"ICE":4372,"Ġrushed":4373,"ĠEast":4374,"Ġlacked":4375,"ek":4376,"Ġcocon":4377,"Ġappeared":4378,"Ġmat":4379,"UM":4380,"Ġvide":4381,"75":4382,"Ġawkward":4383,"Ġwear":4384,"Ġgreens":4385,"Ġstrawberry":4386,"Ġsyrup":4387,"Ġtoilet":4388,"AZING":4389,"ury":4390,"elie":4391,"Came":4392,"ĠGot":4393,"Ġbrother":4394,"Ġau":4395,"Ġfry":4396,"Ġcomplained":4397,"ĠMGM":4398,"ĠTom":4399,"ĠSee":4400,"Ġmelted":4401,"Ġring":4402,"Ġsmoking":4403,"RIBLE":4404,"Ġannoyed":4405,"Ġrental":4406,"tte":4407,"Ġjud":4408,"Ġid":4409,"Ġbegan":4410,"Ġweekends":4411,"Ġbbq":4412,"Ġleaves":4413,"Ġdozen":4414,"ser":4415,"Ġcarr":4416,"Ġfare":4417,"Ġcoconut":4418,"Ġmicrow":4419,"Ġtill":4420,"Ġsurround":4421,"law":4422,"acy":4423,"Ġupstairs":4424,"Ġear":4425,"ama":4426,"Ġdeg":4427,"rs":4428,"hank":4429,"Ġrespond":4430,"Ġwow":4431,"Ġpoorly":4432,"Ġdisp":4433,"....\\":4434,"Ġske":4435,"Ġjump":4436,"ĠStill":4437,"ĠVIP":4438,"Ġhanded":4439,"Ġruined":4440,"ietnamese":4441,"Ġtrend":4442,"Ġcharges":4443,"Ġhype":4444,"Ġchanges":4445,"ĠOld":4446,"alay":4447,"ĠRoll":4448,"Ġwrapped":4449,"www":4450,"mart":4451,"ĠVen":4452,"Ġrot":4453,"Ġbuck":4454,"nHow":4455,"din":4456,"Ġeffort":4457,"ĠHappy":4458,"ĠTHIS":4459,"ĠIS":4460,"Well":4461,"ror":4462,"onestly":4463,"Ġ;":4464,"rod":4465,"Ġpound":4466,"berries":4467,"ĠLots":4468,"ĠWI":4469,"Ġbelly":4470,"ĠNeedless":4471,"Ġgluten":4472,"Ġlocals":4473,"Ġill":4474,"ĠIm":4475,"OME":4476,"Ġpud":4477,"Ġcozy":4478,"Ġgroupon":4479,"ils":4480,"Ġoffering":4481,"Ġhar":4482,"ĠKe":4483,"Ġrelative":4484,"Ġshocked":4485,"No":4486,"Ġben":4487,"anted":4488,"Ġdiner":4489,"Donald":4490,"rol":4491,"Ġanswered":4492,"Ġbeginning":4493,"Ġarr":4494,"Ġyellow":4495,"ĠHer":4496,"Ġenjoyable":4497,"ille":4498,"ught":4499,"itten":4500,"ĠStreet":4501,"Ġgroups":4502,"ĠSorry":4503,"ĠTaco":4504,"Ġsoooo":4505,"Ġmayo":4506,"Ġrecommendation":4507,"Ġmatch":4508,"Ġrefreshing":4509,"Ġmex":4510,"!).":4511,"ker":4512,"Ġpush":4513,"Ġregret":4514,"Ġinclude":4515,"Ġbecame":4516,"Ġskip":4517,"mel":4518,"ummer":4519,"Ġvanilla":4520,"ette":4521,"ĠHawai":4522,"soci":4523,"Ġweather":4524,"Ġconstantly":4525,"Ex":4526,"Ġscream":4527,"Ġknowing":4528,"Ġclasses":4529,"ission":4530,"fto":4531,"Ġrom":4532,"ĠLV":4533,"Ġsite":4534,"mmm":4535,"Ġrat":4536,"Ġenjoying":4537,"fy":4538,"eth":4539,"ĠSand":4540,"ĠOver":4541,"Ġtemper":4542,"Ġhubby":4543,"erous":4544,"When":4545,"nEvery":4546,"ifi":4547,"Ġreasons":4548,"ĠGO":4549,"zel":4550,"Ġboo":4551,"Ġlefto":4552,"ĠGreek":4553,"aling":4554,"Ġroast":4555,"rem":4556,"Ġcomputer":4557,"Ġpita":4558,"ĠChristmas":4559,"eng":4560,"etian":4561,"Ġtowels":4562,"iding":4563,"Ġlead":4564,"Ġlearned":4565,"Ġbanana":4566,"Ġapology":4567,"Ġbounc":4568,"Ġvehicle":4569,"ĠBas":4570,"arella":4571,"friendly":4572,"Ġserves":4573,"outine":4574,"ample":4575,"Ġparties":4576,"odka":4577,"hern":4578,"Ġ0":4579,"Ġbagel":4580,"ĠWednesday":4581,"Ġdried":4582,"Ġelevator":4583,"Ġfeat":4584,"Ġsliced":4585,"Ġrefer":4586,"Ġtips":4587,"Ġpointed":4588,"Ġfight":4589,"Ġsoy":4590,"nThen":4591,"Ġsucc":4592,"ĠMcDonald":4593,"Ġfloors":4594,"Wow":4595,"yaki":4596,"llen":4597,"ivid":4598,"Ġsounds":4599,"Ġtrouble":4600,"Ġdraw":4601,"Ġbank":4602,"Ġmile":4603,"Ġdressed":4604,"Ġpink":4605,"Ġupdate":4606,"........":4607,"who":4608,"eries":4609,"nTheir":4610,"Ġaccomp":4611,"Ġune":4612,"hett":4613,"ĠOrdered":4614,"uced":4615,"onven":4616,"ĠBUT":4617,"Ġindust":4618,"bl":4619,"Ġstarting":4620,"Ġconcern":4621,"!!!!!!!!":4622,"ators":4623,"Ġconsistently":4624,"Ġjack":4625,"Ġyum":4626,"ustomer":4627,"sels":4628,"Ġoven":4629,"ingers":4630,"Ġpolish":4631,"Ġappreciated":4632,"thy":4633,"Ġnicer":4634,"ifically":4635,"Ġattempt":4636,"OS":4637,"ĠMand":4638,"ĠCaesar":4639,"000":4640,"ccoli":4641,"Ġgamb":4642,"board":4643,"Ġspacious":4644,"keep":4645,"corn":4646,"ĠDec":4647,"Ġamong":4648,"Ġsliders":4649,"Ġwaffles":4650,"Ġsashimi":4651,"Ġbike":4652,"ribly":4653,"riendly":4654,"Ġsounded":4655,"nov":4656,"olly":4657,"Ġassum":4658,"ĠWest":4659,"ipment":4660,"star":4661,"iff":4662,"Ġgorgeous":4663,"Ġopport":4664,"Ġprivate":4665,"TF":4666,"Ġsouth":4667,"Ġinternet":4668,"hetic":4669,"Ġpicky":4670,"don":4671,"ĠCH":4672,"Ġcontinued":4673,"Ġupscale":4674,"Ġcorporate":4675,"ĠDis":4676,"Ġgelato":4677,"Ġmad":4678,"istent":4679,"Ġdistance":4680,"Ġdipping":4681,"ĠEX":4682,"obe":4683,"zzarella":4684,"ician":4685,"Ġmargaritas":4686,"ĠCheck":4687,"Ġabsolute":4688,"Ġupgrade":4689,"Ġtab":4690,"isted":4691,"nThat":4692,"Ġcookie":4693,"35":4694,"Ġkinds":4695,"18":4696,"Ġfacility":4697,"teous":4698,"Ġconcer":4699,"oted":4700,"Ġhon":4701,"Ġseconds":4702,"Ġtortillas":4703,"ipping":4704,"Ġtire":4705,"Ġgrease":4706,"Ġspecialty":4707,"ĠGreen":4708,"ineapp":4709,"uy":4710,"LA":4711,"Ġasada":4712,"ĠAMAZING":4713,"OUS":4714,"Ġexception":4715,"Ġwearing":4716,"Ġthats":4717,"Ġlaid":4718,"Ġfem":4719,"Ġholid":4720,"Ġaddress":4721,"Ġphotos":4722,"16":4723,"Ġranch":4724,"Ġspecific":4725,"There":4726,"ĠBay":4727,"Ġkidding":4728,"Ġpaint":4729,"Ġgold":4730,"Ġlearn":4731,"Ġmir":4732,"Ġwarrant":4733,"Ġbakery":4734,"Ġmild":4735,"irts":4736,"Ġposted":4737,"ises":4738,"ĠPlease":4739,"ĠClub":4740,"Ġblend":4741,"Ġpeanut":4742,"ni":4743,"Ġassoci":4744,"Ġcarne":4745,"Ġshake":4746,"Ġedible":4747,"urger":4748,"ĠShrimp":4749,"unic":4750,"har":4751,"ĠChef":4752,"ĠSad":4753,"plant":4754,"oured":4755,"ĠPrices":4756,"Ġreport":4757,"Ġproduce":4758,"Ġcuc":4759,"Ġappear":4760,"Ġapartment":4761,"agne":4762,"LD":4763,"ple":4764,"Ġnobody":4765,"Ġles":4766,"ĠApparently":4767,"ĠPri":4768,"ĠGold":4769,"Ġindivid":4770,"atic":4771,"Ġshots":4772,"Ġfav":4773,"Ġnatur":4774,"Ġstandards":4775,"Ġvoice":4776,"Ġblah":4777,"ĠCos":4778,"Ġlayout":4779,"nGreat":4780,"Ġtag":4781,"Ġaud":4782,"ĠAre":4783,"Ġsnack":4784,"Ġdad":4785,"ĠWow":4786,"Ġcontract":4787,"Ġsigns":4788,"In":4789,"Ġheaded":4790,"Ġmeeting":4791,"Ġwaffle":4792,"ergy":4793,"eriod":4794,"uine":4795,"Ġdealers":4796,"ism":4797,"Ġ19":4798,"Ġrecord":4799,"enedict":4800,"ony":4801,"Ġmustard":4802,"Ġfees":4803,"anda":4804,"Ġcoupons":4805,"Ġcomfy":4806,"itted":4807,"Ġshred":4808,"ext":4809,"Ġmexican":4810,"Ġdiss":4811,"Ġdonuts":4812,"Ġmango":4813,"Ġrip":4814,"ria":4815,"Ġfinal":4816,"Ġobvious":4817,"Ġdive":4818,"Ġmill":4819,"Ġcraft":4820,"Ġadvance":4821,"Ġstarts":4822,"Ġcontrol":4823,"ĠRoom":4824,"ossible":4825,"ĠVenetian":4826,"Ġhist":4827,"Ġwet":4828,"ĠHis":4829,"Ġcourteous":4830,"Ġlisted":4831,"Ġinexp":4832,"hi":4833,"ĠAS":4834,"ĠJoe":4835,"Ġsurprisingly":4836,"Ġkeeping":4837,"ĠBlue":4838,"Ġfollowed":4839,"uses":4840,"bb":4841,"ooo":4842,"Ġoccasions":4843,"Ġlazy":4844,"ĠTot":4845,"Ġtypically":4846,"ented":4847,"Ġpas":4848,"ĠNorth":4849,"Ġcompare":4850,"Ġgarage":4851,"Ġage":4852,"Ġhook":4853,"nBe":4854,"Ġplanning":4855,"lings":4856,"ĠWOR":4857,"ĠOF":4858,"Ġdescribe":4859,"Ġbroke":4860,"ĠMic":4861,"ineapple":4862,"ola":4863,"mesan":4864,"Ġcandy":4865,"Ġeast":4866,"Ġ80":4867,"Ġexample":4868,"free":4869,"antage":4870,"Ġvol":4871,"Ġfully":4872,"Ġaware":4873,"sit":4874,"ĠPort":4875,"Ġpleasantly":4876,"belie":4877,"Ġdecision":4878,"Ġhey":4879,"Ġspread":4880,"Ġspecifically":4881,"Ġobs":4882,"Ġpudding":4883,"Ġmail":4884,"Ġtires":4885,"Ġpotential":4886,"Ġconsistent":4887,"achi":4888,"Ġwhenever":4889,"Ġrad":4890,"Ġ16":4891,"Ġenter":4892,"Ġtempura":4893,"asp":4894,"ĠWa":4895,"aint":4896,"Ġneither":4897,"Ġsizes":4898,"Ġcupcake":4899,"Ġbf":4900,"Ġtruffle":4901,"ĠAnyway":4902,"she":4903,"Ġmer":4904,"Ġconcerned":4905,"ĠVietnamese":4906,"Ġflow":4907,"aghett":4908,"Ġden":4909,"warm":4910,"Ġweak":4911,"Ġmeh":4912,"Ġpresented":4913,"ĠPretty":4914,"Ġdiscovered":4915,"Ġcell":4916,"men":4917,"Ġmacar":4918,"Ġmuff":4919,"Ġelect":4920,"ĠMo":4921,"Ġmeatballs":4922,"ground":4923,"Ġbasil":4924,"Ġsomehow":4925,"Ġeventually":4926,"Ġfailed":4927,"place":4928,"Ġbudget":4929,"cle":4930,"Ġhimself":4931,"Ġshuttle":4932,"Ġmessage":4933,"Ġcomplex":4934,"Ġquesad":4935,"Ġchunks":4936,"Ġaf":4937,"Ġchamp":4938,"ĠBet":4939,"Ġscheduled":4940,"Ġhopes":4941,"ĠAng":4942,"kins":4943,"ational":4944,"Ġexceptional":4945,"ival":4946,"REAT":4947,"Ġgod":4948,"Ġdisplay":4949,"Ġbreat":4950,"ointed":4951,"rific":4952,"do":4953,"Ġchefs":4954,"Ġmark":4955,"rated":4956,"Ġoverl":4957,"Ġ@":4958,"Ġtheme":4959,"illed":4960,"Ġaltern":4961,"Ġcommon":4962,"Ġequipment":4963,"aple":4964,"ĠAria":4965,"sc":4966,"ĠWait":4967,"Ġ:-":4968,"irque":4969,"ĠEsp":4970,"Ġworry":4971,"aghetti":4972,"Ġbooths":4973,"Ġpromot":4974,"yy":4975,"Ġrelatively":4976,"200":4977,"rely":4978,"ĠSun":4979,"Ġdirectly":4980,"amble":4981,"Ġcowork":4982,"ĠEach":4983,"olo":4984,"Ġbrus":4985,"ĠPot":4986,"Ġfridge":4987,"henomen":4988,"arily":4989,"Ġstarving":4990,"iles":4991,"ĠGl":4992,"ference":4993,"Ġnumerous":4994,"yle":4995,"Ġnames":4996,"ĠFried":4997,"____":4998,"Ġdownstairs":4999,"Ġconnect":5000,"ĠEVERY":5001,"Ġremoved":5002,"umbs":5003,"Ġtemperature":5004,"Ġthr":5005,"Ġcheesy":5006,"Ġshowing":5007,"Ġgrat":5008,"Ġking":5009,"ĠFresh":5010,"eriyaki":5011,"Ġswitch":5012,"ĠMarket":5013,"Ġfingers":5014,"ĠPork":5015,"ĠREALLY":5016,"arant":5017,"Ġlime":5018,"ĠHighly":5019,"Ġundercooked":5020,"Ġpa":5021,"Al":5022,"ĠSqu":5023,"ĠUpon":5024,"Ġapologize":5025,"Ġcharging":5026,"Ġopportunity":5027,"ett":5028,"Ġprem":5029,"Ġrespons":5030,"ĠBad":5031,"ĠRob":5032,"Ġrepeat":5033,"Ġbroccoli":5034,"ĠAY":5035,"Ġintrod":5036,"Ġfake":5037,".,":5038,"rid":5039,"arrass":5040,"aste":5041,"IR":5042,"Ġant":5043,"owder":5044,"ĠJe":5045,"there":5046,"reens":5047,"Ġlose":5048,"parag":5049,"club":5050,"uity":5051,"Ġsticky":5052,"nNo":5053,"iri":5054,"Ġpastries":5055,"Ġtraffic":5056,"Ġsilver":5057,"etchup":5058,"Ġambience":5059,"liness":5060,"Ġlikes":5061,"Ġhesit":5062,"ĠHA":5063,"Ġcheesecake":5064,"Ġcaught":5065,"ĠTown":5066,"ĠHour":5067,"Ġdiet":5068,"Ġnamed":5069,"Ġinsp":5070,"Ġwines":5071,"boy":5072,"Ġhamb":5073,"ances":5074,"eled":5075,"Ġrarely":5076,"nHowever":5077,"era":5078,"ĠYum":5079,"ĠPeople":5080,"otten":5081,"Ġspeed":5082,"Ġdelish":5083,"Ġmemorable":5084,"nut":5085,"Ġdream":5086,"Ġways":5087,"paragus":5088,"OP":5089,"Ġinconven":5090,"Ġcomplaining":5091,"Ġadvantage":5092,"ĠANY":5093,"Ġballs":5094,"ĠAYCE":5095,"innam":5096,"ico":5097,"Ġindic":5098,"Ġrubber":5099,"ĠBeing":5100,"ĠCon":5101,"Ġmanicure":5102,"ĠProbably":5103,"Ġfans":5104,"US":5105,"Ġvodka":5106,"Ġvideo":5107,"ĠONE":5108,"Ġpissed":5109,"henomenal":5110,"ĠBEST":5111,"erm":5112,"ĠChip":5113,"Ġolive":5114,"Ġconfirm":5115,"ĠPark":5116,"Ġbothered":5117,"Ġcreative":5118,"Ġpatty":5119,"Ġsmells":5120,"ĠSandw":5121,"Ġimpossible":5122,"Ġrolled":5123,"vet":5124,"ignon":5125,"Ġpatron":5126,"Ġcancel":5127,"innamon":5128,"reakfast":5129,"Ġbump":5130,"Ġlock":5131,"Ġpromised":5132,"iments":5133,"Ġwritten":5134,"Ġhearing":5135,"ĠLux":5136,"Ġstri":5137,"Ġcourses":5138,"ORE":5139,"Ġsake":5140,"Ġmozzarella":5141,"char":5142,"nDon":5143,"iliar":5144,"yal":5145,"Ġhint":5146,"ĠWor":5147,"Ġfool":5148,"Ġlaw":5149,"ĠTex":5150,"Ġfamous":5151,"ĠParis":5152,"amped":5153,"Ġanytime":5154,".)\\":5155,"ĠLoc":5156,"Ġhaircut":5157,"Ġembarrass":5158,"ĠAir":5159,"resso":5160,"Ġ60":5161,"hill":5162,"esa":5163,"ooks":5164,"Ġclassy":5165,"Ġshredded":5166,"Ġassume":5167,"For":5168,"..\\":5169,"Ġblow":5170,"Ġgrabbed":5171,"Ġpower":5172,"anna":5173,"ĠRE":5174,"Ġfemale":5175,"Ġgoat":5176,"Ġrecommendations":5177,"Ġpicking":5178,"hanks":5179,"Ġtrack":5180,"Ġsens":5181,"Ġland":5182,"Ġdeserve":5183,"ĠAL":5184,"Ġstylist":5185,"Ġevents":5186,"Ġhurry":5187,"Ġ21":5188,"Ġvegetable":5189,"itan":5190,"Ġpressure":5191,"ĠSweet":5192,"west":5193,"Ġdest":5194,"Ġfreshly":5195,"Ġviews":5196,"ĠMandalay":5197,"atered":5198,"mmmm":5199,"ĠAd":5200,"Ġbooks":5201,"Ġcrepe":5202,"Ġrough":5203,"Ġmanner":5204,"Ġsus":5205,"Ġgroom":5206,"ĠCasino":5207,"Ġceiling":5208,"Ġtapas":5209,"Ġcross":5210,"uth":5211,"Ġgentleman":5212,"ila":5213,"rious":5214,"azed":5215,"ront":5216,"ĠMore":5217,"ourmet":5218,"Ġketchup":5219,"ĠGod":5220,"Ġsex":5221,"Ġtight":5222,"was":5223,"Ġpepperoni":5224,"Ġmessed":5225,"ĠYeah":5226,"ĠBlack":5227,"oot":5228,"ĠSure":5229,"ushing":5230,"Ġrow":5231,"tenance":5232,"Ġult":5233,"Ġdecorated":5234,"Ġaside":5235,"Ġprof":5236,"Ġsoups":5237,"Ġsteamed":5238,"oriz":5239,"Ġweight":5240,"ĠSam":5241,"ĠSub":5242,"Ġdraft":5243,"17":5244,"ĠSH":5245,"Ġsaved":5246,"Ġflavored":5247,"ĠFe":5248,"KE":5249,"Ġslaw":5250,"ĠManager":5251,"uffy":5252,"Ġmembership":5253,"80":5254,"mond":5255,"aining":5256,"erves":5257,"obster":5258,"Ġcrew":5259,"sting":5260,"ading":5261,"Ġlie":5262,"Ġtoss":5263,"Ġturns":5264,"ĠApple":5265,"UL":5266,"mall":5267,"Ġcop":5268,"alk":5269,"Ġextensive":5270,"ĠLuckily":5271,"li":5272,"Ġincludes":5273,"Ġgotta":5274,"good":5275,"mbered":5276,"Ġinstall":5277,"Ġminimum":5278,"esto":5279,"Ġspices":5280,"ĠAlways":5281,"Ġperiod":5282,"ĠDidn":5283,"anish":5284,"achel":5285,"Ġforced":5286,"Ġmechan":5287,"Ġindividual":5288,"espite":5289,"Ġexec":5290,"aze":5291,"obby":5292,"Ġcorrectly":5293,"down":5294,"Ġselling":5295,"Ġheld":5296,"Ġoriginally":5297,"Ġrang":5298,"Ġcommunic":5299,"Worst":5300,"Ġvine":5301,"ndler":5302,"IM":5303,"ener":5304,"ula":5305,"bar":5306,"Ġwifi":5307,"ĠTHAT":5308,"ĠCenter":5309,"Ġtrendy":5310,"Ġlit":5311,"ENT":5312,"ograp":5313,"ĠPlace":5314,"Ġenchiladas":5315,"Ġscoop":5316,"Ġjam":5317,"ĠYour":5318,"Ġremembered":5319,"rend":5320,"Ġfashion":5321,"Ġknock":5322,"ucked":5323,"Ġbreast":5324,"Ġmassive":5325,"Ġwasted":5326,"outhern":5327,"nWhile":5328,"Ġcam":5329,"believ":5330,"Ġtou":5331,"Ġphenomenal":5332,"herry":5333,"Ġorganic":5334,"reg":5335,"otta":5336,"Ġswim":5337,"ito":5338,"Ġesc":5339,"ĠWTF":5340,"Ġvia":5341,"organ":5342,"????":5343,"Ġwrote":5344,"uster":5345,"ĠRib":5346,"Ġsigned":5347,"ĠKing":5348,"UR":5349,"hib":5350,"Ġmushy":5351,"ĠAC":5352,"Ġindustry":5353,"ids":5354,"Ġphoto":5355,"Ġwasnt":5356,"Ġess":5357,"Ġsticks":5358,"Ġbra":5359,"ONE":5360,"Ġfiance":5361,"ĠMr":5362,"ano":5363,"Ġtheat":5364,"keeping":5365,"Ġtoasted":5366,"ilant":5367,"Ġautom":5368,"Ġreserved":5369,"Ġcert":5370,"Ġburritos":5371,"Ġshirt":5372,"Ġbrings":5373,"Ġcraw":5374,"Ġsett":5375,"ĠAv":5376,"nWell":5377,"--------":5378,"ĠFries":5379,"Ġresults":5380,"order":5381,"Ġcry":5382,"imately":5383,"Ġterms":5384,"Ġbomb":5385,"Ġrenov":5386,"otto":5387,"ĠHard":5388,"rilled":5389,"$$":5390,"AIN":5391,"ĠTook":5392,"Ġchallen":5393,"getic":5394,"Ġfal":5395,"Ġconsistency":5396,"Ġclients":5397,"Ġhi":5398,"inc":5399,"Ġcuts":5400,"Ġcolors":5401,"Ġfootball":5402,"Ġluke":5403,"ĠCoffee":5404,"orrow":5405,"Ġarrival":5406,"ĠToday":5407,"Ġreviewers":5408,"nother":5409,"Ġreplied":5410,"Ġacknowled":5411,"Ġpickles":5412,"Ġridiculously":5413,"Ġbalance":5414,"Ġdust":5415,"arget":5416,"Ġboba":5417,"icky":5418,"ĠGREAT":5419,"Ġblast":5420,"ĠID":5421,"Ġgyro":5422,"tr":5423,"see":5424,"AC":5425,"Ġtreats":5426,"ĠTVs":5427,"Ġleftovers":5428,"Ġcrepes":5429,"ĠChocolate":5430,"ndred":5431,"happy":5432,"ann":5433,"Ġaccord":5434,"Ġinexpensive":5435,"Ġsignature":5436,"Ġpractice":5437,"Ġpin":5438,"Ġchopped":5439,"Ġbagels":5440,"mi":5441,"ĠHar":5442,"Ġrelaxed":5443,"efinitely":5444,"Ġpineapple":5445,"ĠHave":5446,"ĠPalace":5447,"verse":5448,"ĠMay":5449,"Ġdisappe":5450,"Ġpill":5451,"Ġmi":5452,"Ġgarb":5453,"Ġunlike":5454,"nAnyway":5455,"Ġcous":5456,"iring":5457,"Ġbusinesses":5458,"angria":5459,"Ġsuggestions":5460,"Ġgolf":5461,"beye":5462,"ĠONLY":5463,"book":5464,"Ġginger":5465,"ĠCome":5466,"resent":5467,"AST":5468,"Ġsavory":5469,"Ġsadly":5470,"ĠFOR":5471,"food":5472,"Ġwest":5473,"Ġhundred":5474,"Ġcrit":5475,"Ġasks":5476,"ilantro":5477,"ĠCost":5478,"iversary":5479,"ction":5480,"ban":5481,"Ġofferings":5482,"IGH":5483,"Horrible":5484,"Ġsund":5485,"Ġboxes":5486,"ĠME":5487,"ĠCA":5488,"Ġmartini":5489,"bert":5490,"Ġfellow":5491,"itness":5492,"Ġcasinos":5493,"Ġappropri":5494,"ĠPat":5495,"Ġgambling":5496,"Ġsca":5497,"ĠIr":5498,"Ġasparagus":5499,"Ġrave":5500,"Ġshape":5501,"Ġirrit":5502,"Ġev":5503,"Ġbeha":5504,"Ġeggplant":5505,"ottom":5506,"ĠSER":5507,"Ġtan":5508,"ĠHolly":5509,"Ġclosest":5510,"Ġfatty":5511,"Ġeffect":5512,"ala":5513,"Ġchop":5514,"ĠEspecially":5515,"Ġchinese":5516,"PM":5517,"accept":5518,"Ġmaintenance":5519,"ĠSl":5520,"ĠHERE":5521,"Ġgenuine":5522,"Ġregul":5523,"nUn":5524,"iqu":5525,"Ġdetails":5526,"Ġdumplings":5527,"Ġfreez":5528,"ilies":5529,"Ġ14":5530,"Ġconcert":5531,"Ġhass":5532,"Ġaccommodate":5533,"Ġfuck":5534,"lets":5535,"Ġheck":5536,"ĠPerhaps":5537,",\\":5538,"ession":5539,"ĠWAY":5540,"Ġvet":5541,"Ġspaghetti":5542,"Ġsuperb":5543,"Ġpublic":5544,"Ġtopping":5545,"Ġnuts":5546,"ĠPerfect":5547,"useum":5548,"Ġcommunity":5549,"Ġlux":5550,"ustard":5551,"Ġdownhill":5552,"Ġinviting":5553,"Ġtower":5554,"gy":5555,"?!?!":5556,"EE":5557,"Ġprescri":5558,"Ġneat":5559,"Ġentered":5560,"ĠWhere":5561,"Ġbedroom":5562,"Ġdrag":5563,"Ġchampagne":5564,"anced":5565,"Ġsuff":5566,"des":5567,"ĠSecond":5568,"Ġhistory":5569,"ĠCra":5570,"Ġsocial":5571,"ORRIBLE":5572,"Ġcares":5573,"Ġthoroughly":5574,"ively":5575,"iot":5576,"Ġsight":5577,"Ġfork":5578,"ĠCirque":5579,"Ġnapkins":5580,"Ġequally":5581,"Ġentertainment":5582,"Really":5583,"Ġbiscuits":5584,"aly":5585,"Ġthrown":5586,"Ġbul":5587,"Ġ35":5588,"ĠDin":5589,"hr":5590,"ATE":5591,"ION":5592,"Ġhaha":5593,"acked":5594,"Ġcucumber":5595,"Ġhurt":5596,"Ġguarant":5597,"Ġdude":5598,"Ġsubstit":5599,"Ġaccident":5600,"Ġpractically":5601,"gant":5602,"Ġclue":5603,"acceptable":5604,"Ġcinnamon":5605,"Ġtail":5606,"ĠAwesome":5607,"Ġmelt":5608,"Service":5609,"sey":5610,"Ġbull":5611,"Ġcreme":5612,"Ġspeaking":5613,"Ġtad":5614,"Ġbesides":5615,"Ġregularly":5616,"Ġbowls":5617,"cent":5618,"Ġremove":5619,"Ġromantic":5620,"Ġbenef":5621,"Ġfilthy":5622,"lin":5623,"Ġquote":5624,"rupt":5625,"Ġstudents":5626,"Ġhat":5627,"sually":5628,"het":5629,"ĠSometimes":5630,"MG":5631,"Ġgoo":5632,"Ġunderwhel":5633,"Ġremod":5634,"topped":5635,"after":5636,"ĠFriendly":5637,"raid":5638,"lex":5639,"Ġinedible":5640,"Ġolives":5641,"Ġdiv":5642,"Ġassured":5643,"Ġsquee":5644,"dr":5645,"ĠSoup":5646,"loin":5647,"Ġinvol":5648,"ĠiP":5649,"ĠDan":5650,"Ġnatural":5651,"Ġquesadilla":5652,"Ġintimate":5653,"asure":5654,"'.":5655,"Ġgoods":5656,"Ġmiso":5657,"Ġfrequently":5658,"Me":5659,"Ġheading":5660,"Ġsuccess":5661,"ANT":5662,"Ġwondering":5663,"Ġlatte":5664,"Ġfinger":5665,"ele":5666,"Ġhasn":5667,"nel":5668,"hers":5669,"Ġcancell":5670,"Ġgarbage":5671,"Ġ....":5672,"Ġdined":5673,"ĠPast":5674,"ĠOl":5675,"nShe":5676,"Ġwatery":5677,"Ġpure":5678,"Ġpreviously":5679,"AP":5680,"ĠAdd":5681,"Ġbuffalo":5682,"ĠChipotle":5683,"ague":5684,"Ġquant":5685,"ped":5686,"dinburgh":5687,"abi":5688,"Ġrain":5689,"Ġpopcorn":5690,"Ġsaving":5691,"Ġmidnight":5692,"Ġfamiliar":5693,"ĠMir":5694,"Ġweekday":5695,"Ġkeeps":5696,"Ġshoot":5697,"Ġjudge":5698,"Ġclothing":5699,"umbled":5700,"ĠBoy":5701,"Ġfond":5702,"Ġcater":5703,"Ġends":5704,"actory":5705,"Ġbuns":5706,"Ġloaded":5707,"ĠLong":5708,"Ġmussels":5709,"Ġcents":5710,"ads":5711,"Ġsteakhouse":5712,"ĠChandler":5713,"Ġchile":5714,"isy":5715,"Ġstairs":5716,"Ġacknowledge":5717,"olitan":5718,"agn":5719,"Ġprogr":5720,"erest":5721,"Ġlau":5722,"Ġincor":5723,"Ġmanagers":5724,"Ġspoon":5725,"iant":5726,"Ġentertaining":5727,"mary":5728,"Ġoverp":5729,"Ġacted":5730,"uge":5731,"Ġbutt":5732,"Ġorganized":5733,"ache":5734,"ouses":5735,"Ġcigare":5736,"ingy":5737,"Ġadvent":5738,"Ġafraid":5739,"Ġpock":5740,"Ġgall":5741,"Ġmaint":5742,"entious":5743,"Ġsharing":5744,"70":5745,"ĠMY":5746,"ĠFish":5747,"maybe":5748,"ĠAmazing":5749,"Ġbeverage":5750,"aging":5751,"VICE":5752,"Ġindoor":5753,"Ġcamp":5754,"Ġmicrowave":5755,"gu":5756,"rr":5757,"erry":5758,"Ġrocks":5759,"Ġwarned":5760,"ĠPad":5761,"Ġjoints":5762,"bage":5763,"Ġskills":5764,"ĠPlan":5765,"llo":5766,"Ġoz":5767,"Ġsuit":5768,"Ġstrips":5769,"Ġcroiss":5770,"ata":5771,"Ġinsane":5772,"Ġpurp":5773,"ĠDi":5774,"Ġangry":5775,"ĠMary":5776,"Ġpleasure":5777,"Ġadults":5778,"ki":5779,"Ġcontainer":5780,"Ġwarranty":5781,"Ġchanging":5782,"Ġconstruct":5783,"Ġlame":5784,"Ġplanned":5785,"Ġmal":5786,"Ġliquor":5787,"Ġoily":5788,"istro":5789,"Ġprepare":5790,"Ġoverwhelming":5791,"ĠPM":5792,"Ġgras":5793,"bers":5794,"Ġalot":5795,"Ġrepeated":5796,"Ġhom":5797,"ĠEdinburgh":5798,"Ġteen":5799,"ĠCrab":5800,"bet":5801,"Ġteriyaki":5802,"Ġteeth":5803,"Ġanniversary":5804,"Ġrefilled":5805,"bec":5806,"Ġravioli":5807,"Ġgal":5808,"Ġcareful":5809,"ires":5810,"Ġcilantro":5811,"Ġsink":5812,"Ġtrips":5813,"ewel":5814,"Ġhospital":5815,"Ġchedd":5816,"aza":5817,"Ġnecessary":5818,"rugg":5819,"Ġdiscuss":5820,"Ġpartner":5821,"Ġapproached":5822,"Ġunl":5823,"aches":5824,"Ġholiday":5825,"ios":5826,"sal":5827,"ades":5828,"Ġletting":5829,"IL":5830,"Ġloyal":5831,"Ġdesired":5832,"Ġ:)\\":5833,"ien":5834,"ĠMesa":5835,"ĠDenny":5836,"Ġcomped":5837,"Ġinfo":5838,"Ġboys":5839,"Ġsecret":5840,"Ġwise":5841,"Ġcooks":5842,"Do":5843,"Ġenergy":5844,"Ġexchan":5845,"Ġvel":5846,"nNext":5847,"attered":5848,"Ġcontacted":5849,"ĠSandwich":5850,"Ġcoke":5851,"Ġflo":5852,"Ġstudent":5853,"Ġacceptable":5854,"ĠSur":5855,"Ġvou":5856,"Ġappl":5857,"Ġcutting":5858,"Ġpoison":5859,"orizo":5860,"On":5861,"Ġnowhere":5862,"Ġdecl":5863,"Ġdeserves":5864,"Ġmale":5865,"Ġtooth":5866,"Ġbitter":5867,"sidered":5868,"ogn":5869,"nPr":5870,"atives":5871,"ilities":5872,"ĠPrice":5873,"Ġ)":5874,"Ġsmoothie":5875,"Ġelevators":5876,"Ġruns":5877,"Ġmovies":5878,"Ġburned":5879,"Ġdelightful":5880,"iers":5881,"ĠCarl":5882,"uted":5883,"Ġasian":5884,"Ġdescribed":5885,"Ġdentist":5886,"Ġfluffy":5887,"nger":5888,"Ġder":5889,"ĠExcellent":5890,"ĠOtherwise":5891,"ĠHawaiian":5892,"Ġnut":5893,"Ġbuzz":5894,"nGood":5895,"eat":5896,"some":5897,"TER":5898,"ĠMake":5899,"Ġvend":5900,"edy":5901,"ĠGOOD":5902,"Ġiron":5903,"ĠGarden":5904,"udes":5905,"Ġrob":5906,"Ġnews":5907,"acc":5908,"Ġamen":5909,"Ġmint":5910,"Ġabs":5911,"Ġcheddar":5912,"Ġeveryday":5913,"ĠWAS":5914,"Ġinqu":5915,"Ġcarn":5916,"Ġrated":5917,"son":5918,"Ġconsidered":5919,"Ġunderst":5920,"Ġpitc":5921,"ĠRes":5922,"ĠPet":5923,"ĠStar":5924,"Ġadding":5925,"Ġdemand":5926,"ĠMed":5927,"ĠCor":5928,"Ġpesto":5929,"ĠRice":5930,"Ġbang":5931,"Ġeats":5932,"ĠNYC":5933,"ras":5934,"Ġens":5935,"ĠUN":5936,"Ġyelling":5937,"Ġdirt":5938,"ĠLobster":5939,"pected":5940,"Ġexpress":5941,"Ġtam":5942,"Ġpayment":5943,"Ġapps":5944,"Every":5945,"uper":5946,"ĠAG":5947,"Ġripped":5948,"atisf":5949,"verages":5950,"osa":5951,"gress":5952,"Ġpants":5953,"tta":5954,"nK":5955,"Ġfres":5956,"Ġcomments":5957,"ĠFRE":5958,"Ġbits":5959,"Ġkeys":5960,"entially":5961,"Ġexam":5962,"ĠHonestly":5963,"nTh":5964,"Ġtakeout":5965,"ĠDelicious":5966,"Excellent":5967,"Ġours":5968,"Ġtourist":5969,"Ġcharac":5970,"Ġhamburger":5971,"Ġanyways":5972,"ava":5973,"yelp":5974,"Ġleng":5975,"azzo":5976,"Let":5977,"Ġunit":5978,"ĠHollywood":5979,"ĠDes":5980,"Ġfreaking":5981,"ammed":5982,"ĠKitchen":5983,"Ġfu":5984,"rel":5985,"Ġpedi":5986,"Ġdiners":5987,"Was":5988,"Ġfaj":5989,"Ġchecks":5990,"ellar":5991,"Ġwanna":5992,"imited":5993,"set":5994,"Ġep":5995,"Ġinch":5996,"igiri":5997,"Ġya":5998,"Ġadjust":5999,"Ġpastry":6000,"Ġconvenience":6001,"xious":6002,"Ġpersonable":6003,"Ġsongs":6004,"ĠHend":6005,"!),":6006,"Ġrequired":6007,"em":6008,"ĠPan":6009,"Ġcanned":6010,"nWith":6011,"Ġblown":6012,"Ġeasier":6013,"ĠIsland":6014,"Ġquoted":6015,"Ġassort":6016,"Ġinitial":6017,"AA":6018,"Ġgarden":6019,"Ġresol":6020,"ĠBL":6021,"Ġhassle":6022,"ĠCould":6023,"Ġincom":6024,"Ġcarrots":6025,"Ġnoisy":6026,"ĠTexas":6027,"pen":6028,"anger":6029,"ĠTea":6030,"ĠExpress":6031,"rami":6032,"Ġredee":6033,"ĠCap":6034,"Ġregulars":6035,"Ġshock":6036,"Ġfreak":6037,"tail":6038,"Ġbrowns":6039,"Ġ13":6040,"Ġespresso":6041,"Ġsuggestion":6042,"Ġadvertised":6043,"Ġhonor":6044,"MM":6045,"UN":6046,"ountered":6047,"Ġentering":6048,"==":6049,"ĠFour":6050,"19":6051,"ĠDrinks":6052,"Ġbuilt":6053,"bon":6054,"Ġencountered":6055,"Ġblank":6056,"organized":6057,"Ġwild":6058,"ox":6059,"Ġbeverages":6060,"ĠDie":6061,"Ġfamilies":6062,"mazing":6063,"ĠCirc":6064,"Ġlaug":6065,"-$":6066,"Ġbuds":6067,"ĠMid":6068,"ĠPH":6069,"ĠSave":6070,"Ġterrific":6071,"Ġconfusing":6072,"Ġwhipped":6073,"ONG":6074,"arter":6075,"Ġblame":6076,"when":6077,"ĠSch":6078,"Ġgourmet":6079,"Ġexhib":6080,"onsider":6081,"Ġanimals":6082,"Ġbuddy":6083,"Ġaccompan":6084,"http":6085,"pro":6086,"Ġindeed":6087,"Ġfrosting":6088,"Ġwatered":6089,"ĠBri":6090,"Ġtechnician":6091,"Ġpros":6092,"while":6093,"Ġoccup":6094,"Ġvinegar":6095,"ĠCustomer":6096,"Ġsprink":6097,"\\\"\"\\":6098,"ĠOMG":6099,"ĠAbout":6100,"Ġbust":6101,"Ġfest":6102,"Ġwaitstaff":6103,"Ġunw":6104,"Ġpint":6105,"nJust":6106,"Ġstrawberries":6107,"ĠWalmart":6108,"Ġreceptionist":6109,"noc":6110,"ksha":6111,"ĠChan":6112,"ĠClean":6113,"hot":6114,"esame":6115,"ĠWay":6116,"ĠCream":6117,"Ġunacceptable":6118,"amic":6119,"Ġnoon":6120,"AYS":6121,"ologetic":6122,"rict":6123,"ĠCame":6124,"Ġdesper":6125,"Ġfoie":6126,"Ġpancake":6127,"ental":6128,"ĠMill":6129,"Ġsprouts":6130,"ĠLoved":6131,"Ġpersonality":6132,"Ġcabbage":6133,"ora":6134,"Ġallerg":6135,"---":6136,"Ġcuz":6137,"ĠIrish":6138,"ĠWOW":6139,"Ġwhis":6140,"style":6141,"ĠWon":6142,"Ġinsisted":6143,"Ġcollect":6144,"FF":6145,"chetta":6146,"Ġsup":6147,"attoo":6148,"Ġcouch":6149,"Ġsweat":6150,"nHere":6151,"leasant":6152,"opefully":6153,"aan":6154,"anas":6155,"new":6156,"ĠFree":6157,"Ġskimp":6158,"Ġhandful":6159,"Ġneck":6160,"Ġexist":6161,"aved":6162,"Ġreminds":6163,"Ġchatting":6164,"Ġworkout":6165,"Ġenchilada":6166,"ĠHorrible":6167,"amingo":6168,"Ġsamples":6169,"Ġlives":6170,"Ġwallet":6171,"Ġhousekeeping":6172,"Ġunhappy":6173,"nJ":6174,"Ġtall":6175,"hael":6176,"Ġtomorrow":6177,"nLast":6178,"ĠSw":6179,"Ġcou":6180,"hand":6181,"Ġexciting":6182,"Ġmajority":6183,"Ġvoucher":6184,"Ġrecogn":6185,"ĠAngel":6186,"Ġamenities":6187,"ĠYUM":6188,"Ġfalling":6189,"core":6190,"Ġstat":6191,"ĠIce":6192,"inis":6193,"Ġholding":6194,"Ġlemonade":6195,"agna":6196,"Ġalmond":6197,"ĠChris":6198,"Ġreplacement":6199,"Ġshirts":6200,"Ġcode":6201,"ibility":6202,"ĠRio":6203,"Ġmanage":6204,"icht":6205,"UD":6206,"Ġbass":6207,"Ġcelebrate":6208,"Ġjewel":6209,"wor":6210,"Ġunable":6211,"ĠYOUR":6212,"nV":6213,"Ġtor":6214,"Ġfort":6215,"Ġnorth":6216,"uding":6217,"Ġswear":6218,"although":6219,"Ġaction":6220,"Ġbonus":6221,"ĠSquare":6222,"Ġpools":6223,"Ġforth":6224,"Ġexpert":6225,"Ġsnow":6226,"Ġein":6227,"fall":6228,"Ġspoiled":6229,"brow":6230,"Ġsnacks":6231,"Ġcomparison":6232,"estern":6233,"Ġrack":6234,"ules":6235,"Ġresponded":6236,"eds":6237,"lle":6238,"Ġmainly":6239,"Ġpig":6240,"Ġappetite":6241,"24":6242,"nOther":6243,"ifully":6244,"Ġblond":6245,"Ġsilverware":6246,"hest":6247,"Ġpenny":6248,"Ġdealing":6249,"gency":6250,"Ġlang":6251,"ĠSat":6252,"THING":6253,"bow":6254,"ĠHenderson":6255,"ĠJuly":6256,"nOnce":6257,"ĠDog":6258,"ĠReg":6259,"Ġscreaming":6260,"Ġappears":6261,"Ġarm":6262,"raw":6263,"Ġbloody":6264,"Ġprop":6265,"Ġpile":6266,"Ġliking":6267,"Ġminor":6268,"Ġcertific":6269,"ugs":6270,"ĠNood":6271,"Ġforgotten":6272,"Ġalternative":6273,"Ġherself":6274,"Ġrisotto":6275,"great":6276,"isco":6277,"Ġwhatso":6278,"apped":6279,"amond":6280,"Ġcreate":6281,"eling":6282,"ĠOkay":6283,"orter":6284,"harm":6285,"ĠAu":6286,"Ġhappening":6287,"otic":6288,"ashed":6289,"ucc":6290,"OK":6291,"ĠBread":6292,"Ġworried":6293,"Ġexplan":6294,"ĠAGAIN":6295,"erior":6296,"erial":6297,"Ġentirely":6298,"Ġencour":6299,"Ġcult":6300,"Ġpoured":6301,"Ġoppos":6302,"Ġhire":6303,"ĠGe":6304,"Ġstopping":6305,"oom":6306,"Ġdownside":6307,"Ġshortly":6308,"Ġskew":6309,"Ġwhatsoever":6310,"gie":6311,"Ġcustard":6312,"Ġtray":6313,"Ġhopefully":6314,"Ġrudely":6315,"Ġdescription":6316,"rane":6317,"Ġgun":6318,"aker":6319,"ĠHome":6320,"Ġexplaining":6321,"ĠHORRIBLE":6322,"22":6323,"Ġpurpose":6324,"ILL":6325,"Ġacknowledged":6326,"Ġave":6327,"ĠHaving":6328,"Ġdepending":6329,"ESOME":6330,"Ġdarn":6331,"Ġgate":6332,"Ġlugg":6333,"Ġcurt":6334,"attle":6335,"Ġartich":6336,"elicious":6337,"osit":6338,"ĠJim":6339,"Ġprogram":6340,"Ġafterwards":6341,"Ġpoisoning":6342,"He":6343,"ĠHal":6344,"Ġsmart":6345,"Ġstudio":6346,"Ġgratuity":6347,"opolitan":6348,"Ġfacial":6349,"Ġsatisfying":6350,"ae":6351,"Ġcree":6352,"minal":6353,"ĠKeep":6354,"Ġgamble":6355,"Ġstellar":6356,"Ġinitially":6357,"Ab":6358,"ĠAmerica":6359,"ankly":6360,"Ġwinter":6361,"usi":6362,"urch":6363,"Ġretail":6364,"Ġlets":6365,"Ġstre":6366,"Ġtil":6367,"ĠSadly":6368,"Ġribeye":6369,"Ġarriving":6370,"Ġwashed":6371,"Ġphys":6372,"Ġtimely":6373,"Ġdisco":6374,"Ġresearch":6375,"Ġrepresent":6376,"aspberry":6377,"Ġquantity":6378,"Ġheads":6379,"Ġmim":6380,"Ġwheat":6381,"fc":6382,"Ġhy":6383,"Ġwalks":6384,"iven":6385,"ales":6386,"Ġpretzel":6387,"Ġinvest":6388,"Ġbreath":6389,"Terrible":6390,"Ġformer":6391,"Ġdonut":6392,"Ġgrew":6393,"equ":6394,"ĠKind":6395,"Ġfaster":6396,"ĠQue":6397,"Ġvelvet":6398,"Nice":6399,"gly":6400,"Ġincre":6401,"EC":6402,"adise":6403,"Ġdamage":6404,"Ġwaters":6405,"Ġdegrees":6406,"Ġtattoo":6407,"Ġtele":6408,"Ġunfriendly":6409,"ours":6410,"Ġqual":6411,"Ġworker":6412,"ranean":6413,"Awesome":6414,"ipp":6415,"ĠMen":6416,"biz":6417,"Ġsettled":6418,"Ġappropriate":6419,"mare":6420,"ELL":6421,"Ġwarning":6422,"Ġhello":6423,"ĠOR":6424,"nChe":6425,"atory":6426,"Ġcramped":6427,"ispy":6428,"ĠBreakfast":6429,"Ch":6430,"Ġpit":6431,"ĠWORST":6432,"Ġtherap":6433,"Ġmedic":6434,"ĠTake":6435,"ĠLOL":6436,"osh":6437,"Ġclerk":6438,"ĠJack":6439,"Ġcheeses":6440,"Ġmani":6441,"ĠYelpers":6442,"Ġtourists":6443,"PER":6444,"ds":6445,"Ġflowers":6446,"Ġfinishing":6447,"ĠComp":6448,"Ġincorrect":6449,"Ġconsum":6450,"Ġmilksha":6451,"Ġtank":6452,"especially":6453,"Ġfocus":6454,"Ġtone":6455,"iterranean":6456,"Ġopposite":6457,"Ġloose":6458,"ĠAbsolutely":6459,"300":6460,"ALLY":6461,"nFinally":6462,"eta":6463,"Ġ70":6464,"Ġdumb":6465,"Ġemer":6466,"rob":6467,"Ġreach":6468,"Ġstress":6469,"Ġhandled":6470,"ties":6471,"ĠDuring":6472,"ĠUsually":6473,"hold":6474,"Ġpreferred":6475,"Ġscrewed":6476,"Ġx":6477,"Ġboss":6478,"ĠOb":6479,"iping":6480,"nWill":6481,"Ġwing":6482,"Ġflour":6483,"Ġyoga":6484,"ĠPlanet":6485,",,":6486,"Ġbout":6487,"Ġmignon":6488,"ously":6489,"ĠSpanish":6490,"ĠStay":6491,"mopolitan":6492,"Ġappealing":6493,"ĠVal":6494,"IOUS":6495,"Ġslot":6496,"nic":6497,"ĠSauce":6498,"Ġslo":6499,"Ġenth":6500,"ĠLo":6501,"Ġeyebrow":6502,"PS":6503,"Ġunus":6504,"Ġrubbery":6505,"Ġpage":6506,"Ġpushed":6507,"Ġraised":6508,"ĠWorst":6509,"Ġsquare":6510,"ĠLuxor":6511,"ĠMeat":6512,"Yes":6513,"Ġgrap":6514,"Ġvs":6515,"ĠRanch":6516,"Ġlic":6517,"Ġpaperwork":6518,"ĠPotato":6519,"sy":6520,"uum":6521,"Ġterribly":6522,"Ġdelic":6523,"Ġdinners":6524,"Ġactiv":6525,"tw":6526,"ĠSERVICE":6527,"Ġyounger":6528,"ulinary":6529,"ĠSpicy":6530,"Ġais":6531,"ctually":6532,"rageous":6533,"ĠLOT":6534,"Ġconstruction":6535,"mpt":6536,"Ġshoe":6537,"ĠFire":6538,"Ġconsisted":6539,"Ġmuseum":6540,"Ġappointments":6541,"isque":6542,"Ġhur":6543,"ĠLos":6544,"box":6545,"Ġsemi":6546,"quila":6547,"ĠVer":6548,"ELY":6549,"Ġdealership":6550,"Ġstations":6551,"Ġthrowing":6552,"!)\\":6553,"ĠCO":6554,"der":6555,"Ġsir":6556,"Ġpoutine":6557,"cend":6558,"cho":6559,"ĠSalmon":6560,"Been":6561,"IE":6562,"Ġdresses":6563,"elly":6564,"Ġwheel":6565,"cas":6566,"raz":6567,"Ġbeautifully":6568,"OOOO":6569,"nYes":6570,"Ġignore":6571,"ĠBan":6572,"Ġcheeseburger":6573,"nOk":6574,"Ġregarding":6575,"Ġassumed":6576,"Ġfather":6577,"Ġcarp":6578,"Ġentry":6579,"Ġstands":6580,"Ġsteam":6581,"ĠAut":6582,"***":6583,"dden":6584,"Ġbachel":6585,"Ġnigiri":6586,"Ġchorizo":6587,"Ġlevels":6588,"Ġcompanies":6589,"Ġbasis":6590,"Ġreput":6591,"hetto":6592,"Ġtack":6593,"Ġsooo":6594,"Ġdirection":6595,"Ġnightclub":6596,"Ġinsult":6597,"nMe":6598,"Ġrisk":6599,"Out":6600,"Ġluggage":6601,"ĠMike":6602,"Ġsheets":6603,"nSince":6604,"Ġfrustrating":6605,"Ġstocked":6606,"Ġfactor":6607,"phot":6608,"lend":6609,"OUR":6610,"Ġblocks":6611,"Ġcheckout":6612,"inat":6613,"Ġsangria":6614,"ĠWhite":6615,"Ġfrustrated":6616,"Ġfi":6617,"ability":6618,"Ġchipotle":6619,"Ġcurrently":6620,"Ġscratch":6621,"Ġroof":6622,"AND":6623,"acle":6624,"oly":6625,"Ġthous":6626,"Ġunbeliev":6627,"Ġsignific":6628,"ĠSpecial":6629,"Ġupgraded":6630,"Ġnightmare":6631,"Ġbuttery":6632,"ahi":6633,"Ġstepped":6634,"Ġstates":6635,"Ġmessy":6636,"Ġartist":6637,"ĠParking":6638,"Ġqui":6639,"Ġdisaster":6640,"Ġoffic":6641,"nCons":6642,"Ġjerk":6643,"ilian":6644,"WAYS":6645,"ĠTop":6646,"ĠMart":6647,"inds":6648,"Ġcoles":6649,"Ġgig":6650,"Ġaudience":6651,"done":6652,"Ġhelps":6653,"Ġrecall":6654,"Ġ;)":6655,"To":6656,"oul":6657,"Ġhill":6658,"itary":6659,"Ġstone":6660,"Ġdesigned":6661,"visor":6662,"Ġlangu":6663,"Th":6664,"ĠImp":6665,"ĠHa":6666,"Ġadvertise":6667,"Ġinteract":6668,"idence":6669,"ĠThough":6670,"Ġcoleslaw":6671,"ACK":6672,"IVE":6673,"Ġ!!":6674,"Ġcherry":6675,"ordon":6676,"only":6677,"ĠTW":6678,"ĠFun":6679,"Ġconfirmed":6680,"Ġmuffin":6681,"Ġcleaner":6682,"ĠĠĠĠĠĠĠĠĠĠĠĠĠĠĠĠ":6683,"remont":6684,"owns":6685,"Ġputs":6686,"Ġcrowds":6687,"Ġpromise":6688,"Ġpassion":6689,"Ġincompet":6690,"HH":6691,"Ġsets":6692,"ĠEither":6693,"ĠChili":6694,"Ġplane":6695,"Ġscramb":6696,"ĠPLA":6697,"Ġteac":6698,"Ġlover":6699,"ormally":6700,"Ġcheapest":6701,"face":6702,"uing":6703,"ĠGy":6704,"nRe":6705,"ĠCostco":6706,"riger":6707,"Ġstew":6708,"Ġprote":6709,"date":6710,"Ġrev":6711,"sized":6712,"Ġbackground":6713,"Ġwraps":6714,"ĠAWESOME":6715,"Ġ[":6716,"ĠBF":6717,"ĠBeer":6718,"Ġitalian":6719,"ĠLittle":6720,"Ġconference":6721,"Ġmeaning":6722,"ĠChina":6723,"Ġpolitely":6724,"aled":6725,"Ġled":6726,"Ġaspect":6727,"illage":6728,"Ġbadly":6729,"ĠPalazzo":6730,"Ġtang":6731,"Ġantic":6732,"ousy":6733,"Ġcleanliness":6734,"Ġbottled":6735,"Ġhallway":6736,"esars":6737,"arge":6738,"Ġmiser":6739,"Ġamp":6740,"Ġtowel":6741,"ĠSpring":6742,"ĠMichael":6743,"Ġbc":6744,"ĠDON":6745,"Ġteas":6746,"zed":6747,"Ġclientele":6748,"Ġsoap":6749,"hhh":6750,"ĠFlamingo":6751,"Ġbalcon":6752,"Ġlegit":6753,"Ġlaughing":6754,"nuts":6755,"ĠCab":6756,"Ġsalted":6757,"Ġweekly":6758,"ev":6759,"Ġpap":6760,"rive":6761,"Ġfile":6762,"irm":6763,"ĠThree":6764,"Ġthrilled":6765,"Ġskill":6766,"nec":6767,"Ġminimal":6768,"Ġrepairs":6769,"cluding":6770,"Ġedge":6771,"Ġexchange":6772,"town":6773,"ĠBacon":6774,"Ġroot":6775,"Ġrehe":6776,"Ġreflect":6777,"Ġrequire":6778,"giving":6779,"aine":6780,"Ġattempted":6781,"Ġshar":6782,"Ġflying":6783,"Ġenthusi":6784,"rep":6785,"Ġtong":6786,"Ġbeware":6787,"esy":6788,"Ġadequ":6789,"Ġparked":6790,"Ġunhe":6791,"Ġadvised":6792,"Ġcalories":6793,"afel":6794,"itions":6795,"ĠFat":6796,"autiful":6797,"ARE":6798,"Ġbat":6799,"Ġtossed":6800,"Ġdrank":6801,"ista":6802,"atsu":6803,"Ġunpleasant":6804,"Ġpun":6805,"Ġchic":6806,"nEverything":6807,"Ġplans":6808,"Ġbelong":6809,"ĠNope":6810,"Ġomelette":6811,"ĠFranc":6812,"ĠTuna":6813,"ĠEur":6814,"Ġbird":6815,"Ġgri":6816,"ĠOrd":6817,"Ġshakes":6818,"Ġtrail":6819,")...":6820,"Qu":6821,"ĠJu":6822,"Ġsnob":6823,"ĠTacos":6824,"Ġanimal":6825,"Ġpocket":6826,"Ġoutrageous":6827,"Ġknife":6828,"Ġpretentious":6829,"Ġapologetic":6830,"ĠThose":6831,"araoke":6832,"Ġfif":6833,"ĠBenedict":6834,"Ġsudden":6835,"Ġcafet":6836,"nMaybe":6837,"Ġearth":6838,"Ġident":6839,"Ġsesame":6840,"fried":6841,"Amazing":6842,"ask":6843,"ĠBefore":6844,"Ġmor":6845,"Ġexplanation":6846,"ening":6847,"Ġnur":6848,"Ġstating":6849,"quee":6850,"ĠOct":6851,"Ġobno":6852,"vey":6853,"ĠJan":6854,"ĠOlive":6855,"Ġpassing":6856,"Our":6857,"ĠRec":6858,"ĠStr":6859,"Ġgeneric":6860,"Ġtaxi":6861,"Ġpen":6862,"alsamic":6863,"Ġunderstanding":6864,"Ġmillion":6865,"ĠFry":6866,"ns":6867,"erman":6868,"umbo":6869,"Stopped":6870,"Ġsampler":6871,"Ġcreated":6872,"Ġpra":6873,"Ġtwenty":6874,"nSome":6875,"Ġsuppl":6876,"Ġpharm":6877,"Ġleather":6878,"ga":6879,"lus":6880,"Ġhappily":6881,"ĠALWAYS":6882,"Ġshel":6883,"Ġtransfer":6884,"ĠBetter":6885,"had":6886,"Ġist":6887,"ecc":6888,"ĠMany":6889,"Ġrates":6890,"prise":6891,"Ġ2013":6892,"Ġmountain":6893,"ilton":6894,"Ġboot":6895,"ĠPhilly":6896,"redo":6897,"ĠFremont":6898,"ĠSubway":6899,"Ġwished":6900,"Ġsole":6901,"ĠNob":6902,"Ġpasses":6903,"Ġmedical":6904,"Ġjalapeno":6905,"ius":6906,"ĠTerrible":6907,"nAnother":6908,"Ġhttp":6909,"ĠMom":6910,"Ġdeclined":6911,"got":6912,"nDefinitely":6913,"adium":6914,"Ġcran":6915,"sell":6916,"Ġchains":6917,"ĠMargar":6918,"irl":6919,"ization":6920,"ucch":6921,"Ġestablishments":6922,"Ġmetal":6923,"Ġoverwhelmed":6924,"TW":6925,"ĠStars":6926,"Ġtops":6927,"ology":6928,"Ġrequests":6929,"Ġearned":6930,"ĠSimp":6931,"ĠMus":6932,"Ġtrained":6933,"ĠHAVE":6934,"Ġcafeteria":6935,"ĠFil":6936,"hew":6937,"utto":6938,"aces":6939,"Ġcoast":6940,"Ġscore":6941,"Ġincident":6942,"Ġsteal":6943,"nLet":6944,"Ġhuman":6945,"Ġseared":6946,"cor":6947,"ital":6948,"Ġlaughed":6949,"ĠFA":6950,"?!?":6951,"Ġregardless":6952,"bu":6953,"cal":6954,"nVery":6955,"ĠPa":6956,"osas":6957,"beat":6958,"Ġscen":6959,"Ġdistract":6960,"rus":6961,"Ġcub":6962,"Ġrefriger":6963,"Ġdut":6964,"terior":6965,"Ġtries":6966,"ĠGuess":6967,"Ġstun":6968,"nocchi":6969,"photos":6970,"Ġsteep":6971,"Ġdisappeared":6972,"erie":6973,"Ġimm":6974,"Ġbattery":6975,"Ġpumpkin":6976,"Ġfaces":6977,"Ġlanguage":6978,"tered":6979,"amily":6980,"Ġclams":6981,"Ġparmesan":6982,"ĠWILL":6983,"Ġupdated":6984,"because":6985,"Ġsan":6986,"\\\"\".\\":6987,"Ġcomparable":6988,"uh":6989,"Ġwelcom":6990,"Ġinvolved":6991,"nCh":6992,"Ġbehav":6993,"Ġcompens":6994,"Ġpoker":6995,"ĠWater":6996,"Ġmein":6997,"Ġtipped":6998,"ĠNight":6999,"Ġprot":7000,"How":7001,"owed":7002,"Ġapprox":7003,"ĠSmall":7004,"Ġbenefit":7005,"ucchini":7006,"eriously":7007,"Ġsubs":7008,"Ġgreatest":7009,"Ġrose":7010,"********":7011,"amis":7012,"bi":7013,"atin":7014,"Ġinj":7015,"Ġminus":7016,"Ġhooked":7017,"ĠFactory":7018,"Ġintroduced":7019,"150":7020,"gery":7021,"plete":7022,"Ġaccording":7023,"Ġcoworkers":7024,"mail":7025,"really":7026,"ĠMall":7027,"Ġunimp":7028,"Ġbooking":7029,"Ġdegree":7030,"table":7031,"ĠWi":7032,"nGo":7033,"Ġscared":7034,"Ġbruschetta":7035,"Ġlistening":7036,"Ġtraveling":7037,"Ġlukewarm":7038,"ĠCurry":7039,"Ġinconvenience":7040,"ĠWine":7041,"ups":7042,"Ġclaimed":7043,"oma":7044,"ĠPLACE":7045,"iano":7046,"fortunate":7047,"Ġvacuum":7048,"Ġsearching":7049,"Ġswimming":7050,"Ġbum":7051,"ĠRight":7052,"ĠCircus":7053,"rette":7054,"Ġpremium":7055,"ptical":7056,"ĠTon":7057,"ierge":7058,"Ġdeposit":7059,"itter":7060,"Ġthus":7061,"Ġdism":7062,"Ġstir":7063,"ĠDep":7064,"Ġassociate":7065,"Ġrules":7066,"Ġcouples":7067,"Ġpatients":7068,"Ġremote":7069,"Ġbouncers":7070,"Ġpunch":7071,"Ġreviewer":7072,"ciutto":7073,"Ġcorned":7074,"Ġargue":7075,"Ġnaan":7076,"Ġcaused":7077,"Ġdestination":7078,"Ġfed":7079,"Ġnoted":7080,"somet":7081,"Ġcared":7082,"ument":7083,"Ġlocally":7084,"Ġlasagna":7085,"Che":7086,"Ġhun":7087,"entiful":7088,"Ġdancers":7089,"sorry":7090,"Ġmarinara":7091,"Ġcousin":7092,"ĠLight":7093,"Ġfarm":7094,"Ġreceiving":7095,"Ġlapt":7096,"ĠRoad":7097,"ĠCol":7098,"Ġ2014":7099,"Ġbowling":7100,"Ġattached":7101,"'\\":7102,"Ġphones":7103,"Ġveal":7104,"!?":7105,"Ġstret":7106,"Ġunc":7107,"Ġpec":7108,"FUL":7109,"Ġhits":7110,"ĠInn":7111,"Ġfajitas":7112,"ĠTw":7113,"chy":7114,"Ġappt":7115,"Ġdiagn":7116,"Ġgrass":7117,"Ġimpecc":7118,"Ġacts":7119,"Ġgreeting":7120,"Ġcit":7121,"Ġembarrassed":7122,"Ġscreens":7123,"Ġcertificate":7124,"Ġpies":7125,"Ġgrace":7126,"Ġspray":7127,"Ġmistakes":7128,"gable":7129,"Ġnerv":7130,"Ġbargain":7131,"Ġbouncer":7132,"ishes":7133,"Ġinvent":7134,"oust":7135,"Ġlocked":7136,"Ġscam":7137,"staffed":7138,"xture":7139,"Ġseve":7140,"Ġsweetness":7141,"ango":7142,"Ġtout":7143,"ĠOrange":7144,"ĠCosmopolitan":7145,"Ġcharacter":7146,"Ġmais":7147,"Ġjunk":7148,"Ġlean":7149,"Ġeater":7150,"ĠTotal":7151,"ĠBud":7152,"Ġcompetition":7153,"Ġbored":7154,"Ġfishy":7155,"Ġfield":7156,"ĠTower":7157,"Ġchunk":7158,"Ġincons":7159,"nDo":7160,"Ġjeans":7161,"eness":7162,"Ġcreep":7163,"Ġmarinated":7164,"arning":7165,"ĠSummer":7166,"Ġmechanic":7167,"Ġanticip":7168,"Ġbalcony":7169,"All":7170,"Ġguard":7171,"Ġattendant":7172,"Ġtheirs":7173,"Ġchances":7174,"ĠIM":7175,"Ġdates":7176,"Ġplentiful":7177,"ĠNone":7178,"Ġ17":7179,"Ġcharm":7180,"Ġperformance":7181,"ĠWaited":7182,"atically":7183,"select":7184,"Ġwander":7185,"ĠPub":7186,"Ġeverytime":7187,"ushroom":7188,"Ġbooze":7189,"ram":7190,"water":7191,"Ġplant":7192,"Ġconcerns":7193,"Ġbrule":7194,"conom":7195,"amisu":7196,"gl":7197,"host":7198,"Ġtoward":7199,"Ġspir":7200,"ĠSon":7201,".......":7202,"Ġaccur":7203,"Ġcigarette":7204,"ilbert":7205,"Ġstarter":7206,"rito":7207,"Un":7208,"ba":7209,"Ġproced":7210,"ĠRep":7211,"Ġstarters":7212,"Ġcancelled":7213,"itched":7214,"ledgable":7215,"nThank":7216,"Ġshady":7217,"Ġcollection":7218,"ĠMirage":7219,"uv":7220,"intage":7221,"Ġexcess":7222,"Ġlightly":7223,"Ġconvention":7224,"ĠKobe":7225,"nEven":7226,"nUnfortunately":7227,"EVER":7228,"ode":7229,"Ġpastrami":7230,"stick":7231,"Ġpee":7232,"Ġyelled":7233,"ĠAvoid":7234,"Ġidiot":7235,"Ġpers":7236,"ormous":7237,"ĠWHAT":7238,"Ġunf":7239,"ĠIntern":7240,"OL":7241,"bag":7242,"Ġstains":7243,"ĠDespite":7244,"Ġamazed":7245,"Ġattractive":7246,"ares":7247,"illing":7248,"ĠHall":7249,"Okay":7250,"Ġsurrounding":7251,"under":7252,"Ġstrugg":7253,"Ġthinks":7254,"Ġunlimited":7255,"Ġbehavior":7256,"vy":7257,"Ġgrip":7258,"Ġclam":7259,"Ġchow":7260,"Ġrefuse":7261,"iramisu":7262,"Ġproject":7263,"ipes":7264,"Ġarrange":7265,"Ġdoctors":7266,"ĠXS":7267,"Ġmercha":7268,"ĠLou":7269,"Ġfunky":7270,"Ġcooler":7271,"ĠChees":7272,"gle":7273,"nSecond":7274,"nDr":7275,"ĠTHEY":7276,"Ġcroissant":7277,"Ġlousy":7278,"ĠObviously":7279,"Ġkicked":7280,"ĠRoy":7281,"Ġich":7282,"meal":7283,"ĠArt":7284,"Ġgrits":7285,"Ġattended":7286,"Ġslowly":7287,"Ġirritated":7288,"ĠAve":7289,"ateg":7290,"Ġbreaded":7291,"velop":7292,"IGHT":7293,"Ġshift":7294,"Ġordinary":7295,"Ġtequila":7296,"500":7297,"Ġdated":7298,"esteak":7299,"ĠHopefully":7300,"Ġcleared":7301,"ocated":7302,"Ġsurgery":7303,"Ġsinging":7304,"Ġwelcomed":7305,"Ġ~":7306,"ongol":7307,"ubs":7308,"ĠSomeone":7309,"Ġimportantly":7310,"Ġprotein":7311,"Ġtucked":7312,"Ġpuff":7313,"Ġbrows":7314,"ESS":7315,"Ġculinary":7316,"ĠTarget":7317,"amps":7318,"ttes":7319,"Ġengine":7320,"Ġthumbs":7321,"igned":7322,"ĠGolden":7323,"ĠSk":7324,"ĠPrime":7325,"uzz":7326,"acing":7327,"Over":7328,"Ġraspberry":7329,"Ġmoj":7330,"vd":7331,"itos":7332,"ĠActually":7333,"Ġbills":7334,"ĠMediterranean":7335,"Ġjer":7336,"ĠCaesars":7337,"Ġlayer":7338,"front":7339,"ĠBuy":7340,"Ġbugs":7341,"cious":7342,"Ġghetto":7343,"Ġnumbers":7344,"Ġfitness":7345,"Ġom":7346,"Ġdisres":7347,"Ġtheatre":7348,"ived":7349,"Ġyard":7350,"Ġblew":7351,"Ġcharming":7352,"Ġsatisfy":7353,"ĠWish":7354,"Ġprescription":7355,"Ġjewelry":7356,"Ġnervous":7357,"Ġisland":7358,"Ġadds":7359,"?).":7360,"uf":7361,"ĠDou":7362,"Ġcarrot":7363,"Ġeduc":7364,"Ġruin":7365,"Ġdebit":7366,"asses":7367,"Ġmold":7368,"ĠShould":7369,"erc":7370,"Ġkim":7371,"ĠDav":7372,"ĠGener":7373,"onn":7374,"Ġknowledgable":7375,"Ġveg":7376,"Ġgrown":7377,"Ġwinner":7378,"ĠHalf":7379,"Ġobnoxious":7380,"nhttp":7381,"inations":7382,"Ġflu":7383,"Ġunusual":7384,"Ġdom":7385,"Ġcaring":7386,"Ġ:-)":7387,"onz":7388,"Ġletter":7389,"Ġfacilities":7390,"90":7391,"ez":7392,"market":7393,"season":7394,"Ġnose":7395,"Ġunfortunate":7396,"Ġprepar":7397,"Ġwasting":7398,"ĠHOT":7399,"Ġsetup":7400,"Ġimproved":7401,"Ġunderstood":7402,"ĠChips":7403,"Ġstaring":7404,"ongolian":7405,"Ġturning":7406,"Ġadequate":7407,"Ġpolice":7408,"Ġtongue":7409,"Fi":7410,"RY":7411,"ians":7412,"Ġparm":7413,"Ġsampled":7414,"Ġpillows":7415,"Ġfreezer":7416,"Ġbalsamic":7417,"Ġclim":7418,"ĠExt":7419,"Ġtrade":7420,"Ġscrambled":7421,"ĠPepper":7422,"Ġassuming":7423,"Ġcos":7424,"ĠWhatever":7425,"part":7426,"Ġfirm":7427,"arted":7428,"Ġworn":7429,"Ġrecipe":7430,"Ġfountains":7431,"inct":7432,"ĠARE":7433,"Absolutely":7434,"iver":7435,"Ġfusion":7436,"Ġsomebody":7437,"Ġdropping":7438,"Ġassortment":7439,"luster":7440,"Ġstroll":7441,"ĠWorld":7442,"Ġartichoke":7443,"PA":7444,"iece":7445,"Ġliquid":7446,"ĠCalled":7447,"Ġamazingly":7448,"ĠMin":7449,"ella":7450,"dog":7451,"hole":7452,"Ġgirlfriends":7453,"ĠSame":7454,"ĠBAD":7455,"Ġhoped":7456,"Ġseasonal":7457,"Ġjuices":7458,"ĠWild":7459,"gged":7460,"nWould":7461,"ĠFive":7462,"ĠFOOD":7463,"Ġagent":7464,"Ġrunny":7465,"Ġcondes":7466,"Ġbenedict":7467,"Ġdas":7468,"Ġeconom":7469,"Ġeverybody":7470,"OB":7471,"SS":7472,"UCH":7473,"Ġshaved":7474,"Ġlimit":7475,"Ġchoo":7476,"rah":7477,"Ġslots":7478,"Ġzucchini":7479,"ĠDoes":7480,"acha":7481,"Ġtruth":7482,"Ġsoaked":7483,"Ġ!!!":7484,"ĠEnjoy":7485,"Ġlift":7486,"ĠAlmost":7487,"Ġinfl":7488,"Ġgarn":7489,"Ġcoat":7490,"ĠPalms":7491,"Ġjoin":7492,"Ġnicht":7493,"Ġpregn":7494,"Ġreferred":7495,"Ġaccompanied":7496,"Ġimpeccable":7497,"away":7498,"vern":7499,"rie":7500,"cape":7501,"ĠBuffalo":7502,"Ġguarantee":7503,"Ġlength":7504,"Ġsupposedly":7505,"Ġbisque":7506,"ĠCL":7507,"Ġquaint":7508,"Ġvolume":7509,"Ġblonde":7510,"viche":7511,"inced":7512,"Ġoun":7513,"Ġstays":7514,"Ġworthy":7515,"!!!!!!":7516,"Ġmacaroni":7517,"Ġindul":7518,"ĠTotally":7519,"Ġsometime":7520,"Ġpushy":7521,"ĠOUT":7522,"inaig":7523,"Ġmagic":7524,"NT":7525,"smo":7526,"Ġfrankly":7527,"Ġtrim":7528,"Ġauto":7529,"Ġholes":7530,"from":7531,"Ġstops":7532,"ĠTried":7533,"unately":7534,"Ġpace":7535,"Ġugly":7536,"ends":7537,"Ġload":7538,"Ġpurchasing":7539,"Ġsloppy":7540,"ĠTurn":7541,"ĠUp":7542,"ĠSpa":7543,"Ġratio":7544,"Ġlied":7545,"ĠMountain":7546,"service":7547,"Ġbands":7548,"ĠFort":7549,"UDE":7550,"ĠPart":7551,"Ġcontemp":7552,"Ġoccupied":7553,"opus":7554,"Ġsmoothies":7555,"including":7556,"Ġfruits":7557,"ianc":7558,"Ġpride":7559,"Ġnicest":7560,"Ġcommunication":7561,"uu":7562,"Ġsom":7563,"rim":7564,"Ġappetizing":7565,"Ġfeta":7566,"ghter":7567,"Ġseven":7568,"Ġrum":7569,"Ġuses":7570,"Ġleak":7571,"Ġshoulder":7572,"Ġcouches":7573,"lich":7574,"oons":7575,"Ġdans":7576,"stal":7577,"ĠDEL":7578,"Ġgrowing":7579,"Ġapproach":7580,"Ġavec":7581,"SE":7582,"amame":7583,"Ġlease":7584,"orary":7585,"ocha":7586,"Ġobl":7587,"Can":7588,"ĠMexico":7589,"Ġmiserable":7590,"iable":7591,"iped":7592,"YI":7593,"hone":7594,"Ġtun":7595,"ĠTao":7596,"ĠCoke":7597,"Ġcommer":7598,"Ġcalm":7599,"ĠGranted":7600,"Ġdiscover":7601,"Ġmax":7602,"omp":7603,"ĠGerman":7604,"vada":7605,"Ġpeak":7606,"Ġbreading":7607,"Ġventure":7608,"Ġfired":7609,"Ġhitting":7610,"Ġneighbors":7611,"ĠEggs":7612,"Ġfle":7613,"Ġmemories":7614,"Ġec":7615,"ĠGarlic":7616,"Ġjobs":7617,"?\\\"\"\\":7618,"atisfied":7619,"Ġling":7620,"ĠLI":7621,"Ġscary":7622,"Ġdealt":7623,"Ġ2012":7624,"Ġheated":7625,"ĠShow":7626,"Ġlicense":7627,"inaigrette":7628,"Ġhappier":7629,"Ġpath":7630,"Ġpathetic":7631,"Ġcondescend":7632,"iber":7633,"Ġlistened":7634,"Ġassistant":7635,"Ġrud":7636,"Ġshout":7637,"Ġmakeup":7638,"Ġreply":7639,"Ġcondiments":7640,"Ġoutdated":7641,"Ġrout":7642,"ĠHilton":7643,"Ġhighlights":7644,"ua":7645,"ĠGordon":7646,"ĠGilbert":7647,"heless":7648,"Ġtho":7649,"Ġsupervisor":7650,"enced":7651,"ajun":7652,"Ġwitness":7653,"Ġlil":7654,"berg":7655,"Ġpickled":7656,"aux":7657,"Ġchowder":7658,"ĠDowntown":7659,"iki":7660,"ĠBLT":7661,"did":7662,"ĠSuch":7663,"ĠAnyways":7664,"Ġaged":7665,"Ġtots":7666,"Ġheav":7667,"ĠFoods":7668,"nOnly":7669,"workers":7670,"Ġemergency":7671,"every":7672,"Ġcentral":7673,"ĠWhole":7674,"Ġpitcher":7675,"Ġreputation":7676,"itty":7677,"ĠLunch":7678,"olf":7679,"ĠMcDonalds":7680,"Ġmaster":7681,"Ġboiled":7682,"Ġestimate":7683,"ĠEncore":7684,"Ġscallop":7685,"Ġutens":7686,"Ġsexy":7687,"Ġquarter":7688,"ĠBasically":7689,"oops":7690,"etheless":7691,"Ġspare":7692,"Ġdeath":7693,"itionally":7694,"ĠCosmo":7695,"...\\\"\"":7696,"ounds":7697,"Ġaddic":7698,"Ġcomplement":7699,"Ġconvinced":7700,"Ġjar":7701,"airy":7702,"Ġsquash":7703,"Ġimprovement":7704,"Ġlap":7705,"Ġbutton":7706,"Ġcompleted":7707,"Ġprovides":7708,"28":7709,"Ġbrownie":7710,"Ġsending":7711,"WH":7712,"icated":7713,"Ġfranch":7714,"ĠCorn":7715,"Ġadvise":7716,"Ġeager":7717,"Ġloss":7718,"Ġsubpar":7719,"ĠParmesan":7720,"inated":7721,"\\\"\"...":7722,"Ġgrub":7723,"Meh":7724,"Ġhal":7725,"ĠBraz":7726,"thru":7727,"Ġcarte":7728,"RO":7729,"ĠMil":7730,"Ġsumm":7731,"Ġwarn":7732,"Ġcostum":7733,"jack":7734,"nThanks":7735,"Ġstumbled":7736,"ĠWaitress":7737,"Ġensure":7738,"Ġhated":7739,"Ġexit":7740,"necess":7741,"too":7742,"vision":7743,"ĠDiego":7744,"hings":7745,"Ġdisgusted":7746,"ĠBab":7747,"Ġflash":7748,"eps":7749,"Ġhearty":7750,"car":7751,"Ġfold":7752,"While":7753,"Ġtoler":7754,"Ġlackluster":7755,"Ġconcierge":7756,"Ġflights":7757,"Ġbiscuit":7758,"Ġduty":7759,"Ġexpand":7760,"check":7761,"Ġbrulee":7762,"nit":7763,"enos":7764,"Ġeth":7765,"ĠPoor":7766,"Ġgladly":7767,"about":7768,"ĠBIG":7769,"Ġadmission":7770,"fit":7771,"hard":7772,"ĠOff":7773,"ruit":7774,"ĠEurope":7775,"jo":7776,"ĠMUST":7777,"Ġsport":7778,"olid":7779,"Ġnewer":7780,"Ġessentially":7781,"Ġdealer":7782,"ĠUnless":7783,"Ġyelpers":7784,"Ġsteps":7785,"rig":7786,"interest":7787,"Ġbreads":7788,"nNeed":7789,"ĠMonte":7790,"vin":7791,"ĠTIM":7792,"etiz":7793,"Ġpushing":7794,"ĠRid":7795,"uction":7796,"Ġsoul":7797,"Ġcoworker":7798,"mar":7799,"uary":7800,"ores":7801,"Ġsafet":7802,"Ġbarbec":7803,"Ġshall":7804,"Ġsorts":7805,"Ġfeatures":7806,"Ġshitty":7807,"Ġratings":7808,"Ġtouched":7809,"Ġguessing":7810,"Ġsafety":7811,"29":7812,"itor":7813,"Ġfalafel":7814,"Ġample":7815,"Ġchallenge":7816,"Ġsor":7817,"Ġsip":7818,"Ġscale":7819,"ader":7820,"Ġchops":7821,"Ġceviche":7822,"Ġfianc":7823,"ĠUgh":7824,"attress":7825,"Ġkiller":7826,"Ġhookah":7827,"mpoo":7828,"Ġgenuinely":7829,"FC":7830,"Ġrule":7831,"ARS":7832,"Ġphotograp":7833,"Ġmemory":7834,"hop":7835,"Ġtrop":7836,"Ġexterior":7837,"ĠButter":7838,"Ġraved":7839,"ĠSomething":7840,"riott":7841,"sticks":7842,"ĠMi":7843,"Ġvous":7844,"ĠEnd":7845,"HING":7846,"Ġsof":7847,"Ġspic":7848,"Ġpopped":7849,"Ġgf":7850,"Ġpaired":7851,"ĠAugust":7852,"Ġvom":7853,"ĠGeor":7854,"Ġpeace":7855,"ĠEmp":7856,"Ġappearance":7857,"Ġstatus":7858,"Ġgnocchi":7859,"ural":7860,"Ġtwist":7861,"Ġmonthly":7862,"Ġpainted":7863,"otch":7864,"ĠMuch":7865,"Ġgrade":7866,"aya":7867,"orette":7868,"Ġfacing":7869,"wait":7870,"Ġcast":7871,"althy":7872,"Ġinstalled":7873,"Ġfund":7874,"ĠMUCH":7875,"Ġtrick":7876,"hor":7877,"Ġ?":7878,"Ġstaple":7879,"ĠMade":7880,"Ġlesson":7881,"Ġsmoky":7882,"Ġwond":7883,"acity":7884,"Ġplayers":7885,"field":7886,"Ġmars":7887,"teen":7888,"udos":7889,"sas":7890,"Ġkaraoke":7891,"ointing":7892,"ĠBen":7893,"Ġfear":7894,"Ġreviewed":7895,"otted":7896,"Ġinterrupt":7897,"Ġdissap":7898,"Ġlaptop":7899,"55":7900,"ching":7901,"ĠGive":7902,"Ġcrave":7903,"Ġbare":7904,"ĠMet":7905,"Ġsuites":7906,"onderful":7907,"Ġpics":7908,"aying":7909,"Ġwhom":7910,"ĠSeems":7911,"inatown":7912,"Ġmerchand":7913,"ĠEver":7914,"ellow":7915,"Ġblueberry":7916,"23":7917,"Ġspit":7918,"ĠKim":7919,"Ġchocol":7920,"Ġvintage":7921,"Ġcompanion":7922,"Ġcopy":7923,"een":7924,"cream":7925,"Ġahi":7926,"ĠCle":7927,"Ġoverrated":7928,"udge":7929,"Ġbranch":7930,"nBottom":7931,"Ġjalape":7932,"Ġproviding":7933,"rong":7934,"ĠFashion":7935,"Ġpeach":7936,"ĠSundays":7937,"ĠFREE":7938,"65":7939,"Ġpickle":7940,"venue":7941,"ifts":7942,"Ġprinted":7943,"ĠDeli":7944,"GH":7945,"gent":7946,"inal":7947,"Ġbrick":7948,"ĠEat":7949,"ĠRamen":7950,"ĠDinner":7951,"cade":7952,"Ġmaple":7953,"ĠDessert":7954,"ĠStation":7955,"eware":7956,"Ġswitched":7957,"Ġsodas":7958,"Ġast":7959,"Ġbou":7960,"lls":7961,"Ġpeas":7962,"ĠCount":7963,"Ġcaf":7964,"ĠLee":7965,"Ġcouldnt":7966,"ĠMarch":7967,"form":7968,"Ġcel":7969,"Ġstadium":7970,"ĠWings":7971,"amous":7972,"Ġfoodie":7973,"Ġappeal":7974,"Ġsleeping":7975,"Ġlately":7976,"Ġsuperior":7977,"Ġoct":7978,"ĠLOVED":7979,"RA":7980,"Ġmarked":7981,"Ġincompetent":7982,"Ġsession":7983,"Ġunnecess":7984,"nWent":7985,"Ġpurse":7986,"ĠShop":7987,"Ġchick":7988,"Ġfucking":7989,"Ġhide":7990,"oody":7991,"insp":7992,"load":7993,"Ġflatbread":7994,"Ġmirror":7995,"Ġgrow":7996,"ĠSeafood":7997,"Ġutter":7998,"person":7999,"Ġain":8000,"abob":8001,"Ġdouche":8002,"lers":8003,"Ġfeature":8004,"Ġsketch":8005,"Ġfeatured":8006,"da":8007,"Ġdoc":8008,"Ġgrad":8009,"Ġtacky":8010,"ĠSty":8011,"Ġbrow":8012,"Ġbananas":8013,"ĠTomato":8014,"aro":8015,"ections":8016,"Ġhorribly":8017,"ĠFrank":8018,"eal":8019,"ipino":8020,"nSp":8021,"Ġluxury":8022,"Ġcondescending":8023,"ĠPie":8024,"ĠEasy":8025,"nPros":8026,"Ġskeptical":8027,"Ġlosing":8028,"Ġdrunken":8029,"ĠBesides":8030,"ĠCajun":8031,"Ġairline":8032,"Ġqueso":8033,"Ġvinaigrette":8034,"ourse":8035,"Ġerror":8036,"Ġgolden":8037,"Ġdevelop":8038,"Ġmodel":8039,"Ġpalate":8040,"eter":8041,"ĠOpen":8042,"ĠVan":8043,"Ġflavour":8044,"Ġdivine":8045,"Ġeyebrows":8046,"uz":8047,"Ġtoes":8048,"Ġlovers":8049,"Ġchal":8050,"urd":8051,"ĠHuge":8052,"ĠPanda":8053,"Ġcheer":8054,"ĠDave":8055,"Ġages":8056,"Ġunex":8057,"appointed":8058,"Ġunderstaffed":8059,"Ġdrizz":8060,"Ġviol":8061,"Ġassistance":8062,"Ġpreparation":8063,"Ġhostesses":8064,"Ġrented":8065,"ĠFrancisco":8066,"tf":8067,"top":8068,"Ġopens":8069,"Ġterm":8070,"ĠNOTHING":8071,"ĠCentral":8072,"Ġutensils":8073,"26":8074,"eah":8075,"Ġtherefore":8076,"agger":8077,"Ġconco":8078,"Ġcontr":8079,"attentive":8080,"Ġinvited":8081,"hhhh":8082,"Ġnet":8083,"Ġdrown":8084,"roud":8085,"epend":8086,"Ġbalanced":8087,"ĠOrder":8088,"ĠTrop":8089,"ĠSouthern":8090,"Ġlibr":8091,"umble":8092,"Ġideal":8093,"icotta":8094,"ĠScott":8095,"Ġhipster":8096,"Ġoverpower":8097,"Ġfave":8098,"cheese":8099,"Ġmoder":8100,"DER":8101,"Ġgra":8102,"ĠWITH":8103,"WW":8104,"Ġdesire":8105,"Ġ99":8106,"Ġcombined":8107,"Ġcracked":8108,"!!!!\\":8109,"Ġeight":8110,"ĠSL":8111,"ĠChamp":8112,"Ġconveniently":8113,"Ġstatement":8114,"Ġprosciutto":8115,"ĠMarquee":8116,"hich":8117,"utella":8118,"Ġdisrespect":8119,"Ġinstantly":8120,"Ġanswers":8121,"Ġinformative":8122,"sl":8123,"your":8124,"rier":8125,"ĠBY":8126,"Ġprix":8127,"Ġadvertising":8128,"ĠCool":8129,"Ġoverchar":8130,"Ġsatur":8131,"Ġconnected":8132,"fcr":8133,"ulting":8134,"Ġ22":8135,"Ġstaffed":8136,"nothing":8137,"Ġattending":8138,"Ġ75":8139,"lli":8140,"Ġdeb":8141,"UCK":8142,"ĠSP":8143,"Ġanybody":8144,"Ġbrief":8145,"Ġrap":8146,"Ġallows":8147,"Ġshampoo":8148,"Ġfavour":8149,"Ġpressed":8150,"Ġpanini":8151,"wful":8152,"ĠVillage":8153,"Ġsalsas":8154,"uteed":8155,"Ġdrivers":8156,"Ġsurv":8157,"Ġcornbread":8158,"loaf":8159,"ĠHawaii":8160,"Ġsilly":8161,"Ġlying":8162,"Ġamer":8163,"ĠYog":8164,"Ġconcl":8165,"Ġownership":8166,"21":8167,"fferent":8168,"PD":8169,"Ġsalons":8170,"obb":8171,"ĠParadise":8172,"Ġelectron":8173,"Ġunapp":8174,"Ġlacks":8175,"Ġstrongly":8176,"ressing":8177,"Ġdipped":8178,"Ġmixture":8179,"Have":8180,"year":8181,"ober":8182,"aky":8183,")!":8184,"cing":8185,"ĠTer":8186,"ĠAB":8187,"Ġalley":8188,"Ġhumor":8189,"Ġadmitted":8190,"ĠThanksgiving":8191,"Ġqueen":8192,"Ġunderwhelming":8193,"oves":8194,"Ġmattress":8195,"ĠPerson":8196,"Ġsuspect":8197,"Ġbarbecue":8198,"Ġmerchandise":8199,"ĠMushroom":8200,"Ġroutine":8201,"ĠJune":8202,"rors":8203,"zels":8204,"Ġscrap":8205,"Ġremain":8206,"pril":8207,"Ġsupplies":8208,"Ġpharmacy":8209,"SH":8210,"Ġchim":8211,"Ġ$$$":8212,"aud":8213,"Ġears":8214,"Ġshelf":8215,"Ġwipe":8216,"Ġheels":8217,"cap":8218,"ĠLiving":8219,"ptions":8220,"Ġchoosing":8221,"ĠCub":8222,"ĠGrilled":8223,"Ġnurse":8224,"istic":8225,"Ġslide":8226,"Ġtalented":8227,"ĠDavid":8228,"Ġtenders":8229,"ppies":8230,"ĠFast":8231,"Ġingredient":8232,"ĠIve":8233,"ĠTru":8234,"ĠMAN":8235,"ĠOre":8236,"ĠCant":8237,"ĠPlenty":8238,"Ġdesperate":8239,"usted":8240,"Ġhundreds":8241,"Ġcarnitas":8242,"rey":8243,"itz":8244,"ĠSoc":8245,"Ġgoodies":8246,"Ġexceed":8247,"anky":8248,"onsidering":8249,"ĠBistro":8250,"ntil":8251,"Ġshade":8252,"________":8253,"think":8254,"ĠPap":8255,"Ġmatters":8256,"ommend":8257,"ĠSec":8258,"avig":8259,"Ġpickup":8260,"phone":8261,"Ġshown":8262,"Ġchurch":8263,"Ġapply":8264,"Ġcateg":8265,"ĠTa":8266,"Ġmarried":8267,"Ġmassages":8268,"Ġcalz":8269,"rendous":8270,"utes":8271,"again":8272,"Ġapples":8273,"ALL":8274,"Ġsouthern":8275,"Ġgrac":8276,"ĠCarne":8277,"ĠDesert":8278,"ville":8279,"itation":8280,"Ġstack":8281,"Ġrestrooms":8282,"ĠTra":8283,"Ġoverhe":8284,"Ġselected":8285,"ĠThink":8286,"Ġvarieties":8287,"Ġoccur":8288,"Ġcatfish":8289,"Ġaioli":8290,"Ġwasabi":8291,"Ġhouses":8292,"ĠDID":8293,"Ġedges":8294,"Why":8295,"akery":8296,"Ġscan":8297,"Ġsells":8298,"ĠBurrito":8299,"ĠUm":8300,"Ġpaste":8301,"ĠBO":8302,"agon":8303,"Ġslim":8304,"Ġplayer":8305,"Ġstrict":8306,"ĠPasta":8307,"Ġstories":8308,"ĠBart":8309,"Ġability":8310,"Ġadorable":8311,"Ġelegant":8312,"Ġsmokey":8313,"Ġnapkin":8314,"Pretty":8315,"Ġproud":8316,"Ġstink":8317,"Ġhalfway":8318,"ĠServer":8319,"ĠClass":8320,"uk":8321,"around":8322,"Ġreality":8323,"ollo":8324,"raft":8325,"Ġcreepy":8326,"27":8327,"Ġdanger":8328,"ĠBel":8329,"Ġframe":8330,"ration":8331,"atched":8332,"Ġthreat":8333,"Ġplaza":8334,"ected":8335,"Ġdrain":8336,"Ġdeterm":8337,"Ġbubb":8338,"Ġwoke":8339,"Ġnar":8340,"idents":8341,"Ġsmiling":8342,"Ġpulling":8343,"Ġluckily":8344,"EG":8345,"hara":8346,"Ġcourtesy":8347,"Ġlamp":8348,"Ġbucket":8349,"kn":8350,"Ġcontent":8351,"Ġamounts":8352,"nLike":8353,"mission":8354,"Ġspark":8355,"ĠShort":8356,"Ġtransport":8357,"Ġpuppy":8358,"Ġsubstitute":8359,"Go":8360,"Ġsont":8361,"Ġcod":8362,"Ġprevent":8363,"everal":8364,"Never":8365,"ĠBro":8366,"ĠCamel":8367,"ĠSho":8368,"Ġsurrounded":8369,"Ġlump":8370,"Ġsop":8371,"Ġbug":8372,"Ġmarks":8373,"Ġcri":8374,"lly":8375,"Ġsky":8376,"nUpon":8377,"Ġtangy":8378,"Ġsoo":8379,"At":8380,"inic":8381,"cember":8382,"nHad":8383,"Ġcrawfish":8384,"TY":8385,"Ġpowder":8386,"urous":8387,"Ġrelie":8388,"AME":8389,"Ġflip":8390,"Ġdelay":8391,"Ġemailed":8392,"Ġoyster":8393,"iversity":8394,"Ġbones":8395,"anes":8396,"nAlthough":8397,"Ġpeanuts":8398,"ĠCake":8399,"ardless":8400,"Ġrides":8401,"Ġbeauty":8402,"Ġautomatically":8403,"Ġmaintained":8404,"Ġbeach":8405,"Ġreserve":8406,"Ġlatest":8407,"Ġple":8408,"ĠPol":8409,"Ġvib":8410,"Ġpainful":8411,"Ġaccompany":8412,"Ġinspection":8413,"Ġskewers":8414,"Ġbiz":8415,"ĠTA":8416,"ĠBack":8417,"ĠGR":8418,"Ġcurious":8419,"acuzz":8420,"anta":8421,"ĠCall":8422,"Ġdinning":8423,"Ġrepeatedly":8424,"Ġreached":8425,"melon":8426,"Ġmilkshake":8427,"Ġspilled":8428,"Ġdeciding":8429,"Ġcardboard":8430,"Ġrelated":8431,"elled":8432,"Ġcole":8433,"ello":8434,"Ġsooner":8435,"ĠHam":8436,"ĠTurkey":8437,"why":8438,"Ġhospitality":8439,"Ġicing":8440,"ĠFar":8441,"Ġcheesesteak":8442,"Ġmicrowaved":8443,"nNeedless":8444,"ĠDIS":8445,"ogi":8446,"ungle":8447,"Ġperformers":8448,"aired":8449,"rese":8450,"has":8451,"ĠCOM":8452,"ĠSpoon":8453,"Ġcamera":8454,"ĠSmo":8455,"Ġrace":8456,"ĠOnion":8457,"Ġcommented":8458,"Ġppl":8459,"Ġfriendl":8460,"Ġedamame":8461,"Ġcampus":8462,"Ġculture":8463,"Ġinconsistent":8464,"RONG":8465,"weed":8466,"Ġ2011":8467,"best":8468,"chicken":8469,"ĠItaly":8470,"ĠPink":8471,"Ġdying":8472,"Ġwonton":8473,"Ġsin":8474,"Ġvalid":8475,"ĠLook":8476,"ĠAsked":8477,"seasoned":8478,"Ġped":8479,"Ġflaw":8480,"ĠManagement":8481,"gher":8482,"Ġdecorations":8483,"kers":8484,"Ġdime":8485,"Ġsits":8486,"ĠBlvd":8487,"Ordered":8488,"ĠMain":8489,"ĠMatt":8490,"Ġraving":8491,"Ġcomedy":8492,"Ġtoys":8493,"isa":8494,"++":8495,"Ġprocessed":8496,"Ġhrs":8497,"Ġinches":8498,"renched":8499,"Ġstare":8500,"uben":8501,"beit":8502,"Ġdriven":8503,"nFrom":8504,"Ġhesitant":8505,"OVE":8506,"mins":8507,"Ġendless":8508,"ucky":8509,"ĠGuys":8510,"ĠInternet":8511,"ĠCheesecake":8512,"Ġjustify":8513,"ĠRUDE":8514,"Ġsmothered":8515,"Ġzu":8516,"Ġbear":8517,"Ġdistur":8518,"then":8519,"eaking":8520,"Ġtransaction":8521,"ĠCarol":8522,"Ġgut":8523,"assed":8524,"Ġsurely":8525,"Ġconsult":8526,"Ġcontinues":8527,"',":8528,"fo":8529,"ĠTable":8530,"berto":8531,"Ġexcuses":8532,"OULD":8533,"Ġease":8534,"Ġskinny":8535,"Ġpier":8536,"Ġearn":8537,"Ġwhose":8538,"ĠStore":8539,"Ġbien":8540,"Ġnecessarily":8541,"ĠASU":8542,"cy":8543,"ĠTime":8544,"Ġhired":8545,"Ġdoesnt":8546,"Ġaddict":8547,"restaurant":8548,"ĠAWAY":8549,"ĠNevada":8550,"Ġoctopus":8551,"Dis":8552,"Ġwave":8553,"arkable":8554,"ugula":8555,"sha":8556,"ĠTER":8557,"ĠWhe":8558,"ĠHoney":8559,"ĠGF":8560,"ĠChinatown":8561,"ERS":8562,"Ġpatience":8563,"Ġconstant":8564,"):":8565,"Ġtodd":8566,"Ġbecoming":8567,"ĠMag":8568,"ĠHell":8569,"Ġfreshness":8570,"Ġbilling":8571,"Ġsplur":8572,"Ġarray":8573,"Ġta":8574,"ĠHH":8575,"nBy":8576,"Ġdiscounted":8577,"Ġaccurate":8578,"Ġtrees":8579,"Ġriver":8580,"uffed":8581,"Ġfreakin":8582,"ear":8583,"Ġmash":8584,"Ġrail":8585,"amn":8586,"ĠResort":8587,"Ġfuss":8588,"Ġbrands":8589,"Ġhorrendous":8590,"Ġavo":8591,"Ġterminal":8592,"leep":8593,"Ġcovers":8594,"nWhy":8595,"Ġforce":8596,"Ġknocked":8597,"Ġsettle":8598,"ivity":8599,"Ġpresence":8600,"Ġopposed":8601,"Ġconditioning":8602,"Ġhike":8603,"ĠPoint":8604,"ums":8605,"Ġdiscounts":8606,"Ġnavig":8607,"Ġstall":8608,"ĠApril":8609,"Ġreviewing":8610,"Ġending":8611,"Ġarrives":8612,"Ġnurs":8613,"lev":8614,"abor":8615,"Ġoccasionally":8616,"Ġamongst":8617,"ĠWE":8618,"Ġgrounds":8619,"ĠRain":8620,"Ġintended":8621,"Ġcloses":8622,"Ġhilar":8623,"Ġupper":8624,"Ġship":8625,".'":8626,"VO":8627,"gen":8628,"ĠMind":8629,"Ġresched":8630,"nNever":8631,"Ġartists":8632,"emp":8633,"asm":8634,"Ġlun":8635,"meh":8636,"ĠFR":8637,"ĠBeen":8638,"Ġcaramelized":8639,"ĠMenu":8640,"tait":8641,"walk":8642,"Ġtrio":8643,"worker":8644,"Ġcontainers":8645,"Ġwhiskey":8646,"ĠOctober":8647,"Dec":8648,"lor":8649,"ĠGross":8650,"olen":8651,"Ġfranchise":8652,"Ġber":8653,"ĠSide":8654,"Ġshelves":8655,"Ġdiverse":8656,"ĠQueen":8657,"ools":8658,"ĠEastern":8659,"Ġboutique":8660,"Ġweb":8661,"ĠFlavor":8662,"Ġmagaz":8663,"Ġmuffins":8664,"Ġtur":8665,"Ġpist":8666,"Ġbrain":8667,"pdate":8668,"ĠSky":8669,"ĠLow":8670,"except":8671,"Sp":8672,"Ġscar":8673,"ĠSole":8674,"Ġextended":8675,"Ġstyles":8676,"nEn":8677,"special":8678,"ASE":8679,"Ġaccepted":8680,"bble":8681,"rist":8682,"yan":8683,"Ġguide":8684,"gging":8685,"ibur":8686,"Ġmoments":8687,"Ġemails":8688,"Ġunderwhelmed":8689,"Ġexhibit":8690,"elper":8691,"ĠWaff":8692,"ĠNach":8693,"ĠNormally":8694,"Ġnovel":8695,"Ġcombinations":8696,"Ġjalapenos":8697,"Ġconfirmation":8698,"dough":8699,"fresh":8700,"Ġrear":8701,"Ġneeding":8702,"neath":8703,"Ġlaund":8704,"race":8705,"ibut":8706,"Ġprofessionalism":8707,"Ġflaky":8708,"erience":8709,"Ġgrain":8710,"Ġbent":8711,"ĠBeach":8712,"Ġcloset":8713,"Ġdirections":8714,"Ġtorn":8715,"That":8716,"Ġmary":8717,"ĠFace":8718,"ĠBox":8719,"Ġdefinite":8720,"Ġrefrigerator":8721,"aching":8722,"eck":8723,"ĠLooking":8724,"Ġconversations":8725,"Ġamerican":8726,"Ġarro":8727,"Ġacrob":8728,"Ġresist":8729,"Ġsolution":8730,"Ġresemb":8731,"ĠJimmy":8732,"ĠMongolian":8733,"ĠPita":8734,"Dr":8735,"Delicious":8736,"PP":8737,"Ġtree":8738,"Ġarugula":8739,"Ġsticking":8740,"Ġlabor":8741,"andy":8742,"Ġpatties":8743,"Ġmob":8744,"Ġpor":8745,"Ġjoy":8746,"ĠBS":8747,"Ġbrews":8748,"Ġlibrary":8749,"wed":8750,"ĠSign":8751,"owner":8752,"arse":8753,"Ġlimp":8754,"nTH":8755,"ousse":8756,"acuzzi":8757,"fi":8758,"Ġaggress":8759,"Ġskipped":8760,"mbiance":8761,"ĠTIME":8762,"Ġunexpected":8763,"Ġbes":8764,"Ġwashing":8765,"ĠMark":8766,"ube":8767,"Ġvisitors":8768,"Ġlocker":8769,"Ġpregnant":8770,"adish":8771,"Ġmeas":8772,"ilted":8773,"manager":8774,"ĠSTAY":8775,"lace":8776,"ĠWorth":8777,"Ġdied":8778,"Ġaccessories":8779,"Ġdental":8780,"Ġfeedback":8781,"Ġgooey":8782,"ĠValent":8783,"Sorry":8784,"Ġmeasure":8785,"ĠLamb":8786,"Ġremo":8787,"ĠSteve":8788,"Ġmunch":8789,"ĠPre":8790,"Ġrelations":8791,"Ġjoined":8792,"Ġauch":8793,"Ġvast":8794,"ĠYummy":8795,"Ġsurf":8796,"ĠAsk":8797,"ĠDecember":8798,"ĠSTILL":8799,"ICIOUS":8800,"Ġasse":8801,"ĠFro":8802,"Ġheavenly":8803,"Ġtiramisu":8804,"Ġsmiles":8805,"Ġwatering":8806,"ĠBU":8807,"ĠCAN":8808,"Ġherbs":8809,"Ġcashiers":8810,"uel":8811,"Ġstruct":8812,"Ġknots":8813,"isse":8814,"Ġdrenched":8815,"ĠEve":8816,"ĠEarl":8817,"Ġlasted":8818,"Ġfilm":8819,"Ġfalls":8820,"Ġinstructor":8821,"mal":8822,"arking":8823,"aka":8824,"Ġarms":8825,"Ġbagu":8826,"Ġcurds":8827,"Ġwi":8828,"Ġdedic":8829,"Ġgin":8830,"essed":8831,"And":8832,"Ġbeats":8833,"ĠDad":8834,"ĠLounge":8835,"ĠThankfully":8836,"Ġcatering":8837,"ĠGeneral":8838,"ĠHash":8839,"Ġcarts":8840,"chat":8841,"Ġnotes":8842,"ĠPin":8843,"ĠFilet":8844,"Ġpretzels":8845,"Ġvendors":8846,"cake":8847,"Ġsauteed":8848,"Ġlog":8849,"Ġdoub":8850,"ĠHut":8851,"Ġ$$":8852,"Ġrolling":8853,"Ġclaims":8854,"otel":8855,"Ġdisorganized":8856,"Ġunderneath":8857,"Ġrenovated":8858,"Ġunnecessary":8859,"ueless":8860,"Ġcable":8861,"ham":8862,"Ġpiping":8863,"Ġlake":8864,"mean":8865,"ĠCup":8866,"Ġposition":8867,"Ġloudly":8868,"Ġbraised":8869,"Ġredeeming":8870,"Ġpets":8871,"Ġlighter":8872,"THER":8873,"Ġnarrow":8874,"ĠCamelback":8875,"Ġborder":8876,"Ġpricy":8877,"Ġenormous":8878,"Always":8879,"Ġovers":8880,"Ġclock":8881,"Ġrecommending":8882,"Ġdryer":8883,"Ġlin":8884,"ĠMal":8885,"Ġcases":8886,"fly":8887,"Ġdense":8888,"ĠHoot":8889,"igner":8890,"Ġsheet":8891,"Ġsketchy":8892,"49":8893,"iel":8894,"Ġstolen":8895,"ĠJer":8896,"Ġplays":8897,"ĠHarrah":8898,"iques":8899,"Ġapproximately":8900,"ĠBowl":8901,"Ġspiced":8902,"agers":8903,"iana":8904,"400":8905,"cer":8906,"ĠEd":8907,"Ġarch":8908,"ĠAnn":8909,"ray":8910,"Ġeh":8911,"Ġchem":8912,"Ġextreme":8913,"Ġcritic":8914,"Ġunbelievable":8915,"ribut":8916,"Ġdirected":8917,"Ġsqueezed":8918,"leans":8919,"comes":8920,"Ġsqueeze":8921,"Ġadventurous":8922,"Ġmaker":8923,"ati":8924,"Ġexerc":8925,"ONS":8926,"ĠLemon":8927,"Ġaccidentally":8928,"Ġgripe":8929,"lines":8930,"Ġgifts":8931,"Ġacting":8932,"Ġmeatloaf":8933,"ICK":8934,"Ġhood":8935,"nTwo":8936,"Ġsalesman":8937,"ĠGuy":8938,"bac":8939,"lectic":8940,"----------------":8941,"ĠGM":8942,"ockey":8943,"nApp":8944,"ĠBag":8945,"ĠOVER":8946,"Ġbelt":8947,"iety":8948,"Ġdeserts":8949,"ĠSummerlin":8950,"atz":8951,"Ġtiming":8952,"Ġshorts":8953,"Ġkilled":8954,"aaaa":8955,"ĠRose":8956,"Ġretro":8957,"nAnyways":8958,"nwe":8959,"Ġpoke":8960,"Ġblowing":8961,"ĠSept":8962,"Ġbaseball":8963,"ĠBon":8964,"Ġvirt":8965,"OMG":8966,"Ġheavily":8967,"Ġhunt":8968,"urgers":8969,"ĠCR":8970,"Ġjumped":8971,"Ġdecad":8972,"lpful":8973,"Ġbummed":8974,"Ġsi":8975,"athroom":8976,"oria":8977,"Ġnous":8978,"assion":8979,"Ġeconomy":8980,"Ġbattered":8981,"ĠTre":8982,"ĠSil":8983,"Ġalcoholic":8984,"Ġsusp":8985,"Ġoverpowering":8986,"dies":8987,"mark":8988,"Ġine":8989,"Ġloving":8990,"Ġplacing":8991,"Ġpackages":8992,"Ġanswering":8993,"yo":8994,"ĠAF":8995,"ĠJul":8996,"ĠJames":8997,"Ġmoves":8998,"ĠToast":8999,"ĠBloody":9000,"ĠAngeles":9001,"ĠTERRIBLE":9002,"Ġdingy":9003,"Ġreliable":9004,"ĠPost":9005,"Ġthemed":9006,"Ġdiamond":9007,"Ġkindly":9008,"Ġfactory":9009,"ii":9010,"Ġpreference":9011,"reeze":9012,"Ġfrustration":9013,"Ġmit":9014,"asting":9015,"ĠDuck":9016,"Ġregist":9017,"Ġtrave":9018,"going":9019,"Ġaccomod":9020,"worth":9021,"Ġsupply":9022,"Ġwooden":9023,"usiness":9024,"Ġexha":9025,"ĠCreek":9026,"ulf":9027,"Ġwake":9028,"Ġbacked":9029,"aps":9030,"Ġparticip":9031,"Ġshipping":9032,"irsty":9033,"ĠATM":9034,"something":9035,"Ġgran":9036,"Ġbachelorette":9037,"ĠMust":9038,"ĠHOUR":9039,"Ġgloves":9040,"probably":9041,"calibur":9042,"DO":9043,"non":9044,"ĠHill":9045,"Ġflies":9046,"ĠJason":9047,"ĠSalt":9048,"Ġmeth":9049,"ĠTWO":9050,"Ġlent":9051,"lder":9052,"ĠSM":9053,"Ġoutlet":9054,"ĠMa":9055,"oco":9056,"Ġcorrected":9057,"Ġoverlooking":9058,"Ġfloating":9059,"EF":9060,"Ġbummer":9061,"alking":9062,"ĠWend":9063,"Ġcapp":9064,"Ġtrek":9065,"ĠEVERYTHING":9066,"ĠHubby":9067,"ERO":9068,"oned":9069,"Ġbreaking":9070,"ighly":9071,"Ġlively":9072,"Ġapologies":9073,"Ġneglect":9074,"Ġscrub":9075,"Ġcarpets":9076,"Ġhilarious":9077,"32":9078,"Ġsoak":9079,"Ġcrying":9080,"Ġstained":9081,"stery":9082,"ulent":9083,"OOK":9084,"ĠJanuary":9085,"also":9086,"Ġherb":9087,"ĠSahara":9088,"Ġsections":9089,"ota":9090,"Ġpico":9091,"Ġdamaged":9092,"smoking":9093,"AK":9094,"ĠMother":9095,"Ġgreatly":9096,"Ġeatery":9097,"Ġpastas":9098,"chee":9099,"Ġmimosas":9100,"via":9101,"Ġcy":9102,"Ġdripping":9103,"Ġblended":9104,"Ġunimpressed":9105,"ioned":9106,"Ġservings":9107,"ateful":9108,"Ġclueless":9109,"prising":9110,"nMost":9111,"END":9112,"Ġexecuted":9113,"Ġreheated":9114,"Ġcone":9115,"Ġgaming":9116,"arched":9117,"illo":9118,"ĠDist":9119,"ĠReal":9120,"ĠBurgers":9121,"Ġsatisfaction":9122,"ĠSea":9123,"ndel":9124,"ĠFine":9125,"ĠLol":9126,"Ġharder":9127,"Ġspaces":9128,"Ġremodeled":9129,"GO":9130,"Ġma":9131,"ĠChile":9132,"ĠNove":9133,"Ġdistinct":9134,"ĠStyle":9135,"ĠIF":9136,"usages":9137,"oston":9138,"ĠRos":9139,"Ġarcade":9140,"Ġhangover":9141,"Ġprocedure":9142,"Ġmaid":9143,"Ġricotta":9144,"Ġsweets":9145,"aught":9146,"steak":9147,"Ġrust":9148,"Ġarguing":9149,"Ġfavourite":9150,"NO":9151,"elcome":9152,"Ġexagger":9153,"Ġcoffe":9154,"Ġsmiled":9155,"ĠVeget":9156,"anche":9157,"Ġannoun":9158,"Ġjokes":9159,"Ġsupporting":9160,"Ġsharp":9161,"both":9162,"atmeal":9163,"ilty":9164,"put":9165,"Ġ.\\":9166,"ĠPB":9167,"oche":9168,"These":9169,"Ġcelebrating":9170,"Ġholidays":9171,"Ġdare":9172,"ĠBrit":9173,"ĠDom":9174,"Ġwhoever":9175,"Ġdeck":9176,"nPrice":9177,"Ġsorbet":9178,"Ġnerve":9179,"Ġlip":9180,"ulate":9181,"Ġmeaty":9182,"Ġwonderfully":9183,"Ġsucker":9184,"ĠSUCK":9185,"ĠiPhone":9186,"Tried":9187,"Ġori":9188,"Ġcrumb":9189,"fest":9190,"Ġleaf":9191,"Ġhers":9192,"ĠNoodles":9193,"Ġresident":9194,"will":9195,"ĠBu":9196,"anyon":9197,"Ġunre":9198,"erties":9199,"nEx":9200,"ĠTurns":9201,"Ġwouldnt":9202,"Ġhusbands":9203,"Ġroute":9204,"eper":9205,"Ġtruff":9206,"asonable":9207,"INE":9208,"Ġboarding":9209,"nice":9210,"Ġbeet":9211,"Ġil":9212,"ĠCarn":9213,"Ġheadache":9214,"Ġintention":9215,"ĠTrust":9216,"Ġhandling":9217,"Ġquestioned":9218,"ĠCarlo":9219,"Ġsans":9220,"ĠĠĠĠĠĠ":9221,"Ġcolored":9222,"ĠTony":9223,"ida":9224,"meat":9225,"ĠEvent":9226,"Ġrepaired":9227,"nCan":9228,"Got":9229,"Ġswing":9230,"Ġpoached":9231,"ĠSA":9232,"arts":9233,"Ġindepend":9234,"Ġfondue":9235,"ĠDELICIOUS":9236,"cred":9237,"mate":9238,"Ġmocha":9239,"ĠInt":9240,"Ġcott":9241,"Ġnature":9242,"Ġsomeplace":9243,"ĠRd":9244,"ĠRude":9245,"ĠCheap":9246,"Ġrefunded":9247,"Ġfalse":9248,"Ġmand":9249,"Ġjour":9250,"Ġfrites":9251,"Ġexcite":9252,"ĠEnter":9253,"ĠLouis":9254,"Ġoutlets":9255,"ĠMel":9256,"nOrdered":9257,"ĠAtmosphere":9258,"ĠCoast":9259,"bad":9260,"oro":9261,"Ġchos":9262,"Ġdownright":9263,"Ġconfusion":9264,"Ġdaughters":9265,"Ġseaweed":9266,"Ġradio":9267,"ĠMedi":9268,"ĠPo":9269,"ĠLarge":9270,"Ġdelayed":9271,"Ġbarista":9272,"Ġmessages":9273,"Ġcranberry":9274,"rived":9275,"ĠBrew":9276,"Ġseemingly":9277,"Ġfilter":9278,"Ġpractices":9279,"Ġresponsibility":9280,"Ġallergic":9281,":)":9282,"Ġou":9283,"Ġdread":9284,"ĠOy":9285,"Ġnewly":9286,"lette":9287,"try":9288,"ĠCare":9289,"Ġfriday":9290,"ĠOrleans":9291,"ĠSn":9292,"Ġalter":9293,"ĠGET":9294,"ĠExcalibur":9295,"Ġexplore":9296,"Ġrag":9297,"Ġdelect":9298,"Ġbrakes":9299,"Ġgroceries":9300,"ND":9301,"Veg":9302,"ikes":9303,"la":9304,"Ġgather":9305,"Ġjelly":9306,"Ġuneven":9307,"Ġwrist":9308,"Ġconnection":9309,"Ġadventure":9310,"omas":9311,"Ġsocks":9312,"Ġjazz":9313,"ĠFox":9314,"Ġbarber":9315,"yeah":9316,"ĠREAL":9317,"Ġfitting":9318,"ibachi":9319,"ĠWicked":9320,"Ġbikes":9321,"Ġdelicate":9322,"Ġsirloin":9323,"ben":9324,"inter":9325,"Ġapparent":9326,"ĠJUST":9327,"nPrices":9328,"Ġaisle":9329,"Mex":9330,"Ġisnt":9331,"ĠCanyon":9332,"Ġcaesar":9333,"Ġprofess":9334,"Ġlargest":9335,"looking":9336,"ndered":9337,"appointing":9338,"ĠTrader":9339,"Ġoblig":9340,"never":9341,"Ġcav":9342,"kel":9343,"Ġgear":9344,"ĠSUPER":9345,"ĠPortions":9346,"ĠGeorge":9347,"arc":9348,"ĠFle":9349,"Ġhighest":9350,"Ġmagn":9351,"Ġenglish":9352,"Ġsofa":9353,"ĠFacebook":9354,"Ġwiped":9355,"ĠLake":9356,"uming":9357,"ĠYet":9358,".....\\":9359,"ixed":9360,"Ġsquid":9361,"Ġburning":9362,"Ġfestival":9363,"Ġallergies":9364,"Ġthread":9365,"adly":9366,"imm":9367,"ĠSmith":9368,"Ġmotel":9369,"Ġtherapist":9370,"WARE":9371,"Ġabund":9372,"Ġproof":9373,"Ġmartinis":9374,"ĠMusic":9375,"ĠFitness":9376,"ĠJose":9377,"Ġtrap":9378,"ĠBill":9379,"ĠYES":9380,"Ġpassen":9381,"itect":9382,"Ġexotic":9383,"ĠMI":9384,"Ġuseless":9385,"Ġcausing":9386,"nSorry":9387,"athy":9388,"ĠEXT":9389,"Ġassociates":9390,"ĠNoodle":9391,"Ġeclectic":9392,"Ġwondered":9393,"Ġey":9394,"Ġholl":9395,"ĠFound":9396,"ĠFair":9397,"Ġquit":9398,"Ġpear":9399,"nStaff":9400,"Ġdenied":9401,"Did":9402,"ĠBACK":9403,"quis":9404,"Ġhotdog":9405,"Ġhorser":9406,"ĠSoleil":9407,"eople":9408,"ionally":9409,"ĠHAD":9410,"Ġuni":9411,"Ġintim":9412,"Ġinquired":9413,"warma":9414,"Ġtarget":9415,"agine":9416,"Ġunif":9417,"Ġbitch":9418,"Ġjoking":9419,"Ġharsh":9420,"Ġbtw":9421,"Ġstared":9422,"ĠBring":9423,"Ġwedge":9424,"Ġrounds":9425,"ĠSouthwest":9426,"Ġsooooo":9427,"ĠDecent":9428,"uan":9429,"ourbon":9430,"avo":9431,"ublic":9432,"bee":9433,"ĠUr":9434,"Ġsneak":9435,"Ġsignificant":9436,"orted":9437,"Ġslammed":9438,"lessly":9439,"ĠSF":9440,"Ġalas":9441,"Ġvisible":9442,"uccino":9443,"ĠTonight":9444,"urious":9445,"ĠIPA":9446,"ĠMis":9447,"Ġkabob":9448,"icana":9449,"Ġextraord":9450,"uxe":9451,"Ġlayers":9452,"Ġpiled":9453,"Ġcharred":9454,"Ġsundae":9455,"Sh":9456,"ault":9457,"Ġpred":9458,"azon":9459,"Ġremaining":9460,"Ġorganization":9461,"Ġcompetitive":9462,"nand":9463,"ĠSeveral":9464,"Ġ32":9465,"Ġblind":9466,"nSh":9467,"Ġdetailed":9468,"mind":9469,"Ġsen":9470,"Ġware":9471,"Ġhorseradish":9472,"gary":9473,"Ġinten":9474,"Ġwhim":9475,"Ġchilled":9476,"ĠWendy":9477,"Ġdecently":9478,"Ġreluct":9479,"VEN":9480,"ĠFridays":9481,"shield":9482,"Ġoperation":9483,"Ġskimpy":9484,"Ġstreets":9485,"Ġlane":9486,"Ġum":9487,"Ġattitudes":9488,"Super":9489,"Ġgest":9490,"ĠSC":9491,"ĠMine":9492,"Ġrushing":9493,"ĠCrispy":9494,"Ġpriority":9495,"Ġintense":9496,"Ġod":9497,"robably":9498,"onsin":9499,"Ġideas":9500,"Ġrotation":9501,"ĠAuto":9502,"Ġsuc":9503,"ension":9504,"ĠRobert":9505,"Ġsprinkled":9506,"Ġproperties":9507,"Cl":9508,"Ġvary":9509,"care":9510,"Ġcarefully":9511,"ĠTHERE":9512,"nDessert":9513,"Ġinspired":9514,"BE":9515,"Ġcutic":9516,"LEASE":9517,"ĠBrazilian":9518,"ĠHooters":9519,"Ġtint":9520,"Ġinattentive":9521,"Ġsausages":9522,"quet":9523,"Ġboat":9524,"Ġsymp":9525,"Ġcabin":9526,"sch":9527,"nTry":9528,"ĠStud":9529,"ĠMeh":9530,"Ġequal":9531,"Ġcolorful":9532,"Ġfocused":9533,"Ġstunning":9534,"avings":9535,"Ġwatermelon":9536,"Ġhesitate":9537,"gogi":9538,"tion":9539,"wall":9540,"Ġspe":9541,"Ġexpired":9542,"Ġfourth":9543,"lower":9544,"xim":9545,"Ġkale":9546,"isconsin":9547,"ĠFeb":9548,"Where":9549,"houses":9550,"Ġhr":9551,"ĠSin":9552,"Ġtartare":9553,"ifferent":9554,"since":9555,"roit":9556,"ĠWRONG":9557,"Ġrac":9558,"Ġdeserved":9559,"Ġgyros":9560,"umbers":9561,"Ġgigantic":9562,"ĠDouble":9563,"orms":9564,"ĠPA":9565,"Ġmanger":9566,"achio":9567,"ĠPay":9568,"Ġcompliments":9569,"Ġmotor":9570,"Ġinstructors":9571,"member":9572,"ĠUntil":9573,"ypical":9574,"Ġplanet":9575,"oween":9576,"ĠSW":9577,"Ġzoo":9578,"ĠFilipino":9579,"Is":9580,"hour":9581,"ĠAlex":9582,"ĠPER":9583,"imal":9584,"Ġsupermarket":9585,"Ġpounds":9586,"fty":9587,"ĠAh":9588,"Ġtile":9589,"Ġresponsible":9590,"====":9591,"ĠMoon":9592,"ĠBottom":9593,"...)":9594,"Ġcarrying":9595,"Ġwire":9596,"ĠYuck":9597,"Ġslip":9598,"Ġtempted":9599,"nCheck":9600,"Some":9601,"rab":9602,"ĠDa":9603,"nToday":9604,"Ġexecution":9605,"Ġprawn":9606,"?!\\":9607,"uri":9608,"Ġlearning":9609,"Ġbreaks":9610,"Ġleftover":9611,"point":9612,"Ġatroc":9613,"ocation":9614,"Ġwindshield":9615,"Ġrecords":9616,"Ġthousands":9617,"Ġseverely":9618,"ĠSocial":9619,"Ġnom":9620,"Ġinspect":9621,"Ġdefinately":9622,"Ġgradu":9623,"mor":9624,"Ġmousse":9625,"alked":9626,"rike":9627,"ĠMA":9628,"arded":9629,"Their":9630,"las":9631,"Ġglance":9632,"Ġpromotion":9633,"Ġescal":9634,"rawberry":9635,"stone":9636,"irls":9637,"ĠDen":9638,"Ġoverdone":9639,"ĠVel":9640,"ropri":9641,"Ġcitrus":9642,"HOP":9643,"Mart":9644,"arre":9645,"ĠPizz":9646,"inda":9647,"Ġprove":9648,"Ġtalent":9649,"Ġaccent":9650,"Ġcelebration":9651,"Ġsuccessful":9652,"Ġmojito":9653,"Ġloun":9654,"Ġbubble":9655,"ĠSafe":9656,"Ġshells":9657,"Ġcommercial":9658,"Ġcats":9659,"ĠCold":9660,"enses":9661,"??\\":9662,"pletely":9663,"Maybe":9664,"fun":9665,"ĠTort":9666,"Ġsew":9667,"ĠBobby":9668,"ressive":9669,"Ġ2010":9670,"ĠBeautiful":9671,"Ġyellowtail":9672,"Ġinjury":9673,"ĠGall":9674,"Ġprops":9675,"Ġuninsp":9676,"Ġtrucks":9677,"Ġfooled":9678,"Ġore":9679,"ĠBakery":9680,"Ġpedicures":9681,"Ġbench":9682,"ĠCuban":9683,"Ġasleep":9684,"ĠBac":9685,"ĠBall":9686,"ĠBian":9687,"ĠJapan":9688,"ĠAsada":9689,"Ġinfused":9690,"amsay":9691,"ECT":9692,"Ġdelectable":9693,"Ġasha":9694,"owded":9695,"ĠPeak":9696,"ĠFarm":9697,"ĠFamily":9698,"ĠZERO":9699,"Ġmemor":9700,"accio":9701,"Ġunhelpful":9702,"Ġfifteen":9703,"Ġchosen":9704,"Ġreaction":9705,"ĠPanc":9706,"Ġproxim":9707,"Ġargued":9708,"long":9709,"Ġpup":9710,"Ġdairy":9711,"otes":9712,"essions":9713,"ongr":9714,"nSeriously":9715,"ignment":9716,"ĠNeither":9717,"okay":9718,"Ġsuddenly":9719,"ĠBoston":9720,"ilings":9721,"ĠHey":9722,"ĠMargarita":9723,"ĠPaul":9724,"run":9725,"Ġtit":9726,"Ġale":9727,"xtail":9728,"Ġcarried":9729,"Ġwaterfall":9730,"ĠYear":9731,"Ġwitnessed":9732,"Ġsaturday":9733,"ĠAFTER":9734,"acent":9735,"ĠWeek":9736,"Ġdesigner":9737,"oman":9738,"ĠTam":9739,"ĠAlf":9740,"Ġsubtle":9741,"Ġwaxing":9742,"Ġcelery":9743,"Ġdecadent":9744,"life":9745,"hant":9746,"cean":9747,"Ġloaf":9748,"ĠRam":9749,"Ġguilty":9750,"Ġstuffing":9751,"Ġinsist":9752,"iti":9753,"ĠMile":9754,"olis":9755,"Ġsignage":9756,"Ġindicated":9757,"Ġapplied":9758,"ĠNovember":9759,"wa":9760,"Ġtost":9761,"Ġsalesp":9762,"nPlease":9763,"Ġkimchi":9764,"pot":9765,"Ġneedless":9766,"ĠState":9767,"Ġconvince":9768,"Ġfreezing":9769,"mill":9770,"su":9771,"Ġclinic":9772,"ĠUnder":9773,"nOver":9774,"Ġcreamed":9775,"INT":9776,"Ġnonetheless":9777,"Ġattempts":9778,"Ġdoughy":9779,"Ġhallways":9780,"Ġexceptionally":9781,"Ġounce":9782,"thank":9783,"Ġdun":9784,"Ġtamale":9785,"ĠCouldn":9786,"LV":9787,"ju":9788,"Ġaim":9789,"Ġsmelling":9790,"Ġarchitect":9791,"*\\":9792,"~~":9793,"ĠTR":9794,"Ġwaits":9795,"Ġlem":9796,"ĠBrunch":9797,"ĠRolls":9798,"Ġsolely":9799,"Ġcoffees":9800,"?),":9801,"ichan":9802,"Ġplants":9803,"Ġroller":9804,"ĠInside":9805,"Ġblackjack":9806,"Ġoccasional":9807,"36":9808,"CA":9809,"jun":9810,"Ġbay":9811,"Ġfoam":9812,"ELP":9813,"nDrinks":9814,"clean":9815,"first":9816,"wow":9817,"Ġfits":9818,"Ġgreek":9819,"Ġnative":9820,"ĠDrive":9821,"ĠQuality":9822,"Ġencourage":9823,"mitted":9824,"haha":9825,"ĠHOW":9826,"ĠLooks":9827,"Ġbulk":9828,"39":9829,"Ġcapt":9830,"Ġguit":9831,"Ġtimesha":9832,"Ġgrateful":9833,"Ġfixing":9834,"Ġstudy":9835,"Ġpatiently":9836,"full":9837,"tub":9838,"Ġexpectation":9839,"ĠStand":9840,"Ġceilings":9841,"Ġcabana":9842,"ĠGlad":9843,"Ġinsanely":9844,"lendale":9845,"Ġbatch":9846,"ĠPop":9847,"Ġtenderloin":9848,"Ġpouring":9849,"Ġencounter":9850,"Ġbrewery":9851,"Ġrosemary":9852,"Ġchemical":9853,"New":9854,"ĠHope":9855,"oles":9856,"Ġacry":9857,"Ġchocolates":9858,"Ġavoided":9859,"Ġshaped":9860,"rilliant":9861,"Ġiceberg":9862,"Ġconfident":9863,"VOID":9864,"Ġexcitement":9865,"Ġashamed":9866,"Ġbik":9867,"Ġbistro":9868,"Ġrewards":9869,"Ġhust":9870,"owered":9871,"Ġjacuzzi":9872,"Ġoffended":9873,"Ġcontained":9874,"ĠSalsa":9875,"ĠShame":9876,"Ġinventory":9877,"85":9878,"Ġment":9879,"Ġbecomes":9880,"ĠWife":9881,"Ġpurchases":9882,"nLove":9883,"Ġallowing":9884,"Ġraise":9885,"Ġauf":9886,"Ġdangerous":9887,"ARD":9888,"sweet":9889,"nOf":9890,"Ġinstant":9891,"Ġbrowse":9892,"ĠTap":9893,"ĠPool":9894,"Ġsunny":9895,"Ġultimately":9896,"Ġcurtains":9897,"Ġcalzone":9898,"Ġproximity":9899,"Ġcities":9900,"ĠWisconsin":9901,"ĠMORE":9902,"ĠEAT":9903,"ocal":9904,"ĠSpin":9905,"Ġwinning":9906,"andaise":9907,"ĠRibs":9908,"ĠNobody":9909,"Ġchalk":9910,"Ġelder":9911,"ĠSalon":9912,"Ġphoenix":9913,"Ġresolved":9914,"Ġrepresentative":9915,"ĠFortunately":9916,"mit":9917,"Ġmahi":9918,"Ġprogress":9919,"Ġdeliciousness":9920,"Ġmargin":9921,"Ġinteraction":9922,"Ġhunger":9923,"low":9924,"nPS":9925,"Ġmornings":9926,"Ġforgettable":9927,"prisingly":9928,"aign":9929,"home":9930,"rum":9931,"rial":9932,"store":9933,"Ġglor":9934,"ouchon":9935,"Ġgay":9936,"Ġtechs":9937,"Ġstructure":9938,"bas":9939,"Ġrect":9940,"Ġhockey":9941,"ulif":9942,"Ġ199":9943,"Ġfinanc":9944,"Ġpicnic":9945,"Ġhangout":9946,"Ġignoring":9947,"UE":9948,"eks":9949,"Ġaqu":9950,"Ġinstructions":9951,"Ġborn":9952,"Ġrefried":9953,"ĠMax":9954,"ĠFull":9955,"ĠLiterally":9956,"ĠRamsay":9957,"Ġrefe":9958,"ĠStep":9959,"Ġthousand":9960,"anged":9961,"Ġeine":9962,"ĠPic":9963,"Ġ23":9964,"ĠYard":9965,"Ġbasics":9966,"Ġpartying":9967,"gusting":9968,"Ġtartar":9969,"Ġlaundry":9970,"mother":9971,"ĠIll":9972,"Ġtriple":9973,"Ġspoken":9974,"Ġflagged":9975,"ĠBasil":9976,"ettes":9977,"Ġhomeless":9978,"NE":9979,"Ġtummy":9980,"Ġnugg":9981,"Ġalf":9982,"Ġvaried":9983,"ĠPlaza":9984,"Ġcontemporary":9985,"ĠSum":9986,"ĠBTW":9987,"gend":9988,"ĠDepot":9989,"bie":9990,"love":9991,"hey":9992,"Ġwilted":9993,"icking":9994,"ĠVEG":9995,"Ġreturns":9996,"nNice":9997,"ĠDisney":9998,"ember":9999,"roy":10000,"ĠSour":10001,"Ġdislike":10002,"Ġdiff":10003,"Ġcanceled":10004,"oza":10005,"ĠWiFi":10006,"NY":10007,"ĠMango":10008,"Ġrou":10009,"ulation":10010,"nIts":10011,"Ġsmallest":10012,"Ġattack":10013,"Ġtends":10014,"Ġconclusion":10015,"Ġcategory":10016,"mil":10017,"Ġded":10018,"vegas":10019,"Ġtrays":10020,"Ġrecipes":10021,"ĠExcept":10022,"Ġbuildings":10023,"Stayed":10024,"ere":10025,"ecor":10026,"REE":10027,"Ġdisplayed":10028,"Ġskillet":10029,"irs":10030,"nAb":10031,"Ġremodel":10032,"greens":10033,"str":10034,"ĠBun":10035,"Ġtools":10036,"Ġriding":10037,"Ġmarketing":10038,"Ġbaguette":10039,"Man":10040,"ĠLes":10041,"PDATE":10042,"uliflower":10043,"Amer":10044,"Ġsnot":10045,"ĠUP":10046,"Ġstickers":10047,"ĠSteakhouse":10048,"pack":10049,"void":10050,"ĠNote":10051,"gano":10052,"aja":10053,"Ġbothering":10054,"ĠLucky":10055,"Ġelectric":10056,"Ġaisles":10057,"Ġaggressive":10058,"-\\":10059,"Took":10060,"Ġseeds":10061,"spicy":10062,"Ġaccessible":10063,"Ġsplurge":10064,"park":10065,"itors":10066,"ĠIHOP":10067,"Ġsober":10068,"ĠOak":10069,"appropri":10070,"atta":10071,"ĠCali":10072,"ĠCOMP":10073,"ĠMars":10074,"ĠCont":10075,"Loved":10076,"Ġlamps":10077,"ussed":10078,"ĠNap":10079,"ĠRA":10080,"rumpt":10081,"nParking":10082,"Ġsubject":10083,"Ġlimo":10084,"Ġ=)":10085,"Ġcapacity":10086,"IRE":10087,"Ġfulf":10088,"onut":10089,"Ġlunchtime":10090,"isserie":10091,"Ġexclus":10092,"umpy":10093,"nDid":10094,"ĠDonuts":10095,"Ġtheaters":10096,"jacent":10097,"lists":10098,"small":10099,"Ġcord":10100,"ĠMO":10101,"uded":10102,"Ġeaters":10103,"Ġunorganized":10104,"Ġpurple":10105,"Ġstole":10106,"Ġbrie":10107,"ĠSkip":10108,"interested":10109,"Ġallergy":10110,"Ġupside":10111,"Ġchai":10112,"Ġpercent":10113,"ĠMean":10114,"ĠCalamari":10115,"USTOM":10116,"Ġquestionable":10117,"Ġescape":10118,"Ġreported":10119,"Ġrecognize":10120,"Ġoatmeal":10121,"Ġdudes":10122,"Ġlands":10123,"Ġstain":10124,"Ġkios":10125,"Ġblows":10126,"Ġhealthier":10127,"Ġepic":10128,"WHERE":10129,"Ġconcoction":10130,"atient":10131,"udo":10132,"df":10133,"iam":10134,"nels":10135,"Ġwound":10136,"ĠAcc":10137,"ĠHusband":10138,"ĠLater":10139,"Ġdedicated":10140,"Ġstiff":10141,"chie":10142,"Ġsparse":10143,"ĠFriend":10144,"Ġcrout":10145,"umbing":10146,"Ġthankfully":10147,");":10148,"Ġjus":10149,"Ġsuits":10150,"loyees":10151,"ĠRegardless":10152,"Ġbehold":10153,"still":10154,"ĠFYI":10155,"Ġpric":10156,"Ġshowers":10157,"Ġoverlooked":10158,"ĠAdditionally":10159,"Ġabsurd":10160,"Ġvirtually":10161,"Ġflower":10162,"comp":10163,"Ġive":10164,"Ġaber":10165,"ĠOH":10166,"ĠRa":10167,"Ġsigning":10168,"Ġunderstandable":10169,"Ġgrabbing":10170,"Ġsourdough":10171,"OWN":10172,"Ġcandle":10173,"Ġguaranteed":10174,"athetic":10175,"Ġdece":10176,"Ġgrey":10177,"Ġoverheard":10178,"Ġmes":10179,"Ġpainting":10180,"shirt":10181,"Ġdisrespectful":10182,"Ġdull":10183,"atics":10184,"ĠTalk":10185,"Ġcans":10186,"rare":10187,"Ġcloth":10188,"Ġcrusty":10189,"ĠBaby":10190,"ĠHost":10191,"Ġcigar":10192,"rir":10193,"ulated":10194,"ĠRub":10195,"Ġslab":10196,"nGet":10197,"Ġactivities":10198,"Ġwandering":10199,"mont":10200,"Ġentertained":10201,"ĠWaiter":10202,"Ġpromoter":10203,"Ġgracious":10204,"GG":10205,"Ġshoulders":10206,"ĠCe":10207,"ĠĠĠĠĠ":10208,"ĠDrink":10209,"ĠJersey":10210,"cles":10211,"uis":10212,"ĠId":10213,"arters":10214,"Ġshorter":10215,"Ġmarrow":10216,"Ġcorners":10217,"Ġpairing":10218,"Ġroughly":10219,"Ġlanes":10220,"ĠMas":10221,"ĠHIGH":10222,"Ġrecie":10223,"mony":10224,"Ġassigned":10225,"Ġposit":10226,"ĠEuropean":10227,"Ġnavigate":10228,"Ġkinks":10229,"ĠRO":10230,"ollar":10231,"eller":10232,"Ġbasketball":10233,"ĠLocated":10234,"VD":10235,"Ġfart":10236,"utions":10237,"ĠAhi":10238,"Ġjacket":10239,"opped":10240,"two":10241,"hens":10242,"ĠPure":10243,"Ġboots":10244,"INK":10245,"Ġatrocious":10246,"rete":10247,"Ġdrug":10248,"Ġgrind":10249,"Ġperformed":10250,"ĠDiamond":10251,"ĠBianco":10252,"250":10253,"Ġbeg":10254,"Ġfunction":10255,"Ġprim":10256,"Ġpecan":10257,"taste":10258,"Ġtent":10259,"orse":10260,"ĠLuc":10261,"Ġcircus":10262,"chata":10263,"rumptious":10264,"iots":10265,"ences":10266,"Ġsampling":10267,"Ġcovering":10268,"Ġvehicles":10269,"Ġsensitive":10270,"dara":10271,"albi":10272,"rian":10273,"Ġthanked":10274,"Ġskirt":10275,"Ġdiscl":10276,"unkin":10277,"Ġholds":10278,"Ġtaxes":10279,"Ġerr":10280,"Ġdispens":10281,"Ġsunday":10282,"ĠAlfredo":10283,"ĠGlendale":10284,"ipast":10285,"Ġadop":10286,"Ġadjacent":10287,"Ġowns":10288,"Ġseparately":10289,"Ġtelevision":10290,"ĠRidiculous":10291,"ĠTropicana":10292,"Ġhence":10293,"Ġglazed":10294,"Ġthoughts":10295,"ATION":10296,"Ġcombos":10297,"Ġbleed":10298,"ĠSchool":10299,"nReally":10300,"ĠCarolina":10301,"inner":10302,"ĠTai":10303,"ali":10304,"Ġthankful":10305,"Ġleads":10306,"Bl":10307,"gment":10308,"Ġhabit":10309,"rio":10310,"ĠShan":10311,"ĠCUSTOM":10312,"ĠOrigin":10313,"Ġpastor":10314,"ĠMarriott":10315,"Ġrandomly":10316,"ĠWA":10317,"Ġpretend":10318,"nBest":10319,"Ġvenues":10320,"ĠPHX":10321,"Ġstretch":10322,"gherita":10323,"With":10324,"iar":10325,"Ġnaked":10326,"ido":10327,"eline":10328,"ĠRoyal":10329,"Ġhalibut":10330,"gage":10331,"Ġfails":10332,"Ġdang":10333,"ĠTan":10334,"ĠCow":10335,"Ġalarm":10336,"ĠHum":10337,"ĠEnt":10338,"ĠEss":10339,"Ġtears":10340,"Ġdepends":10341,"ANK":10342,"Ġcomplicated":10343,"Ġcompetent":10344,"Ġgrooming":10345,"known":10346,"Ġbreeze":10347,"histic":10348,"ounded":10349,"Ġpromising":10350,"isters":10351,"onda":10352,"iscount":10353,"ĠRoasted":10354,"Ġtamales":10355,"ĠGyro":10356,"ĠMS":10357,"Ġmistaken":10358,"claim":10359,"Ġapartments":10360,"foam":10361,"ĠAvenue":10362,"ĠBeware":10363,"ĠBeat":10364,"Ġdepressing":10365,"Ġbuddies":10366,"Ġtube":10367,"Ġnaturally":10368,"ĠHalloween":10369,"Ġreward":10370,"etizing":10371,"Ġappalled":10372,"Ġwarmed":10373,"ĠBrown":10374,"ĠWithout":10375,"ĠElvis":10376,"ĠFROM":10377,"Two":10378,"zo":10379,"Ġtoe":10380,"ĠMod":10381,"Ġfillet":10382,"ĠCox":10383,"Ġphysical":10384,"Ġtimeshare":10385,"oe":10386,"ĠAle":10387,"unte":10388,"ĠHands":10389,"ĠAtt":10390,"SA":10391,"SO":10392,"Ġupsell":10393,"Ġcobb":10394,"Ġ---":10395,"Ġpreparing":10396,"Ġfighting":10397,"Ġbirds":10398,"ĠExtremely":10399,"ĠClearly":10400,"Hey":10401,"ĠNet":10402,"Ġsubway":10403,"arium":10404,"Ġchatted":10405,"Ġsubstance":10406,"ĠJeff":10407,"Ġintimid":10408,"cakes":10409,"Ġvari":10410,"Ġrequires":10411,"Ġmelts":10412,"ĠCompany":10413,"nChicken":10414,"Ġlunches":10415,"cuse":10416,"hab":10417,"have":10418,"Ġrab":10419,"ĠFantastic":10420,"Ġvegetarians":10421,"ĠTuesdays":10422,"ĠAWFUL":10423,"Ġmaterial":10424,"nLastly":10425,"ĠSeptember":10426,"ĠConsidering":10427,"ander":10428,"Ġcrumbs":10429,"ĠScall":10430,"Ġfiled":10431,"!\\\"\"\\":10432,"onnaise":10433,"ĠLastly":10434,"Ġluxurious":10435,"Ġarrogant":10436,"big":10437,"ĠMat":10438,"ĠYellow":10439,"Ġ101":10440,"Ġremained":10441,"Ġmisle":10442,"Ġpiano":10443,"ĠTim":10444,"ĠHE":10445,"Ġchannel":10446,"Ġslower":10447,"Ġconfront":10448,"gran":10449,"ĠSausage":10450,"ĠMartini":10451,"Ġbday":10452,"Ġlined":10453,"athered":10454,"ĠCook":10455,"ĠFo":10456,"agues":10457,"ĠGel":10458,"Ġbrag":10459,"Ġtradition":10460,"seriously":10461,"Ġrell":10462,"ĠER":10463,"Ġhorse":10464,"Ġcrusted":10465,"ĠBrus":10466,"stop":10467,"ĠMakes":10468,"Ġchest":10469,"ĠSports":10470,"Being":10471,"Everything":10472,"Ġexercise":10473,"zard":10474,"Ġrais":10475,"quality":10476,"Ġsteer":10477,"Ġgentlemen":10478,"Ġsignificantly":10479,"Ġdissapointed":10480,"Ġdoz":10481,"Ġstuffy":10482,"Another":10483,"door":10484,"iate":10485,"ja":10486,"ingo":10487,"ĠTI":10488,"ĠHy":10489,"izon":10490,"Ġhandy":10491,"balls":10492,"ĠMcC":10493,"Ġprivacy":10494,"Ġnope":10495,"ĠCre":10496,"ulty":10497,"Ġ$.":10498,"Ġflan":10499,"Ġdelivers":10500,"ĠTofu":10501,"ĠWrong":10502,"nAgain":10503,"Ġmentioning":10504,"Ġmethod":10505,"eame":10506,"ante":10507,"ĠMiss":10508,"Ġrows":10509,"OOM":10510,"Ġmasala":10511,"charge":10512,"Ġmedication":10513,"Ġalfredo":10514,"tan":10515,"Ġbake":10516,"Ġstacked":10517,"ĠBally":10518,"ĠNC":10519,"ĠDirty":10520,"Ġ28":10521,"Ġperman":10522,"Ġtreating":10523,"Ġreads":10524,"iva":10525,"Ġmilitary":10526,"Ġimmediate":10527,"Ġbabies":10528,"ĠSimple":10529,"Ġflew":10530,"bby":10531,"Ġbod":10532,"Ġsam":10533,"oses":10534,"bean":10535,"ĠStop":10536,"ĠSeattle":10537,"Ġgrandma":10538,"Ġattraction":10539,"cue":10540,"ĠMass":10541,"ĠFIN":10542,"ĠSaturdays":10543,"NOT":10544,"hmall":10545,"Ġalbeit":10546,"mbre":10547,"Ġsouven":10548,"Ġincrease":10549,"Ġrelationship":10550,"38":10551,"WOW":10552,"Ġcrushed":10553,"REM":10554,"STA":10555,"ISH":10556,"Ġattempting":10557,"Ġcircum":10558,"OSS":10559,"Ġinstallation":10560,"drink":10561,"based":10562,"Ġberry":10563,"ĠMer":10564,"ĠRi":10565,"odd":10566,"OUT":10567,"ĠUnlike":10568,"Ġconsists":10569,"ĠRooms":10570,"ĠRepublic":10571,"Ġgum":10572,"Ġpeu":10573,"Ġpackaged":10574,"Ġauthor":10575,"Ġthicker":10576,"Ġpuree":10577,"Since":10578,"orage":10579,"ĠPL":10580,"Ġleaking":10581,"Ġclar":10582,"ĠKids":10583,"ording":10584,"Ġindian":10585,"Ġslept":10586,"Ġwontons":10587,"Ġbeside":10588,"Definitely":10589,"Vis":10590,"pretty":10591,"Ġeel":10592,"Ġserviced":10593,"Ġ27":10594,"Ġaddressed":10595,"Ġregards":10596,"Ġtreatments":10597,"Ġdumped":10598,"Ġtear":10599,"Ġscrumptious":10600,"ĠBean":10601,"???\\":10602,"Ġremin":10603,"nHonestly":10604,"Ġzone":10605,"ĠQuick":10606,"nAtmosphere":10607,"Ġsouff":10608,"uous":10609,"enta":10610,"rofoam":10611,"ĠRay":10612,"bye":10613,"amba":10614,"Finally":10615,"Like":10616,"fr":10617,"nc":10618,"oi":10619,"Ġaest":10620,"ashing":10621,"Ġfruity":10622,"ĠNat":10623,"Ġeateries":10624,"ĠJungle":10625,"nNote":10626,"ification":10627,"dinner":10628,"Ġtransferred":10629,"Ġcostumes":10630,"Ġberries":10631,"IF":10632,"bab":10633,"Ġcher":10634,"Ġlatter":10635,"Ġstamp":10636,"Ġsoaking":10637,"Ġglaze":10638,"Ġhorrid":10639,"ĠWalked":10640,"ivalent":10641,"ĠLocation":10642,"za":10643,"Ġapr":10644,"irgin":10645,"ĠBle":10646,"Ġwarmer":10647,"ĠAmericanized":10648,"Ġventured":10649,"ĠOFF":10650,"IZ":10651,"asco":10652,"Ġspell":10653,"ĠHills":10654,"odge":10655,"plus":10656,"Ġcreating":10657,"Ġsubstant":10658,"Ġshooting":10659,"Ġreminisc":10660,"An":10661,"Ġfett":10662,"itude":10663,"Ġdash":10664,"Ġinappropri":10665,"ulled":10666,"Ġexcessive":10667,"Ġelderly":10668,"Thank":10669,"afe":10670,"Ġthirty":10671,"Ġ300":10672,"Ġmole":10673,"nLe":10674,"Ġspeaks":10675,"Ġutterly":10676,"Ġsehr":10677,"bell":10678,"Ġlaying":10679,"Ġunappetizing":10680,"Ġrotten":10681,"owned":10682,"Ġstrang":10683,"Ġcomplimented":10684,"ĠYears":10685,"Ġvideos":10686,"Ġaddicted":10687,"Ġbizarre":10688,"Ġly":10689,"rove":10690,"Ġneon":10691,"ĠBob":10692,"ques":10693,"ĠGen":10694,"nThese":10695,"eeee":10696,"ĠSeason":10697,"Ġbrewed":10698,"Ġprofit":10699,"Ġtoddler":10700,"Ġpil":10701,"Ġspan":10702,"Ġfills":10703,"Ġranging":10704,"Ġcroissants":10705,"Ġdismiss":10706,"Bad":10707,"Ġlotion":10708,"elle":10709,"ĠArea":10710,"ht":10711,"uters":10712,"add":10713,"Ġcajun":10714,"Ġchandel":10715,"nSe":10716,"Ġdrops":10717,"Ġoutdoors":10718,"Ġremotely":10719,"ĠPersonally":10720,"rain":10721,"isch":10722,"Ġlb":10723,"uites":10724,"Ġdevoured":10725,"rimald":10726,"iner":10727,"Ġflex":10728,"aco":10729,"Ġyr":10730,"ĠGoo":10731,"Ġexceeded":10732,"ĠTrip":10733,"ĠSOME":10734,"Ġloads":10735,"ĠHoly":10736,"browns":10737,"Ġcucumbers":10738,"Ġcheerful":10739,"NOW":10740,"ĠAside":10741,"ested":10742,"Ġcravings":10743,"nWas":10744,"Ġannual":10745,"ĠJohnny":10746,"Ġredeem":10747,"Ġodor":10748,"Its":10749,"wan":10750,"utive":10751,"Ġfinest":10752,"Ġbold":10753,"ĠPotatoes":10754,"ĠBanana":10755,"Ġmap":10756,"Ġlink":10757,"anity":10758,"omegran":10759,"ĠCons":10760,"ctor":10761,"Ġseparated":10762,"Ġgarnish":10763,"VS":10764,"ĠTasty":10765,"ĠBR":10766,"ĠBirthday":10767,"ĠBased":10768,"istas":10769,"ĠKa":10770,"Ġexplains":10771,"ennel":10772,"Ġblanket":10773,"bles":10774,"sk":10775,"western":10776,"Ġyea":10777,"their":10778,"Ġproduction":10779,"Ġepis":10780,"ĠSafeway":10781,"Ġguitar":10782,"ĠVEGAS":10783,"inge":10784,"estic":10785,"ĠLot":10786,"Ġapplic":10787,"Ġresidents":10788,"Ġhosts":10789,"ĠUniversity":10790,"Ġapologizing":10791,"ige":10792,"Ġyours":10793,"ĠLess":10794,"Ġbrake":10795,"Ġcleaners":10796,"RICE":10797,"Ġpillow":10798,"sequ":10799,"Ġframes":10800,"ĠPenn":10801,"Ġsteakhouses":10802,"Ġcere":10803,"Ġcockro":10804,"Ġdelivering":10805,"Ġboneless":10806,"Ġfortune":10807,"Ġspiciness":10808,"ĠTasted":10809,"Ġpleasing":10810,"lights":10811,"31":10812,"ĠLONG":10813,"together":10814,"Ġpointing":10815,"Ġbride":10816,"ĠQuite":10817,"ĠCHE":10818,"Ġfashioned":10819,"Ġresolve":10820,"Ġreschedule":10821,"yum":10822,"Ġhibachi":10823,"owers":10824,"Ġcann":10825,"izen":10826,"Ġempan":10827,"Ġidiots":10828,"Ġdozens":10829,"Ġrenew":10830,"Ġthro":10831,"ĠAD":10832,"Ġartific":10833,"Ġposting":10834,"Ġdemanded":10835,"iantly":10836,"ĠToy":10837,"ĠRic":10838,"assy":10839,"ĠShops":10840,"Ġvolunte":10841,"Ġpistachio":10842,"Ġcappuccino":10843,"ĠBouchon":10844,"ĠHarr":10845,"Ġclut":10846,"Ġestim":10847,"Ġfaith":10848,"Ġcigarettes":10849,"American":10850,"YY":10851,"eye":10852,"ooper":10853,"Ġresturant":10854,"Ġevenings":10855,"Ġfreeway":10856,"Ġenthusiastic":10857,"ĠRecommend":10858,"Ġdiced":10859,"ĠCard":10860,"nTr":10861,"ĠDown":10862,"ometown":10863,"eez":10864,"Ġrenting":10865,"Ġtouching":10866,"ĠNachos":10867,"aws":10868,"Ġkicker":10869,"Ġcompanions":10870,"Yeah":10871,"lb":10872,"hem":10873,"Ġbrilliant":10874,"llow":10875,"Ġwhip":10876,"ĠMIN":10877,"ĠHo":10878,"Ġbathtub":10879,"Ġcelebrity":10880,"Ġstrike":10881,"Ġindependent":10882,"Last":10883,"gonz":10884,"pic":10885,"Ġtact":10886,"Ġpowd":10887,"stars":10888,"Ġoverfl":10889,"\\\"\")":10890,"oconut":10891,"ĠASAP":10892,"Ġsophistic":10893,"rice":10894,"Ġnons":10895,"Ġmeets":10896,"eli":10897,"ĠCour":10898,"Ġroo":10899,"Ġkatsu":10900,"Ġexpressed":10901,"Ġacid":10902,"Ġfeelings":10903,"Ġcountless":10904,"Ġultimate":10905,"Com":10906,"ĠTold":10907,"Ġexpense":10908,"Ġdisag":10909,"ective":10910,"Ġextras":10911,"Ġinsulting":10912,"nRoom":10913,"ĠSmash":10914,"Ġconditioner":10915,"nEveryone":10916,"Only":10917,"Ġdrizzled":10918,"Vegas":10919,"pedi":10920,"Ġnotified":10921,"Ġquir":10922,"Ġcircle":10923,"gonzola":10924,"RR":10925,"Ġwandered":10926,"Ġworries":10927,"Ġdemean":10928,"Ġimpatient":10929,"Ġstylists":10930,"ĠWalking":10931,"ĠDecor":10932,"ĠImperial":10933,"lava":10934,"otal":10935,"ĠPE":10936,"Ġtee":10937,"apping":10938,"Ġspotty":10939,"nPer":10940,"Ġhonesty":10941,"Ġtrusted":10942,"Ġcatching":10943,"33":10944,"inate":10945,"Ġmud":10946,"ĠTur":10947,"ados":10948,"astically":10949,"ĠVdara":10950,"ervation":10951,"Ġjuke":10952,"Ġfailure":10953,"Ġpuppies":10954,"ĠEventually":10955,"Le":10956,"ĠAnt":10957,"ĠMast":10958,"Ġtheres":10959,"Ġnostal":10960,"Ġdrinker":10961,"existent":10962,"Ġignor":10963,"Ġautomatic":10964,"ĠDistrict":10965,"pa":10966,"Ġstingy":10967,"ĠCaf":10968,"Ġovernight":10969,"ĠED":10970,"Ġshabby":10971,"Ġguessed":10972,"Ġcurly":10973,"ĠPlay":10974,"Ġpetite":10975,"ĠEXCE":10976,"Who":10977,"Ġupbeat":10978,"Ġcloud":10979,"ĠAmazon":10980,"crowded":10981,"Ġfudge":10982,"Ġyuck":10983,"unless":10984,"Ġarts":10985,"Ġhanding":10986,"Ġrunner":10987,"shirts":10988,"Ġmagical":10989,"Ġobsc":10990,"Ġdragged":10991,"ĠMiddle":10992,"Ġteacher":10993,"uled":10994,"Ġcardio":10995,"ARN":10996,"Ġtape":10997,"Ġtests":10998,"Ġextraordinary":10999,"ĠCat":11000,"ĠColl":11001,"Ġdifferently":11002,"Ġstring":11003,"Ġlowest":11004,"Ġwarehouse":11005,"LOVE":11006,"Seriously":11007,"mers":11008,"yard":11009,"Ġshipped":11010,"Ġtricks":11011,"Ġairy":11012,"Ġrefilling":11013,"Ġproceeds":11014,"ĠOutback":11015,"Ġbachelor":11016,"Ġpuffs":11017,"yu":11018,"almost":11019,"Ġmystery":11020,"ĠBa":11021,"ĠFRI":11022,"\\\"\"?":11023,"Ġaward":11024,"ĠTrue":11025,"Ġpaella":11026,"Ġmimosa":11027,"Ġspirit":11028,"Ġethnic":11029,"ĠMetro":11030,"Ġnostalg":11031,"Ġtune":11032,"ridge":11033,"Ġprimary":11034,"Ġinstance":11035,"Ġchimichan":11036,"Ġhollandaise":11037,"otally":11038,"Ġheater":11039,"Ġalive":11040,"Ġalert":11041,"Ġracks":11042,"ĠPLEASE":11043,"Ġcauliflower":11044,"Ġdear":11045,"stein":11046,"ĠPhil":11047,"Ġunbelievably":11048,"Ġovercharged":11049,"ĠWhether":11050,"ĠTOO":11051,"Ġthri":11052,"ĠHas":11053,"ĠEric":11054,"Ġ500":11055,"Ġpots":11056,"Ġsno":11057,"usive":11058,"Ġlies":11059,"ĠNails":11060,"ĠFind":11061,"Ġexposed":11062,"!!!!!!!":11063,"Ġpassable":11064,"Ġexperiencing":11065,"ĠFront":11066,"Ġbleu":11067,"nTHE":11068,"Ġcroutons":11069,"TA":11070,"erving":11071,"ĠYep":11072,"ertz":11073,"ĠIMO":11074,"Ġawe":11075,"Ġhaw":11076,"ĠAc":11077,"Ġlifet":11078,"Ġsearched":11079,"Ġpasty":11080,"Ġfallen":11081,"ĠSugar":11082,"Ġtremend":11083,"Ġringing":11084,"Ġindustrial":11085,"Ġmirrors":11086,"Ġchallenging":11087,"bal":11088,"Ġchannels":11089,"ĠDoesn":11090,"By":11091,"bies":11092,"case":11093,"nSal":11094,"Fantastic":11095,"oms":11096,"Ġunits":11097,"Ġfinds":11098,"rolls":11099,"ufact":11100,"bucks":11101,"Ġbeets":11102,"ĠBarb":11103,"ĠCock":11104,"uds":11105,"nCom":11106,"ĠThomas":11107,"shit":11108,"ĠKinda":11109,"Ġslimy":11110,"oice":11111,"verted":11112,"Ġthirsty":11113,"Ġrant":11114,"ĠDC":11115,"Ġamuse":11116,"Ġblackened":11117,"Ġgrandmother":11118,"Ġleading":11119,"Ġoverlook":11120,"believable":11121,"ĠIced":11122,"ĠGrimald":11123,"Ġenhan":11124,"standard":11125,"Ġofficially":11126,"Ġcircumst":11127,"Ġdil":11128,"Ġkits":11129,"Ġshy":11130,"ĠGiven":11131,"ĠRuss":11132,"Ġbrush":11133,"Ġpartially":11134,"Ġomelets":11135,"Ġgroomer":11136,"Ġmarshmall":11137,"Ġfaux":11138,"Ġghost":11139,"Ġsore":11140,"Ġrye":11141,"ĠNutella":11142,"tyard":11143,"Ġshave":11144,"Ġquicker":11145,"Ġbreakfasts":11146,"ĠReview":11147,"Ġintent":11148,"Here":11149,"rick":11150,"Ġpairs":11151,"ĠTaste":11152,"ĠMor":11153,"Ġshiny":11154,"Ġslam":11155,"Ġbusboy":11156,"Ġaccordingly":11157,"etizers":11158,"Ġsnotty":11159,"Ġspotted":11160,"ĠOwner":11161,"Ġcrammed":11162,"Ġtvs":11163,"Although":11164,"waitress":11165,"Ġmerely":11166,"Ġconcrete":11167,"ĠAnyone":11168,"ĠMcD":11169,"Ġfryer":11170,"Ġweights":11171,"ĠHarris":11172,"Ġ!\\":11173,"inness":11174,"Ġcush":11175,"Ġmort":11176,"enches":11177,"Ġ:/":11178,"Ġsmelly":11179,"ITE":11180,"ĠKevin":11181,"Ġsucculent":11182,"ĠSlow":11183,"works":11184,"acker":11185,"ifying":11186,"milk":11187,"Ġlifetime":11188,"120":11189,"cuts":11190,"mble":11191,"Ġpoop":11192,"enne":11193,"ĠPick":11194,"ĠFed":11195,"Ġquiche":11196,"Ġtransl":11197,"Ġdigress":11198,"Ġembarrassing":11199,"ĠSurprise":11200,"Ġtater":11201,"struct":11202,"Ġsauna":11203,"Ġteach":11204,"Ġbeforehand":11205,"Ġpops":11206,"Ġlashes":11207,"Ġ:(\\":11208,"!!!!!!!!!!!!!!!!":11209,"ĠBass":11210,"Nothing":11211,"Ġmicro":11212,"ĠBetween":11213,"Ġultra":11214,"Ġactivity":11215,"Ġdeduct":11216,"heart":11217,"ĠStrawberry":11218,"ucing":11219,"Ġremains":11220,"Ġfabric":11221,"Ġjumping":11222,"Ġmilkshakes":11223,"Ġcotton":11224,"ji":11225,"lyn":11226,"Ġstorage":11227,"Ġvra":11228,"Ġroommate":11229,"obo":11230,"Ġregisters":11231,"ĠWouldn":11232,"Ġpinch":11233,"Ġcontrast":11234,"ĠRainbow":11235,"ĠVelvet":11236,"Ġprimarily":11237,"Ġwore":11238,"Ġwasher":11239,"Ġyo":11240,"etta":11241,"Ġplat":11242,"ĠDu":11243,"amboo":11244,"Ġversus":11245,"Ġbiased":11246,"ĠAirways":11247,"Ġmaintain":11248,"Ġreminiscent":11249,"kas":11250,"arin":11251,"Ġstools":11252,"Ġliver":11253,"Ġkobe":11254,"Ġwhats":11255,"ggie":11256,"Ġsplitting":11257,"Ġdisplays":11258,"Ġscheduling":11259,"Ġprawns":11260,"She":11261,"pre":11262,"would":11263,"Ġbutcher":11264,"Ġdrool":11265,"Ġnewsp":11266,"Ġmission":11267,"nGot":11268,"Ġmulti":11269,"omegranate":11270,"Ġcave":11271,"actus":11272,"Ġreduced":11273,"Ġreplacing":11274,"Ġequivalent":11275,"ACT":11276,"Ġchunky":11277,"Ġindulge":11278,"Ġtruffles":11279,"rate":11280,"Ġtread":11281,"atable":11282,"Ġyrs":11283,"iration":11284,"Ġsugary":11285,"ĠDunkin":11286,"rug":11287,"Ġinconvenient":11288,"ĠBrian":11289,"ĠSimply":11290,"thanks":11291,"Ġmol":11292,"Ġnewest":11293,"Ġaccompl":11294,"ĠRoberto":11295,"Ġsurvive":11296,"Ġpositives":11297,"Now":11298,"cup":11299,"Ġaunt":11300,"Ġtie":11301,"ĠNic":11302,"Ġprinc":11303,"ĠRun":11304,"Ġwherever":11305,"nBoth":11306,"Ġelement":11307,"Ġverify":11308,"Ġargument":11309,"nOkay":11310,"aited":11311,"Ġbin":11312,"Ġstressed":11313,"ĠDry":11314,"ĠEin":11315,"ĠEye":11316,"ĠWhenever":11317,"Ġstere":11318,"Ġdrawn":11319,"ĠOverpriced":11320,"Ġfortun":11321,"Ġcubes":11322,"OD":11323,"Ġcough":11324,"Ġ1000":11325,"Ġlabeled":11326,"ONEY":11327,"ĠSecurity":11328,"ping":11329,"ĠBank":11330,"ĠWei":11331,"Ġdisgr":11332,"Ġproved":11333,"Ġ26":11334,"ĠJenn":11335,"ASH":11336,"Ġunsure":11337,"MY":11338,"Ġmere":11339,"ĠDD":11340,"Ġfillings":11341,"Ġgenius":11342,"Ġpains":11343,"Ġdoughnuts":11344,"ĠExperience":11345,"ĠNon":11346,"ĠFurther":11347,"ĠWeird":11348,"ĠLive":11349,"Ġcomputers":11350,"Ġhamburgers":11351,"Ġinappropriate":11352,"mic":11353,"ĠSy":11354,"Ġshrugg":11355,"Ġwalnut":11356,"Ġcalor":11357,"ĠExpect":11358,"ĠValentine":11359,"34":11360,"nQu":11361,"Ġseries":11362,"ĠPass":11363,"ĠFU":11364,"ĠKFC":11365,"Ġhorror":11366,"ĠGrille":11367,"cano":11368,"Ġinflu":11369,"Ate":11370,"SP":11371,"Ġcider":11372,"Ġstair":11373,"ĠCVS":11374,"ruary":11375,"Ġinquire":11376,"Ġneglected":11377,"Ġrelleno":11378,"icies":11379,"oty":11380,"ĠLady":11381,"Ġcarb":11382,"Ġcarries":11383,"Ġcounting":11384,"Ġguns":11385,"AG":11386,"pass":11387,"ris":11388,"Ġdj":11389,"ĠGi":11390,"Ġseek":11391,"medium":11392,"loaded":11393,"Ġlegal":11394,"Ġstrictly":11395,"But":11396,"phew":11397,"Ġmanufact":11398,"ĠDev":11399,"ĠServed":11400,"Ġhearts":11401,"Ġattendants":11402,"Ġdissatisfied":11403,"Ġhistor":11404,"ĠCUSTOMER":11405,"erd":11406,"ĠIch":11407,"isan":11408,"eturn":11409,"ĠWag":11410,"ĠHertz":11411,"orthern":11412,"Ġoffensive":11413,"ĠAsh":11414,"Ġavoiding":11415,"ĠImagine":11416,"Ġcompensate":11417,"Ġassemb":11418,"HA":11419,"Ġtask":11420,"Ġlbs":11421,"Ġnine":11422,"ĠThings":11423,"ĠBathroom":11424,"ĠDVD":11425,"avorite":11426,"Ġaroma":11427,"Ġshrimps":11428,"ĠiPad":11429,"Ġnurses":11430,"Ġnause":11431,"ĠCut":11432,"ĠHospit":11433,"ĠFAR":11434,"issue":11435,"umbling":11436,"Ġforgetting":11437,"ĠJean":11438,"ĠStudio":11439,"oto":11440,"ĠPF":11441,"Ġoverd":11442,"ĠVict":11443,"Ġdiscussed":11444,"Ġcolleagues":11445,"Ġescorted":11446,"ĠClassic":11447,"Ġmug":11448,"ĠServers":11449,"ossibly":11450,"Ġscramble":11451,"Ġniece":11452,"adian":11453,"ĠCam":11454,"ĠDim":11455,"Ġconsideration":11456,"rified":11457,"Ġcrackers":11458,"yyyy":11459,"Ġrenovation":11460,"Ġhyg":11461,"inn":11462,"ĠSAL":11463,"ĠWatch":11464,"ĠIns":11465,"Ġsticker":11466,"ĠAnth":11467,"Ġarranged":11468,"Ġbento":11469,"ĠSignature":11470,"ĠMiso":11471,"icans":11472,"ĠSounds":11473,"ĠCD":11474,"Ġpreface":11475,"Ġsurface":11476,"Ġinfection":11477,"ception":11478,"ĠAirport":11479,"cool":11480,"Ġgumbo":11481,"lee":11482,"Ġcompon":11483,"aples":11484,"Ġacoust":11485,"Ġthinly":11486,"Ġdistracted":11487,"ongrass":11488,"Ġartificial":11489,"Ġtha":11490,"ĠWonderful":11491,"Ġkorean":11492,"olone":11493,"ĠKNOW":11494,"Ġmayonnaise":11495,"Ġpersonnel":11496,"nCon":11497,"Ġdistrict":11498,"Ġspeedy":11499,"Ġbulgogi":11500,"Ġfuel":11501,"didn":11502,"Ġepisode":11503,"rical":11504,"van":11505,"Ġwir":11506,"abulous":11507,"ĠCash":11508,"ĠRather":11509,"ĠRuth":11510,"ptown":11511,"Ġstruck":11512,"maid":11513,"Ġsizz":11514,"Ġmode":11515,"leased":11516,"Ġspinning":11517,"ĠBYOB":11518,"green":11519,"Ġhefty":11520,"Ġkiss":11521,"oused":11522,"ĠLaw":11523,"Ġbilled":11524,"Ġswall":11525,"pective":11526,"ĠEXTREM":11527,"Ġpricier":11528,"lunch":11529,"Ġpou":11530,"Ġpitch":11531,"nDuring":11532,"Ġfreshest":11533,"etizer":11534,"Ġvomit":11535,"Ġshrugged":11536,"ington":11537,"Ġstream":11538,"Ġheight":11539,"ĠOm":11540,"Ġartic":11541,"Ġbiggie":11542,"Ġpicks":11543,"nCame":11544,"Ġurban":11545,"quisite":11546,"ynam":11547,"Ġloo":11548,"anti":11549,"Ġcoated":11550,"ĠValet":11551,"Ġrim":11552,"ifer":11553,"Ġpayed":11554,"Ġspeakers":11555,"Ġexhibits":11556,"ĠBelg":11557,"Ġnephew":11558,"Ġmochi":11559,"ĠWalgreens":11560,"Ġcandles":11561,"Ġfrequented":11562,"Ġoperated":11563,"ĠWorks":11564,"Ġfortunate":11565,"59":11566,"tain":11567,"eras":11568,"ĠWar":11569,"ĠMight":11570,"Ġfeast":11571,"nHaving":11572,"Ġartwork":11573,"chanal":11574,"Ġventil":11575,"Ġarrangement":11576,"cus":11577,"kets":11578,"imbur":11579,"ĠYELP":11580,"Ġpolicies":11581,"Ġswiss":11582,"ĠTHEM":11583,"Ġhyped":11584,"regular":11585,"Ġbrowsing":11586,"Ġaccompanying":11587,"Ġthroat":11588,"eep":11589,"lement":11590,"Ġhiring":11591,"ĠHolid":11592,"ĠYay":11593,"Ġphilly":11594,"nHighly":11595,"ĠWasn":11596,"Ġcowboy":11597,"Ġbasement":11598,"Ġsouthwest":11599,"ĠBartender":11600,"!.":11601,"iop":11602,"atosphere":11603,"hattan":11604,"Ġexper":11605,"Ġsheer":11606,"Ġafterward":11607,"nWait":11608,"notch":11609,"Ġchewing":11610,"visit":11611,"ĠEnough":11612,"valu":11613,"EM":11614,"Ġ.....":11615,"adia":11616,"Ġfrag":11617,"Ġwalkway":11618,"Ġurge":11619,"Ġdispos":11620,"gate":11621,"ya":11622,"Ġbenches":11623,"Ġintegr":11624,"Ġspeaker":11625,"Ġboxed":11626,"Ġmotiv":11627,"ĠDanny":11628,"Ġapt":11629,"ori":11630,"Ġgimm":11631,"adies":11632,"ĠAp":11633,"type":11634,"Ġpepp":11635,"Ġvisual":11636,"ĠUSA":11637,"Ġvoicemail":11638,"Ġincorrectly":11639,"Ġcarpaccio":11640,"Ġjerky":11641,"Ġnuggets":11642,"formed":11643,"Ġbol":11644,"Ġstinks":11645,"ĠSanta":11646,"Ġsorely":11647,"Ġcob":11648,"Ġdownfall":11649,"arest":11650,"Ġhairs":11651,"Ġcounted":11652,"ĠWithin":11653,"ĠGuinness":11654,"ardens":11655,"Ġshaking":11656,"Ġutil":11657,"melier":11658,"Ġgrape":11659,"Ġrudeness":11660,"Hands":11661,"Ġoutf":11662,"Ġcomparing":11663,"Ġpartial":11664,"Ġdepth":11665,"Ġcontacts":11666,"ĠYogurt":11667,"ĠPeaks":11668,"OINT":11669,"Ġremed":11670,"Ġuptown":11671,"cking":11672,"assuming":11673,"Ġbusier":11674,"Ġpays":11675,"Ġconditions":11676,"ĠFlor":11677,"Ġconsumed":11678,"Ġelectronic":11679,"BS":11680,"test":11681,"ĠPres":11682,"!!)":11683,"Ġslider":11684,"ĠJes":11685,"oooooooo":11686,"nRec":11687,"Ġsituated":11688,"Ġsavings":11689,"iltmore":11690,"nStill":11691,"Ġdesperately":11692,"Ġinvestig":11693,"ĠJuicy":11694,"Ġsevere":11695,"everything":11696,"Ġoriented":11697,"bird":11698,"Ġhush":11699,"ĠMONEY":11700,"ĠNOW":11701,"ĠQues":11702,"Ġpopping":11703,"ASS":11704,"ĠIndia":11705,"ĠNobu":11706,"Ġuninspired":11707,"rays":11708,"taking":11709,"ĠSangria":11710,"Ġcoating":11711,"ĠRick":11712,"ĠStone":11713,"THE":11714,"Ġbottomless":11715,"Ġanticipated":11716,"Ġgesture":11717,".).":11718,"GR":11719,"make":11720,"okes":11721,"Ġtipping":11722,"wear":11723,"ĠReuben":11724,"ĠGras":11725,"ĠGoing":11726,"Ġbegins":11727,"Ġoddly":11728,"Ġbrioche":11729,"ĠWHY":11730,"%.":11731,"En":11732,"ĠOme":11733,"Ġcaffe":11734,"ĠChop":11735,"ĠUh":11736,"ĠTHEN":11737,"Ġcreativity":11738,"Ġdelighted":11739,"ĠMichel":11740,"Ġquesadillas":11741,"Ġlaws":11742,"Ġcompensation":11743,"Ġperspective":11744,"Ġcuticles":11745,"lling":11746,"ĠTart":11747,"Ġreimbur":11748,"Ġtik":11749,"oster":11750,"Ġscoops":11751,"Ġsandwhich":11752,"Ġclubbing":11753,"Ġfois":11754,"Ġtreasure":11755,"Ġcomfortably":11756,"Ġlanded":11757,"ĠPapa":11758,"Ġsucceed":11759,"super":11760,"Ġudon":11761,"Ġuncle":11762,"Ġguards":11763,"Ġblamed":11764,"Ġvision":11765,"ensed":11766,"burg":11767,"Ġfireplace":11768,"ĠTender":11769,"Ġdram":11770,"blem":11771,"ĠRoast":11772,"ĠBEWARE":11773,"Ġdesigns":11774,"Ġsporting":11775,"dry":11776,"half":11777,"Ġflood":11778,"Ġlocate":11779,"Ġhorrific":11780,"ordered":11781,"Ġwheels":11782,"nBeing":11783,"eresting":11784,"Ġfloat":11785,"Are":11786,"Ste":11787,"va":11788,"Ġplug":11789,"ĠLat":11790,"Ġcru":11791,"Ġdire":11792,"Ġcommit":11793,"ĠSTARS":11794,"Ġcracker":11795,"Ġrelief":11796,"Ġtraveled":11797,"ĠFebruary":11798,"riracha":11799,"Having":11800,"rispy":11801,"isions":11802,"acamole":11803,"idently":11804,"alling":11805,"Ġouts":11806,"ĠBusiness":11807,"ĠCro":11808,"Ġscattered":11809,"Ġflavoring":11810,"Ġmatched":11811,"Ġborderline":11812,"ĠMSG":11813,"600":11814,"Ġlec":11815,"ĠWANT":11816,"Ġalike":11817,"ilia":11818,"Ġsuis":11819,"Ġbacks":11820,"ĠDR":11821,"ĠGabi":11822,"Ġdiab":11823,"rences":11824,"Ġpolenta":11825,"Ġnetwork":11826,"ĠBeatles":11827,"Ġdisagree":11828,"yn":11829,"Ġsons":11830,"Ġrely":11831,"Ġchaos":11832,"beef":11833,"Ġfaced":11834,"Ġtrainer":11835,"Ġsmoothly":11836,"Ġilleg":11837,"Ġsung":11838,"eral":11839,"Ġproport":11840,"rapped":11841,"Ġpeel":11842,"Ġslush":11843,"Ġ48":11844,"ĠStick":11845,"Ġimage":11846,"Ġobject":11847,"Ġnacho":11848,"ĠCOLD":11849,"Ġrustic":11850,"ĠWood":11851,"ĠBoo":11852,"Ġwaist":11853,"Ġprob":11854,"Ġveter":11855,"Ġreduction":11856,"Ġviewing":11857,"Ġaccommodated":11858,"Ġcaprese":11859,"Ġmeds":11860,"Ġcommunicate":11861,"BB":11862,"np":11863,"Ġfax":11864,"ĠSuites":11865,"resp":11866,"andoor":11867,"ĠEmer":11868,"Ġcompelled":11869,"mentioned":11870,"ĠHeaven":11871,"Ġimpl":11872,"ĠThats":11873,"ords":11874,"Ġdevice":11875,"Ġstreng":11876,"Ġphysically":11877,"Ġclimbing":11878,"hob":11879,"ĠNugg":11880,"Ġcoord":11881,"Ġcrown":11882,"print":11883,"Ġhumid":11884,"Ġsource":11885,"nUpdate":11886,"Ġcompete":11887,"Ġgallo":11888,"ĠSwiss":11889,"Ġdetermined":11890,"ena":11891,"Ġgag":11892,"etc":11893,"asts":11894,"abe":11895,"ĠCLE":11896,"Ġchur":11897,"ĠHead":11898,"ĠKung":11899,"ĠUlt":11900,"OOR":11901,"Ġsuffer":11902,"Ġmedicine":11903,"Ġpenne":11904,"ĠGrimaldi":11905,"akers":11906,"Ġsufficient":11907,"Ġbaristas":11908,"Ġblat":11909,"Ġhungover":11910,"Ġunsatisfied":11911,"ĠApplebee":11912,"Ġweekdays":11913,"Ġnovelty":11914,"ĠEXTREMELY":11915,"dled":11916,"Ġwtf":11917,"argot":11918,"Ġinnov":11919,"ĠPut":11920,"ĠFest":11921,"ĠDM":11922,"erienced":11923,"ĠYelper":11924,"week":11925,"xtures":11926,"ĠBeans":11927,"ologist":11928,"Ġantipast":11929,"hips":11930,"lasses":11931,"orail":11932,"Ġfriendliness":11933,"Ġacqu":11934,"Ġholy":11935,"Ġrecognized":11936,"stickers":11937,"Ġsalesperson":11938,"Ġarchitecture":11939,"FECT":11940,"bro":11941,"Ġowe":11942,"isty":11943,"Ġgan":11944,"Ġgang":11945,"osis":11946,"ĠLisa":11947,"Ġtepp":11948,"need":11949,"ĠUPS":11950,"Ġrequesting":11951,"FORE":11952,"Please":11953,"ĠTire":11954,"Ġchipped":11955,"iger":11956,"Ġchap":11957,"ĠKnow":11958,"inoa":11959,"Ġsnag":11960,"Ġcrabs":11961,"ĠBrook":11962,"Ġindoors":11963,"COM":11964,"Probably":11965,"hable":11966,"asing":11967,"Ġroach":11968,"ĠDont":11969,"Ġfluke":11970,"nPlus":11971,"Ġcondiment":11972,"Ġchildhood":11973,"ĠCompletely":11974,"Ġformal":11975,"OSED":11976,"ĠRamsey":11977,"MENT":11978,"site":11979,"Ġic":11980,"Ġwo":11981,"Ġther":11982,"iser":11983,"ĠTeriyaki":11984,"Ġsolo":11985,"ĠFORE":11986,"ĠOJ":11987,"ĠRiver":11988,"Ġsmack":11989,"ĠAlbert":11990,"Ġtalks":11991,"Ġhuh":11992,"noisse":11993,"ĠForum":11994,"aneer":11995,"Ġtouches":11996,"Ġscenery":11997,"Overpriced":11998,"Ġfriendlier":11999,"05":12000,"kind":12001,"tip":12002,"ĠIl":12003,"Ġgoal":12004,"iction":12005,"Ġdumpling":12006,"Ġkicking":12007,"flower":12008,"ĠUNLV":12009,"Ġassorted":12010,"Ġjumbo":12011,"Ġchilly":12012,"Ġflakes":12013,"Ġcurries":12014,"Ġsnap":12015,"Ġsnobby":12016,"ĠUnited":12017,"Ġnegatives":12018,"ĠPei":12019,"ĠTryst":12020,"Ġhashbrowns":12021,"ĠGetting":12022,"Ġmacarons":12023,"ĠDiner":12024,"ĠChampaign":12025,"Ġjourney":12026,"school":12027,"Ġmisleading":12028,"went":12029,"atos":12030,"Ġnational":12031,"Ġren":12032,"Ġloan":12033,"ĠFL":12034,"Ġtastier":12035,"Ġadore":12036,"price":12037,"Ġstarbucks":12038,"edia":12039,"RED":12040,"ĠTHEIR":12041,"Ġloyalty":12042,"ĠSpinach":12043,"Ġsophisticated":12044,"Ġmath":12045,"Ġwhites":12046,"ĠOP":12047,"ĠRyan":12048,"Ġconfit":12049,"Ġseasonings":12050,"nLong":12051,"Ġtexting":12052,"rolled":12053,"ĠWHO":12054,"Ġmoderately":12055,"ĠTruly":12056,"mand":12057,"rot":12058,"Ġdug":12059,"Ġflor":12060,"ĠJam":12061,"nAdd":12062,"Ġgrumpy":12063,"ĠUptown":12064,"Ġhandic":12065,"ĠForget":12066,"ĠSuite":12067,"ĠCountry":12068,"37":12069,"Ġfait":12070,"Ġoverhead":12071,"Ġgranted":12072,"Ġrealizing":12073,"-)":12074,"Sc":12075,"ieux":12076,"Ġcoverage":12077,"nBecause":12078,"ĠThought":12079,"ĠBEFORE":12080,"Ġintroduce":12081,"Ġtanning":12082,"Ġrainbow":12083,"ĠMeanwhile":12084,"Would":12085,"eh":12086,"ĠSing":12087,"ĠAss":12088,"ĠMur":12089,"ĠCamp":12090,"udging":12091,"Ġhotter":12092,"Ġemphas":12093,"Ġlabel":12094,"Ġdrawback":12095,"APP":12096,"Ġteenagers":12097,"backs":12098,"take":12099,"asis":12100,"Ġhats":12101,"Ġheap":12102,"Ġplumbing":12103,"ĠNick":12104,"ĠFu":12105,"Ġpron":12106,"imb":12107,"Ġprec":12108,"ĠJalap":12109,"Ġmeetings":12110,"ĠFlat":12111,"Ġsurroundings":12112,"Ġdreams":12113,"Ġsenior":12114,"filled":12115,"Ġgates":12116,"ucson":12117,"Ġstylish":12118,"ĠChang":12119,"Ġceremony":12120,"PE":12121,"could":12122,"ea":12123,"lol":12124,"Ġaka":12125,"Ġoxtail":12126,"another":12127,"ĠTha":12128,"Ġreve":12129,"Ġuber":12130,"Ġsaut":12131,"ĠBat":12132,"ĠVis":12133,"Ġsalami":12134,"theless":12135,"imply":12136,"Ġinstit":12137,"Ġcaliber":12138,"ĠMario":12139,"ĠTravel":12140,"Ġregistration":12141,"itters":12142,"Ġmount":12143,"alog":12144,"ĠWolf":12145,"ĠPig":12146,"Ġcompassion":12147,"ensions":12148,"month":12149,"Ġredo":12150,"Ġclearance":12151,"Ġperforming":12152,"Ġanti":12153,"800":12154,"Ġsigh":12155,"Ġtoy":12156,"ĠIron":12157,"Ġpoo":12158,"ĠTen":12159,"urb":12160,"ĠCave":12161,"ĠFore":12162,"Ġwalnuts":12163,"Ġenjoys":12164,"ĠFrance":12165,"casino":12166,"Ġoccurred":12167,"Ġbourbon":12168,"ĠMignon":12169,"ĠHD":12170,"ctions":12171,"igent":12172,"raut":12173,"umes":12174,"Ġsidewalk":12175,"ĠBland":12176,"Ġprofessionals":12177,"Ġtextures":12178,"Ġcomforting":12179,"Ġpatronize":12180,"Ġmagazine":12181,"Ġtitle":12182,"Ġugh":12183,"geon":12184,"Ġmonkey":12185,"Ġtorta":12186,"ĠCrazy":12187,"ĠVerizon":12188,"nAbout":12189,"nis":12190,"Ġfoul":12191,"ases":12192,"esque":12193,"Ġamate":12194,"Ġconfidence":12195,"Ġcritical":12196,"Ġappropriately":12197,"Ġvendor":12198,"Ġrudest":12199,"Big":12200,"Per":12201,"Ġtaught":12202,"Ġinner":12203,"Ġhomey":12204,"Ġacrobatics":12205,"ĠPizzeria":12206,"ĠGelato":12207,"ĠFOREVER":12208,"rano":12209,"anic":12210,"arth":12211,"ftop":12212,"beer":12213,"ancing":12214,"Ġhorchata":12215,"Ġassure":12216,"ccer":12217,"ONT":12218,"ĠMondays":12219,"Ġengaging":12220,"ĠSprouts":12221,"Ġcharacters":12222,"strom":12223,"Ġlif":12224,"ĠDef":12225,"Ġconnoisse":12226,"nAn":12227,"nSte":12228,"Ġshopped":12229,"authentic":12230,"ĠConc":12231,"Ġdestroy":12232,"Ġcrossed":12233,"ĠVanilla":12234,"cont":12235,"Ġtz":12236,"ĠEth":12237,"ĠHealth":12238,"Ġcounters":12239,"ĠAtl":12240,"ĠLeft":12241,"Ġsisters":12242,"ĠANYTHING":12243,"Ġturf":12244,"bid":12245,"Ġfant":12246,"ppe":12247,"ĠMahi":12248,"nDespite":12249,"ĠDragon":12250,"Ġbrid":12251,"ĠFAIL":12252,"Ġtropical":12253,"48":12254,"Thanks":12255,"mid":12256,"Ġpale":12257,"ĠSim":12258,"ĠHELL":12259,"ĠVeggie":12260,"Ġstyrofoam":12261,"Ġforeign":12262,"Ġ2009":12263,"Ġeastern":12264,"Ġcameras":12265,"Ġfresher":12266,"Ġarrangements":12267,"Ġsinks":12268,"Ġpod":12269,"Ġlone":12270,"Ġclo":12271,"umin":12272,"ogo":12273,"Ġdiscour":12274,"Ġmixing":12275,"Ġgyms":12276,"Ġnickel":12277,"IDE":12278,"remarkable":12279,"Ġgallon":12280,"Ġfluid":12281,"Ġpeaceful":12282,"Ġoutfit":12283,"Ġfraud":12284,"ĠLooked":12285,"Ġdiscussion":12286,"Ġnutrit":12287,"Ġpraise":12288,"Ġsparkling":12289,"Ġkiosk":12290,"ĠOriginal":12291,"wat":12292,"Ġbow":12293,"ĠWestern":12294,"ĠNord":12295,"andw":12296,"Ġdecline":12297,"Ġbeaten":12298,"Ġupdating":12299,"ĠPanera":12300,"From":12301,"Ġwestern":12302,"anny":12303,"Ġarena":12304,"ĠHonda":12305,"nTip":12306,"Ġbusser":12307,"Ġdeliciously":12308,"Ġfixe":12309,"Ġconcent":12310,"Ġintrig":12311,"Ġvalu":12312,"Ġgyoza":12313,"Ġmeantime":12314,"Ġinterrupted":12315,"Ġlid":12316,"Ġstove":12317,"open":12318,"ĠJess":12319,"Ġsecure":12320,"Ġstepping":12321,"Ġauthenticity":12322,"Ġbumped":12323,"uccine":12324,"atziki":12325,"Ġaquarium":12326,"cadia":12327,"Ġsang":12328,"lled":12329,"ĠWin":12330,"ĠCu":12331,"Ġ(\\\"\"":12332,"ĠHATE":12333,"Ġflowing":12334,"ĠJacks":12335,"Ġgrist":12336,"retentious":12337,"Ġmechanics":12338,"Ġpitchers":12339,"Ġwireless":12340,"Ġpowdered":12341,"Awful":12342,"nso":12343,"Ġfanc":12344,"anut":12345,"ĠAwful":12346,"Ġexpans":12347,"osure":12348,"ĠRIGHT":12349,"apper":12350,"Ġcarbs":12351,"Ġscent":12352,"ĠTHREE":12353,"Ġzip":12354,"Ġdente":12355,"ĠCraig":12356,"Ġpockets":12357,"Ġalmonds":12358,"asmine":12359,"nese":12360,"Ġachie":12361,"anty":12362,"Ġnearest":12363,"ĠHoust":12364,"Ġcomfor":12365,"izer":12366,"ĠEM":12367,"Ġindifferent":12368,"Ġtechnology":12369,"ĠRobin":12370,"ĠParty":12371,"Tr":12372,"Ġsarc":12373,"Ġstorm":12374,"ceived":12375,"ĠDiscount":12376,"ĠLife":12377,"Ġcraps":12378,"**\\":12379,"nBefore":12380,"ĠWAIT":12381,"79":12382,"Friendly":12383,"high":12384,"ench":12385,"once":12386,"ĠCP":12387,"ĠFin":12388,"iances":12389,"Ġclearing":12390,"athon":12391,"Ġsteel":12392,"ĠSTAR":12393,"Ġoutfits":12394,"Ar":12395,"riday":12396,"Ġhub":12397,"Ġsoccer":12398,"\\\"\"!":12399,"ĠLeg":12400,"ĠLEA":12401,"Ġdeluxe":12402,"obs":12403,"Ġglitter":12404,"Ġ95":12405,"overing":12406,"Ġquirky":12407,"Ġtikka":12408,"andoori":12409,"Overall":12410,"vo":12411,"Ġsac":12412,"ĠMix":12413,"ĠMuseum":12414,"ĠHello":12415,"nSave":12416,"Ġcostume":12417,"HO":12418,"Ġtin":12419,"Ġforms":12420,"atement":12421,"ĠDip":12422,"apia":12423,"ometimes":12424,"Ġglowing":12425,"ĠAmi":12426,"Ġirritating":12427,"ĠSUCKS":12428,"ĠNugget":12429,"yl":12430,"Ġtat":12431,"Ġtid":12432,"ĠBiltmore":12433,"Ġmoon":12434,"ĠRemember":12435,"Ġdepend":12436,"Ġverde":12437,"Ġeffects":12438,"Ġstrength":12439,"ui":12440,"ctic":12441,"ĠDollar":12442,"Ġoffices":12443,"Ġterrace":12444,"Ġhates":12445,"Ġteachers":12446,"Yum":12447,"gang":12448,"sm":12449,"Ġgast":12450,"Ġhazel":12451,"ĠMiche":12452,"ĠHO":12453,"osc":12454,"white":12455,"ĠBrand":12456,"ĠMacar":12457,"ukee":12458,"Ġdusty":12459,"Ġtaqu":12460,"42":12461,"?)\\":12462,"ĠDue":12463,"Ġactive":12464,"Ġresorts":12465,"Ġglam":12466,"Ġdishonest":12467,"Ġcoolest":12468,"grav":12469,"Ġgrossed":12470,"Ġplantains":12471,"Ġuniform":12472,"Ġdemeanor":12473,"lot":12474,"Ġexisted":12475,"thora":12476,"Ġgreater":12477,"uckily":12478,"ĠNEED":12479,"ĠSupp":12480,"alds":12481,"Ġagreement":12482,"ĠDogs":12483,"Ġacrylic":12484,"ĠHIGHLY":12485,"Ġapplication":12486,"serve":12487,"Ġafore":12488,"hell":12489,"Ġliter":12490,"tering":12491,"Ġexquisite":12492,"Ġoutta":12493,"ĠCry":12494,"ĠHaven":12495,"Ġrocked":12496,"Ġcomps":12497,"owdy":12498,"LLENT":12499,"olognese":12500,"without":12501,"Ġprotect":12502,"ĠOffice":12503,"Ġphotographer":12504,"aust":12505,"delicious":12506,"rav":12507,"Ġcass":12508,"Ġatop":12509,"ĠLiber":12510,"oors":12511,"ĠSpice":12512,"Ġmetro":12513,"Ġconnecting":12514,"Ġscare":12515,"Ġrevol":12516,"ĠHoliday":12517,"fries":12518,"Ġlatt":12519,"Ġhaun":12520,"ĠTor":12521,"ĠBaked":12522,"ĠEr":12523,"Ġfrost":12524,"Ġbrownies":12525,"Ġbaklava":12526,"Ġspoons":12527,"ĠJuice":12528,"Ġaesthetic":12529,"ĠAnthony":12530,"Ġreass":12531,"Ġvap":12532,"Ġrestrict":12533,"Ġdrum":12534,"Ġdisappoints":12535,"ĠStrike":12536,"................":12537,"ĠSandwiches":12538,"Ġrenovations":12539,"Ġsweaty":12540,"Ġfixtures":12541,"ĠGoogle":12542,"Ġsnooty":12543,"Ġmaze":12544,"Ġwashes":12545,"always":12546,"ĠFred":12547,"ĠRoss":12548,"nFast":12549,"Ġdeter":12550,"ĠNEW":12551,"ĠSunset":12552,"epsi":12553,"ĠEmployees":12554,"Ġplethora":12555,"Ġstrangers":12556,"Ġcatered":12557,"Ġquarters":12558,"ighed":12559,"Ġtrout":12560,"Ġslap":12561,"Ġcarbon":12562,"ĠAnimal":12563,"visions":12564,"Ġresto":12565,"Ġaggrav":12566,"bearing":12567,"ĠAlas":12568,"nPl":12569,"Ġelements":12570,"minute":12571,"1000":12572,"Ġinsulted":12573,"ĠTreasure":12574,"aire":12575,"Ġwre":12576,"ĠBaja":12577,"icket":12578,"ĠEle":12579,"ĠRel":12580,"Ġtasteful":12581,"Ġrelish":12582,"Ġclassics":12583,"Ġdisconn":12584,"Ġavailability":12585,"ORT":12586,"ĠWalk":12587,"ĠMiracle":12588,"Ġreference":12589,"know":12590,"ĠTucson":12591,"ĠWarm":12592,"Ġjapanese":12593,"resort":12594,"Ġlessons":12595,"EAL":12596,"ĠTavern":12597,"ĠPERFECT":12598,"Pho":12599,"yram":12600,"Ġsich":12601,"asc":12602,"utton":12603,"Ġancho":12604,"ĠAmy":12605,"Ġkudos":12606,"ĠPac":12607,"ĠLOU":12608,"Ġrescue":12609,"irect":12610,"Ġbaskets":12611,"Ġremar":12612,"ĠBBB":12613,"Ġcurtain":12614,"CT":12615,"Ġsipping":12616,"Ġbom":12617,"Ġree":12618,"aditional":12619,"ĠHmmm":12620,"Ġgray":12621,"Ġwedges":12622,"Ġlaser":12623,"ĠSeemed":12624,"Ġmildly":12625,"****************":12626,"ĠSilver":12627,"ĠBritish":12628,"ĠOakland":12629,"See":12630,"Ġtissue":12631,"Ġsessions":12632,"Ġyol":12633,"ĠSE":12634,"ĠPlate":12635,"grade":12636,"closed":12637,"Ġtournam":12638,"aaa":12639,"eatre":12640,"Ġfajita":12641,"hotel":12642,"Ġmandatory":12643,"Im":12644,"Ġbound":12645,"Ġpole":12646,"Ġmusical":12647,"Ġdecoration":12648,"spect":12649,"ENCE":12650,"ĠCharlie":12651,"Ġversions":12652,"Ġurine":12653,"Ġurgent":12654,"Ġmc":12655,"ĠTG":12656,"ĠAz":12657,"sea":12658,"ĠKudos":12659,"Ġcontest":12660,"Ġcondo":12661,"Ġtunes":12662,"Ġsummary":12663,"Ġbleeding":12664,"Ġrooftop":12665,"Pizza":12666,"hrs":12667,"Ġmur":12668,"oti":12669,"Ġexists":12670,"ĠCOME":12671,"ilst":12672,"amazing":12673,"ormal":12674,"ĠBlanc":12675,"Ġslee":12676,"elieve":12677,"Ġ:-(":12678,"washer":12679,"ĠFunny":12680,"Ġpages":12681,"Ġokra":12682,"Ġposters":12683,"ĠCanada":12684,"Ġnoticeable":12685,"Ġmaxim":12686,"ĠFoie":12687,"Ġvraiment":12688,"Ġanxious":12689,"tery":12690,"Ġunbe":12691,"Ġunremarkable":12692,"Ġlongest":12693,"Ġskins":12694,"Ġcosting":12695,"atinum":12696,"ĠFINALLY":12697,"Ġcalorie":12698,"ih":12699,"reasy":12700,"Ġhier":12701,"ĠAVOID":12702,"Ġaltogether":12703,"Ġcomme":12704,"ĠFamous":12705,"Ġseeking":12706,"Ġbreadsticks":12707,"Ġpacks":12708,"Ġemot":12709,"Ġdescriptions":12710,"ĠCaramel":12711,"Ġimagined":12712,"Ġjudging":12713,"Ġprofile":12714,"Ġdiscussing":12715,"Ġtattoos":12716,"Ġspirits":12717,"Ġabundance":12718,"ĠBacchanal":12719,"Ġsubstantial":12720,"Cal":12721,"FL":12722,"piece":12723,"usually":12724,"ĠWant":12725,"ĠMama":12726,"next":12727,"Ġuseful":12728,"awesome":12729,"nPro":12730,"class":12731,"Ġaffect":12732,"Ġrespectful":12733,"Ġresponsive":12734,"Ġhurting":12735,"bags":12736,"ĠWaffle":12737,"Ġmobile":12738,"Ġexhausted":12739,"ĠCeas":12740,"look":12741,"Ġhue":12742,"ĠVol":12743,"ĠStarted":12744,"Ġaccommodations":12745,"Ġkilling":12746,"Ġincreased":12747,"Ġ!!!!":12748,"ĠPR":12749,"ĠGrey":12750,"Ġshoved":12751,"OND":12752,"ĠDisgusting":12753,"ĠHaha":12754,"44":12755,"Ġvict":12756,"Ġaftertaste":12757,"Ġtrivia":12758,"Ġsplash":12759,"Ġtaps":12760,"kyo":12761,"Ġchimichanga":12762,"iab":12763,"rer":12764,"Ġforks":12765,"Ġseed":12766,"ĠBru":12767,"ĠDI":12768,"ĠDEF":12769,"Ġworthwhile":12770,"Ġparf":12771,"ooooo":12772,"Ġsunset":12773,"nthey":12774,"Ġtags":12775,"Ġindividuals":12776,"Ġoverpowered":12777,"ĠRecently":12778,"Ġaforementioned":12779,"ĠCherry":12780,"ĠHeck":12781,"ĠEVEN":12782,"Ġremake":12783,"Ġbrides":12784,"Ġindication":12785,"ASTIC":12786,"ĠPeter":12787,"Ġfriendliest":12788,"Ġthrift":12789,"ĠRussian":12790,"ĠTons":12791,"Ġstaples":12792,"Ġaband":12793,"izable":12794,"Ġbrat":12795,"Ġparadise":12796,"Ġpattern":12797,"ashi":12798,"Ġexcl":12799,"Ġsmokers":12800,"ampi":12801,"Ġtrashy":12802,"Ġharass":12803,"ULOUS":12804,"Ġstruggling":12805,"Ġhustle":12806,"strip":12807,"ĠPros":12808,"Ġdise":12809,"Ġproduced":12810,"ĠBrother":12811,"ĠCounty":12812,"Ġfarther":12813,"ĠNetwork":12814,"ĠEthiop":12815,"Br":12816,"Ġgarl":12817,"ĠSar":12818,"Ġshove":12819,"Ġmedia":12820,"Ġblueberries":12821,"Ġcigars":12822,"Ġcircumstances":12823,"ĠDMV":12824,"CL":12825,"vi":12826,"asse":12827,"Ġlenses":12828,"ĠAJ":12829,"ĠPepsi":12830,"Ġconvey":12831,"ilets":12832,"Ġburro":12833,"Ġbroad":12834,"Ġsounding":12835,"cheap":12836,"Ġfiling":12837,"Ġrounded":12838,"ussi":12839,"ĠFrozen":12840,"ĠRibeye":12841,"Ġjukebox":12842,"?\\\"\".":12843,"paper":12844,"eston":12845,"Ġquail":12846,"anyaki":12847,"Ġsmoker":12848,"Ġmask":12849,"Ġbanh":12850,"alaya":12851,"Ġhiking":12852,"nitzel":12853,"ĠHostess":12854,"ippers":12855,"ĠMint":12856,"Ġdecisions":12857,"ĠKat":12858,"Ġremarkable":12859,"Ġimitation":12860,"Ġmalls":12861,"Ġtubs":12862,"Ġcaters":12863,"ĠĠĠĠĠĠĠĠĠĠĠĠĠĠĠĠĠĠĠĠĠĠĠĠĠĠĠĠĠĠĠĠ":12864,"repared":12865,"Ġtrailer":12866,"Ġdisturbing":12867,"Ġtostada":12868,"Ġwishing":12869,"ript":12870,"mex":12871,"Ġchit":12872,"ĠNor":12873,"Ġcaution":12874,"ĠKelly":12875,"Ġspotless":12876,"ĠThird":12877,"Ġprovolone":12878,"show":12879,"alette":12880,"Ġhopping":12881,"Ġinconveni":12882,"Ġstressful":12883,"ĠTomatoes":12884,"Ġcrime":12885,"ĠStephan":12886,"Ġintrigued":12887,"CD":12888,"VOR":12889,"ĠHen":12890,"ĠGor":12891,"Ġdecade":12892,"ĠVegan":12893,"Ġsites":12894,"Ġlawn":12895,"Ġdefiantly":12896,"Ġromaine":12897,"Ġbumping":12898,"Ġhurts":12899,"Today":12900,"uvian":12901,"morial":12902,"cook":12903,"aten":12904,"ĠSher":12905,"Ġchut":12906,"Ġ29":12907,"Ġvisitor":12908,"Ġattire":12909,"Ġsurly":12910,"Ġconsume":12911,"Ġforgive":12912,"ĠComing":12913,"Ġtechnique":12914,"Ġ2008":12915,"Ġchopsticks":12916,"Ġbullshit":12917,"Ġrobbed":12918,"iveness":12919,"Ġremoving":12920,"!).\\":12921,"Ġgummy":12922,"ushes":12923,"ĠSaw":12924,"Ġumbre":12925,"Ġvague":12926,"Ġtool":12927,"Ġconverted":12928,"ĠView":12929,"Ġtricky":12930,"Ġruining":12931,"nNothing":12932,"ĠLocal":12933,"Ġounces":12934,"ĠHospital":12935,"Ġconnoisseur":12936,"called":12937,"family":12938,"ref":12939,"ĠBook":12940,"erials":12941,"Ġsteaming":12942,"Ġfiguring":12943,"Ġcommission":12944,"Ġfaire":12945,"Ġbubbles":12946,"worthy":12947,"pay":12948,"rics":12949,"inity":12950,"Ġmisters":12951,"Ġlard":12952,"Ġsees":12953,"ĠBJ":12954,"ĠFi":12955,"ĠRef":12956,"Ġretrie":12957,"Ġcourtyard":12958,"holes":12959,"Ġtechnicians":12960,"vest":12961,"vos":12962,"Ġsind":12963,"Ġporter":12964,"ĠBM":12965,"Ġbackyard":12966,"Ġcustomize":12967,"Ġswanky":12968,"Ġstraws":12969,"ĠWashing":12970,"Ġcompetitors":12971,"Ġawkwardly":12972,"Ġencouraged":12973,"Ġwristband":12974,"yramid":12975,"Even":12976,"lished":12977,"Ġreverse":12978,"icelli":12979,"ecent":12980,"Ġfrills":12981,"agu":12982,"Ġweeknight":12983,"mmmmm":12984,"Ġsnapped":12985,"2014":12986,"ĠWaffles":12987,"Ġventilation":12988,"col":12989,"enter":12990,"actor":12991,"OPLE":12992,"Ġeffective":12993,"Ġmoderate":12994,"nk":12995,"sushi":12996,"Ġaus":12997,"ĠDark":12998,"Ġdrama":12999,"unchy":13000,"nAside":13001,"issa":13002,"itches":13003,"Ġresulted":13004,"Ġcolleague":13005,"Ġcapers":13006,"Ġpuzz":13007,"rendip":13008,"better":13009,"Ġconsumer":13010,"ĠMedium":13011,"Ġeyel":13012,"rary":13013,"Ġmut":13014,"ĠWind":13015,"ĠBUS":13016,"Ġchuck":13017,"ĠEll":13018,"Ġhiding":13019,"Ġknocking":13020,"Ġdisappear":13021,"Ġpassionate":13022,"Ġaspects":13023,"Ġdocument":13024,"ĠHouston":13025,"ĠLOUD":13026,"auc":13027,"bes":13028,"vice":13029,"Ġcops":13030,"Ġstro":13031,"Ġoverbearing":13032,"ggin":13033,"Ġdefinition":13034,"Ġcrawl":13035,"Ġsommelier":13036,"Ġnewspaper":13037,"must":13038,"Ġweigh":13039,"stit":13040,"Ġshine":13041,"thought":13042,"Ġflair":13043,"Ġpeeling":13044,"Ġsche":13045,"obl":13046,"Ġtrails":13047,"ĠManhattan":13048,"Ġunimpressive":13049,"ĠTrump":13050,"Get":13051,"fbl":13052,"watch":13053,"Ġbaking":13054,"rozen":13055,"Ġnoticing":13056,"ĠWet":13057,"ĠCC":13058,"ĠDamn":13059,"Ġsmashed":13060,"aren":13061,"Ġtram":13062,"Ġcashew":13063,"Ġbaggage":13064,"Ġthinner":13065,"ĠTruffle":13066,"Ġrubbed":13067,"Ġfur":13068,"ĠCreme":13069,"Ġupfront":13070,"ĠFountain":13071,"Ġslapped":13072,"ĠJosh":13073,"ĠKong":13074,"otti":13075,"rooms":13076,"Ġbeloved":13077,"Ġinternational":13078,"Unfortunately":13079,"ĠLIKE":13080,"88":13081,"Located":13082,"rise":13083,"Ġinex":13084,"ĠMotel":13085,"ament":13086,"Ġjustice":13087,"ĠHand":13088,"Ġcoma":13089,"ĠPaid":13090,"Ġcris":13091,"Ġpubs":13092,"Ġverm":13093,"Ġassociated":13094,"Ġgallery":13095,"ĠMargaritas":13096,"Ġclimb":13097,"nEnjoy":13098,"Mexican":13099,"Poor":13100,"nmy":13101,"Ġpond":13102,"Ġpolished":13103,"ĠArcadia":13104,"rrrr":13105,"Chicken":13106,"Ġcriticism":13107,"WN":13108,"Ġaux":13109,"Ġwha":13110,"isure":13111,"Ġthier":13112,"Ġmonster":13113,"Ġdressings":13114,"comend":13115,"Ġoperate":13116,"Ġinexperienced":13117,"Ġcrawling":13118,"salad":13119,"Ġblankets":13120,"Ġcannoli":13121,"Ġbord":13122,"esh":13123,"irable":13124,"Ġliar":13125,"Ġordeal":13126,"Ġchir":13127,"ĠRon":13128,"chair":13129,"Ġwarmly":13130,"Ġopinions":13131,"ugged":13132,"Ġcapable":13133,"Ġhomes":13134,"ĠSLOW":13135,"Ġcobbler":13136,"cons":13137,"Ġbib":13138,"Ġbamboo":13139,"haw":13140,"Ġraz":13141,"ĠPollo":13142,"Ġchase":13143,"Ġscience":13144,"Ġscript":13145,"Ġsweating":13146,"Ġconscious":13147,"Ġhumble":13148,"ĠCarib":13149,"Ġexperiment":13150,"size":13151,"Ġpomegranate":13152,"lettes":13153,"Ġthumb":13154,"Ġdemon":13155,"Ġblocked":13156,"Ġdrip":13157,"Ġequipped":13158,"however":13159,"Ġtesting":13160,"Ġplatters":13161,"Ġfurious":13162,"Se":13163,"fire":13164,"zech":13165,"Ġpsy":13166,"Ġuh":13167,"abilia":13168,"Ġspas":13169,"Ġdivers":13170,"ĠKen":13171,"Ġhighway":13172,"ĠUnbelievable":13173,"Ġmasse":13174,"Ġpetit":13175,"ĠDecided":13176,"Ġessential":13177,"Ġexpanded":13178,"Ġpedest":13179,"Holy":13180,"arry":13181,"Ġrend":13182,"Ġplague":13183,"ĠEs":13184,"Ġblaring":13185,"nSee":13186,"ĠBear":13187,"Ġcandied":13188,"ANTASTIC":13189,"Ġunhealthy":13190,"Ġmagazines":13191,"Ġremoval":13192,":(":13193,"zing":13194,"Ġexistent":13195,"ĠScr":13196,"Ġtowers":13197,"Ġengaged":13198,"Ġvouchers":13199,"ĠColor":13200,"Ġnonsense":13201,"Ġsunglasses":13202,"TO":13203,"ĠIP":13204,"ĠWing":13205,"ĠAAA":13206,"beque":13207,"ĠDeal":13208,"should":13209,"ĠComm":13210,"Ġaccounts":13211,"Ġperformances":13212,"floor":13213,"Ġantib":13214,"Ġcancellation":13215,"ĠToyota":13216,"ĠPEOPLE":13217,"Ġcore":13218,"Ġgro":13219,"usy":13220,"ĠMort":13221,"ĠBou":13222,"Ġranc":13223,"Ġraves":13224,"estaurant":13225,"ĠVodka":13226,"ĠChuck":13227,"Ġplayground":13228,"Ġaccustom":13229,"nCome":13230,"Ġhipsters":13231,"Ġwowed":13232,"Ġpaintings":13233,"Ġsuffered":13234,"Ġbodies":13235,"ĠRichard":13236,"Ġsizzling":13237,"watukee":13238,"$.":13239,"whe":13240,"erks":13241,"Ġbait":13242,"Ġspam":13243,"Ġlogo":13244,"Ġsurvey":13245,"Ġsadd":13246,"loom":13247,"Ġairports":13248,"Ġtransmission":13249,"Ġfolk":13250,"Ġreceipts":13251,"Ġbenefits":13252,"nThird":13253,"ĠScallops":13254,"Honestly":13255,"onight":13256,"Ġlinks":13257,"Ġpeeps":13258,"Ġfiller":13259,"Ġpackets":13260,"Ġmoms":13261,"Ġcalifornia":13262,"ĠCanadian":13263,"ĠSmoke":13264,"Beautiful":13265,"Ġdigging":13266,"Ġreferring":13267,"Ġobserved":13268,"ĠWashington":13269,"oha":13270,"xy":13271,"Ġsard":13272,"ĠMt":13273,"ĠHop":13274,"ĠGiant":13275,"fined":13276,"unken":13277,"Ġtempting":13278,"Ġtrainers":13279,"ĠMemorial":13280,"Ġmemorabilia":13281,"ĠEXCELLENT":13282,"ĠFULL":13283,"dis":13284,"Ġhometown":13285,"ĠMeg":13286,"ĠCross":13287,"Ġroyal":13288,"ĠDos":13289,"Ġflush":13290,"Ġmanners":13291,"ĠRich":13292,"Ġscal":13293,"Ġrepres":13294,"Ġrotating":13295,"Ġofficial":13296,"ĠScottish":13297,"ĠMANY":13298,"nPerhaps":13299,"ĠNordstrom":13300,"Ġnit":13301,"least":13302,"ĠTab":13303,"ĠTip":13304,"ayo":13305,"ĠWall":13306,"Ġcancer":13307,"Ġdishwasher":13308,"Ġhesitation":13309,"ACH":13310,"wash":13311,"Ġpollo":13312,"Ġding":13313,"ĠLib":13314,"perfect":13315,"ĠAndy":13316,"orning":13317,"Ġmains":13318,"safe":13319,"Ġcereal":13320,"Ġannoyance":13321,"Ġneighboring":13322,"Ġcontacting":13323,"Ġgenerously":13324,"Ġmaterials":13325,"Ġmacaroons":13326,"Ġaddicting":13327,"Ġlentil":13328,"wy":13329,"Ġtoffee":13330,"eday":13331,"othing":13332,"Ġinha":13333,"ĠTour":13334,"ĠTell":13335,"Ġhubs":13336,"Ġrowdy":13337,"opened":13338,"ĠEt":13339,"Ġ55":13340,"Ġreccomend":13341,"ĠMonta":13342,"Ġdefensive":13343,"Ġpremises":13344,"Ġlattes":13345,"AGE":13346,"Fun":13347,"literally":13348,"wart":13349,"stals":13350,"Ġsums":13351,"Ġquinoa":13352,"Ġbrace":13353,"Ġvacc":13354,"Ġtenants":13355,"Ġ;)\\":13356,"ĠSecondly":13357,"ĠCraft":13358,"Ġdomestic":13359,"Ġcomplementary":13360,"Ġprofessionally":13361,"Ġpong":13362,"ĠTus":13363,"ĠCAR":13364,"ĠCoconut":13365,"through":13366,"nToo":13367,"agle":13368,"ĠEdd":13369,"Ġdecades":13370,"Ġroomy":13371,"Ġhottest":13372,"Ġache":13373,"Ġsincere":13374,"OOO":13375,"LET":13376,"Ġhoag":13377,"ĠDisappointed":13378,"Ġteenage":13379,"ĠORDER":13380,"Ġdeveloped":13381,"Ġmagnific":13382,"Ġreluctantly":13383,"Visited":13384,"incess":13385,"Ġcoin":13386,"ĠEm":13387,"Ġripe":13388,"udy":13389,"Ġextensions":13390,"Ġmonorail":13391,"Ġsignal":13392,"Ġmouths":13393,"Ġsleek":13394,"ĠCombo":13395,"ĠShady":13396,"obello":13397,"Ġbumper":13398,"ASTE":13399,"Ġstruggle":13400,"Ġcaviar":13401,"Ġpassengers":13402,"Ġcaffeine":13403,"PT":13404,"Yelp":13405,"hoo":13406,"ĠAR":13407,"ĠBAR":13408,"amm":13409,"Ġupcoming":13410,"ĠEN":13411,"ĠRom":13412,"Ġshad":13413,"nOK":13414,"Ġsweeter":13415,"Ġremark":13416,"Ġcreations":13417,"ĠRestaurants":13418,"Ġfeaturing":13419,"Ġunreasonable":13420,"parent":13421,"Ġgain":13422,"Ġnite":13423,"Ġplush":13424,"Ġjaw":13425,"ainted":13426,"ĠFelt":13427,"igan":13428,"Ġchaotic":13429,"nWhere":13430,"Ġscor":13431,"uces":13432,"clock":13433,"Ġhamachi":13434,"Ġfinancial":13435,"Ġnest":13436,"Ġmellow":13437,"agi":13438,"Ġdept":13439,"Ġuncooked":13440,"Ġtermin":13441,"burgers":13442,"Ġtemps":13443,"ĠBrisket":13444,"Ġinstructed":13445,"Ġelectrical":13446,"Ġsuspicious":13447,"Ġsouffle":13448,"Co":13449,"eu":13450,"Ġener":13451,"bery":13452,"Ġvisually":13453,"Ġimperson":13454,"IRST":13455,"Ġappliances":13456,"Ġbreathtaking":13457,"kasan":13458,"dar":13459,"ario":13460,"ĠTimes":13461,"ĠSen":13462,"Ġouting":13463,"Ġchicks":13464,"iza":13465,"Ġappointed":13466,"Ġpartake":13467,"Ġmarble":13468,"Ġqueue":13469,"Ġfiancee":13470,"ĠPerfectly":13471,"Ġeducated":13472,"Ġempanadas":13473,"Ġinnovative":13474,"ĠBrooklyn":13475,"ĠLiberty":13476,"burn":13477,"lots":13478,"Ġtaro":13479,"ĠCesar":13480,"Ġunassuming":13481,"Ġparks":13482,"Ġimpressions":13483,"cold":13484,"Ġ150":13485,"ĠSpot":13486,"Ġbirthdays":13487,"Ġconduct":13488,"ĠEnchil":13489,"Ġclaiming":13490,"hensive":13491,"ĠAshley":13492,"asically":13493,"Ġshr":13494,"Ġlocks":13495,"ĠLine":13496,"Ġdrugs":13497,"Ġtechnically":13498,"Ġprints":13499,"Ġstrikes":13500,"Ġskewer":13501,"Ġtelevisions":13502,"ĠStratosphere":13503,"Ġfarmers":13504,"onzu":13505,"Ġalterations":13506,"Ġillegal":13507,"69":13508,"Happy":13509,"IENCE":13510,"Ġbattle":13511,"ĠTodd":13512,"ĠDas":13513,"Ġnoch":13514,"Ġcarving":13515,"Ġolds":13516,"ĠTHANK":13517,"Ġpacking":13518,"umption":13519,"Ġcarniv":13520,"Ġignorant":13521,"ĠWagyu":13522,"Ġintegrity":13523,"Ġfoll":13524,"Ġlick":13525,"aylor":13526,"ĠBed":13527,"ĠBoba":13528,"prised":13529,"Ġhaircuts":13530,"Ġpolit":13531,"Ġbridge":13532,"ITY":13533,"Ġhonored":13534,"ĠPancakes":13535,"Update":13536,"Ġtails":13537,"Ġdips":13538,"state":13539,"Ġcanal":13540,"ĠFE":13541,"ĠDri":13542,"Ġclip":13543,"ĠRad":13544,"nAvoid":13545,"nSadly":13546,"ATED":13547,"ĠTokyo":13548,"Ġnonex":13549,"ĠIsn":13550,"nStay":13551,"Ġfeeding":13552,"Ġyumm":13553,"Ġalternatives":13554,"hobic":13555,"ĠEthiopian":13556,"Ġenergetic":13557,"URE":13558,"ĠBang":13559,"ĠHak":13560,"Ġleisure":13561,"ĠGar":13562,"ĠYup":13563,"lection":13564,"Ġstealing":13565,"Ġcentre":13566,"chef":13567,"Ġdanced":13568,"ĠMostly":13569,"Ġangel":13570,"Ġunderstatement":13571,"Ġinteractive":13572,"ĠSmoked":13573,"rendipity":13574,"Ġmont":13575,"Ġalignment":13576,"Ġlegend":13577,"Ġenfor":13578,"Ġindividually":13579,"Ġobsessed":13580,"Ġdrowned":13581,"ravag":13582,"89":13583,"YUM":13584,"Ġminded":13585,"ĠJustin":13586,"minutes":13587,"Ġflavours":13588,"Ġescargot":13589,"Ġpeeve":13590,"Ġmarginal":13591,"Wonderful":13592,"YE":13593,"vies":13594,"Ġowed":13595,"oran":13596,"Ġlining":13597,"Ġinn":13598,"ĠTJ":13599,"asta":13600,"Ġjet":13601,"nOut":13602,"Ġthoughtful":13603,"Ġcurb":13604,"Ġmessing":13605,"Ġbrussel":13606,"Ġdrafts":13607,"Ġdetermine":13608,"Ġgranola":13609,"Ġracist":13610,"Ġunbear":13611,"please":13612,"Ġbot":13613,"Ġbirth":13614,"Ġanx":13615,"inkles":13616,"ctional":13617,"Ġovercrowded":13618,"ĠGotta":13619,"Ġsliding":13620,"efruit":13621,"ĠAlong":13622,"Ġclosely":13623,"working":13624,"Ġaccustomed":13625,"App":13626,"Cool":13627,"pensive":13628,"ashes":13629,"Ġtoilets":13630,"Ġthie":13631,"irit":13632,"ĠSit":13633,"ĠPAR":13634,"Ġclever":13635,"Ġreps":13636,"Ġboards":13637,"INIT":13638,"Ġairlines":13639,"Ġboyfriends":13640,"whatever":13641,"Ġgems":13642,"ĠYoga":13643,"Ġpermanent":13644,"FE":13645,"La":13646,"local":13647,"nthis":13648,"yr":13649,"Ġbaff":13650,"arting":13651,"nIs":13652,"onde":13653,"Ġpromises":13654,"ĠSomehow":13655,"Ġpours":13656,"IX":13657,"Rec":13658,"Ġnib":13659,"ĠSage":13660,"ĠMist":13661,"iper":13662,"nAmbiance":13663,"Ġshades":13664,"ignets":13665,"ĠQU":13666,"Ġtowed":13667,"ĠAnything":13668,"iffy":13669,"Ġadjusted":13670,"Ġfifth":13671,"Ġgathering":13672,"Ġdunno":13673,"Ġantibiot":13674,"dom":13675,"xx":13676,"Ġlips":13677,"ĠDOWN":13678,"Ġpotstickers":13679,"Ġminds":13680,"Ġestate":13681,"Ġpainfully":13682,"ISS":13683,"IEW":13684,"Ġthreatened":13685,"Ġcockroach":13686,"Pl":13687,"cuter":13688,"Ġaussi":13689,"unities":13690,"Ġshook":13691,"osity":13692,"ĠDet":13693,"ĠGave":13694,"itto":13695,"ĠRachel":13696,"ocr":13697,"Ġelbow":13698,"iera":13699,"ertainly":13700,"Ġcentury":13701,"Ġpizzeria":13702,"ĠUSE":13703,"Ġelectronics":13704,"bacore":13705,"ĠLotus":13706,"Ġsust":13707,"Ġbend":13708,"oodle":13709,"Ġloin":13710,"Ġbarbers":13711,"Ġintox":13712,"!!!!!\\":13713,"ATER":13714,"Ġcontinually":13715,"Ġdimly":13716,"Ġbrave":13717,"Ġcertified":13718,"Ġdragon":13719,"Ġpapers":13720,"Ġfolded":13721,"ĠRidge":13722,"________________":13723,"ĠJennifer":13724,"DAY":13725,"Most":13726,"render":13727,"Ġpate":13728,"Ġpars":13729,"Ġpunk":13730,"Ġnutella":13731,"Ġsealed":13732,"Ġspite":13733,"ĠGinger":13734,"raised":13735,"Ġfoil":13736,"shrimp":13737,"ĠEngland":13738,"Ġpairings":13739,"ĠFirefly":13740,"ĠOregano":13741,"ĠFriends":13742,"INITELY":13743,":)\\":13744,"Place":13745,"tes":13746,"hal":13747,"atches":13748,"Ġink":13749,"Ġplated":13750,"ĠSaid":13751,"ĠAmbiance":13752,"Ġcomic":13753,"nto":13754,"ĠOs":13755,"igon":13756,"Ġslipped":13757,"ambalaya":13758,"Ġsinger":13759,"Ġwaxed":13760,"Ġbreathing":13761,"ĠMiami":13762,"ugh":13763,"Ġgals":13764,"ĠSir":13765,"Ġouter":13766,"ĠCart":13767,"Ġsuited":13768,"Ġconge":13769,"oler":13770,"ottle":13771,"ĠAsia":13772,"Ġstrings":13773,"Ġlimits":13774,"oooooo":13775,"ĠAMC":13776,"ĠCasa":13777,"ĠAvocado":13778,"ĠPBR":13779,"Ġoverflowing":13780,"Ġmanufacture":13781,"austrop":13782,"Small":13783,"fix":13784,"vie":13785,"Ġft":13786,"Ġfence":13787,"ani":13788,"Ġhazard":13789,"Ġrelease":13790,"ĠBody":13791,"ĠBisc":13792,"Ġala":13793,"artender":13794,"Ġdecides":13795,"egg":13796,"Ġbliss":13797,"ĠJr":13798,"Ġscottsdale":13799,"ĠIncred":13800,"Ġmodest":13801,"Ġmelting":13802,"Ġupgrades":13803,"ĠWestin":13804,"Ġbelongings":13805,"uzu":13806,"Ġaccomodating":13807,"cuterie":13808,"buds":13809,"card":13810,"grilled":13811,"pher":13812,"wine":13813,"Ġhem":13814,"ĠBand":13815,"Ġcoco":13816,"Ġrig":13817,"nYeah":13818,"Ġprescriptions":13819,"Chinese":13820,"HHHH":13821,"Ġvibrant":13822,"ĠGROSS":13823,"ĠFlorida":13824,"iw":13825,"Ġdill":13826,"irloom":13827,"ĠHong":13828,"ĠFoot":13829,"avail":13830,"Ġroaches":13831,"Ġbrushed":13832,"ĠJon":13833,"Ġmuscles":13834,"Ġturnover":13835,"Ġzomb":13836,"ĠCharleston":13837,"Ġprocedures":13838,"zzy":13839,"ĠWTH":13840,"Ġfoodies":13841,"ulu":13842,"Ġ110":13843,"Ġpea":13844,"Ġtex":13845,"Ġasshole":13846,"nHave":13847,"Ġfroyo":13848,"ĠCopper":13849,"Ġdifficulty":13850,"Ġpalace":13851,"Ġoperating":13852,"Ġimmac":13853,"Ġexaggerating":13854,"asily":13855,"veget":13856,"ĠMich":13857,"Ġgoss":13858,"Ġfrat":13859,"actually":13860,"Ġscotch":13861,"Ġcareless":13862,"nCustomer":13863,"nLocation":13864,"ĠBelly":13865,"ĠBET":13866,"iesta":13867,"Ġsuffering":13868,"Ġbuttons":13869,"Ġmalt":13870,"Ġenthusiasm":13871,"Ġspeech":13872,"Used":13873,"nbut":13874,"Ġpalette":13875,"icion":13876,"Ġsau":13877,"ĠBull":13878,"artment":13879,"ĠFANTASTIC":13880,"ĠDAY":13881,"ĠLin":13882,".........":13883,"mediately":13884,"Ġrelaxation":13885,"ĠOthers":13886,"ĠDisappointing":13887,"Ġremainder":13888,"77":13889,"TV":13890,"ekend":13891,"sers":13892,"vals":13893,"Ġcure":13894,"Ġcomed":13895,"Ġchore":13896,"Ġleague":13897,"Ġscones":13898,"ĠKeller":13899,"Ġkidd":13900,"MMMM":13901,"Ġtransportation":13902,"EX":13903,"foot":13904,"Ġreject":13905,"rock":13906,"opa":13907,"ĠPAY":13908,"osing":13909,"agg":13910,"Ġflops":13911,"ĠEaster":13912,"Ġ36":13913,"ervations":13914,"ERT":13915,"Ġsatay":13916,"thew":13917,"ahn":13918,"nYour":13919,"Ġtouristy":13920,"Ġpads":13921,"Ġtorte":13922,"ĠTWICE":13923,"Ġscenes":13924,"Ġtrimmed":13925,"Decent":13926,"Lo":13927,"ĠSep":13928,"acking":13929,"Ġexped":13930,"ĠParm":13931,"Ġimagin":13932,"until":13933,"Ġgratin":13934,"Ġresembled":13935,"mans":13936,"zer":13937,"Ġbac":13938,"ustin":13939,"Ġabrupt":13940,"ounding":13941,"undown":13942,"Ġprovider":13943,"Ġoils":13944,"Ġstronger":13945,"ĠMontr":13946,"ĠPrim":13947,"drinks":13948,"Ġtolerable":13949,"Ġstalls":13950,"Ġdeceiving":13951,"Ġbridal":13952,"ĠJackson":13953,"hia":13954,"iors":13955,"sec":13956,"ĠWash":13957,"pliment":13958,"Ġbutternut":13959,"Ġintend":13960,"Ġsorta":13961,"scar":13962,"ĠDaniel":13963,"Ġartichokes":13964,"Ġrabbit":13965,"hin":13966,"yc":13967,"hea":13968,"rene":13969,"ĠTech":13970,"Ġreaching":13971,"illion":13972,"ĠMini":13973,"Ġoldest":13974,"Ġtonk":13975,"Ġsystems":13976,"Ġdancer":13977,"ĠShake":13978,"Ġbreathe":13979,"Ġevident":13980,"Ġdemanding":13981,"ĠFRESH":13982,"Ġspicier":13983,"Ġdrizzle":13984,"ĠModern":13985,"user":13986,"alous":13987,"ĠOWN":13988,"ĠJama":13989,"Ġextravag":13990,"Ġhandmade":13991,"nBad":13992,"Ġlisting":13993,"Ġconcession":13994,"ĠExpensive":13995,"Ġdispenser":13996,"Ġflexible":13997,"aiting":13998,"pizza":13999,"Ġocean":14000,"Ġfist":14001,"Ġgee":14002,"\\\"\"....":14003,"ĠTherefore":14004,"Ġdesignated":14005,"ĠTempura":14006,"ĠAdam":14007,"Ġconsultation":14008,"Ġaddictive":14009,"ĠPinot":14010,"ĠVegetarian":14011,"Ġnonexistent":14012,"Pros":14013,"UB":14014,"fine":14015,"hum":14016,"nb":14017,"Ġtheory":14018,"aba":14019,"Ġspecialist":14020,"Ġcraz":14021,"Ġhella":14022,"ĠDoctor":14023,"Ġmarkets":14024,"USE":14025,"Decided":14026,"Ġexhaust":14027,"Ġsouvenir":14028,"+.":14029,".(":14030,"fat":14031,"sur":14032,"ĠTRY":14033,"ĠHor":14034,"Ġcoaster":14035,"Ġavid":14036,"nBesides":14037,"Ġskilled":14038,"inyl":14039,"Ġchilli":14040,"iabatta":14041,"uously":14042,"vention":14043,"inating":14044,"Ġsamm":14045,"Ġgoodbye":14046,"ĠOwn":14047,"Ġclaustrop":14048,"Ġbarrier":14049,"Ġsurprises":14050,"boards":14051,"Ġsentence":14052,"Ġevil":14053,"ĠEnded":14054,"Sal":14055,"Ġsne":14056,"Ġwerent":14057,"Ġwhilst":14058,"Ġseper":14059,"ĠBuc":14060,"anded":14061,"inder":14062,"ĠGPS":14063,"comm":14064,"Ġgreets":14065,"Ġlargely":14066,"ĠRead":14067,"Ġintell":14068,"ĠMead":14069,"Ġdeparture":14070,"Ġmanicures":14071,"caping":14072,"Ġpassenger":14073,"ĠFurthermore":14074,"ĠMichelin":14075,"Ġhazelnut":14076,"ĠTri":14077,"ĠTables":14078,"Ġyork":14079,"Ġath":14080,"Ġrank":14081,"Ġspecially":14082,"Ġdele":14083,"ĠAndre":14084,"nHappy":14085,"Ġbelieved":14086,"nMan":14087,"Ġsatisfactory":14088,"lightly":14089,"Ġmatching":14090,"ĠPublic":14091,"ĠAhwatukee":14092,"Too":14093,"ĠSus":14094,"Ġash":14095,"ĠBUR":14096,"ĠOdd":14097,"Ġbrun":14098,"Ġdies":14099,"Ġpotentially":14100,"Ġflooring":14101,"Ġredone":14102,"Ġrelig":14103,"ARGE":14104,"Ġdispute":14105,"onvenient":14106,"Ġradi":14107,"ĠMoj":14108,"ĠMayo":14109,"Ġspoonful":14110,"ĠDONT":14111,"Ġpapaya":14112,"Ġpecans":14113,"ĠTapas":14114,"Ġrecieved":14115,"Ġerrands":14116,"Ġlychee":14117,"IAN":14118,"erver":14119,"Ġyoure":14120,"ĠCute":14121,"Ġhosting":14122,"Ġremembers":14123,"Ġportioned":14124,"ossom":14125,"Ġimported":14126,"Ġcapital":14127,"ĠMiller":14128,"Ġdistracting":14129,"Ġlinens":14130,"Ġglorious":14131,"Ext":14132,"fed":14133,"gled":14134,"pork":14135,"atures":14136,"Ġjale":14137,"ĠBomb":14138,"hana":14139,"Ġcheated":14140,"Ġknee":14141,"acho":14142,"Ġ85":14143,"Ġprepaid":14144,"Ġexplos":14145,"Ġacoustics":14146,"COMM":14147,"Ġfollows":14148,"09":14149,"itially":14150,"ĠWonder":14151,"Ġlox":14152,"Ġquotes":14153,"Ġcontains":14154,"graded":14155,"Ġholder":14156,"Ġimprovements":14157,"Ġpinball":14158,"Ġconcerts":14159,"Ġjudgement":14160,"ĠBoys":14161,"Ġunfair":14162,"ĠMichelle":14163,"oblano":14164,"OTHER":14165,"fb":14166,"miss":14167,"word":14168,"heast":14169,"Ġcork":14170,"Ġnu":14171,"Ġnation":14172,"ĠPRICE":14173,"ights":14174,"Ġpeop":14175,"Ġblinds":14176,"Ġslop":14177,"Ġwalmart":14178,"Ġbuttermilk":14179,"Ġquieter":14180,"Ġupdates":14181,"ĠDJs":14182,"Ġhoot":14183,"Ġbustling":14184,"ĠInteresting":14185,"ĠEssen":14186,"Ġamateur":14187,"girl":14188,"ipper":14189,"phant":14190,"Ġcirque":14191,"Ġloop":14192,"alia":14193,"ĠPao":14194,"ĠLand":14195,"Ġbless":14196,"Ġpayments":14197,"ferences":14198,"Ġsteady":14199,"Ġlouder":14200,"arbor":14201,"Ġcreation":14202,"Ġheaters":14203,"Ġripoff":14204,"Ġswitching":14205,"ĠCapriott":14206,"ipps":14207,"Ġlinguine":14208,"Ġpronoun":14209,"Saturday":14210,"Ġwins":14211,"Ġbid":14212,"arms":14213,"Ġster":14214,"cht":14215,"Ġvit":14216,"Ġcoats":14217,"ĠGirls":14218,"Ġboom":14219,"Ġbelief":14220,"Ġapproved":14221,"forget":14222,"Ġsilence":14223,"Ġefficiently":14224,"donalds":14225,"Ġcrafted":14226,"ĠSonic":14227,"Ġtolerate":14228,"ĠBETTER":14229,"hyp":14230,"Ġfennel":14231,"Ġyelper":14232,"ĠHab":14233,"ĠNV":14234,"ĠDiet":14235,"ĠLi":14236,"Ġprecious":14237,"atively":14238,"nUPDATE":14239,"ĠGuacamole":14240,"ĠSalads":14241,"Ġpalm":14242,"iffany":14243,"Ġgalore":14244,"Ġpints":14245,"Ġchemicals":14246,"Ġhawai":14247,"Ġsarcastic":14248,"Such":14249,"mered":14250,"ĠWoo":14251,"ĠWOULD":14252,"Ġfriggin":14253,"Ġamusing":14254,"Ġbye":14255,"Ġclerks":14256,"ondon":14257,"ĠJoy":14258,"uffet":14259,"ypically":14260,"Ġstoked":14261,"nMake":14262,"cript":14263,"ĠAmericans":14264,"server":14265,"Ġmountains":14266,"Ġinventive":14267,"GUST":14268,"net":14269,"ouble":14270,"icilian":14271,"Ġecho":14272,"ĠCobb":14273,"ĠDrop":14274,"Ġteens":14275,"oths":14276,"Ġenjoyment":14277,"nell":14278,"Ġsubsequ":14279,"Ġscreamed":14280,"mmmmmmmm":14281,"Ġshocking":14282,"ĠCantina":14283,"Ġtzatziki":14284,"ĠDEFINITELY":14285,"Ġmats":14286,"Ġponzu":14287,"Ġyay":14288,
[...]
