#version: 0.2
Ġ t
i n
e r
Ġ a
o n
h e
e s
Ġ s
o r
a n
Ġt he
e d
e n
a r
i t
a t
Ġ f
Ġ o
Ġ c
in g
a l
Ġ w
r e
Ġ p
Ġt o
Ġ b
i s
Ġ in
i c
r o
a s
Ġo f
Ġ S
Ġ m
a y
i l
n d
Ġ h
i on
t er
l e
Ġ d
Ġ A
o u
Ġ T
Ġ C
i d
o m
s t
en t
Ġa nd
Ġ M
Ġ on
e t
e l
a c
u r
Ġt h
e c
Ġ I
Ġ P
a d
Ġf or
Ġ B
Ġ n
Ġ l
i g
o l
a m
o t
i r
Ġ re
Ġ g
u t
Ġ e
Ġ -
er s
Ġ W
Ġ #
d ay
u s
Ġ N
3 9
Ġ F
v e
Ġ R
il l
Ġs t
Ġ r
Ġ (
o w
es t
Ġ it
i m
Ġ D
t h
v er
Ġ U
r a
at ion
Ġ G
u n
Ġ H
l y
Ġ L
q u
t s
c h
u p
it h
Ġ E
e w
e ar
Ġa n
Ġ O
Ġa t
c e
o s
a k
ig h
Ġb e
u l
Ġa s
an d
Ġth at
Ġw ith
a g
r i
e m
l d
ter s
o p
ĠT he
es s
Ġc om
Ġp ro
a in
Ġ 1
Ġ is
Ġ y
Ġ J
o c
Ġs a
k s
Ġc on
Ġit s
ĠI n
' s
c t
al l
i an
a p
Ġ 2
Ġ he
0 0
Ġ v
Ġd e
at e
u ters
as t
Ġsa id
u m
Ġb y
f t
ĠS t
or e
i es
i a
o st
ou r
en d
Ġh as
p or
Ġ le
ro m
e e
Ġs h
Ġ qu
Ġw h
Ġe x
igh t
Ġp l
Ġ K
u st
e uters
Ġc h
o o
ac k
u nd
Ġcom p
Ġf rom
is t
m ent
i v
it y
ar d
ar t
Ġa g
i al
p p
i f
Ġp r
ou n
Ġof f
f ter
. .
es day
in e
u g
ĠC h
i ve
Ġh is
u d
el l
Ġw as
Ġw ill
Ġ k
t ed
a ve
Ġa l
r y
g t
ĠT h
l t
a b
Ġn ew
or d
Ġs p
ic e
o b
Ġa fter
Ġ Y
i p
R euters
o ft
Ġo ver
m er
er e
Ġ j
Ġf ir
Ġs e
Ġw or
f f
ion s
ar g
ac e
ou ld
s e
Ġ V
ar e
ĠF r
an s
i e
u b
ĠU S
on g
Ġ up
n ing
ay s
\ $
Ġc l
Ġh ave
ic k
ol d
an y
u c
Ġy ear
ter n
ou t
Ġthe ir
w o
Ġa re
u e
Ġo ut
am e
g e
Ġa c
Ġ \$
om e
Ġqu ot
Ġ ro
a il
ill ion
Ġ un
k e
ĠP r
o ver
Ġs ec
id e
ig n
an t
id ent
re e
il e
ro s
ar k
A P
e x
im e
o d
i re
Ġex p
on d
ra q
Ġin t
e p
Ġa b
or s
o g
ak e
en s
Ġfir st
a v
ow n
ĠM on
ĠU n
as s
ic h
Ġr es
Ġt wo
is h
am p
ag e
ic es
ĠI raq
as e
ur s
ation s
ee k
b er
on e
por t
Ġ2 00
O N
c om
Ġo p
Ġ- -
ol l
u re
at es
ro w
ĠN ew
Ġag ain
ar y
Ġp er
ro p
ĠA P
Ġm ore
ec t
he n
Ġb ut
id ay
th er
es ident
ac t
Ġle ad
Ġcon t
Ġs c
ac h
Ġ 3
Ġre c
et s
ed n
Ġf in
ot e
edn esday
er v
ĠMon day
an ce
.. .
u esday
Ġt e
h n
he d
r it
ĠW ednesday
o v
Ġw in
urs day
ĠT uesday
or y
Ġ en
i z
m p
Ġt r
an k
le ct
ĠIn c
ĠTh ursday
it e
Ġcomp any
an c
is s
a w
Ġth is
Ġn ot
Ġa d
en ce
ul l
ad e
Ġd is
at ed
ĠFr iday
ation al
ar ter
ou s
ic t
v est
oun t
oo d
Ġon e
e op
ĠS h
it ed
oc k
as h
ear ch
or k
or t
Ġagain st
ic ros
; /
Ġa pp
Ġth an
es ter
O R
eop le
ur n
et w
ic an
Ġint o
Ġ us
o in
as on
g h
Ġw eek
Ġl ast
ou nd
ester day
Ġac c
o y
or m
us h
ĠA n
Ġwh o
Ġy esterday
v en
Ġab out
Ġpl ay
Ġin c
icros oft
al s
Ġa r
ĠC or
Ġc r
e b
ĠI nd
m an
h er
i b
ĠS p
Ġw ere
ro up
ĠC om
Ġthe y
Ġoff ic
Ġan n
Ġal l
l and
over n
Ġat t
w are
os s
in a
Ġbe en
Ġe ar
p l
Ġ &
ex t
ĠI s
ĠIn tern
Ġ im
Ġwor ld
it ion
oc ks
Ġ or
re at
e y
v el
ic al
it s
Ġm an
Ġ 4
y st
ir d
u ct
Ġh igh
e at
an g
t on
l l
Ġm illion
Ġh ad
Ġst r
Ġm ark
ĠA s
Ġth ree
in d
Ġk ill
ĠCor p
er al
c ed
overn ment
r al
on th
A N
ow er
Q u
Ġre t
t le
os e
Ġb l
ĠL e
oo k
he s
as ed
c ent
il it
is e
Ġ 6
ĠP ro
us s
g r
l ine
ec ted
t ing
ĠS und
ur ity
ĠA mer
Ġoffic ial
A S
ĠSund ay
Ġw ar
ĠR e
in es
Ġd ec
u rop
Ġw ould
Ġte am
o k
urop e
Ġb ack
Ġ end
Ġo il
i x
a z
at ing
ĠUn ited
o ve
ĠS at
ol og
Ġc ould
Ġs erv
Ġs l
ab le
Ġf our
el y
Ġde f
Ġann oun
Ġf l
por ts
ug h
Ġg overnment
p h
Ġb u
Ġsec ond
Ġs et
ic s
o x
Ġp ol
ĠE x
F P
Ġwh ich
Ġyear s
al es
in ess
oft ware
Ġcon s
ent s
Ġm ak
I N
on s
ĠE n
Ġs up
ĠR euters
ĠN E
Ġto day
Ġp eople
Ġm onth
Ġc o
us iness
ĠE urope
r on
w w
Ġ Ġ
in is
ow s
Ġpl an
or ld
ĠM icrosoft
Ġe lect
Ġin d
ub l
t t
ĠPr esident
Ġd es
Ġpr ices
a ir
ĠA r
ec hn
p r
Ġper cent
Ġ 5
Ġse ason
a h
it al
in s
ĠNE W
Ġd own
Ġw hen
h ip
i er
en c
Ġs ays
Ġp art
ur day
Ġqu arter
Ġn ext
Ġm e
u ch
Ġs ur
Ġt ime
l es
e f
Ġp re
yst em
ĠSat urday
Ġg o
al ly
l p
Ġn ight
at ch
em ent
ing s
ĠI t
Ġwor k
Ġre g
Ġc ount
Ġg ame
ie f
ap an
Ġl i
Ġp h
Ġth ird
Ġin vest
Ġ 7
il d
ec ut
a j
ĠC o
is ts
Ġpro d
b all
U S
ĠB l
a un
g ed
on om
Ġb ec
inis ter
OR K
ur ing
ĠY ORK
echn olog
Ġmark et
ĠB rit
und er
p t
Ġrec ord
Ġv ict
Ġc ap
Ġm ay
Ġn e
r an
Ġs oftware
or n
e al
f orm
Ġm ilit
c ess
i ed
om b
ou gh
m s
Ġc an
er r
ust ral
is ion
Ġpro f
= "
ar s
ul t
Ġhe lp
Ġ1 0
ra el
ĠF or
am es
ĠA f
ĠP l
ĠW orld
o ot
ĠO n
g er
Ġre le
Ġop en
ĠIntern et
Ġ200 4
Ġb usiness
ĠA l
el s
n ed
n er
Ġannoun ced
el d
our t
l ess
le ar
Ġ ec
u ter
ap p
Ġag re
00 0
por ted
us e
ĠJ apan
Ġde al
Ġcon f
Ġs ome
Ġr un
Ġg roup
Qu ote
Ġb ig
Ġb illion
ĠR es
Ġl arg
ur r
at h
Ġd o
ĠA ir
and s
Ġto p
ou th
ro ugh
on es
b le
Ġc all
ist an
Ġsec urity
ic a
l ed
r ac
Ġt ake
Ġm ed
ĠC on
ĠCh ina
Ġm ost
ĠC l
i o
y ear
ee p
ar es
i ous
Ġs o
Ġpr esident
ĠJ o
in u
e en
R E
Ġin s
Ġc ar
Ġt arg
Ġs ay
c es
Ġec onom
Ġt al
Ġa m
echnolog y
Ġst art
ag ue
w ard
er t
ĠA ustral
ĠP al
in ce
Ġvict ory
Ġin ter
i am
ĠS ec
Ġo ther
Ġ under
Ġn ear
Ġre m
Ġkill ed
Ġg row
ĠR uss
Ġt ri
ac ks
Ġd ay
Ġa ir
Ġcom m
g le
a im
on y
iv es
Ġofficial s
Ġs ign
ĠF l
i eld
aj or
ro und
ĠB ush
Ġre ported
Ġs ales
Ġb o
u al
ur es
c o
amp ions
v ent
S t
an ad
Ġw e
ep t
an ts
ri v
E R
etw ork
or th
ot her
ĠIs rael
Ġoff er
r ug
ĠA t
ly mp
ĠC up
ĠEurope an
in ian
l ud
Ġhe ad
IN G
Ġl aun
vel op
Ġc ut
ĠO p
i ent
Ġ "
ning s
Ġop er
al if
Ġcount ry
o ol
ĠN o
ro v
Ġpl ans
Ġtarg et
ĠM ar
it ies
Ġpro v
ĠP h
ĠCom m
l ing
f ore
Ġj ust
w ay
Ġg et
Ġ1 9
B M
op s
Ġh ome
us p
Ġbe fore
us ic
est inian
ĠO lymp
Ġd em
g an
g y
i um
Ġ 8
Ġl aw
Ġman ag
Ġbu y
ĠAmer ican
ed eral
ĠS er
enc y
ĠR ed
g est
oo gle
Ġsh ow
Ġs er
c k
ĠSt ates
Ġim p
em ber
ĠM inister
n s
s u
iss ion
ord ing
an ge
ĠA d
Ġas s
Ġt ak
ĠJo hn
Ġl ong
; ...
c er
Ġj ob
a x
Ġa ct
;... &
ĠY ork
Ġb ro
Ġn o
Ġs ystem
Ġch arg
Ġre port
D A
" &
ur y
in k
Ġnew s
ing ton
Ġt ra
Ġfor mer
ick er
he ad
A FP
Ġh ost
t o
ob ile
ian t
Ġk n
T ON
Ġt ro
Ġfin al
Ġy ou
re ak
Ġb r
ĠEn g
Ġs u
an ies
Ġb id
m ed
ec h
Ġinc lud
ther n
Ġ Z
. ,
Ġw on
Ġre l
A L
um p
A R
Ġf ive
en n
i k
Ġb ank
Ġt echnology
f o
ĠBrit ish
Ġle ast
at a
Ġm ade
es e
ra w
a use
ĠA pp
i pp
ul ar
ĠPal estinian
ubl ic
Ġh im
etw een
Ġp oin
end ing
Ġp ost
Ġ 9
Ġm ajor
Ġh er
Ġde velop
en se
Ġh it
Ġind ust
ĠPro f
Ġm ake
Ġb omb
c hed
Ġmak er
er m
Ġl at
oll ar
a i
Ġb etween
Ġe ff
Ġex ecut
ad y
Ġch ief
Ġs m
Ġlarg est
err or
Ġinc re
Ġs w
ear s
Ġthe m
Ġpro gr
/ /
is ing
i ew
Ġd uring
Ġdis c
ĠIraq i
Ġprof it
ĠW ith
: //
is ed
tt p
6 6
Ġre b
Ġ if
Ġth rough
ard s
le y
ĠW eb
Ġcomp anies
h ttp
Ġcl aim
ĠInd ia
ou se
Ġtal ks
Ġwh at
re w
Ġacc ording
f ul
Ġh op
Ġp ay
Ġex t
ot s
f er
ĠCom p
ain s
Ġt est
ĠC ol
ĠO ct
iv ers
Ġad d
g in
Ġg l
ee ks
Ġr a
Ġserv ice
E N
re m
er ed
al e
Ġs usp
ĠS c
Ġan other
Ġb at
Ġco ach
Ġlead er
ire less
Ġl oss
ww w
ĠC anad
al f
Ġo w
Ġn ow
ag es
uct ion
ĠO ff
t y
uc lear
Ġin tern
I S
Ġexp ected
r act
Ġa ut
Ġs ix
ĠS outh
ut ion
r up
a f
Ġg iant
ĠLe ague
Ġf il
ow ing
ĠU p
us ed
Ġin j
Ġexp l
Ġst ri
il ity
ĠT r
Ġme et
Ġs earch
Ġp e
ic ations
in fo
t icker
re uters
ec ts
en eral
ĠD e
Ġte le
RE F
ĠH REF
Ġle ft
er ry
if e
Ġ2 0
I n
e ed
ak istan
ĠS ept
' t
Ġatt ack
Ġp ower
Ġst ate
Ġprod uc
ash ington
Ġc ost
Ġw ay
ur ed
ĠA FP
s on
ĠOp en
ĠB e
Ġs ub
re t
ad ing
ĠW h
p os
Ġs ince
Ġd el
Ġth reat
Ġp ass
Ġg u
b ack
ĠS e
Ġst ill
Ġwh ile
Ġr iv
5 0
Ġin f
i ver
Ġm iss
Ġc ourt
Ġbe ing
Ġpro t
Ġm ov
Ġs ell
Ġm ove
Ġstr ong
Ġear ly
Ġindust ry
Ġc amp
Ġf ound
Ġpol ice
Ġa mp
igh ts
ment s
vest or
as p
m b
Ġ1 1
st r
Ġan t
b ers
u el
ĠIntern ational
ĠA g
ĠPr ime
o ff
Ġret urn
C h
Ġm usic
Ġde ad
ar m
Ġ X
ĠO il
d own
m in
ĠA ra
Ġp ut
ĠG roup
gh an
Ġan y
ĠAs s
is m
Ġsh are
Ġagre ed
Ġprogr am
rac le
Ġde b
E L
r ess
is on
Ġ '
Ġmilit ary
d ate
ri es
n e
b e
ob al
i ol
t el
Ġc ent
ĠU N
C O
p ar
Ġmonth s
at or
ĠA fter
Ġ i
ĠB ank
az a
N ew
rup t
ĠN orth
ĠG oogle
o on
en ch
Ġc ol
ĠS ox
ĠK ore
Ġelect ion
Ġe ver
f ull
y s
c hes
u k
st ocks
ĠCh ampions
ING TON
F ull
A T
qu ick
Ġl ook
at ors
id n
Ġgrow th
qu ote
in vestor
Ġd ays
= /
asp x
full quote
Full Quote
quick info
Ġr ul
ĠW ind
Ġon ly
our ce
v es
if ic
Ġ ...
Ġn uclear
Ġp ar
ib le
Ġbec ause
Ġcomp uter
Ġt error
Ġs old
is es
ĠP C
Ġe ven
oc i
Ġcl os
ros s
Ġd rug
ĠB r
ĠW ill
ĠA b
re et
Ġ1 2
AS H
Ġr est
ĠM an
ur g
ĠH e
ot h
ĠD av
Ġm in
t ain
ers on
Ġon line
ip s
ĠOlymp ic
or ed
Ġn um
p ut
ĠG re
r est
ire ct
T he
Ġm obile
s p
oot ball
Ġh old
ĠA T
ust om
urr ican
id er
i ers
ĠC ar
ĠC alif
Ġro und
p ite
Ġph one
ĠWind ows
ĠB y
O S
ĠSt ate
in t
ĠAustral ia
S oft
ud e
Ġres earch
ĠAf ghan
ĠA nd
Ġf oll
Ġle g
ĠAf r
Ġbe at
Ġinclud ing
ASH INGTON
Ġserv ices
le g
Ġf all
ĠW ASHINGTON
Ġb el
Ġre v
en ter
m y
am il
Ġst ud
ĠEng land
r ed
le t
at ive
ĠB ag
ĠP akistan
Ġsp ec
Ġth ere
c l
ĠB ut
Ġsh ould
h d
Ġplay ers
ĠF all
at er
ch ool
Ġag o
Ġlat est
ĠW ar
Ġcons um
he l
Ġj oin
Ġear nings
Ġhigh er
E S
n ers
ĠN ational
Ġsp ace
Ġli ke
M icrosoft
r es
Ġh and
ĠO r
Ġf ace
id a
Ġfir m
eople Soft
ra ft
b ased
Ġret ail
Ġpoin ts
Ġk eep
uc k
Ġrele ased
hd ad
Ġc ity
Ġk ey
Ġn ation
Ġad v
Ġm any
ĠM ich
ĠW est
ĠW ashington
Ġbig gest
Ġro se
en e
ĠS an
ĠI BM
Ġf ut
A G
Ġb ar
Ġcomp et
it ing
Ġne ed
or es
Ġf ight
Ġst ock
ide o
Ġp ublic
ost on
Ġt urn
qu arter
Ġsh ares
Ġm em
Ġm uch
Ġg ames
ĠG aza
l in
Ġt it
Ġd ata
ot t
im es
Ġac qu
i or
ĠIsrael i
Ġf ell
Ġv iol
B A
ian s
Ġf ree
ĠA ug
ĠN etwork
ĠBag hdad
Ġpe ace
d er
Ġre f
iz e
3 6
Ġc he
Ġd ou
Ġ200 5
i ke
Ġrec ent
; &
Ġc ustom
ON D
ĠRes earch
Ġtro ops
Ġst ocks
ud an
Ġv ers
ĠT e
ĠI ran
p ly
end ed
anc ial
Ġg old
1 0
ĠD ec
os ition
Ġus ers
inu x
ut s
Ġf ail
Ġv is
Ġhe ld
a ul
en g
Ġp ast
ĠS up
s o
Ġa v
Ġw om
Ġpol it
Ġs uc
ĠA ll
ĠM c
a ign
OND ON
Ġintern ational
ood s
Ġfour th
A M
ĠApp le
ĠL ONDON
ĠRuss ian
ĠNew s
Ġcont ract
ĠB o
Ġl ine
Ġcont inu
Ġrele ase
h or
ĠD ar
Ġa head
ist r
at s
Ġf ac
ig ital
iv ing
AS A
ĠB oston
U p
Ġreg ion
Ġ ord
re l
m ail
el t
Ġde v
iz ed
Ġeconom y
ro l
Ġw eeks
Ġdem and
p e
Ġc or
Ġd irect
ĠAmer ica
Ġwh ere
Ġpr ice
ĠG u
ĠĠ Ġ
ĠS un
ig er
ĠPr ess
Ġtr ade
Ġlead ers
one y
ĠO racle
Ġh om
ĠE ar
is co
Ġr ed
as es
Ġlaun ch
Ġre ports
Ġexecut ive
ri b
op p
Ġsup port
ĠB ar
Ġfor ces
Ġst and
l oy
Ġg r
Ġ Q
ob er
Ġh alf
Ġen g
Ġp oss
Ġh ow
Ġpro cess
ĠT o
Ġ1 5
ĠRuss ia
Ġb an
ak er
Ġcon cer
j ect
Ġ1 8
Ġpr ess
it ch
ĠS w
S ports
ĠAss oci
Ġpresident ial
Ġus e
ĠN ov
Ġf ederal
ĠSt reet
f ur
E O
h am
ĠL inux
end s
Ġeconom ic
Ġ Qu
s h
ĠB u
E C
ĠF in
f at
Ġbo ost
er ve
e or
Ġfor m
Ġst ra
ĠG r
Ġb et
Ġen ter
ient ists
l o
as k
Ġh ist
id ed
e es
or ida
Ġm ain
Ġe mp
ĠM ay
urrican e
Ġnum ber
Ġd ollar
el f
ĠSec urity
Ġy our
Ġinvest ig
Ġo pp
Ġriv al
Ġto ok
Ġr ight
Ġl ower
ul ts
Ġt ry
at ic
h old
l im
Ġl ow
Ġre ce
Ġtit le
y ing
Ġh ard
ĠA c
B C
Ġe v
ĠInd ian
ri z
Ġjob s
ĠFr ench
ough t
Ġm en
n ess
Ġcall ed
Ġnear ly
ĠO ut
ĠUn ion
ĠE d
ĠD is
Ġde ath
Ġinvest ors
ve il
an n
an ke
al t
Ġinter est
Ġser ies
ĠM ot
Ġus ed
Up date
pp ed
ĠPh il
Ġse ver
Ġfin d
ĠW all
ĠIt al
Ġse ven
I T
ĠP eopleSoft
ill s
Ġcl ose
Ġa im
ĠM in
Ġbu ild
Ġa round
ĠS erv
ĠC r
T O
Ġin v
ĠS udan
un ications
ke y
l ines
id es
ĠH igh
anke es
Ġ1 4
ir ed
Ġd ri
Ġatt acks
ar ing
ĠC ity
ĠD ep
ĠKore a
or ks
Ġf und
Ġp op
Ġs ent
ĠAn g
am s
ĠOn e
Ġcamp aign
a id
g ing
ad es
I C
m it
ĠIn tel
Ġl ate
ĠE lect
id d
Ġgl obal
ĠM ark
b r
Ġkill ing
a el
ĠFl orida
ĠD em
Ġwork ers
ak es
Ġn etwork
en ed
ĠSt e
ĠS ays
1 5
Ġc are
Ġd et
ĠG ame
Ġsh ort
if f
ro d
ud ge
c y
u j
ĠP ar
Ġqu est
Ġl it
p er
Ġm ight
ĠDar fur
Ġ1 6
ĠAustral ian
at t
Ġm od
ĠSept ember
Ġ1 3
av ing
Ġc a
ĠU K
Ġdes pite
ĠOct ober
er gy
Ġ3 0
un g
Ġsuc cess
t op
Ġs chool
Ġsm all
Ġpro m
in als
ab or
Ġc ase
ĠS l
Ġlead ing
ĠN ot
id ence
Ġvers ion
Ġp at
ĠO ver
Ġal so
or thern
ĠK erry
art ment
i j
ou thern
al k
Ġch amp
Ġrem ain
ĠF ederal
Ġ1 7
ĠComm ission
Ġfoll owing
ad r
Ġv ideo
Ġbro ad
g et
it es
a it
Ġh ol
Ġapp l
b y
Ġan al
Ġd om
ens ive
Ġar rest
Ġagre ement
it t
ĠPl ay
am ed
Ġb est
um an
en er
Ġg ood
ĠS y
Ġn ational
Ġt ax
anc es
ign ed
Ġr ise
ĠJapan ese
Ġb reak
Ġst ar
ĠR ep
is hed
et h
Ġtr ans
ug g
Ġs he
Ġ ed
ut e
Ġpro pos
Ġcap ital
Ġfor e
Ġcon d
orn ia
u ce
m ber
Ġst e
ess ion
ĠT V
Ġproduc ts
s c
ĠT wo
u ro
Ġe as
v ed
ĠG eor
ĠR ec
or ts
ystem s
t ime
Ġc re
Ġbe gin
Ġb oth
ro ve
ĠC ourt
ow ed
Ġf amil
Ġw he
ĠI v
ove mber
w ays
Ġf ootball
Ġcustom ers
) ,
Ġs ol
Ġc urr
ap e
l er
im b
ad s
Ġreg ul
o le
as ter
Ġg ive
ĠD es
Ġli k
Ġa way
Ġto uch
ĠP ol
oo ks
Ġ :
Ġin st
ĠD ef
O L
ĠB ra
Ġm inister
Ġdec ision
ĠG l
ĠAra fat
Ġw ell
Ġfor ec
ase ball
Ġout s
Ġw ireless
ĠY ankees
Ġst ep
Ġfut ure
er man
oc r
on t
Ġplay er
ivers ity
th ers
T h
Ġp erson
Ġh ere
ĠFr ance
Ġbat tle
Ġm ar
ian ts
Ġfin ancial
Ġpolit ical
Ġapp rov
Ġcharg es
n ey
Ġs uch
ĠS AN
Ġc rit
Ġe qu
ĠF ir
Ġres p
ĠCanad ian
Ġmeet ing
Ġ ur
Ġr ace
ĠN ovember
um b
ĠA m
Ġmanag er
r en
Ġfore ign
Ġd ue
ĠH am
Ġemp loy
u f
Ġm atch
Ġsc ored
T A
ens ion
M S
Ġchamp ion
R AN
g o
Ġd igital
Ġe mb
Ġto ld
Ġexp er
o f
ĠC EO
Ġc ell
ĠWill iam
in al
ĠE U
Ġeng ine
ĠCalif ornia
Ġbe h
ur t
P od
ĠT est
Ġl ist
Ġl ife
ag o
Ġpro ble
ĠProf it
Ġp ull
Ġres ults
m ing
Ġd iv
ines e
er ing
Ġl oc
ac y
air man
Ġre ven
our s
ex as
row s
form ation
r ic
ad io
Ġun veil
ĠBrit ain
T E
er n
Ġm or
ĠW in
Ġis su
Ġwith out
Ġch ip
pr ise
ĠMich ael
o id
Ġm er
st on
Ġstra ight
Ġsever al
hen s
Ġwhe ther
l am
e g
Ġcost s
en al
ĠSh ar
ĠProf ile
ĠT O
Ġever y
Ġs ite
ĠB ig
Ġsay ing
Ġaut hor
ĠN ASA
i ft
Ġtri al
ĠSh ares
es tern
I s
Ġo b
ĠM ore
et t
Ġelect ions
Ġ est
Ġ Quote
ent ial
os p
Ġset tle
ap s
Ġch ampions
Ġper form
m ost
an a
od y
Ġbec ome
v iew
ĠChampions hip
idn app
ĠSer ies
ĠE l
Ġf ew
f or
row n
ĠP ost
Ġ1 00
Ġlit tle
k er
Ġexp ect
etw orks
I L
al th
ret ary
erm any
er a
ĠP at
ĠM us
Ġre ach
Ġe ight
Ġmed ia
ĠP e
min istr
Ġs k
ĠCon t
Ġlaun ched
k top
Ġop t
Ġac ross
Ġtr ad
l ook
ĠAug ust
Ġpl ace
Ġweek end
Ġmak ing
ĠS ch
ĠV ir
I D
ĠM ed
ch ange
Ġpol ic
Ġstri ke
F L
Ġg reat
Ġag ency
Ġdo es
Ġbet ter
a ff
Ġ2 5
ĠComp uter
I BM
Ġro ck
Ġwin ning
ĠCh r
Ġbank rupt
Ġ 0
Ġow n
Ġl ost
Ġincre ase
ĠG eneral
ĠCanad a
S p
ar ed
av y
Ġtele v
is k
ah oo
t he
Ġrun ning
ect ion
Ġquarter ly
Ġne g
Ġwom en
ĠM a
ĠI T
ick et
ĠT exas
u es
Ġhist ory
Ġf ire
Ġanal yst
i et
Ġw ound
le x
ap er
v ers
an e
en ior
Ġcont rol
ak ers
Ġus ing
Ġpr es
A C
ĠN et
Ġre ac
iv ed
ĠSp ace
ĠS ing
Ġhe alth
I A
Ġc lear
as ts
ĠW ireless
Ġconsum er
Ġhost age
Ġv ote
\ \
Ġant i
Ġlik ely
p ected
Ġtak ing
Ġp riv
ic ans
Ġch all
Ġhop es
f ield
at her
ĠAfghan istan
oin t
Ġf ield
od e
ous ands
or ies
Ġcom e
Ġmanag ement
Ġbel ie
il es
ĠP er
Ġst at
Ġs ame
Ġf ans
Ġl ess
am ent
Ġp oll
Ġatt em
ur ance
ĠCh inese
Ġi Pod
Ġwar ned
uf act
Ġs ee
ĠSt ri
l ier
ad ium
i ence
ĠA tt
Ġ2 4
ond on
ĠIs lam
e v
on a
ĠDep artment
Ġj ump
it z
Ġbo ard
re en
ot i
Ġbar rel
Ġmem bers
gan iz
S h
t d
w e
Ġlaw su
U N
Ġs um
Ġf eat
Ġch ild
ĠWilliam s
H E
Ġsh ot
ĠM ac
Ġacc used
Ġshow ed
L E
ĠD el
Ġto ward
Ġd r
l ant
ĠH ol
Ġam ong
Ġtouch down
Ġf ar
Ġd ist
ĠJ e
et ro
Ġmor ning
ĠDav id
- -
ic ation
u le
ĠP art
Ġ ve
Ġd id
Ġl ed
ĠG ermany
if ied
ĠTh is
Ġoper ating
Ġr ates
Ġas k
O il
c il
ĠT al
ĠE ast
Ġconf ir
Ġpost ed
B l
I nd
e le
Ġsh ar
ĠB ay
Ġexpl os
Ġ2 1
Ġ ent
Ġp o
Ġf ull
ĠDem ocr
le ged
Ġd rop
Ġs eek
ak ing
Ġact ion
it ive
ĠC ong
Ġg as
Ġv ir
ĠCh ief
Ġcl ub
Ġf uel
us es
ĠH urricane
ol ution
Ġbeh ind
s et
Ġf oc
Ġpr ison
ĠUn iversity
Ġmed al
Ġam id
A n
Ġacc ess
Ġtak es
Ġmilit ants
Ġposs ible
ĠR et
por ate
qu e
in o
Ġb all
ĠJ ust
d raw
ot a
ĠW e
ve y
Ġvis it
z il
ic ago
Ġgo ing
ĠL ondon
Ġviol ence
ĠS earch
ĠN ations
Ġr ate
Ġto o
Ġwin s
ĠLe ad
Ġclaim s
y o
ĠM o
at ely
ĠB ill
g es
os ing
b and
in ed
it ions
am b
Ġbr ing
Ġm id
Ġtr ading
ĠG old
Ġapp ear
re as
Ġs em
Ġin formation
Ġw atch
ĠP aul
Ġre pl
ra ud
Ġe mer
Ġact iv
Ġc ash
re ady
Ġv ot
EN S
ĠAfr ica
ĠJ an
Ġh uman
ĠFr anc
al d
Ġbe gan
Ġl and
ĠT ur
ĠSt ocks
ass er
Ġcr ude
Ġinf l
en ing
ĠG erman
Ġph ones
ĠL ou
c ast
en a
Ġto ol
ou ston
ĠM art
ĠF RAN
Ġc ame
ON T
Ġinj ured
ĠAt hens
Ġ el
ĠC he
Ġch ang
Ġd oc
o es
our n
Ġs im
am a
ĠF ed
ĠL td
oun cil
ĠCh ar
ĠFall uj
ĠS m
ĠH ouse
Ġal most
and id
Ġsc ientists
Ġg ot
ĠH ow
Ġv o
iv il
Ġsign ed
in c
ĠS en
Ġtake over
Ġbankrupt cy
Ġpop ular
E x
B S
pt ion
Ġm ass
ĠJ u
Ġch ange
Ġdou b
ra ph
Ġprof its
Ġhelp ed
66 66
ministr ation
el es
A D
r un
Ġs enior
ow l
Ġoffer ing
Ġtelev ision
ĠW hen
ĠS ony
Ġm ess
Ġp ush
Ġre al
Ġsold iers
ĠMus lim
ĠJ ones
Ġsa f
Ġth ose
Ġre qu
ĠCh icago
our ces
or ing
Ġn ine
ĠR y
Ġal leged
Ġcont in
U R
ĠH ar
Ġconf er
Ġo ld
ĠS ales
Ġd ied
ĠSec retary
w an
w ide
Ġh ot
Ġen ergy
ap ons
Ġle vel
Ġend ed
ic ks
ĠH ouston
r ust
ur ch
ĠD eal
Ġint rod
Ġcar ri
V D
r ing
ecut ive
Ġ19 9
as ing
Ġso on
ĠS u
Ġj udge
Ġm et
Ġun it
ĠAr s
Ġprod uct
Ġs ource
ec e
Ġcare er
an ks
Ġun t
ok es
gy pt
Ġ ver
15 1
v ious
Ġs ing
Ġf act
Ġst orm
Ġear lier
Ġprod uction
Ġstud y
Ġneg oti
Ġpart y
ic ide
Ġn orthern
ĠR ob
ĠG ames
re am
Ġk idnapp
ac es
ron ics
H ENS
U P
ĠM er
ac ed
Ġcut s
Ġg ain
Ġf ur
Ġm oney
ĠAir ways
com m
ĠS P
ĠAfr ican
Ġreven ue
Ġhe art
anc hes
Ġman ufact
Ġs outhern
ĠSp ain
eal th
Ġopen ing
ĠAt lant
Ġy et
y n
Ġb ill
Ġcap t
ut ch
ĠInd ones
ĠC ub
as hed
Ġm ust
ĠN ext
and er
Ġp itch
Ġg ets
is is
ĠC ons
ĠD own
ĠOlymp ics
is c
ur d
Ġsu ff
Ġeff orts
Ġd raw
ĠAT HENS
Y O
ir on
und red
Ġle t
ĠOn line
ĠFRAN C
Ġin it
Ġal ready
Ġp le
Ġp ubl
ex pected
Ġannoun ce
osp ital
in ing
Ġw eb
pr ess
un t
ĠServ ice
Ġt er
Ġf re
et y
Ġperform ance
ĠAmer icans
Ġf ast
Ġp ot
Ġm at
Ġfor ce
Ġsh ut
Ġconcer ns
Ġdef ense
ask et
ĠR o
IS CO
S E
e ing
y m
Ġm ult
Ġsc hed
Ġcall s
res h
G oogle
Ġconfer ence
Ġf e
ĠA N
Ġg ave
Ġcount ries
Ġcor porate
ĠAssoci ation
Ġperson al
Ġre j
ĠBl ack
en ger
il le
ĠT ra
Ġg eneral
Ġacc ount
rem e
y a
Ġh ours
ĠVir gin
ĠM ars
Ġse em
ĠFRANC ISCO
ĠRe al
Ġmak es
B ush
w ood
un e
Ġforec ast
Ġn et
Ġrec over
K YO
ver t
ian ce
ok yo
ĠRes erve
Ġtry ing
ĠC H
Ġwith draw
Ġmark ets
Ġcurr ent
ol f
Ġcon v
ĠComm unications
Ġc ivil
Ġen ough
anc ed
Ġa id
ĠC le
m ir
Ġs ug
ĠA st
ĠTO KYO
Ġouts ide
ĠLou is
M art
ĠS ystems
ĠI f
un ity
ĠH old
Ġcons ider
Ġleg al
Ġexp and
Ġs n
Ġs ale
Ġto w
Ġgrow ing
idd le
r ong
Ġp ort
Ġd en
Ġqu alif
Ġcomp uters
) .
N o
ĠC ouncil
Ġwith in
Ġy ards
Ch ina
a q
Ġre ady
ri al
il y
Ġle ague
Ġst ake
I raq
ay ed
oc cer
ĠAn n
ut in
Ġst op
ĠGeor ge
t or
u ally
ĠL os
Ġun ion
ical ly
St ocks
Ġreac hed
Ġcontin ue
d s
ron t
Ġav ail
Ġaim ed
ĠN FL
Ġteam s
Ġre ve
ra p
Ġarrest ed
Ġ2 3
Ġunt il
1 4
C anad
Ġc andid
Ġair line
Ġo thers
ut es
p le
Ġb en
ĠAs ia
Ġreb els
Ġopp osition
ĠM iss
ĠK ill
ĠAra b
end er
Ġli ft
ĠIn ter
Ġdef eat
Ġloc al
le ge
ĠE nd
Ġsystem s
ĠGr and
Ġf ile
Ġc oll
Ġl o
Ġre p
ri an
Ġpre par
Ġc op
Ġwe apons
ul ation
Ġ2 2
Ġsl ow
ert ain
iam i
Ġtak en
Ġcharg ed
Ġinv ol
F or
ĠG iants
Ġanalyst s
C P
ish ing
Ġeff ort
anches ter
Ġcompet ition
Ġw rit
Ġr ally
S P
en ge
a ud
b us
in ks
Ġins urg
F ONT
or age
Ġquest ion
oun g
Ġstart ing
Ġcontinu ed
Is rael
1 2
E M
ĠThe y
Ġfail ed
Ġauthor ities
ĠChr ist
a ult
al ed
Ġsp okes
Ġbl ock
Ġsup pl
asket ball
ĠAir lines
ĠBra zil
Ġchampions hip
ĠY asser
Ġsup er
u ary
Ġf av
Ġw ants
Ġe ach
Ġar riv
Ġcent ral
ĠB usiness
iv en
ipp ed
Ġc oun
ĠT ro
Ġon ce
us ing
if fer
Ġpre vious
Ġpr act
Ġretail er
m ar
Ġoff ice
Ġdel iver
ug e
he ld
ot o
Ġdou ble
Ġe uro
ab ility
Ġfin ally
ĠAg ain
Ġp os
Ġe vent
Ġdis put
ĠB AG
Ġa ff
ĠM adr
ĠB ack
Ġsug gest
Ġspec ial
ail s
R uss
ĠD VD
Ġsp ending
b it
Ġf resh
Ġth ousands
Ġdom in
ic ip
im ate
Ġdown lo
Ġfil ed
Ġfur ther
ĠT HE
Ġinvest ment
ĠItal ian
com p
Ġra ised
Ġf ig
im s
DA D
I R
Ġreb el
ourn al
R e
n es
t al
ĠM os
Ġquarter back
H DAD
ter ed
g ers
h an
ĠS et
Ġse en
Ġexecut ives
ĠDav is
U L
ĠMadr id
k ins
Ġp ack
Ġh ands
ell ite
ĠFranc isco
ĠBAG HDAD
Ġc enter
ĠIv an
Ġs at
ĠS oftware
Ġd am
r ight
r ich
Ġg un
ond s
c ing
Ġe y
ĠN iger
3 0
ĠT it
Ġoper ations
Ġpress ure
ĠC ent
ph one
ĠM anchester
Ġfamil y
H L
ĠY ahoo
Ġro ll
Ġ200 6
s ue
Ġs ide
Ġpr ed
ord er
oll ars
Ġcr ed
Ġstr ugg
New s
m ark
Ġ2 7
Ġcr isis
Ġdes igned
Ġ5 0
Ġinj ury
Ġlook ing
ĠA ut
ĠT op
ĠM iami
Ġen v
Ġpot ential
e ad
ad d
ĠSt adium
rov ers
ĠEar th
Ġdri ve
ad ed
Ġg round
ĠE gypt
ound s
Ġm on
Ġh its
ĠIn vest
ĠPr ices
Ġtra vel
un es
Ġcom ing
ic ted
as ters
Ġsp eed
ĠGre en
1 1
Ġs ize
il leg
ĠH el
ĠFor mer
l iam
Ġ ,
ĠB owl
ĠAr my
. '
ac ing
Ġcom b
ok ia
Ġw ent
ic o
ĠT ech
Ġg ains
h ib
Ġf raud
ob e
ĠX P
liam ent
l om
ĠB ro
ĠF rom
Ġr isk
ĠFir st
p art
ur al
Ġg ener
Ġr ights
Ġtr ack
ank ed
Ġrul ing
Ġall ow
undred s
Ġd on
Ġv al
ip ment
he st
id ing
ĠD on
Ġtal k
il t
ec k
Ġgo al
Ġlarg e
Ġpolic y
F T
P al
ur ities
ĠB el
Ġdes ktop
Ġd ollars
Ġget ting
p ost
ir c
ver age
Ġch airman
m en
Ġch ips
ĠC enter
ag ed
ĠCo ast
ĠTh at
Ġins urance
Ġp il
ĠT or
Ġst ore
t ors
as hes
av es
Ġsup ply
opp ing
Ġchild ren
Ġthe n
ar z
ĠP rem
ent ion
ag ing
por ters
ĠEx change
ĠArs enal
it or
DA TE
Ġprot est
rows er
th let
ĠJ ob
Ġsp ot
ĠWh ite
C C
z e
ro ll
ell s
Ġsp am
Ġcharg e
Ġben ef
ĠA M
om an
ce pt
ab ly
uc ed
F r
m onth
elt a
Ġhol iday
Ġn ame
Ġann ual
Ġne ver
Ġpower ful
Ġf ears
Ġw ant
ic it
Ġstr ate
ĠBl air
Ġt w
re land
Ġbe g
ĠP ower
Ġwork ing
Ġproble ms
C om
Ġt reat
ĠI P
ĠP ac
ĠTh ere
ill a
ang er
Ġdisc uss
Ġinvestig ation
ele br
ic ial
op er
Ġ2 8
Ġpr ime
Ġprov ide
i ber
Ġ illeg
ar ra
Ġc anc
Ġp ick
ĠM al
Ġfight ing
ĠT om
u ff
Ġ ident
all ed
ĠAc c
it ness
ur ning
Ġfir ed
h y
m e
ill ing
ri ef
ĠV i
Ġbusiness es
k ra
ĠN ow
ul a
Ġv ol
Ġsell ing
ĠAng eles
O M
m aker
y pe
ĠC ap
Ġplay off
5 00
ce ed
os ed
Ġt imes
ĠP ark
ail ed
g ame
Ġsur vey
Ġto ur
Ġd riv
riz e
P h
Ġhe avy
ĠTr ade
Ġattem pt
I M
I P
Ġdis app
ai wan
Ġriv als
N E
ĠT ony
ĠM or
ri a
ron ic
Ġplan ned
ĠPl an
Ġhop e
ĠL aw
Ġwe ak
Ġexpect ations
Ġavail able
Ġ es
Ġar my
ĠT okyo
ĠP M
pl oy
ĠAs ian
Ġc our
Ġch ance
; ,
ĠE c
enn is
m iss
s w
ĠC ard
if th
Ġrul es
Ġs om
Ġb aseball
ĠM usic
fer ence
uk os
Ġpriv ate
ĠH ew
ct ions
an ish
Ġd ro
om ing
ĠM e
ĠW ins
Ġconsum ers
ĠTh ree
mer c
Ġdec ided
Ġkn own
Ġpoin t
ĠS he
ord s
eat tle
ĠEn ter
ĠRy der
echnolog ies
E U
r uct
ĠT our
over ed
Ġbl ast
as d
Ġn amed
Ġfl ight
ĠEx pl
Ġrun s
ĠPalestinian s
Ġdevelop ment
asd aq
Ġt erm
Ġh ospital
Ġst ores
Ġd iffer
Ġim port
ix ed
Ġord er
ĠIslam ic
ĠF ire
ĠD rug
Ġwor th
Ġimp rove
Ġmiss ing
A r
um e
aw i
in i
Ġr adio
oy s
Ġunveil ed
st it
ĠP ay
ĠP ort
ag u
ore ign
ack ers
Ġab ove
Ġapprov ed
ĠTal ks
Ġconfir med
W orld
an ium
ow ell
Ġapp eal
UP DATE
m o
ĠM il
Ġkn ow
merc ial
ĠK en
act or
Ġask ed
Ġb ody
Ġwar ning
U K
Ġpro b
e gr
Ġc row
Ġle ave
ĠEx p
vent ion
Ġregul ators
Ġto urn
Ġm ort
ct ion
O ne
Ġh ouse
op e
Ġfoc us
N Y
T S
ash mir
at ives
Ġb ird
Ġse par
ĠPar is
C ol
M C
ent ly
ĠW al
us hed
ĠSt ock
2 0
ĠI reland
ill ions
ain ed
Ġ2 6
Ġsu icide
c he
u it
Ġg ra
Ġcon n
ĠPro t
M W
ol ph
Ġr ising
Ġv iew
Ġcont rovers
ĠShar on
U n
ĠAd v
h ic
Ġpro be
Ġare a
rough t
v ing
Ġsh ows
Ġlawsu it
ĠS ur
ter m
Ġsp e
Ġsusp ected
Ġcol or
um ents
ĠV er
Ġ200 3
Ġc ard
Ġis sue
ĠAn t
Ġshare hold
Ġfir ms
in ation
el ph
Ġl ight
b eat
Ġc elebr
Ġ4 0
Ġcap tain
Ġemploy ees
ĠL aun
l ight
AG O
ĠDec ember
J apan
Ġm ag
Ġth ink
ĠR ock
Ġdeb t
ĠBu y
ganiz ation
all s
Ġacqu is
Ġp osition
ĠN BA
iv ely
if y
se ason
Ġlat er
Ġclaim ed
Ġturn ed
Ġmer ger
it ors
Ġcomp let
Ġincre ased
. "
Ġs qu
ĠW ork
Ġst ay
nes ota
A ustral
Ġoff ers
ĠTe am
ĠMot or
p an
Ġh app
ĠL a
and al
2 00
k es
ĠM ike
Ġnews p
n y
Ġs ites
Ġb ad
ock ed
Ġgroup s
Ġmov ed
Ġclos er
etro it
ĠCong ress
iron ment
e ase
ĠS eattle
ĠK ashmir
Ġser ver
Ġissu es
A pp
ĠM ex
Ġl ink
ĠR ich
Ġeff ect
Ġadd ed
Ġm ission
Ġpro p
Ġapp ro
In tel
b o
Ġg iven
ist ry
ĠMon t
Ġad ministration
Ġequ ipment
ĠS o
ir acy
ĠF oreign
ĠC an
Ġal ong
Ġro w
Ġloss es
ĠB E
Ġg iving
ĠR od
ib ility
ition al
ilit ies
Ġdev ices
Ġur ged
ĠStri p
se a
Ġspokes man
elph ia
an ted
Ġw ater
Ġro ad
Ġopen ed
Canad ian
ĠI ts
ir es
Ġout look
B rit
C BS
ip lom
Ġup gr
ĠSte ve
ĠFalluj ah
t en
ĠD ay
ĠD ata
Ġpro ject
com ing
R ed
c raft
ut ing
Ġapp ar
ĠItal y
Ġf ront
ing er
eat h
Ġrece ived
ĠMin nesota
Ġtow n
ur ies
ward s
c c
y le
il ty
Ġd est
ly wood
oc key
Ġsl ight
Ġappl ications
p s
er ic
ĠR ise
Ġcom es
Ġro le
E D
ĠU s
H P
ĠT im
ĠI r
ĠB omb
Ġl im
ir ing
Ġst ation
Ġst aff
eat her
Ġdiv ision
C A
Ġp urch
ĠJohn son
Ġcre ate
b n
ĠM S
ĠM y
Ġth ough
Ġwin ter
Ġav oid
y c
ĠP ri
ĠF ield
Ġpart ners
Ġmilit ant
at ory
Ġc ou
ĠD o
ĠInd ust
n ew
Ġimp rov
hel sea
Ġtourn ament
Ġb ased
ĠT ime
Ġun c
Ġd idn
ul ed
orn ey
ĠSing h
f ord
Ġb rowser
Ġresearch ers
ĠBo eing
ĠS il
ĠB ang
ĠD utch
lect ion
ĠF orm
ĠV al
ĠDemocr atic
om a
Ġaut om
ĠD etroit
ov a
Ġterror ism
Ġwound ed
e ver
l ish
Ġw id
id s
Ġpro s
enc es
aj af
str ong
Ġdrug s
ĠM obile
ĠF ootball
ene z
A K
ĠS ome
ĠJu ly
ĠI N
ĠW i
Ġcom mercial
ass ic
ĠGre ece
Ġjoin t
Ġsing le
ĠAtlant a
w est
Ġp ri
Ġst orage
Ġcar ry
tain ment
Ġfac es
Ġfor ward
Ġcomp l
ign s
F actor
N A
on to
ĠH ait
w a
ĠT aiwan
ell ing
ĠJan uary
Ġf ifth
Ġo vers
re ad
ill er
pl ay
ĠVirgin ia
L AN
Ġn etworks
Ġdec l
G A
Ġab le
ĠSh i
Ġser ious
Ġest im
ĠS ol
un k
Ġsign s
ĠZ eal
IC AGO
ij ing
ĠAst ros
arz ai
g age
Ġt on
ĠW oods
Ġst reak
ĠY ou
itt ee
Ġexper ts
2 5
Ġt ight
ac hes
ĠL ong
ĠCh arg
Ġplay ed
Ġche ck
v et
ĠM ilit
ell ig
ĠCH ICAGO
ig an
ĠN ear
th an
pr es
Ġdist rib
k n
ur b
Ġl osing
Ġqu ick
Ġs outh
Ġb asketball
ĠL abor
Ġse x
Ġsur v
p ro
Ġw ild
ĠD ell
ĠG o
Ġcl in
Ġme as
Ġcrit ic
Ġinit ial
ĠZeal and
ĠH en
ĠIn s
A mer
at form
ent al
ĠM ic
ĠB ob
ag er
Ġbl ood
in n
Ġc am
Ġm ach
st ron
ol ina
ĠR oy
ĠR eb
Ġmin utes
Ġwom an
ĠP re
iv al
Ġpropos ed
m as
Ġs ources
ĠC isco
ĠDis ney
ĠT w
Ġincre asing
A f
Ġl ooks
ĠN ajaf
ep end
Ġve hic
Ġal leg
Ġad vert
Ġstart ed
an el
ri ots
Ġwh ose
ĠRe port
. \
Ġ q
ed a
Ġsh oot
Ġrul ed
Ġacqu ire
ĠMark et
ĠPol ice
Ġpros ecut
s ter
Ġa ud
Ġm om
ad elphia
ol es
ĠDe v
Ġoff ensive
Ġprot ect
ĠTor onto
Ġplay ing
AL L
Ġrev iew
Ġstat ement
A l
Ġt y
Ġb oss
ack ed
ist ic
Ġhold ing
i ot
Ġfor ced
ĠB rown
Ġr en
ĠD eb
Ġch o
Ġdeb ate
ĠTe le
Ġev idence
Ġrock et
or row
Ġn orth
Ġbuild ing
U T
v ille
Ġs it
Ġin ning
ĠR og
ĠD iv
ew art
Ġar t
u z
Ġa verage
ĠT echnology
Ġis land
ond uct
Ġoffic er
ang ers
ĠComp any
Ġaccount ing
F i
ĠP it
Ġgu ard
ĠSup er
Ġhom es
Ġf ood
ĠH ealth
ĠKore an
Ġf ri
ad a
d og
f ox
Ġde ep
ĠY ukos
ass y
eng th
Ġsuccess ful
F A
Ġo ur
ĠU kra
Ġle aving
ud y
Ġdoes n
a eda
Ġs an
ar i
Ġw estern
ĠF our
Ġrem ains
Ġsusp ended
Ġreturn ed
f l
ir l
ĠSp r
Ġthreat ened
Ġkidnapp ed
ic on
Ġh uge
Ġh undreds
ĠC ount
ig hest
Ġbec ame
Ġoffer ed
Ġdeb ut
Ġt em
ĠBe ijing
App le
O racle
T unes
am ing
Ġre form
med i
; .
Ġb us
ĠB er
Ġset t
Ġseek ing
Ġacquis ition
Ġw itness
ĠA L
Ġn on
ud d
Ġcr ash
ĠSp anish
ĠBl ue
Ġrej ected
n et
Ġh aving
ag les
Ġear th
Ġfil m
Ġdro pped
I E
ĠM asters
Ġmed ical
W h
g ent
h io
ipp ing
ĠIndones ia
ĠM ass
Ġre ason
Ġbe ating
Ġ2 9
Ġcl eric
; -
I ran
c ome
ĠT reas
Ġre ad
ul f
Ġv end
Ġwin ner
Ġdev ice
a ugh
b ed
s elf
ĠT y
ĠH all
ĠNext el
ĠEc onom
A s
i ents
k o
ĠA lex
ent ure
Ġre pres
Ġg en
Ġag ree
ĠI D
Ġprov ider
ĠPhil adelphia
D ollar
at i
Ġc ode
Ġpar liament
B ay
r anked
id ers
ur der
ĠRec ord
C S
i ar
s erv
ent ed
ans as
Ġinter im
Ġchall enge
Ġsaf ety
Ġsc andal
Ġconf l
Ġhost ages
ĠWar ner
ĠPart y
Ġcarri er
Ġcrow d
u x
Ġs occer
Ġf ear
Ġret ire
Ġtro ubl
Ġdirect or
Ġsuppl ies
Ġdisput e
ellig ence
. &
Ġf ly
ĠM ajor
ac ec
th ing
ĠL OS
pp ing
Ġra ise
ĠOff ice
Ġver y
Ġcour se
N N
a ut
as tern
ri el
ĠV o
Ġro b
og raph
ger y
ĠCar olina
olph ins
S c
h ouse
Ġexp ects
ĠSer ver
Ġto tal
Ġst age
Ġres ult
Ġdec line
Ġcontinu es
ĠAN G
Ġcoun ter
M ac
l arg
s ource
Ġ \
Ġm illions
Ġth ought
th ough
Ġfut ures
lin ed
ĠPhil ipp
m a
Ġp ain
ĠC ut
ĠB eat
ĠO S
Ġcont ent
Ġconf idence
Ġintern et
acec raft
y ware
id el
Ġsa ve
Ġsh ip
Ġpl ant
Ġcomp le
EL ES
ĠPC s
Ġexplos ion
r is
Ġ z
Ġd iplom
ou d
ur er
Ġl ic
ĠO ak
ĠSt ar
end o
ree k
Ġdo z
ĠCard inals
c hen
i est
Ġdef icit
ĠANG ELES
, \
Ġs end
Ġw anted
ĠF und
ĠF ound
ĠG row
Ġb rought
ter y
Ġen c
AT O
Ġsum mer
ĠHow ard
Ġb it
ĠH is
Ġpl ed
Ġrecent ly
S un
il ing
ĠC helsea
op ing
ĠIn t
Ġ3 5
Ġgo es
ific ant
ail and
ĠG en
ĠO w
Ġcl imb
Ġend ing
p oint
Ġa stron
Ġo cc
Ġr ain
Ġpropos al
Ġchang es
is l
ĠD ie
ver d
Ġk ept
i od
Ġa ward
ad o
ĠD en
Ġplan e
Ġi Tunes
Ġclos ed
ĠB en
Ġst ates
Ġch ain
rac y
on str
ident s
ĠCon ference
ĠMex ico
l ad
r ay
Ġw alk
Ġp ace
Ġb order
ĠS ant
ĠD elta
Ġcons ecutive
ĠSup reme
ĠServ ices
Ġilleg al
k y
ĠA riz
Ġn ations
Ġar ch
Ġdes ign
Ġproble m
aud i
Ġslight ly
, "
c el
Ġ .
on ed
or ity
ar n
al o
Ġw a
ĠI m
Ġserv ers
Ġelect ronics
Ġappl ication
b ur
Ġ er
ĠA riel
ĠB R
ĠH ost
ĠEx t
ĠCent ral
Ġs ending
Ġc iting
ĠJ ames
ap ore
Ġde p
iz on
Ġair craft
Ġlaw y
ĠAgain st
ĠPri x
enez uel
N L
m akers
n oon
ĠT iger
est ic
um m
Ġgu ilty
Ġissu ed
Ġshar ply
ĠChrist mas
1 00
Ġs il
Ġf un
Ġm y
ĠT rop
ud get
Ġco al
Ġcomm ission
ĠJe ff
Ġ und
ow ers
ĠSt ewart
Ġfin ance
eb an
Ġsched uled
ĠS ans
ĠRed s
Ġlong er
Ġsub s
ĠGl obal
O O
ĠS ir
ig ning
ĠF ord
ĠG et
enc ies
Ġcomm it
Ġbel ow
Ġsettle ment
itz er
ĠS af
ĠP utin
un ch
Ġy oung
ĠAg ency
Ġconcer n
ar a
ĠT imes
ĠH ome
Ġk ick
ans ion
Ġim medi
Ġstri ker
Ġes c
Ġnewsp aper
1 3
P EC
h ing
in ary
os es
ĠCar l
ĠMed ia
ĠSen ate
G H
Ġ urg
ar ial
ic onduct
Ġm oon
Ġr ange
ra g
Ġterror ist
Ġneed s
h igh
Ġs ets
ĠN or
ĠE ver
ĠSt ores
Ġbuy ing
ĠElect ion
ĠFed er
Ġb as
ou l
ĠU r
ĠK n
ĠY ear
Ġhim self
Ġpo or
in et
ĠM em
ĠW ay
ĠD od
Ġdes c
for ce
Ġimport ant
1 6
he ast
en ced
Ġc ertain
ĠN HL
Ġpl atform
Ġro om
ox x
=" #
=" -
ĠSer if
hel vet
ĠMich igan
ĠHol lywood
6666 66
verd ana
helvet ica
ĠM icros
ĠSec urities
ĠHigh er
Ġfeat ures
Ġsan ctions
Ġc over
Ġh ighest
om in
Ġth rew
Ġl abor
Ġbl ow
Ġmem ory
Ind ia
ĠN ets
Ġcr im
ĠCl assic
ĠAb u
ĠRep ublic
ĠDes pite
Ġcop y
Ġton ight
Ġup date
ĠMot ors
Re port
ĠNiger ia
8 0
i ation
ĠR am
ag s
Ġcon c
Ġv ac
Ġfl u
Ġhost ile
ĠTur key
re es
id ge
ear ing
ĠTh ailand
ubl ican
ĠWh ile
Ġbroad band
E urope
k l
Ġr ad
Ġsec tor
Ġwin d
Ġinfl ation
Ġtool s
C o
Ġs ports
Ġthe se
ĠA v
Ġsa w
ik ely
eth ing
Ġvo ters
Ġrequ est
Ġcred it
1 7
ĠJ av
ail y
M ar
c on
ĠC ase
Ġr an
Ġafter noon
Ġj ournal
ush arra
ang u
ĠPe ace
ĠSpr int
usharra f
Ġc irc
Ġw el
Ġin vent
ĠC amp
ĠO K
OR ON
Ġ6 0
Ġdevelop ed
Ġca used
sc ri
Ġcandid ate
Ġto ugh
ĠA re
ĠM P
Ġsw eep
Ġneed ed
ĠJe an
Ġnegoti ations
Ġreve aled
Ġfig ures
j ects
Ġw at
ind s
ĠRe g
Ġpil ots
Ġto ll
Ġse es
Ġpubl ished
Ġt ech
Ġa p
an i
Ġb ox
ur ers
ĠO hio
Ġsp acecraft
ov ers
land s
Ġ4 00
Ġexpl od
int endo
ORON TO
f ect
r ad
Ġs eeks
or ic
st and
Ġ3 1
Ġstr uck
Ġmov es
ing ular
ĠT ORONTO
om ber
Ġg ives
ĠD ou
Ġde ploy
um er
Ġfl aw
Ġsign ificant
Ġfund s
B ER
Ġl ab
inis ters
Ġur anium
Ġm urder
le tt
Ġv s
Ġfav or
ĠOak land
r ation
Ġc reat
ĠB ry
ĠU t
Ġplan ning
Ġtra ining
Ġow ners
ades h
ĠIr ish
u ation
Ġto get
Ġexp ress
Ġper iod
Ġbu ilt
Ġtoget her
m ers
or er
Ġw eather
ĠE r
ĠRep ublican
add am
y ard
Ġt ie
ke i
ik kei
Ġred uce
ĠDef ense
ĠHait i
k i
Ġc al
ĠS E
Ġh urt
ĠT ake
Ġits elf
ĠFin ancial
go ing
ĠR adio
ĠL oss
gr ess
Ġdec ades
Ġinsurg ents
A B
Ġin nings
ĠN okia
Ġr ule
ĠL ast
ce p
Ġwor st
ff ic
Ġbomb ing
Ġfil es
Ġban ks
mit ted
Ġcontrovers ial
M P
al v
ĠG ets
ĠH it
ĠH us
ist ed
Ġgo als
Ġinter view
Ġ8 0
Ġeas y
ĠVi oxx
Ġconfl ict
c ow
Ġs ong
Ġm is
ĠI S
Ġpull ed
ĠPat riots
ĠForm ula
F ed
Ġb ook
ĠC y
Ġl ay
ĠR el
ĠO f
all as
Ġlaun ches
Ġmiss ile
Ġmov ie
Ġfre ed
Ġsharehold ers
h ere
r ig
ĠB aseball
Ġres ol
Ġprogram s
isc al
Ġpract ice
ĠJob s
Ġsubs id
ĠL ab
Ġint egr
Ġhelp ing
Ġoper ator
ĠGeor g
Ġappear ed
Ġenv ironment
ĠIP O
iconduct or
Ġt echn
Ġsh opping
Ġcl ass
Ġsec ure
OR E
ĠEng ine
NY SE
larg est
r ick
in y
Ġw ide
ĠS usp
ote b
vel and
ĠEn ron
Ġrel ations
ann ie
Ġintrod uced
Ġm ember
Ġ( \$
im ir
ĠK ing
ĠK ong
Ġbro ker
ĠSw ed
Ġquest ions
Ġresp ons
Russ ia
Ġstrate gy
ĠS outhern
ĠD ame
if ts
Ġdis miss
E n
p ool
r or
ic ult
ĠG overnment
Ġex c
ĠPro d
Ġtouchdown s
Ġt ack
ĠT arg
ĠU nd
ific ation
ĠAriz ona
) :
C l
m art
ĠR a
Ġsp ent
mer ce
iz ing
anc ing
Ġprot ection
C r
er y
ĠC ost
ĠN orthern
oun ts
Ġwor ries
Ġins p
lad imir
S ony
re ed
ĠS T
Ġl ock
ĠK ills
ĠCh airman
Ġmak ers
Ġprogr ess
urrican es
Ġsat ellite
I t
ĠF ree
ound ed
Ġcall ing
Ġpar ts
u ke
Ġth ings
ĠP an
ĠB onds
ill ed
Ġshow ing
iver pool
Ġrecover y
ĠAM D
ĠM iddle
Ġpro sp
Ġhe l
Ġenter prise
Ġdiffer ent
l adesh
Ġa uction
ĠSt ep
Ġph ot
Ġass ault
Ġpass es
ĠMart in
Ġdam age
Ġs port
ag ement
ĠIn to
Ġ200 0
Ġdec ade
Ġsur gery
ĠPl ans
ĠDe ad
ĠAb out
Ġf ix
ĠT enn
ĠP AR
ĠD rop
ul ner
ri ed
em ents
ĠJ ets
ĠTh om
Ġj ail
Ġsur f
Ġsur pr
bur gh
P akistan
R A
Ġc le
ens ions
Ġwar ns
az on
ran ch
Ġord ered
ĠCle veland
Ġdownlo ad
Ġprob ably
b acks
i os
ĠA ust
ĠD allas
ĠL ow
Ġwh y
ĠK y
ĠK ansas
ĠV ladimir
vent h
ĠSc ott
Ġow ner
Ġpass ed
ĠPakistan i
Ġmom ent
ĠDiv ision
ĠN AS
em b
Ġis n
ib r
Ġtarg ets
ĠFl a
Ġoper ation
Ġproduc er
Ġter ms
Ġarriv ed
ĠRog er
Ġp air
Ġl ose
Ġg ather
ut ed
ĠJ ason
uc ks
Ġind epend
z illa
Ġp it
por ation
Ġprocess or
Ġremain ed
V ER
w eek
Ġc atch
ra in
ĠO s
ph oon
Ġsecond s
ĠFor ce
Ġbro ke
Ġext ended
Ġdom estic
Ġapprov al
Ġrepres ent
N ASA
ĠN ort
igh b
act ion
Ġpre p
Ġleg isl
Ġbegin ning
Ġbelie ve
ĠUkra ine
w ar
ĠS addam
ol a
qu es
Ġcr icket
C H
P l
ĠK arzai
ĠFire fox
ĠMS N
Ġren ew
N asdaq
P ro
it rust
ĠM OS
ĠR on
Ġy en
Ġsur prise
Ġpre vent
Ġext ra
ĠIv ory
Ġshar p
ĠMicros ystems
al ity
Ġp ict
ĠI mp
Ġ4 9
ĠEn ergy
Ġmass ive
ĠCub s
Ġsom ething
Ġcomplet e
P r
f ire
ĠT echnologies
ĠV ict
Ġar g
ĠOff icial
ater ial
Ġadvert ising
Ġw rong
is ions
ack ard
ens pan
Ġ6 4
Ġtra in
Ġref ug
ams ung
ĠHam as
Ġsh r
W A
b reak
n ight
on ents
Ġc rew
ĠA ct
ĠM ets
ĠP owell
ut ions
im ent
Ġbl ack
Ġimp act
Ġrel ief
Ġhop ing
Ġbat t
Ġrepl ace
ĠMos cow
W eb
o or
ĠC uts
Ġr ank
oc racy
ĠK h
Ġbl ue
Ġind ic
Ġbro k
ĠSte el
Ġearth qu
a u
he im
ou ra
ab inet
ĠAr gent
Ġdel ay
ĠSe es
b ox
ra ig
ĠH its
ĠE agles
ĠO kl
ĠSt art
Ġar m
Ġco ast
acks on
Ġkn ee
comp uter
Ġdisapp oin
in h
er em
ĠS audi
ĠM illion
os hib
ĠJ ose
Ġres c
ĠCl ub
ĠEar nings
ĠDis c
Ġtroubl ed
C L
C on
Ġ ide
Ġf iscal
ĠB alt
ts burgh
Ġfl at
Ġ5 00
Ġdisc overed
ession al
J A
ar ters
ig ers
ĠJ im
Ġar ms
Ġdead line
Ġlawsu its
Ġvir us
oshib a
g ency
ĠS am
el ing
ot ion
Ġco ol
Ġtri p
Ġcomm on
ĠCol in
Ġpos itive
T wo
f inals
Ġc ause
ĠH ot
ĠL eban
Ġpro mp
Ġout put
Ġam b
Ġsub scri
Ġstand ard
rich ment
ĠC am
Ġ200 2
ĠEx press
ĠAng els
O n
b es
Ġa thlet
ar ian
Ġc as
Ġb oy
Ġd one
ĠF ood
ĠH at
Ġworld wide
ath on
Ġtri ed
Ġfac ing
Ġstrugg ling
C AR
P ackard
Ġd anger
el ves
ĠB id
ĠR ises
aw ks
Ġfall ing
ĠQu arter
Ġexplod ed
e als
at ure
Ġc ross
ĠV enezuel
Ġint elligence
ĠRe le
Ġmarket ing
Ġsu it
ĠSc ientists
ĠDe velop
Ġwound ing
Ġmort gage
Amer ican
ĠGrow th
M an
R O
h t
y l
ĠW estern
ĠSt and
od ies
ĠPost s
ĠMa e
Ġve ter
ĠJust ice
ar on
Ġapp ears
ating s
ĠEx pos
Ġdem ands
ĠEng lish
ĠPer cent
Ġt ies
Ġs ession
Ġp ers
le w
ĠC A
ir ac
ĠL ank
Ġcol lege
ĠBo ard
ĠMer ck
2 4
d ick
or ado
Ġp aid
Ġp ension
Ġb ase
ĠD olphins
igh th
ust ed
ĠFr ank
Ġsur ge
Ġcomm un
Ġmov ing
ĠDes ktop
Ġbenef its
ĠExpl orer
T r
om ic
ĠB at
Ġl ot
Ġfin ish
Ġad op
ĠEx ecutive
ah oma
Ġadd ress
AC E
Ġannounce ment
ĠM ary
ec ial
Ġg reen
Ġv enture
Ġsp ark
iz ation
Ġim age
ĠCr ude
Ġdet ails
Ġwatch dog
Ġsuff ered
Ġappro ach
er g
ĠT ri
ĠP en
ĠG ar
ĠL ower
em an
oc ial
ĠIraq is
Ġsc ore
Ġhigh s
ĠCon n
Ġdevelop ing
Ġdead ly
imb ab
P eopleSoft
a o
ri ve
DA Y
ĠWh at
M c
um s
uc ial
ĠNot re
imbab we
D on
M o
W e
h alf
i as
ar is
Ġm iles
im ore
th a
ĠJ une
ist ance
Ġres ign
Ġ200 1
Ġall owed
ef ore
Ġne ighb
ert y
Ġfil ing
Ġsold ier
ĠHew lett
Ġcrim inal
ĠUt ah
u ed
in th
Ġh un
ĠG ulf
ĠSc ot
sp eed
ĠSm ith
B I
I ON
ro ke
Ġr ap
ĠH as
Ġun l
Ġ3 4
aw n
Ġpitch er
ĠBang ladesh
ĠJav a
A ir
E T
ed d
re al
ĠS n
ĠA G
ĠP ent
Ġde ter
ĠCor poration
ĠCo ach
ms elves
CO W
o ke
Ġc able
re g
ĠS em
ĠM usharraf
Ġst em
ĠL iverpool
ĠO ld
ach er
Ġbomb s
Ġtele phone
Ġrest ruct
Ġalleg ations
ĠPit tsburgh
Ġpl ot
ens es
Ġsc r
Ġor ig
Ġfl ights
Ġtw ice
Austral ia
ĠPAR IS
ĠMOS COW
at ab
Ġl ack
ess ee
Ġse ed
av ens
uct ed
Ġvict ims
Ġopt im
ĠDie go
P C
Ġthe mselves
el ine
Ġg irl
Ġnum bers
Ġgr and
Ġmess age
N BA
e ated
n ot
Ġto m
Ġm inisters
aw a
ĠAir bus
Ġins ide
Ġord ers
Ġlevel s
comm unications
G M
ĠN etworks
ĠE mb
Ġv ulner
Ġbec oming
Ġpurch ase
ĠBalt imore
n i
w ashington
Ġh y
Ġh ous
ĠM ount
ĠB ern
ĠH om
Ġcr ack
Ġra ising
Ġhist oric
ĠOut look
Ġattem p
ĠPrem ier
bo ard
ĠTreas ury
washington post
ar ies
Ġn ames
Ġcomm unity
Ġthreat s
Ġspec ies
Ġpoll s
we ight
ĠMars h
ĠTrop hy
f in
ĠP rize
Ġan sw
ĠSt ill
ĠTh reat
Ġse venth
Ġreported ly
ĠMal ays
f e
il ed
ĠI ll
am i
ir st
ĠN ob
Ġoff ense
Ġtrad ers
Ġqualif ying
Ġval ue
7 5
he lp
Ġb udget
ec urity
ĠR angers
ĠV ol
Ġare as
ĠSat urn
Ġass ets
Ġs oft
ĠC it
ot ing
Ġex change
Ġsix th
Ġweb s
ĠRich ard
Ġestim ates
b s
c ri
i us
k eep
n am
an o
ĠM ag
Ġch ar
Ġ7 0
ĠCol orado
ĠAssoci ates
ĠSing apore
ĠMic ro
r ate
Ġs ure
Ġm ut
et ary
ĠL ook
ith er
Ġup set
Ġsc ient
Ġdis play
Ġadv anced
Ġdri ver
ĠIndust ry
ĠDod gers
3 5
a ur
Ġd raft
ĠH ong
Ġsh ift
ĠCh all
Ġprov ince
Ġtest s
ĠTr ans
Ġpat ent
new s
ĠGeorg ia
' re
. -
g ener
ar row
Ġp anel
Ġb rief
Ġg rew
ĠW eek
ĠH P
ĠPr ice
ĠAb b
istr ict
Ġinst ead
Ġcrit ical
ĠKill ed
ĠBry ant
c at
at ural
Ġp urs
ct ic
Ġhe ating
ick ets
Ġexp ansion
Ġres olution
Ġkill s
Ġme an
Ġbeg ins
L O
e as
Ġt ennis
ter oid
ĠC hen
ĠJ ackson
Ġhe ar
ĠSt ation
ull s
Ġpre m
rupt ion
iff icult
ĠHold ings
ĠOkl ahoma
A t
ter ing
ĠM ost
Ġst ory
ĠD ow
ĠG reek
ĠE y
ĠJ ac
Ġac cept
Ġsec ret
Ġreg ular
Ġair port
Ġlook ed
Ġm ount
ot ype
ĠF ight
op h
ict ion
Ġopen er
Ġsum mit
Ġfast est
Ġupgr ade
oteb ook
ĠUnd er
z a
er o
Ġb ur
ic ed
Ġl ands
Ġsp l
urn s
ĠFall s
Ġfamil iar
Ġvot ing
Ġseem s
Ġcomple ted
Y ahoo
Ġm iddle
ĠC elt
ĠR em
ĠL ad
ul es
and a
Ġv ar
Ġqu it
Ġrel ated
ĠCol lege
ĠMin istry
e er
Ġc ars
om en
ol is
ĠL at
Ġex ports
ĠMar ch
Ġcurr ency
Ġvir t
ĠShi ite
C ar
D ow
t r
ed ro
Ġf oot
Ġn inth
Ġl ines
Ġg olf
im in
ĠG ood
um ent
iv ity
ord an
og n
az e
Ġdef ensive
ran ge
ĠPal m
ĠRob ert
eck ham
L C
ar ry
ĠM att
Ġth ing
Ġr all
qu ir
and ed
ain ing
Ġun expected
Ġstr ength
Ġant itrust
Ġcol lect
ĠAssoci ated
ĠSudan ese
Ġpack age
ĠTenn essee
N et
er ate
Ġre ally
Ġcr ucial
ĠCl aim
Ġindust rial
Ġstud ents
Ġforec asts
ĠFalluj a
Ġhot el
i ro
t e
Ġof ten
ĠS een
ĠS EC
ĠC ould
port unity
az ine
Ġrecord s
ĠComm ittee
Ġhand held
IT Y
A ra
ed ia
ic op
ĠB ell
ĠW ales
ak s
ell ed
Ġup d
Ġdem onstr
Ġtreat ment
l ong
Ġl ive
ĠR oman
Ġst un
ĠJ ew
Ġcl imate
Ġchall eng
Ġc y
Ġh urricane
ĠB et
ĠL ines
ub le
Ġfin ished
iz er
overn or
Ġor ganiz
ĠNov ell
Ġent ire
Ġsem if
Ġconsider ing
Brit ish
Ġtom orrow
I J
v an
on se
Ġh on
Ġh or
ĠK eep
Ġinc ome
Ġend s
Ġhead ed
Ġjoin ed
Ġmat ter
Ġprevious ly
b ury
i que
us ion
ain e
ĠV ote
Ġall ows
Ġtest ing
Ġform at
Ġdr am
Ġprepar ed
P S
T ER
p re
in ers
ac ity
ist ing
iv id
se in
Ġar med
app ing
ĠMc L
Ġjump ed
en gt
Ġw ays
ĠC al
Ġcl ash
Ġen richment
Ġmiss ed
ĠLead er
Ġmanufact uring
Pal estinian
Ġpartners hip
Ġdecl ared
e in
g en
Ġb ought
ĠS ay
ĠC ingular
ĠB all
Ġre fer
Ġr ing
Ġv ia
Ġlead s
ib an
Ġinclud e
AL EM
ĠPac ific
ĠNAS CAR
he ll
ine z
ĠV ik
Ġac cep
Ġres ume
Ġres idents
ous ly
Ġind ex
ĠAl an
Ġcre ated
Ġvot ed
Ġsched ule
Israel i
stit ution
Ġf aster
as c
Ġh alt
Ġst ars
Ġj ud
ant age
Ġwar ming
Ġretail ers
ev in
Ġden ied
Ġquick ly
h ard
k ish
Ġd ate
ĠC raig
ol ic
og s
Ġte en
str uction
Ġopt ions
ĠBro ad
T ech
Ġm aterial
Ġd ifficult
ĠC ell
ĠP GA
um ble
ab ilities
Ġcustom er
ĠHam id
Ġbring ing
l an
Ġ ill
ĠSt orm
Ġnot hing
Ġthan ks
pr int
Ġclos ing
ĠMan ning
Ġhom er
icip ated
Ġey es
beat en
T icker
h orn
Ġc ents
Ġc ards
ĠW rap
ass ini
Ġelect ronic
ĠAnd y
ĠOr ganization
Ġcond itions
field er
Ġdoc uments
Ġwitness es
Ġcopy right
o om
ĠN ep
oc ol
ĠAr t
be an
Ġmod el
Ġeas tern
ĠDon ald
m l
m ates
ig roup
ew ay
Ġrec all
Ġdis ease
Ġtra ffic
Ġbank ing
Ġext end
Ġadd ing
Ġdel ayed
help s
F l
l ers
ĠS im
od af
Ġdisc l
AM D
ĠBra ves
ĠIndones ian
Iraq i
ATO DAY
S outh
Ġf igh
ĠM ov
ĠB ur
ĠJ ER
Ġde als
ry s
Ġsp r
av al
ush ing
Ġdec ide
ĠBar ry
ĠElect ronics
ĠChr is
Ġchang ed
ĠChar les
Ġdoub t
Ġgener ation
ĠPhilipp ines
odaf one
ĠS ystem
Ġm ixed
Ġe ighth
ap olis
Ġor gan
Ġset ting
ef ul
US ALEM
ĠAnn an
atab ase
ĠJER USALEM
1 9
G E
ed ed
ĠO PEC
Ġcomp uting
Ġj et
Ġsc ience
Ġstr engt
Ġcut ting
ĠCol omb
ht ml
gener ation
IJ ING
4 0
4 00
ĠS chool
ent y
ĠP ack
ĠD am
ain t
Ġwas n
Ġsm art
Ġreturn s
Ġinfl u
Ġprepar ing
Ġlink ed
ĠHus sein
h i
Ġs on
Ġf r
Ġb odies
ĠT akes
ĠN Y
Ġ3 00
Ġstep s
Ġemer gency
cast le
Ġinvol ved
ĠBE IJING
ĠFeder er
ĠLank a
L ook
al i
ĠIndian a
b l
ro ad
ĠT error
Ġth r
ĠG M
por ter
Ġ3 2
ĠMo zilla
Ġcandid ates
ĠHel p
Ġpri ority
ĠLad en
S adr
l ins
u an
ĠH ug
ew is
amp a
Ġsc ores
ugh t
ĠZ imbabwe
Ġadv ance
ĠQ aeda
ĠAtt ack
Ġdoc tors
Ġey e
Ġcanc er
Ġappar ently
il ar
ĠT igers
ad or
ĠG un
ĠK evin
Ġup coming
ON G
iz es
Ġcr ashed
Ġmov ies
ĠSw iss
Ġopt ion
Ġbelie ves
ĠTit an
O U
il s
Ġr are
err ill
ĠAll awi
Ġboost ed
Ġsol id
Ġbelie ved
ym n
re c
ĠS ix
ĠP oll
ĠR ally
ub urn
ib ly
Ġrece iver
Ġcoal ition
R M
o e
r d
on ing
Ġs ought
Ġb and
ĠT er
ĠF annie
ĠD S
ĠE v
ĠV ideo
ĠFr ances
ĠAnt i
quir y
5 5
Ġc at
ers ey
ap se
Ġ3 3
ang ing
Ġactiv ities
Ġbeg un
Ġcarry ing
rys ler
Ġs ens
ĠL ife
Ġal ways
av en
ier ce
Ġinclud es
ĠSy ria
Ġalleged ly
T I
ĠS ri
ĠC all
ĠB illion
Ġan im
Ġhe aring
ĠLe g
Ġmanag ers
ĠAd ministration
Ġput s
Ġcent ury
ĠAtt orney
ĠCub a
Ġinit i
a heim
h man
Ġb ott
ĠD igital
ĠG ra
ĠG reat
ace ut
rac ts
Ġtri b
Ġaim s
y an
Ġ ut
Ġp un
ĠA z
ĠP rop
ĠN intendo
ĠN ikkei
Ġst re
ĠO T
ĠJ on
Ġab d
Ġpart ner
Ġsur ged
arm aceut
Ġest ab
Ġretire ment
ĠCarl os
Ġw ife
st ant
Ġg one
ĠD eath
um n
Ġsh ock
ĠCh ip
St ar
Ġterror ists
iers hip
Ġsmall er
Ġactiv ity
Ġconn ect
ĠRoy al
Ġfri end
Ġhel icop
S ch
T V
g ic
i ary
ĠS k
ĠC ITY
ĠP edro
ir th
Ġg oods
ĠL ib
Ġal though
Ġun ions
Ġfl ood
Ġconf ident
ĠCon f
Ġspec ulation
Ġenter ed
Ġbroad cast
Ġindepend ent
4 9
6 5
A Z
G r
Ġt urning
us ive
Ġad mitted
Ġmajor ity
ĠPlay er
ĠBig ley
) --
m illion
in ter
Ġw ait
ĠM ess
ĠF OR
uc ing
Ġun s
ĠJo e
Ġbuy s
Ġput ting
Russ ian
ĠHew itt
ĠLaun ch
2 2
Ġt ext
Ġb ooks
ĠW atch
ĠN uclear
ub ble
ĠSat ellite
Ġdevelop er
ĠCong o
ĠMart inez
ĠCons umer
Ġshoot ing
ĠTarg et
m ission
Ġ ens
in ning
Ġc it
Ġp ushed
Ġh al
Ġv ice
ĠCh ile
Ġsp end
Ġsp ect
ĠV is
ish er
ber t
row ing
Ġregion al
att led
Ġste el
ĠInvest ors
N okia
Ġa wa
as ion
Ġm ys
ĠI I
ĠR un
os en
ist ons
Ġag e
Ġsc reen
Ġdev ast
ĠChar l
ĠMe et
Ġimprov ed
fin ance
A d
U M
c ape
r ist
Ġb ol
Ġl iving
Ġe le
Ġe ase
ĠW il
Ġag ent
Ġres igned
Ġ4 5
ty pe
EL S
Ġstar ts
ĠTal iban
Ġwithdraw al
oper ation
Ġmach ines
ĠScot land
Ġmut ual
r ast
Ġc ities
Ġp atch
ter ror
ch ie
Ġro ok
Ġdef ending
Ġpart ies
Ġprom ised
Ġremain ing
ĠAm azon
ĠHam m
Ġprison ers
h it
he astern
es is
Ġm ist
ĠB ears
us hes
Ġst adium
Ġbe head
ĠK ey
Ġover time
ĠSh ow
Ġoffic ers
pl ace
Ġrem ote
raw l
Ġ9 0
Ġresp onse
Ġemb assy
ĠRod dick
Ġveter an
A U
e lection
in it
ĠT ampa
ĠAn aheim
ĠPro be
Ġfl ash
Ġstrong er
oth ing
inc inn
Ġimmedi ately
incinn ati
G l
H I
S ing
w ait
ro om
Ġn arrow
Ġv ill
ip le
ĠSp eed
Ġind ivid
Ġtro uble
ys is
Ġstand ards
Ġed ge
Ġsim ilar
Ġdest ro
6 0
C E
er c
on ent
ĠH op
ĠE uro
ri er
ĠJ r
ĠJ ournal
ĠJ ordan
ick y
ass i
ĠNew castle
ĠSh a
Ġdec lined
Ġass ist
ĠGre enspan
ĠAnd re
Ġhand ed
ĠNews Factor
Ġfind ing
Ġvot es
j an
u ild
Ġh um
Ġl og
us ter
ĠR and
Ġab use
ĠBo ost
Ġhard ware
ĠLaun ches
Ġc ast
ĠH eat
ĠL iber
arg o
Ġatt end
Ġadv antage
Ġvo ice
Ġmat ches
News Factor
ĠPrem iership
ĠVer izon
Ġwid ely
c a
h ran
ĠA OL
ĠR aid
od ak
Ġatt ention
ĠRe v
ph ere
ĠPh one
Ġstri kes
Ġinvestig ating
Ġshut tle
ĠTw ins
Ġincreasing ly
Ġsit uation
K erry
O P
Ġs ides
Ġf ine
Ġd ual
ĠM id
ĠIn f
ab ul
Ġover night
Ġ3 8
Ġpre lim
ĠBl u
ott en
Ġenter tainment
Ġter rit
ĠPac ers
Ġdesc rib
Ġbrok en
cri ption
ar q
Ġw ord
Ġp ur
ĠB as
ĠB ron
Ġre comm
ĠL ewis
ĠTh an
Ġun beaten
ĠRe ports
ann el
Ġfind s
ĠRet ail
ĠAtlant ic
ĠMont real
Ġrenew ed
C ent
T C
p ed
Ġh ole
ĠH er
ap ova
ĠSt an
Ġle aves
ĠK AB
Ġk ind
Ġ4 1
Ġplan et
Ġdo ing
ivers ary
min ent
Ġacqu ired
Ġunveil s
Ġmag azine
pro f
Ġvehic le
ĠReds kins
V o
y ond
Ġt ent
in ch
Ġw ave
ir us
Ġbe yond
Ġqu iet
Ġres erv
oin ted
ĠCol umb
opp ed
Ġsem i
Ġsepar ate
Ġspe ech
ĠKAB UL
P A
P M
c ks
z y
ĠT oshiba
Ġv owed
Ġsp ir
ĠY our
Ġover t
Ġdis aster
US S
Ġpar ent
iet nam
ĠStri ke
Ġdisappoin ting
ĠJew ish
0 5
W ill
c ons
Ġb in
Ġin n
Ġm ine
ou ts
st ate
ĠM r
ĠM ove
ĠB efore
ĠN L
est s
ian a
Ġab and
Ġsc oring
ĠSec ond
Ġrem ov
Ġadd s
Ġtele communications
Ġdeath s
bus ter
arq awi
. ;
f eld
ĠM et
ĠH ard
ĠJ ack
ant ec
Ġdef ence
IN E
Ġme ans
In tern
Ġfeat ure
Ġsuper computer
ĠWay ne
c ient
it er
Ġc orn
Ġp rize
ĠC incinnati
ĠM akes
ĠB rian
ĠR ad
ĠD r
Ġop ens
Ġim ages
Ġhead ing
Ġlaw s
Ġbr and
Ġfail ure
Ġcontinu ing
Ġdirect ors
Ġmain tain
ĠCap ital
Ġcle an
Ġearthqu ake
a ver
f ort
i ece
j html
Ġf ranch
Ġm ic
Ġm ot
ĠH ockey
art a
Ġcont rib
Ġapp eals
ĠFor ec
Ġsu ed
Ġbomb ings
Ġleaders hip
Ġtrad itional
Sp ace
ĠRo oney
ĠMor gan
Ġwebs ite
2 1
C isco
K ore
s ym
Ġw ords
ĠM ach
ĠI M
ig ious
ĠW alk
ĠF ive
ĠR avens
Ġr ather
ow b
ĠD ollar
ĠG ary
oc a
ĠTh ird
Ġwor m
se eded
ang ed
Ġass ass
Ġpost p
opp ers
ij ay
ĠPlay ers
of i
Ġgra b
Ġrall ied
D ell
Ġt iny
es h
Ġb arg
ĠS A
ĠS i
ĠT ax
st ar
ĠM ake
Ġe Bay
Ġr ac
ord on
Ġcr imes
Ġ7 00
oot h
Quote Look
Ġsusp ects
Ġinf otype
Ġkeep ing
Ġnation wide
For mer
Ġq cat
Ġq type
finance QuoteLook
financeQuoteLook up
L S
S er
S hip
v a
in os
Ġb acks
ic ious
ro b
ĠS ub
ĠS eeks
Ġd er
Ġd ie
ĠA id
ĠP T
Ġl ives
Ġpl ays
Ġpl aced
ĠCh art
ab y
Ġall iance
app ed
ump ed
Ġincre ases
Ġdisc over
Ġcompet e
ĠTe hran
Ġcapt ured
ĠAut o
ĠBel g
Ġtack le
ĠArgent ina
P ol
a ug
f izer
ar ily
Ġf an
ic ts
Ġd ies
id ered
Ġre ject
ĠR iver
Ġr ises
ĠL arry
Ġle ar
Ġsl am
Ġkn ock
ump s
Ġreb ounds
Ġclaim ing
Ġsuc ceed
ĠGu ard
Ġinst ant
stit ute
Un ited
Ġcam era
Ġdoz ens
cel ona
ĠNob el
ymn ast
Ġcit iz
O ff
S udan
Ġt en
Ġf air
Ġh am
ĠM el
Ġn atural
ĠW or
ill y
ĠL ee
ap ers
ber g
row ns
Ġall owing
Ġatt orney
Ġofficial ly
Ġsup porters
Ġext ension
ĠOff er
Ġrook ie
B UR
c os
c ine
w ell
Ġw est
Ġb ell
est one
Ġab s
ang es
Ġline up
Ġlaunch ing
Ġsent enced
Ġca ught
Ġpred ict
Com p
ĠAcc ording
Ġvehic les
ĠEconom ic
T LE
m ond
y ad
Ġs un
ĠS ports
ĠW alt
ĠE qu
ag on
ain ts
ĠIn j
ĠIs land
Ġcap acity
Ġattack ed
Ġeven ing
ĠIndian apolis
ĠTro ops
ĠAut hor
7 0
B ra
M ore
Ġt echnologies
he t
an es
ur ton
ĠB reak
Ġst ret
ly ing
Ġro ut
Ġper fect
ib urton
Ġkeep s
Ġed ged
Ġsol ution
Ġel imin
ĠEgypt ian
ĠMil an
Ġrestruct uring
k le
Ġs y
Ġs al
Ġp ip
ig ger
Ġre in
Ġcom eb
Ġover all
uc ation
Ġdef eated
Ġdem ocracy
Ġhold s
erve z
Ġprosecut ors
ĠJac ques
A A
F irst
Ġb i
Ġd atabase
ĠH ass
Ġab ility
ĠAn other
Ġprov iders
Ġreport ing
Ġaut o
Ġfe el
ĠEnter tainment
CA A
Ġcou p
Ġt ell
ar ks
Ġw ake
ĠS Y
ĠP ervez
Ġe mail
ĠG h
Ġcom ments
Ġwh ite
Ġk ing
Ġun less
ven ue
Ġcho ice
ĠDen ver
Ġexpress ed
Ġsong s
Ġrap id
Ġw ond
Ġp ra
ĠS um
ĠS amsung
ĠP eople
ad em
Ġg iants
ĠH ear
Ġch ances
Ġag encies
ie ge
ĠAl i
Ġass oci
Ġviol ent
eng ers
Ġtoward s
Ġsepar at
Ġap olog
D S
I G
h ood
Ġa chie
ic als
ol m
ow led
ĠD un
ak ed
Ġv an
end ers
oun ce
Ġse ized
Ġen j
Ġra ises
Ġthreat ening
Ġob serv
Ġcomeb ack
1 8
A OL
h aps
ic ing
ĠS ING
ĠA thlet
Ġon to
ĠB eckham
Ġe ased
th rit
ĠG ov
our cing
ĠUn veil
Ġback ed
Ġtele com
ĠMan agement
Ġadv is
Ġpo ised
Ġtem por
Ġvend or
Ġz one
ĠThom as
Ġprelim inary
0 4
Ġp en
Ġb omber
Ġd rove
ec ess
ĠG ates
ĠH O
ĠSt ore
Ġwas h
Ġim m
Ġcomm and
su le
fo World
ĠTur kish
roll ed
Ship One
h ad
m et
Ġ ult
re ens
Ġm al
ĠP et
ĠH ave
AP ORE
Ġbl asts
ĠLe ads
gr am
pr il
els on
St udy
ĠCol ts
pos ed
ĠSe ven
ĠQ ue
Ġprocess ors
Ġev ents
Ġlift ed
Ġdriv es
udd en
Ġvend ors
Ġwel com
ĠChall enge
ĠClaim s
o ch
Ġf ees
Ġc erem
al ing
Ġp iracy
Ġd ream
ĠA uburn
ac hed
ĠN e
ĠV ietnam
Ġtr uck
ĠHe ad
ĠTo day
raph ics
Ġinvol ving
ĠSteel ers
ĠSING APORE
thrit is
F C
S ource
a e
s ters
Ġt ur
Ġs idel
Ġfor t
ĠH oll
os h
um ph
ĠV ijay
ĠUn it
Ġannoun ces
Ġfail ing
ĠSch illing
ĠLead ers
Ġemer ged
Ġcritic ism
2 9
it ude
Ġb ul
ĠC arter
Ġwor ks
ĠUS A
Ġgovernment s
Ġref used
Ġcond em
Ġsaf e
Ġport able
ĠVenezuel a
Ġunl ikely
B omb
b orn
Ġ ice
el and
ĠP helps
Ġl ap
ĠD irect
un ich
Ġal tern
Ġwin ds
eb r
Ġpart ic
Ġdel ays
ĠSe ason
Ġstre ets
E A
a ida
a uts
er as
ĠB us
ag ers
Ġsh ipping
Ġpl un
ug gle
Ġnew ly
Ġj ury
Ġplan es
Ġsur round
ĠFor ces
ĠMc C
ĠFin al
Ġinst all
Ġdoub led
Ġprop erty
Ġenc oura
Ġwa iting
Ġdram atic
S T
p ower
et ts
am ous
ĠR ap
ra v
ĠL ions
Ġoff set
Ġal ive
Ġres um
Ġann iversary
ĠPl c
Ġpass enger
Ġdead l
Ġturn s
Ġpeace keep
sh aring
ĠBu ild
ĠAc qu
Ġbreak ing
Ġmanufact urer
Cent ral
E G
h aul
Ġs elf
ĠS ign
ĠA B
ĠA pril
Ġg ri
ĠG olf
ĠG ordon
em en
Ġhe at
ĠK ar
ĠK obe
Ġcons idered
Ġrev ers
Ġban ned
Bl air
Ġcoll apse
Ġpick ed
ĠReb els
Ġocc up
Ġer up
angu age
Ġtechn ical
4 7
B ar
g u
s ide
Ġc urb
Ġr is
qu arters
ĠJ agu
ab les
Ġtr igger
oy a
oy al
Ġ6 5
Ġannoun cing
ital ia
Ġso aring
Ġra id
ino is
ĠChe chen
NE Y
owb oys
s un
Ġc old
us etts
Ġst reet
ĠY oung
ach usetts
oy ota
Ġfall s
kn own
umm ary
Ġcreat ing
ĠLeban on
a ire
t ada
Ġin quiry
ĠS ource
Ġh urricanes
le ment
Ġon going
ĠP le
ĠP ass
ĠO pt
ĠJ ays
ĠJ ersey
Ġqu ite
ĠK im
Ġus er
ĠĠ ĠĠ
Ġseason s
Ġhead s
ese ason
Ġpost season
Ġpat ients
Ġtrad ed
Ġmess ages
Ġpush ing
ĠEnter prise
Ġlawy ers
ĠJean ne
Ġide a
c ont
p ass
is ter
ir ates
ĠR ay
im p
ĠSt ud
ĠK ofi
Ġsec urities
ect or
Ġcont racts
Ġtri es
Ġconv icted
Ġfranch ise
Ġe ither
ĠD EL
ĠJ am
ap ed
Ġcl ashes
Ġun f
Ġli qu
ĠMar tha
Ġschool s
Ġcivil ians
Ġimprov ing
Ġunc ertain
ĠBob by
Ġsurpr ising
B ig
W al
b ar
b urg
d ollar
Ġd ial
ĠC D
ĠM ah
ĠP H
ĠV I
ĠCom merce
Ġinj uring
rel ated
Ġposs ibly
Ġstat us
Ġfav our
Ġmeas ures
ĠMass achusetts
Ġdismiss ed
P H
Ġp act
ĠC urt
ĠM iller
ĠI d
ĠP ackers
ĠW ild
Ġcon vention
Ġcont est
lect ed
atch er
enn an
Ġpost s
Ġdevelop ers
arm ing
ĠNiger ian
Ġwash ington
" \
A m
D NEY
E FA
S A
b el
c ost
e z
w h
Ġs igning
ar et
Ġf it
Ġb irth
ĠS old
ĠD aily
ĠL o
Ġsh ots
Ġex am
Ġun its
ĠAn ton
ib bean
Ġsl ide
Ġcons erv
air s
ĠBl ock
Ġins isted
ĠIran ian
Ġexplos ives
ĠSet tle
ĠMilit ants
Ġrad ical
Ġrefug ee
Ġwashington post
H ow
ĠS qu
Ġm os
ĠT re
Ġl ows
ĠN O
ak arta
ĠK enn
ĠK abul
ack ing
out heast
ĠSh are
her lands
ĠSp am
Ġwork er
Ġcomm unications
Ġwe ight
ivers al
sh ot
Ġrece ive
Ġcond ition
Ġpract ices
Ġfig ure
Ġmach ine
Ara fat
ĠSY DNEY
G old
G eneral
L e
S EC
p en
Ġ era
Ġs ound
ĠH D
ĠL im
Ġat omic
ĠSt udy
az er
ĠPl us
Ġsw itch
ĠOff ers
MS FT
ĠDel hi
eles c
Ġmult i
ĠBrazil ian
Ġdriv ing
Ġlawy er
N eal
Q aida
is ation
Ġh ockey
ĠP ast
ĠP istons
end um
Ġim press
ĠWar ns
ĠBar celona
Ġgreat er
ĠDemocr ats
Ġgain ed
ĠArab ia
Ġsqu ad
Ġlegisl ation
Ġresc ue
S e
S m
u ros
Ġb ench
ĠT el
ĠT urn
ĠW omen
Ġr acing
ch er
Ġrec ogn
Ġstr uggle
Ġinf ring
ruct ure
ĠAdv anced
stand ing
emb ly
erg us
ĠMcL ennan
f inal
it ect
ĠS BC
le e
ol ine
em ploy
Ġop portunity
ash ion
Ġdri ven
Ġhol y
Sh aron
ĠCount y
I V
b an
m ate
Ġc ur
ĠS eek
ĠW on
ĠG e
ĠTh anks
Ġsp read
Ġ4 8
Ġrele ases
Ġev ac
ĠPe ter
Ġvir uses
Ph il
ĠVo IP
USS ELS
Ġ )
es ters
Ġd i
Ġn otebook
Ġl ibr
Ġhe ard
Ġatt ract
ER S
Ġprov ided
Ġpass engers
ĠWork ers
Austral ian
ĠField s
Ġdoz en
Ġconc lud
ĠConn ect
3 00
Ġs hel
re tt
ay er
ĠC os
ĠP ad
ĠB BC
ĠN eed
ĠF err
ĠG as
ĠE ven
Ġpro ve
art ner
AN D
iam ond
AM A
Ġprom ises
Ġsol ar
Ġevery thing
Ġsem iconductor
Ġplayoff s
ĠUs ers
ĠMalays ia
T T
b or
m its
he m
Ġcon struction
Ġsp ring
Ġen h
Ġor ganization
Ġ7 6
Ġthrough out
ĠCar ibbean
Ġfell ow
ĠSun ni
Ġtax es
Ġfri ends
ĠStand ard
Ġspl it
C I
m ens
Ġb al
ĠA head
ĠC assini
Ġst opped
Ġde leg
ave z
ov o
ures mo
ĠMar iners
Ġadd itional
Ġsell s
arm ony
iol ence
Ġbet a
ĠFir m
Ġconn ection
Ġbit ter
ĠKy oto
Ġbott om
ergus on
4 5
9 0
B o
V er
in ters
re ll
ĠT rial
Ġg ear
ĠN A
ĠD an
ĠH y
ĠSt rong
Ġag gress
ip e
ash ing
Ġar en
Ġbeat s
Ġbreak s
Ġste ady
Ġpres ent
Ġmess aging
Ġcomb at
Fr ench
Ġclimb ed
ĠBR USSELS
Ġresol ve
Ġenvironment al
B O
B erry
Ġb re
Ġh our
ot es
Ġr at
ĠO v
ce an
Ġrec r
Ġcomm ittee
Ġrel ie
Ġjoin ing
Ġident ity
LAN D
Ġpled ged
Ġsemif inals
Ġcorn er
A ll
o en
u a
Ġf rust
al yst
ĠS ears
Ġm aster
ĠL yn
em ens
Ġph ys
Ġair lines
Ġmanag ed
ĠApp l
Ġinj uries
Ġfound er
aza a
ĠOr d
ĠNet herlands
Ġpred icted
Ġsubscri bers
Ġfigh ters
ĠLib ya
4 6
J udge
g round
l ike
Ġt able
Ġt ied
Ġs udden
ar r
ic ated
om er
el ed
ĠB OS
Ġde put
end a
ĠK mart
if ying
Ġsp yware
ub s
oss ible
ĠAr rest
Ġsusp ension
red it
Ġpolit ic
ĠQu est
Ġmod els
ĠSch w
Co Mo
Ġresign ation
rast ructure
ĠHO US
C ard
D elta
Z arqawi
z z
Ġc ease
ĠS alv
le ans
ĠJ er
Ġde part
ens ing
Ġreg ard
Ġmilit ia
ink ing
Ġany thing
Ġsk y
Ġclin ch
Ġjournal ists
Ġprep are
Ġdanger ous
awa ited
Ġenj oy
C D
I AN
S up
q tada
Ġs teroid
ĠS EO
om es
om ers
am o
ĠH and
oun ces
Ġal ert
ant as
ock et
OR TS
Ġback ing
Ġfl ags
Ġbig ger
ath an
St ation
ĠPh oto
Ġkn ew
Ġext rem
AT ION
ene g
Ġfac ed
ĠEd wards
enal ty
Ġcarri ed
Ġple aded
Ġseem ed
Ġbenef it
Ġappar ent
ĠDev ices
Ġdeter min
Ġhous ing
2 8
G u
P ac
l or
o il
w ich
st ra
ĠSp itzer
ĠAir port
ĠBr ad
ĠEd ition
Ġste pped
Ġmar athon
Ġresp ond
ĠRy an
Ġintrod uce
ĠLong horn
Ġstrengt hen
ĠAnton io
Q aeda
Ġf ather
Ġn ort
ol id
ĠF oods
ow a
Ġan kle
ĠThe ir
ĠJ akarta
Ġv ide
Ġsh aring
Ġacc ident
Ġacc ounts
ĠCl in
Ġlaw makers
Ġshow down
Ġser ve
Ġmin ute
ĠOr leans
Ġclear ed
Ġexpand ing
Ġdomin ated
Ġpotential ly
ĠMary land
Ġcerem ony
r ated
Ġp ion
ĠS ite
ĠS adr
ĠP il
ĠR oll
ia b
Ġhigh ly
Ġmed als
Ġclos ely
Ġopp onents
iff e
Th is
mo han
Af ghan
Ġwat ched
ĠRa ises
ĠOfficial s
Ġdestro y
ĠHass an
S U
T ime
c an
k ing
Ġs ust
Ġp aper
Ġm ind
ap ter
ans on
uc es
urn ed
Ġinvest or
ĠSer b
ĠAd d
ĠAd rian
Ġstrong hold
uts che
ĠBu ff
ĠRock ets
ĠAust ria
ĠColumb ia
p iracy
w ork
ĠP ublic
ut y
ĠF ox
Ġas ide
ĠPr ince
Ġear n
Ġsl ipped
Ġdef end
ĠEn v
Ġant icipated
cl iffe
Ġvis iting
ugg ish
Ġreach ing
amb od
Ġland mark
Ġqualif ier
ĠGen esis
ĠOs ama
Don ald
ĠOT TA
Intern et
F I
Ġ ir
ar ound
Ġf arm
Ġc ore
Ġp orn
ĠM ad
ĠM ut
ĠM our
Ġcomp ens
Ġoff ices
Ġar thritis
Ġcan not
Ġhead quarters
Ġcor ruption
Ġred uced
Ġhol es
ĠEl s
Ġsuff ering
Ġrej ects
ĠCharg es
ĠLab our
Ġpict ure
ĠEmb assy
ĠHOUS TON
B rief
F ID
S BC
d en
u ing
or al
Ġf at
ĠC oll
ĠC anc
ĠM arg
ĠF ar
ĠR w
oc al
Ġag ents
Ġwor ry
ĠSh ort
az z
Ġprod uce
ars h
Ġlarg ely
ĠFl at
Ġ19 8
ump ing
Ġhit ting
Ġche m
Ġpres ence
Ġrequ ire
Ġsuggest s
ĠTit ans
ĠBat tle
ĠOTTA WA
5 4
C ons
C ourt
N FL
T op
ar ant
it tle
Ġb rawl
Ġm us
il i
le vel
om et
ac co
ĠB ol
Ġg ran
Ġpro jects
ĠSt aff
ĠV odafone
land o
Ġcould n
Ġ5 5
ah awks
Ġpart icip
ĠFor est
Ġbid s
amil ton
Ġsuccess or
IL LE
Col a
ĠMotor ola
Ġassist ant
E d
d ef
t ops
Ġc art
ĠC alls
ĠO b
ĠO pp
ul ate
ĠK odak
uc cess
ond a
ĠAr ctic
Ġtri umph
ĠPh ill
ĠApp rov
Ġpay ing
ES T
ĠMot ion
Ġmod est
Ġeas ier
Ġcrit ics
ĠHel ens
Ġcam eras
Ġpit ched
ĠGar c
ĠCit igroup
aze era
c ott
g iving
Ġd ig
st one
ir t
ĠW enger
ĠF ind
ĠR ules
ĠU EFA
ĠThe ft
um acher
Ġexp ert
iz ards
Ġad s
gr ade
urr ed
Ġam ount
Ġsusp ect
Ġexpl o
Ġproduc ed
Ġany one
Ġcond uct
Ġmanufact urers
Ġwrit es
ĠMos ul
ĠMy an
Ġurg es
Ġrank ing
ĠForec ast
S w
T H
f all
l ife
r one
Ġ ign
Ġh ur
le et
Ġd oping
id end
th rough
ĠL ine
Ġsa v
oun ced
ine a
ĠAn th
ĠOp er
Ġimp lement
BA D
Ġca using
Ġkidnapp ers
Ġmeas ure
ĠHost age
Ġinvent ories
Ġrespons ible
Ġchalleng es
Ġdescrib ed
sun ami
ĠBOS TON
at eway
ay ing
ĠF ut
ĠD C
ĠE SP
Ġpro ceed
ach ing
Ġim pl
Ġor bit
Ġprov iding
ik es
ĠSe a
Ġjoin s
uck y
Ġposs ibility
ĠSy m
ĠMuslim s
Ġsuccessful ly
Kore a
ĠMyan mar
. \\
D P
I tal
d ney
n el
s s
t ech
w oman
Ġc ases
al em
ĠS ocial
ĠT ool
ĠM any
Ġl inks
Ġg ro
ĠF al
ĠF ace
ĠD et
Ġse at
ick en
ĠPro v
olog ists
US T
Ġagre es
ĠCl ose
Ġcent re
ĠEd ge
Ġnetwork ing
Th ree
ĠShar apova
ĠTit le
Ġsubsid iary
ĠNep al
Ġhelicop ter
S u
e ter
h ill
at ively
Ġo usted
Ġb ull
Ġm arg
Ġh ike
Ġd aily
ĠB an
ĠB rowns
ĠW ood
ĠJ oin
ab led
ect ive
Ġear ned
Ġworld s
min ute
Ġexper im
Ġob tain
Ġent ry
Ġinsurg ent
Ġsuggest ed
Ġilleg ally
miss ions
yc os
ĠSol aris
Ġansw er
Ġvirt ual
Ġcitiz ens
ĠDEL HI
ĠESP N
N ov
l n
m on
Ġ /
re ck
is ner
ac ement
Ġn orm
Ġg am
Ġg raphics
ĠF oll
ĠJ P
um ber
Ġsec retary
ens on
act ive
aw ay
ĠInd ians
Ġbl amed
Ġhelp s
Ġwe aker
ĠMar lins
rem lin
ĠX box
ĠOr lando
ĠPlay Station
Ġexpand ed
Ġdeliver ed
Ġtalk ing
Fr ance
Ġcou ple
Ġreform s
G B
H igh
M on
O C
l on
it ches
Ġf ate
as er
ĠC at
ĠC ross
ĠC owboys
ac he
Ġe m
Ġe uros
ĠW ants
ĠD ick
ast e
Ġover haul
Ġint ens
amp le
Ġ200 8
Ġdis rupt
Ġ4 2
Ġstr ing
Ġwar nings
Ġrecord ing
ĠSc ience
Ġinf rastructure
ĠAb d
Ġvers ions
Ġdemand ing
eg as
etro le
ĠChar ley
Ġaff ect
Ġovers eas
ums feld
ĠUnveil s
N etworks
V ILLE
b urn
n ie
z ech
Ġt re
ed er
Ġp owers
Ġb reat
Ġin aug
Ġm il
ol ves
Ġe p
ĠG ains
Ġ1 50
ĠSt ra
Ġsp in
Ġj ailed
Ġ200 7
Ġ6 6
Ġ6 00
Ġplan ts
Ġround up
ĠAnd rew
Ġestim ated
Ġfear ed
Ġfavor ite
ĠSE AT
Ġlock out
inh o
ĠIll inois
employ ment
9 9
L IN
b est
c le
t ion
ĠB asketball
Ġl ove
ĠF av
ĠE ff
ri f
ĠY ears
ff ord
Ġsc reens
Ġ3 6
Ġret urning
Ġcap sule
ĠCon vention
Ġtarget ing
ĠAg assi
Ġprogram me
ĠElect ric
ĠSy dney
ĠAm id
Ġevery one
ĠPart ners
Ġemer ging
Ġpos itions
Ġdownlo ads
Ġes p
Ġhapp y
ĠEconom y
Ġfly ing
Europe an
Cr ude
ecial ly
ĠVI EN
E l
M T
S S
Ġt im
ĠS tern
ĠW ater
ĠG AZ
ord in
Ġper haps
Ġfin ed
Ġdis pl
ort ium
Ġlarg er
Ġreb ound
Ġtit les
Ġlow est
ĠSm art
ĠSP ORTS
ĠTra vel
ĠEnd s
Ġroll ed
Ġsil ver
ĠSwed en
ymnast ics
etrole um
B usiness
I ns
L D
d em
h our
n ya
r ace
w estern
Ġh ired
ĠT ay
st roke
st ein
ĠH ere
ĠH uman
ch nya
ast ic
ip se
ick ing
Ġrem ember
Ġmeet ings
ĠAT LAN
ĠGu inea
ĠChampionship s
Ġcoll abor
Ġdep artment
ĠNort el
Ġens ure
5 3
V al
Y ankees
b illion
o ard
o hn
v ic
Ġ et
Ġc yc
al y
ĠC BC
ol en
ĠE ri
Ġcomp ared
Ġcomp lex
ĠV s
Ġun pre
od d
ĠSh an
AN G
Ġmonth ly
ĠIt anium
ĠComp anies
Ġfoll ow
Ġfoll owed
ĠBlack Berry
Ġheavy weight
ĠProt ocol
ĠSil icon
ograph y
Ġcommission er
aval iers
Ġterrit ory
P R
i en
n a
ĠS ince
Ġd ark
ĠF erguson
Ġst ands
ĠE st
ĠIn stitute
Ġac kn
ced ented
Ġelect ric
ĠFl ight
Ġoffer ings
Ġbro ther
Ġinst it
umb led
Ġspam mers
Wh at
Ġdiplom ats
Ġastron auts
Ġrefer endum
Ġpartic ular
ĠGAZ A
4 8
A H
B ank
c ard
g a
m aking
Ġs iege
Ġp ole
Ġb ron
Ġh unt
ĠT en
ĠT oyota
ĠM ult
ĠB uc
ĠR af
ĠD ani
ĠD istrict
Ġas ks
Ġex ec
Ġex act
Ġpr eseason
Ġwill ing
ab e
Ġse a
ark et
oin ts
ĠRe f
ĠMar ia
Ġshould er
Ġform ally
Ġinv asion
Ġouts ourcing
Ġdistrib ution
ĠTele com
Ġaccep ted
Ġdeput y
ĠAnth ony
d om
e et
n o
s ized
v ard
Ġc abinet
Ġp an
ĠP fizer
ĠB A
ĠW ell
ĠF ile
ĠR est
Ġr ich
ver al
Ġpr im
Ġwor ried
Ġmark ed
Ġdes ert
Ġprof essional
ĠAl though
Ġdo or
Ġmost ly
urg ents
ĠSup ply
IT ED
Ġsent iment
Ġdriv ers
Ġarch itect
Ġmos que
elesc ope
Ġackn owled
' ve
4 3
O lymp
it as
ĠS ell
ter ies
ĠT E
ĠM eg
Ġr ushed
ĠL and
ĠO NL
ab il
Ġcl ient
port ation
ĠAd obe
ink ed
off s
ĠMan mohan
Ġcompet itive
Ġcompet itors
ask a
ĠCr icket
Ġwatch ing
Ġcapt ure
Ġsuppl ier
Ġstrugg led
Pal m
Brit ain
ĠHen man
ĠNets cape
Ġsurf ace
ĠHoll inger
F ire
R es
f ol
ĠC rit
ĠF il
ĠR ace
ĠH ills
ri end
Ġv ast
ust s
ĠCh ase
ĠCh avez
ob b
ĠUn iversal
Ġapp rove
Ġapp ointed
Ġacc using
Ġelect ed
Ġi Mac
Ġpar ents
Ġpolit ics
ĠPar liament
Ġengine ers
ĠHar ry
Ġgun men
ĠUr ges
Ġvac cine
Ġrelations hip
Ġprosp ects
Ġshr ine
van ia
L AMA
b ig
c ore
d ro
f oot
w orth
y ch
z en
Ġt rop
in oc
it arian
ĠM oon
ĠP ict
im ming
ra h
em ale
ĠV a
Ġad j
Ġcr u
ĠBl ast
ĠComm un
ĠSer ena
ipp i
ĠEar ly
Ġexper ience
ĠPer u
Ind ones
ĠWe igh
ĠHar r
Ġfact ory
ĠTra fford
Canad a
mark et
Ġbus y
ĠFound ation
ĠCamp aign
ĠSem iconductor
Ġupd ates
Ġbron ze
LAMA BAD
C an
T ur
c ut
g s
k a
Ġ 39
Ġt ells
Ġa part
on ics
re ct
ĠS ummary
ĠM en
el ess
ĠB es
ot ed
ĠN CAA
ĠD NA
ĠH u
ĠE mp
ĠO l
ak en
ug by
ĠTh ousands
Ġfl o
ins on
ĠCon cer
Ġprov ides
Ġinclud ed
ĠElect ronic
Ġtrans fer
ĠCont rol
Ġcurrent ly
Ġsharehold er
Ġaward ed
ĠIS LAMABAD
ĠStep hen
ĠColomb ia
ĠATLAN TA
ĠONL INE
' ll
2 3
8 5
E ar
s l
Ġt ap
he w
at ically
Ġf elt
Ġc ult
ĠC oca
ĠL inks
ĠE astern
em s
um ers
ĠV egas
ep s
ach i
Ġfin ancing
ĠAs k
Ġbl ame
ĠPro gram
ok ing
ph is
Ġoper ators
Ġtarget ed
ipp er
Ġpay ments
ĠOff ic
ĠAtt acks
Ġlim it
Ġreason s
Ġattemp ts
Ġindivid ual
Bra zil
ĠMarg aret
ĠSEAT TLE
A g
M obile
S ec
Ġf amous
ĠP ct
ve ment
ĠG ard
ĠL en
ĠL uc
ĠL akers
Ġan g
os n
ul ly
Ġle ts
Ġco operation
Ġpre c
Ġph oto
ĠZ one
Ġintern al
Ġsub ject
ĠSup port
alt ies
Ġpat ents
ĠJust in
Ġmult iple
Ġeffect ive
ĠDo CoMo
ĠVict ory
ĠRele ase
Ġunpre cedented
A V
W eek
Ġp et
Ġto ug
Ġb rain
is hes
ic ut
ĠS ep
Ġh ackers
ĠM atch
ĠD iamond
Ġhas n
Ġ3 7
Ġus es
Ġacc el
Ġsup posed
Ġsent ence
ĠDem and
ĠChe chnya
Ġconv oy
Ġrob ot
ĠPent ium
C NN
M B
P utin
in ition
Ġp ounds
ĠC RM
ĠM at
ad er
ĠB ec
ut h
ĠN ic
ĠH alf
Ġbe ef
Ġhe av
if ies
Ġwho le
ĠRe ady
Ġserv ing
Ġ7 8
Ġ8 00
Ġass ess
Ġkn ows
ator ial
Ġfree ze
Ġhom ered
ĠPol it
ĠPe ters
Ġmembers hip
Ġland ing
ĠCle mens
Ġcop ies
Ġcontrovers y
ĠNear ly
ux ury
Ġship ments
Ġseparat ist
ĠSEO UL
Ġp enalty
Ġb lew
ĠS ets
ĠP rom
ig a
ĠN avy
un ar
ĠE ll
ul ated
OR LD
gh ai
Ġ4 3
Ġbo om
Ġbr ight
ĠMc N
ern and
aps ter
Ġpriv ately
Ġfoc used
Ġ199 0
urd och
Ġstrate gic
ĠHall iburton
Sc ientists
Ġimmedi ate
ĠAbb ey
ĠCelt ic
armaceut ical
ĠVIEN NA
a head
f ace
Ġf ish
Ġm eth
ĠT ops
ĠB ER
ĠB ills
ĠN ick
Ġde term
ĠK e
ĠV ice
Ġres erve
Ġcr ime
AN N
ĠUN ITED
Ġprom ise
Ġemb attled
Ġgreat est
ĠRet urn
Ġprotest s
ĠVal ley
Ġty p
Ġphot os
ĠVik ings
D T
m outh
in ts
at tered
Ġw ides
Ġw ickets
ĠC OL
ĠC abinet
Ġg aming
ĠH ospital
ĠH amilton
ĠO F
ce ption
oc ide
Ġcon gr
end i
Ġsh own
Ġex hib
Ġun iversity
Ġman age
Ġsl uggish
Ġwe igh
Ġbr ings
ley ton
Ġregul atory
ĠDef eat
Ġreven ues
oint ment
Ġappear ance
Ġrespons ibility
Ġgather ed
Ġscient ific
ĠSym antec
B R
D o
G roup
H ol
S hell
s aid
w ag
Ġp al
Ġm other
ay ers
Ġd iss
ou ble
Ġg overnor
ĠF aces
ĠL leyton
Ġsp ons
Ġcl othing
ant an
ĠSp e
Ġall ies
ĠRe venue
Ġback up
Ġme ters
Ġcomm ander
Ġpay ment
Ġproduc ers
ĠAll en
Ġfac ility
Ġfamil ies
Ġfe et
Ġden ies
Ġlim ited
ĠMilit ary
Ġcrack down
ĠRap tors
Ġflags hip
F CC
d ing
or p
ar med
Ġf ought
Ġo d
is f
ĠC lear
ĠC zech
ĠP a
ĠP enn
ĠR oss
Ġcon ver
ĠIn v
Ġex cl
ab ad
Ġab oard
oss il
Ġfl oods
ĠNE C
ĠMar ines
Ġgr id
ĠWin ter
ĠDemocr at
Ġcommit ted
Ġsweep ing
Ġbroker age
Ġlands l
Ġesp ecially
2 7
6 00
H urricane
K O
g ate
p read
w hel
ar io
ĠS oon
ĠS igns
Ġm ig
om s
ĠB rew
ĠN asdaq
im ately
ag ues
Ġcon cess
Ġex erc
ĠCh amp
Ġfir ing
amp ed
rop er
pl anes
Ġrel igious
ĠAll iance
Ġform al
Ġed ucation
Ġemploy ee
Ġpolic ies
me ter
ĠEver y
Ġpict ures
Ġiniti ative
ĠKenn eth
oen ix
M er
U JA
Y ear
h as
r am
t ies
re y
Ġh at
Ġl oyal
Ġre porters
ĠL as
ks son
Ġsh oppers
ĠK remlin
ĠCh irac
act ions
Ġret ired
ĠEx pected
ĠBrit on
Ġcap abilities
cess or
vent us
ful ly
ĠDe utsche
Ġthreat ens
Ġstud ios
ĠDep ot
Ġpop ulation
Ġequ ity
Ġdrop s
Ġreal ity
Ġslow down
ĠRepublic ans
ĠSwed ish
ĠDevelop ment
Ġorig in
ebr uary
ĠConnect icut
A fter
L ife
u wait
w here
Ġt ank
on o
Ġf ierce
ĠS outheast
ĠC NN
ĠM u
ĠN ATION
Ġr aces
ĠD oc
ĠE m
Ġan cient
ack er
oun ter
Qu arter
Ġbl og
ĠRe view
az ard
Ġset back
pr ises
Ġ7 5
ĠIsrael is
Ġow ned
Ch rysler
erson al
Ġconcer ned
Ġlower ed
ann y
ĠChief s
AD EL
ĠMer c
IR O
ĠHen ry
Ġcal m
Ġbol ster
Ġaltern ative
M oney
N orth
g ins
g ling
ic le
Ġm ob
Ġm ail
ĠT D
st op
ĠB CS
ĠR FID
ĠD omin
ĠU se
un ction
ĠJ ul
ist ics
ĠLe ast
Ġteam mates
Ġsl owing
Ġme ets
ik h
back ed
ĠSe ahawks
Ġrest ore
Ġrev olution
ĠBu ys
En g
Ġspark ed
Ġoptim istic
Ġdeterm ine
C alif
H am
y ers
Ġb ra
ĠS H
Ġth in
ĠI E
Ġl if
Ġg ap
Ġst ations
th ird
ry st
ĠSp urs
Ġim ports
ons in
aim ler
Ġmod ern
Ġgas oline
Ġcarri ers
ĠSP ACE
isc onsin
ĠKn icks
ĠMem phis
Will iam
ĠClin ton
ĠShan ghai
inoc het
Ġwides pread
8 00
c ap
i Vo
u ate
Ġc rown
ĠS occer
ĠA C
ĠR ose
ĠG ain
ch anged
Ġqu ality
ĠV en
Ġen force
Ġtr end
anc y
Ġad ap
Ġdis m
ĠSh ows
ĠLe hman
olog y
ĠPh oenix
Ġsw ing
str ing
ĠMay or
ĠCont ract
ĠHold s
ĠLa ur
ĠPent agon
Ġpip eline
ing ham
ĠS and
Ġh urd
Ġd rag
ĠC a
ĠM I
ĠM ust
ĠM AR
ĠP S
ad ow
ig hed
ĠJ ama
Ġsh ake
ose vic
olog ical
Ġvict im
use um
Ġmed ic
Ġtri als
Ġeff ects
Ġsusp end
Ġcoach ing
Ġpe er
ĠFin ance
Ġfund ing
Ġdisput ed
AK AR
chen ko
ĠSir ius
Ġmoment um
Ġorganiz ations
Ġfriend ly
Ġris ks
ĠThanks giving
Ġcompens ation
G re
R eal
p o
u i
Ġf emale
Ġw reck
ĠS ven
ĠC avaliers
ac om
ĠP ros
ĠG artner
ew here
em e
oc us
ĠK azaa
ĠCh ild
Ġal ly
Ġtr ue
ang ered
ĠPro ject
AS E
Ġpass ing
back er
Ġopp onent
ett e
Ġexplos ions
Ġdeliver y
Ġhands ets
ĠLaw su
ĠSil ver
Ġstret ch
ĠOffic er
antan amo
3 8
V P
W N
l us
p rom
or en
ĠB ull
ĠH armony
ch arg
ĠO ri
oc o
iv ors
ell or
Ġcl ients
ĠNEW S
Ġkn ocked
ĠAnd reas
ĠResearch ers
pe er
Ġ199 9
Ġpubl isher
Ġcivil ian
Ġcoll aps
Ġlo ans
Ġgun s
Ġgen et
Ġlic ense
break ing
Ġscient ist
ĠRaid ers
Ġlear ned
Ġliqu id
Ġinfring ement
ĠBuff alo
4 4
S y
m ore
m atch
w in
Ġs ue
Ġthe ft
Ġb owl
ĠS al
ĠM O
Ġn ecess
ĠF ebruary
ĠG ro
Ġpl enty
ĠK o
oun ted
og ue
Ġfl ed
Ġco aches
Ġdes per
Ġ7 7
Ġvict ories
ĠAl so
ĠRes ults
Ġprov ed
Ġdisc ount
EN T
Ġeas ily
Ġrep air
Ġhands et
irc uit
ĠChen ey
ĠHop es
Ġhum ans
ĠAthlet ics
C he
p ur
r ict
s enal
w orld
Ġt ape
Ġs ense
Ġf ashion
Ġb ills
ro c
ĠS O
ĠM AN
ĠP ut
ĠB ul
Ġl oses
ĠG ives
ĠG ene
up s
ĠE isner
ul s
ia ble
Ġch a
ĠTh ai
ey er
Ġcons ole
enc ing
Ġec l
Ġext ending
Ġtele ph
Ġsub mar
str uments
Ġleg end
Ġbar ely
ĠMed ical
Ġconfir m
Ġstorm s
SP ACE
Ġdomin ant
Ġsett led
Ġinflu ence
Ġtent ative
Ġwelcom ed
ĠDani el
2 50
D is
F OR
l ights
n an
Ġp age
le ts
ĠM AD
ĠP y
Ġl anguage
ig ation
ĠG oes
Ġcom fort
Ġex isting
ĠK l
iv endi
Ġover whel
Ġun us
iss ippi
tt y
Ġjust ice
Ġrest aur
ĠSy mb
sc ar
ĠGl azer
Ġdiv idend
Ġreac hes
amb ling
Ġsim ple
ĠSu it
ĠBer lin
ĠBeat s
Ġprep ares
Ġcas ual
yl vania
Ġunexpected ly
Ġinn ov
R et
V ir
r uction
Ġ \\
in ion
Ġp ound
ĠS ach
ac ter
ĠF en
ĠR E
ĠH al
ĠH ill
ĠL ittle
ĠJ ay
ĠIn st
ĠK idnapp
Ġag enda
ĠCh ad
ĠTh atcher
ab b
Ġwork ed
Ġmove ment
Ġcol umn
sp am
Ġgr ad
Ġstra ined
lo ad
riz z
Ġprom ising
Ġmar ch
ĠSch umacher
Ġarriv es
Ġcomb ined
Ġvol unt
ĠIns urance
Ġbatt les
Ġut ility
Ġgran ted
N ort
P at
Ġb ug
ĠB est
Ġe ast
ĠW rit
ĠW isconsin
ĠR acing
Ġr um
im edia
ra ge
ĠH orn
ri e
se y
ĠInd ies
Ġcons olid
Ġ5 1
ĠAl italia
Ġhop eful
Ġround s
Ġrev ised
Ġeng ines
Ġboost ing
Ġdet ained
Ġprom ote
Ġcre ation
ĠSpace ShipOne
ĠGold en
Ġlet ter
Ġple a
Ġfre qu
Ġcrowd ed
itzer land
ĠEver ton
Ġwat ers
ĠAuthor ity
ĠBus ch
ĠPH IL
C ont
D e
J ohn
K S
P owell
m os
Ġs and
or ious
ĠC ast
ĠC redit
ĠB i
ĠW ake
Ġr ail
ĠH ung
ĠK ent
amp ton
EL L
uk i
fl ix
ĠBes lan
D ay
K arzai
U kra
W est
b ro
f ont
p y
Ġt ask
Ġf ixed
le ading
ĠA U
ĠI owa
ut ious
ĠW izards
ĠL u
ak a
Ġv ows
Ġex ceed
ĠV iew
Ġro ugh
Ġro ads
Ġun employment
ĠMon etary
ass ador
Ġbec omes
Ġrem ove
ĠMar c
ns ylvania
Ġ20 12
ĠWh o
Ġmin istry
ĠGu id
Ġca utious
Ġregul ator
Ġmer ge
Ġest ate
ĠCont in
Bl ack
Ġdoc ument
Ġmag n
OO G
Ġpers u
ĠCelt ics
Ġpeacekeep ers
Brief ly
ĠGarc ia
ĠNATION S
D ef
M L
N ot
b i
b ank
e lect
v in
Ġt ail
Ġf al
ĠD i
ĠD ies
ra pped
Ġex port
Ġpl aces
ell ow
ĠUS ATODAY
ĠPr ison
ĠInc re
Ġdis arm
Ġ6 2
Ġ6 9
Ġsl owed
Ġcons ortium
ĠAr m
Ġ5 6
US ATODAY
Ġimp roper
Ġher o
Ġtest ed
ott e
Ġdemand ed
ĠArs ene
Ġbill ions
Ġwrit e
Ġident ified
ĠKen ya
Ġblood y
ĠNor way
ĠDou b
Ġestab l
ĠEnv ironment
Val ley
fol io
AKAR TA
ĠFen way
A b
G en
H ouse
S print
T okyo
W ar
c are
j ected
p rod
or an
en ters
Ġf ully
Ġth rown
ĠN ames
ĠH un
Ġan ger
ĠCh ange
ĠY ank
ĠUS C
over ning
Ġsc ene
iz z
ĠBl n
ned y
Ġso ared
ĠSe an
Ġinvestig ators
hold ers
Ġcell s
ĠPat rick
Ġenv oy
augh ter
ĠOw en
Ġmount ain
ĠBron cos
Nort el
E gypt
L A
al ks
re ts
Ġp ath
Ġp iece
Ġh iring
ĠA R
ĠB ird
Ġl uxury
ir a
ĠF inds
ĠR ays
ĠE ric
ag n
Ġwor se
Ġout l
over ty
Ġhigh light
AS T
Ġme ant
Ġcap able
Ġsome one
Ġhop ed
Ġfail s
eng als
Ġpitch ing
Ġpil ot
Ġty phoon
Ġcommit ment
Fed er
Ġrefug ees
Ġpostp oned
PH IA
ĠFerr ari
ĠOrd ers
4 1
H alo
S ecurity
T o
b on
m ad
p ing
Ġt icket
Ġs le
ĠM od
Ġn eck
ĠF iles
ĠG il
ĠH urt
ĠL P
ĠL CD
Ġcom ment
Ġy ield
Ġper man
Ġdis k
Ġdef ended
Ġpre view
ĠFor bes
ĠCl imb
Ġsearch ing
EL D
uk ee
ĠSw itzerland
Bl ue
Ġsim ply
ĠSm all
Ġserious ly
Ġsex ual
ĠRam ad
ĠOK s
init ely
Ġreserv es
Ġrecr u
arr ass
ĠFoll owing
Ġheav ily
ADEL PHIA
N HL
W all
Z iff
a ith
l ies
w ith
in ated
Ġw ider
ĠA mb
ac re
ĠW he
Ġr ide
ĠD ream
ĠL OU
ĠJ AKARTA
Ġcon stitution
ĠSt ake
ĠCh ips
ĠV ill
own ed
hen t
Ġco ordin
ĠOp ens
ĠZ iff
ipp ers
Ġsusp ic
amil y
ĠAnn ounces
Ġweak ness
Ġcelebr ate
Ġpri or
Ġesc al
Ġwel come
Ġprosp ect
Ġpromp ting
ĠQuarter ly
Ġrecomm end
ĠSqu are
aimler Chrysler
William s
ĠOri oles
c ats
r atings
ic y
ic ate
ĠS oy
Ġh ar
Ġd re
ĠA ff
ĠT alk
ĠC ath
ĠB or
Ġre ading
ĠJ udge
Ġac adem
air n
ĠPal ace
Ġgr en
Ġaim ing
IC E
Th ursday
ĠEl iot
ĠMa uresmo
Ġel se
Ġstorm ed
IE W
ograph ic
ĠHug o
Ġdiscover y
Ġsurround ing
Ġaggress ive
Ġexact ly
C ong
W ORLD
d ie
er th
it able
Ġf eed
Ġf inger
Ġb ow
et ed
ĠW TA
ĠF ort
Ġr ushing
ĠL ist
ak h
ag le
lt on
ĠV iolence
Ġint ended
anc ellor
Ġ6 7
Ġfl ag
ĠSe veral
Ġbeat en
Ġref lect
ĠAng el
Ġdet ain
Ġold er
Ġlo an
Ġstrugg les
Ġsom et
ĠRod rig
Ġdest ruction
Ġprosecut or
con i
ĠCy ber
Ġhor se
ĠTay lor
ĠPHIL ADELPHIA
8 2
B r
T reas
m es
w all
Ġto ss
ĠB elt
Ġg overn
ĠN ight
ĠF raud
Ġst yle
Ġr ape
ĠH undreds
ĠE ight
ĠK az
Ġup beat
ĠInd ex
ĠSp ec
Ġcons piracy
Ġreg ime
Ġsu es
ĠBank rupt
Ġadv oc
Ġbreak through
Ġpropos als
Ġrock ed
Ind ian
wa ukee
ĠSaf ety
Ġbas eman
Ġcommun ist
ĠSi emens
ĠEqu atorial
Ġdeadl iest
ĠJagu ar
Vir gin
8 6
N iger
U A
or ation
Ġc os
Ġw age
Ġb ond
ĠS av
ir ming
Ġe ve
ĠF ans
Ġst ood
Ġr ig
ĠL et
os ter
ul ing
Ġex it
Ġro y
Ġfin als
ĠPh ones
ĠMan ager
ĠAT A
ĠMus ab
Ġpo ison
OM E
Ġaud io
ĠTy phoon
Ġkick ed
ĠCost s
Ġathlet es
ĠEy es
ĠBall mer
Ġmaterial s
ĠLyn ch
ĠYank ee
B oston
F DA
G iants
d ouble
g l
i ences
t a
ĠS ale
Ġd ed
Ġd istrict
ĠA h
ĠA ward
ĠC as
ĠM unich
ac ts
ĠP LC
Ġg overning
ĠR ams
ĠR icky
Ġst ir
est yle
ĠD U
ĠH onda
ĠL ike
ĠL SU
ch ip
Ġhe ight
ĠTh rough
Ġwin ners
ĠLe ft
Ġdes k
Ġrecord ed
ran ts
Ġsign al
Ġjob less
lin ing
Ġste am
iet y
ĠJu ventus
Ġdoub ts
Ġreve al
ĠKen nedy
new ratings
ĠDeb ate
uz z
ĠPhilipp ine
Ġjournal ist
Ġpromp ted
Ġabd ucted
Gl obal
Ġassass ination
ryst al
B ALL
S earch
c r
t iz
y on
Ġ err
Ġa er
en port
Ġp ool
Ġb rew
ĠS AP
ĠA lt
ĠC ro
ĠC op
id ays
ĠB ox
ĠB osn
ut tle
Ġst eal
Ġst roke
Ġr anks
ĠSt orage
Ġle arn
ĠK han
ial ly
Ġdis p
ort gage
ĠRe ach
Ġtop s
Ġ8 4
oci ety
ĠDav enport
ĠBar b
ĠMo ham
Ġfact ories
Ġgain ing
ĠIN D
Ġdiplom atic
Ġflaw s
ĠScott ish
Ġrepresent ing
Ġregard ing
ambod ia
ĠPhill ies
M ilit
N intendo
O PEC
R P
T y
e an
f riend
i ec
y ang
Ġa ide
Ġp ark
Ġm our
ou m
ĠT own
ĠC our
st ri
st yle
Ġon es
ĠI R
Ġfor cing
Ġn omin
Ġl a
Ġl ifts
ĠF air
ĠF uel
Ġr ush
ĠG ive
igh ter
Ġsh rug
Ġcomp rom
ue z
Ġexp ensive
Ġsc an
Ġtr ust
OR CL
ĠRe jects
Ġ5 4
Ġimp ose
Ġact ually
ivers e
ĠAg rees
OS E
Ġstud ent
ĠGu antanamo
Ġprocess ing
per ts
Ġca ution
ugg ets
ĠEl i
Ġball ot
Ġmid fielder
Ġrepl aced
ĠMiss issippi
Ġinsurg ency
ĠChrist ian
Ġsurv ived
ĠIns urgents
ĠReb el
ĠCharl otte
ĠMach ines
ĠBelg ium
ĠWor ries
big gest
ĠDiamond backs
5 1
B ron
P er
g ment
k ar
or ial
Ġp ushes
Ġin form
Ġh ij
ĠT ry
ĠT rib
ĠP inochet
ĠB ert
ir k
ri age
Ġpr icing
Ġexp ands
ish i
OR T
Ġsl ip
Ġpre tty
ĠMar ion
Ġbat tered
Ġcompet ing
Ġask ing
Ġball ots
Ġhuman itarian
ĠRo ad
ĠInvest ment
Ph ill
ĠMil waukee
200 4
oles ale
ĠOw ens
Ġorig inal
ĠAbb as
Ġcy ber
Ġquiet ly
Ġdetermin ed
Ġdestroy ed
ĠTE H
ĠLOU IS
A st
Q L
h a
u als
Ġt elling
Ġt sunami
ar us
at ile
at ched
ing ly
Ġp m
ĠS om
ĠS ues
ĠS uccess
st an
ut t
ĠR ates
Ġst arter
Ġr amp
ĠL ock
ch iro
ks wag
Ġv ision
ĠK uwait
Ġcomp at
ĠV an
Ġreg is
ĠFl u
ĠAd am
Ġsw ept
Ġline backer
ĠQ B
ĠElect ions
Ġcond ucted
OL IS
Ġresp ect
14 6
Ġrep eat
Ġroll ing
ĠProt ection
ĠVer itas
ĠEr nie
ĠPen nsylvania
Ġoptim ism
ĠAz iz
Ġconnect ions
ĠPil ots
ĠMAD R
kswag en
S H
m ind
r ant
u able
at eral
ic ient
Ġm ap
ĠB a
ĠB ad
ĠB reed
Ġn ative
ĠD oes
ĠH aw
ĠH ubble
iv irus
Ġfir es
ĠV ers
Ġres ources
ook ie
Ġimp osed
Ġrel atives
Ġext ends
Ġcol le
Ġmin or
Ġmin ing
Ġrecover ed
Ġport folio
UK OS
Ġbird s
ĠAdv ance
Ġthink ing
Ġhapp ened
Ġlic ensing
Ġdeploy ment
PS FT
ĠHug hes
ĠRand y
ĠWalk er
ĠEri ksson
rizz lies
L inux
d rew
f r
f it
g ets
x y
er ies
Ġb erth
ĠP A
ir ty
Ġre put
Ġg ad
us alem
Ġst alled
ra ib
our ed
Ġch annel
ell o
Ġj unk
ub bed
ub ishi
Ġad ministr
Ġinc ent
its ubishi
Ġ4 4
Ġmark ing
ĠCon way
Ġ19 7
Ġ8 6
Ġbuy ers
Ġdisc ip
ĠSc ient
Ġche cks
ĠFin land
Ġforeign ers
Ġob ject
osp ace
Ġrepl acement
ĠSu z
ĠLouis iana
Ġnewsp apers
ĠCharg ers
ĠHost ages
Ġsubsid ies
ĠPan thers
ĠSn ow
ĠGh raib
Ġtempor ary
Ġenforce ment
lus coni
G erman
Y ukos
r ish
Ġs ocial
Ġs oph
ĠS ab
Ġh ailed
Ġd ict
ĠT em
ĠP op
ĠB oy
ĠF ast
ĠR ain
ĠR umsfeld
ĠD om
ĠL A
and an
Ġhe ll
ab s
ong yang
AP OLIS
ĠMon th
hn ic
ĠSh r
uct ions
Ġwar n
Ġbu zz
rac use
Ġbr ands
Ġgu arant
Ġrest rict
Ġmin ers
Ġsupport ing
Ġboost s
Ġsever e
Ġeas ing
Sp am
ĠMa o
Ġhealth y
Ġsn ap
Ġsat isf
UT H
ĠProd uc
ĠLeban ese
Ġdiscl osed
errill as
ĠSold iers
Feder er
D utch
F our
J ob
K en
M R
O H
O X
W MT
b ody
s ize
t own
Ġ _
it oring
is se
ĠS ee
ĠS aid
ĠA p
ĠT H
ĠM ln
ĠM urdoch
Ġth rowing
ĠP irates
ĠN C
ĠD uring
ĠO cean
os ure
Ġwith drew
Ġpro minent
Ġex porters
ist ide
Ġal one
av i
Ġres ort
Ġweek ly
Ġdef ender
ĠAr ch
ĠOn t
Ġins urer
Ġins urers
riv es
Ġtra il
ĠProf its
Ġthreat en
ĠBr and
ĠAc cess
Ġemb arrass
IA A
ĠHol iday
Ġvisit ors
Ġdoub les
Ġdro pping
Ġcritic ized
Ġcover age
ĠDrop s
Ġstun ning
Ġestab lish
Ġremov ed
ĠBER LIN
B e
E E
J azeera
S amsung
p ond
w ire
Ġa iling
Ġs alv
ar ch
Ġp ounded
ter ious
Ġd ust
st art
Ġth row
ĠI CC
ĠP ush
ĠP riv
ĠB T
ĠB oth
Ġl unar
Ġg ymnastics
ĠR u
ĠR oma
Ġst uff
ĠG ib
un al
Ġat op
ul ting
ess ed
ine on
Ġres istance
aw are
Ġ6 3
Ġsl ug
Ġ5 2
ĠAl bert
ĠPh ot
ĠTr ading
In ter
ĠBe gins
cl aim
Ġvis its
Ġinvestig ate
ĠPol and
umb ling
Ġhot els
Ġspokes woman
Ġgen ocide
Ġfun ction
On line
ĠMov es
ĠSpeed way
Pol ice
Ġmal icious
Ġexhib ition
iec es
N ikkei
U AL
W ednesday
r ising
Ġt end
Ġs ight
or r
Ġf ro
ion al
ĠA uss
ĠM VP
ut ton
ĠW as
ĠF A
ĠR ub
ĠSt rug
Ġj un
Ġout fielder
Ġro ute
ĠAn im
Ġ4 7
ĠAd ds
Ġprot esters
Ġviol ations
Ġev olution
ĠCommission er
Ġpull out
Ġfew er
Ġevent ually
ĠPort able
ĠMont g
ĠDev il
ĠSaf in
Ġboy cott
ĠBroad band
Ġbehead ed
prof ile
Ġlap top
Ġimpress ive
ĠOv itz
Ġang ry
C it
D ar
F ord
S an
W ith
c alled
it a
Ġw ine
is ers
ĠS ky
Ġh aven
ĠP DA
Ġl aid
ot al
ĠG overnor
Ġ2 50
oun ess
Ġro t
Ġnot ice
ĠIs su
IN TC
Ġco ff
Ġph ase
ĠOn ly
Ġ9 9
cl ick
Ġdirect ly
Ġbuild ings
per form
Ġsol utions
Ġemploy ment
ĠTest s
ĠCont inu
Ġsuggest ing
ĠHel ps
Ġimprove ment
Af r
ĠFund s
Ġurg ing
hard t
Ġmot or
Ġwond er
Ġplun ged
ĠTre o
Ver izon
Ġsubmar ine
ĠTEH RAN
B aseball
L aw
T uesday
b ing
v y
w ill
Ġa f
an im
ou ri
ĠM ick
ĠM aster
us band
ĠR ound
Ġr ental
ĠL ess
ĠE MC
ĠSt op
ist ent
Ġnew est
ĠPr es
Ġfin ishing
AN A
az i
Ġquarter finals
ĠCl ar
Ġtra pped
Ġsw eet
Ġext rad
Ġexpl ain
ĠBe ach
Ġmin ority
Ġref in
Ġvers us
Ġdirect ion
ĠCr ash
Ġarrest s
ĠDes cription
Ġinvol vement
Ġtour ists
ĠPre view
Ġty co
Ġwalk ed
ĠFight ing
Ġrapid ly
omer ie
Nov ell
Ġecl ipse
ĠPy ongyang
mos phere
C ub
M O
P oint
S il
i qu
p erson
w art
Ġt ickets
Ġp overty
is ive
ĠS ett
Ġh arm
ĠM ig
ĠM errill
el ie
ĠB ANG
ol s
Ġe missions
ĠD R
ĠG ri
ĠO N
em pt
all ing
Ġsh ook
Ġover come
Ġcl oud
Ġint ense
port ing
Ġen em
ĠPro ble
ĠEx ec
Ġbuy out
Ġadd ition
Ġra ids
idd en
ĠSl am
IL L
Ġpoll ution
Ġsing les
Ġcapt ors
ĠCub an
urd ue
ĠAut om
ĠPort ug
Ġindic ated
Ġamb itions
ĠRad cliffe
Ġgrab bed
Ġimm ig
ĠJer usalem
ĠFut ure
2 6
5 2
B OR
D es
M A
c ts
e qu
h ind
h ander
w rit
w ords
Ġ ;
Ġa x
Ġw oes
ĠS ent
ĠS ender
ĠA aron
ĠT erry
ĠC rew
ĠG P
ĠG az
ĠJ en
ĠIn foWorld
ee ves
Ġpl ug
Ġse ats
Ġquot ed
Ġint el
ĠAs h
Ġwould n
az ers
enc ia
Ġprof ession
ony m
ĠComp et
Ġmin i
BA I
Ġstand ing
sh ore
Ġsettle ments
Ġsee ing
Ġconfir ms
An g
Ġactiv ists
Ġland ed
ĠCons umers
EM BER
Ġmon itor
Ġhouse hold
Ġview s
Japan ese
Ġautom aker
Ġparliament ary
Ġrob ust
JA F
Ġbur ied
Ġdevast ating
Ġvill age
otten ham
FI ELD
Ġnorm al
Ġparticular ly
Ġconcess ions
ĠGuid ant
D VD
S ur
S occer
c airn
e ers
l inked
Ġt un
Ġc rop
Ġc raft
al ore
al comm
ĠS a
Ġh ang
ĠA S
ĠC able
om ed
ur able
ĠB ow
Ġl ocked
Ġg all
ĠF ish
ĠR ight
qu el
ĠIn formation
um i
ĠK el
ab it
ob by
Ġab road
com pl
Ġteam mate
ph ones
Ġph ishing
AL I
ĠUp date
ĠPhil ips
sc reen
ocr atic
Ġreve als
Ġquestion ed
Ġvol ume
Af ee
UT ER
Ġcomple ting
Ġneighb or
Ġvar ious
Ġmys tery
Ġsy mb
Ġerup ted
ĠNA JAF
Ġpolitic ians
Ast ros
ĠMADR ID
Ġintel lect
S en
T e
U E
g un
r ical
Ġb iot
id ency
st ore
ĠI yad
ĠP ers
ĠP uts
ĠB h
Ġre pe
ĠF ool
Ġst ayed
ĠH alo
ĠO range
ĠJ OSE
our ing
ĠCh anges
ord ers
Ġover c
Ġout come
Ġsc are
ĠSh awn
Ġacc us
ĠSp ot
AN S
Ġret reat
Ġsup erm
Ġsur r
ĠBe gin
CO MP
Ġche ap
Ġstand ings
Ġrece iving
IC H
Ġbroad c
Ġchall enger
Ġrepl acing
Ġel ite
ĠHar vard
Ġhapp en
Ġund is
Ġcas ino
ĠArt est
uild ing
Ġelectric ity
Ġunus ual
I X
M ot
S ol
c u
c olm
p son
r um
t ure
Ġf ill
Ġw ealth
re ement
ĠS us
Ġm and
Ġh ire
ĠT oll
ĠC ustom
ĠP o
Ġl ure
Ġe ager
ĠL ight
Ġat mosphere
Ġcon ced
pp er
Ġpr inc
ĠCh annel
od s
ire z
Ġres igns
ect ing
Ġinc ident
its ch
eral d
Ġret ain
Ġsl ump
ics son
Ġind icted
Ġsur ging
Ġcount ing
err ed
Ġins ists
Ġ8 8
Ġsu ite
Ġrel ay
AR D
Ġstri pped
ĠBr anson
Ġshort age
Ġed ition
Ġed itor
ufact uring
ele b
ĠChe ck
Ġchang ing
ĠLouis ville
Ġchampionship s
ĠMal colm
ĠAcc ount
Ġmort ar
ĠIndust ries
Ġjoint ly
ĠMic hel
Ġprem ier
rec ord
ĠJon athan
Ġspect ac
Ġham string
ĠPad res
Ġet hnic
Ġacknowled ged
ĠLen ovo
COMP UTER
3 3
F O
I O
b at
Ġt ens
Ġt rees
he me
Ġf lex
Ġf ossil
Ġp icks
Ġh usband
ĠT ennis
ĠC ash
id ia
ĠN ation
ĠR ut
ĠR ising
ĠG E
Ġv ital
ĠSt r
ish ers
ĠSp ending
uss els
ok ed
Ġwork force
Ġmed ium
Ġeconom ists
ĠFl aw
Ġwe ighed
ĠMar ine
Ġlong est
Ġext in
Ġproduc ing
ĠAg ree
Ġhand le
Ġpublic ly
opp er
ĠBar rel
Ġemer ge
Ġsuff er
Ġavail ability
Ġlim its
Ġclin ched
Ġcho ose
ris py
Cr icket
ĠMag ic
ĠEy e
ĠLat est
Ġteen ager
Bo eing
ĠOpp osition
ĠRaf ael
Eng land
COMPUTER WORLD
D em
G OOG
H e
V IEW
c est
d es
t orn
Ġt act
Ġs hed
Ġf lew
Ġw rap
as y
ĠS ER
ou ch
ĠP oor
Ġl on
ol t
Ġr ating
ĠL og
ĠL ikely
ak y
Ġcon g
ĠIn struments
Ġsh ape
ĠK reme
ĠCh rysler
ud h
Ġsp re
Ġro ster
Ġun h
Ġun rest
ĠUn ix
Ġsc am
ind er
ĠRes ources
ath am
ĠBr uce
Ġrev ive
ĠOr tiz
Ġche aper
Ġenter ing
br idge
Ġdet on
iff s
ĠTV s
Ġengine er
Ġcour ts
Ġappeal ed
Ġcompl aint
Ġsett lers
Ġastron omers
ĠTarg ets
ĠBrew ers
ĠJama ica
irming ham
N ational
R ec
d e
e el
i at
al ysis
Ġw all
Ġto pp
Ġb aby
is cher
st am
ĠM ission
ĠM ixed
ĠI an
Ġn erv
Ġg ift
ĠF ears
ĠR O
ĠL ake
ate g
ĠTh ink
ĠY ug
ie bel
uc r
Ġint r
oy ono
ĠSp ecial
Ġwar m
Ġsl ash
Ġsl ower
Ġplan ets
Ġph armaceutical
onom y
Ġdeal ers
Ġsign als
Ġass ists
Ġ9 6
Ġadv ances
ĠMc Donald
ĠGu ill
br id
ĠJu an
run ning
ĠAst ron
roll ing
ĠRock ies
Ġdistrib ut
ĠPre p
ĠID C
Ġbox ing
ĠSE P
Ġintegr ation
ĠLat in
Ġelimin ate
ĠHear t
Ġtrigger ed
ĠMut u
itsch ko
udh oyono
B ook
G O
R IM
S at
d o
n old
w olves
z one
Ġs ear
Ġp unch
ro g
il ateral
ou p
ĠT iVo
ĠT ottenham
ĠC re
et her
Ġfor med
ir ts
Ġg reet
ĠN ATO
ĠR ate
Ġr ipped
ĠE mer
ĠO R
ag ging
end ul
if orm
ĠY et
Ġj ets
ĠFr edd
Ġup on
ke pt
Ġrec alled
Ġen ters
Ġ6 8
ĠCo oper
ĠFor um
DA M
Ġfinal e
Ġbid ding
ĠZ ook
enn a
ĠWith out
Ġaut hent
Ġpe ak
Ġsub stant
Ġstud io
mit ting
ĠSy racuse
Ġneg ative
Ġcontrol s
ena ult
ĠTom my
Ġdisapp ear
agu ered
Ġcelebr ated
Ġcertain ly
Ġinvent ory
Ġfreed om
Ġawa ited
Ġconserv ative
alyst s
Ġsudden ly
Ġsteroid s
ĠApprov es
Mon day
Ġem otion
ĠEmp loy
oren stam
Ġnecess ary
ĠRodrig uez
K ee
M usic
O ct
T ro
V A
W S
b ucks
s ych
on z
ed ge
Ġf u
ĠP ey
Ġfor g
ĠB arg
ĠW TO
ĠG rizzlies
ĠL uk
ĠL anger
ĠL ycos
um es
ĠK ONG
ust ody
Ġch ase
art oum
ell er
gt ime
Ġun le
Ġper mission
Ġad mits
Ġus ual
ĠIs lands
Ġman ned
ult ane
Ġrem ark
Ġmanag ing
Ġpost ing
Ġrival ry
ĠMark ets
Ġanal ysis
Ġbarrel s
Sh ar
ĠBlack burn
part y
Ġovers had
ĠAlex ander
omber g
Ġsignificant ly
Sing apore
Ġcondem ned
Ġconclud ed
Ġbal ance
Ġvide ot
ĠFal cons
Ġreput ation
Ġtyco on
Ġrepe ated
9 5
G ermany
H ew
I rish
f ax
s ets
t ax
Ġt ensions
Ġa w
he ed
Ġb rac
Ġb ases
ur rier
ĠB AR
ol y
ĠN TT
ĠF ur
ĠF DA
ĠR ice
ĠR AM
Ġit ems
ri pp
end ar
ard y
if er
Ġk idn
ab ama
Ġsp y
Ġun able
Ġcont act
Ġen able
Ġend ors
Ġbillion aire
Ġunder stand
ĠAt omic
Ġrel atively
Ġmiss iles
Ġcontract or
ĠQ antas
Ġengine ering
Ġauthor ity
Ġsim pl
Ġfe eling
ĠTro jan
Ġdam aged
Ġtem per
ĠVo ters
ĠProd uct
ĠSam arra
Ġhy dro
Ġanim als
Ġspir it
Ġenh ance
Ġinaug ural
Ġcollaps ed
ĠSymb ian
Ukra ine
Treas uries
ĠBreed ers
3 1
M ont
T error
W orks
b ec
f ood
m and
w eg
Ġs en
or gan
Ġp ages
Ġb on
ĠC are
ĠC ode
ĠP anel
ĠB rett
ĠB irmingham
ĠD ave
ĠH a
ĠH urricanes
Ġsh op
Ġqu arters
Ġexp enses
ĠAn war
Ġbl oc
Ġbl ade
Ġwar s
Ġdef ends
Ġelect oral
ier re
Ġ8 9
Ġact ions
Ġstand off
Ġinterest s
att an
sc ale
Ġmar ks
ĠFir ms
Ġpull s
Ġpull ing
ĠWe ak
Ġver ge
ĠMer ger
Ġlift ing
Ġspot light
ĠPay Pal
ĠDeb ut
ĠUkra inian
Ġsett les
Ġpled ges
Ġrank ings
Con n
Ġadop ted
Palestinian s
Ġmic rop
Ġsust ained
ĠCath olic
endul kar
F annie
M ail
M ass
M ax
b our
f ree
k in
o ons
t aking
Ġt orn
al a
al at
re x
is p
ro kes
le aguered
Ġd og
ĠB amb
ot ive
ĠW ant
ĠN at
ĠN apster
ĠD h
ĠD aimlerChrysler
ra ined
ĠG er
ĠH ONG
ri ors
end ant
Ġint ention
ber wolves
Ġwar planes
ĠAr ena
app y
ĠOp ter
In foWorld
Ġclos est
Ġfall en
Ġbel ong
ĠOr gan
ĠEar n
ĠSl ip
ID S
ĠIslam abad
An other
ĠMil osevic
Ġsurv ivors
ĠDeb t
Ġinsp ect
Ġsurpr ised
Ġearthqu akes
Ġhun ting
Ġhous es
Ġjud ges
ĠStan ley
Ġobserv ers
Ġpen alties
BO UR
Ġfarm ers
Su icide
Fire fox
Ġaccel er
double click
ĠPey ton
h o
n ets
r and
v o
in ate
Ġf ract
Ġw aves
ĠS r
Ġd rew
ĠC ore
ĠM ONT
ĠB engals
Ġl ying
am y
Ġr ic
Ġr anked
ĠL arg
ĠL ooks
Ġch osen
out heastern
Ġres ident
Ġdis rup
Ġacc ord
ĠAr istide
Ġam bit
Ch inese
ĠAm ong
Ġcell ular
TE M
Ġrequ ired
ĠHold ing
ĠTro y
Ġdomin ate
Ġaud ience
Ġagree ing
ĠRele ases
Ġvulner able
ĠHom eland
Ġpurs ue
Sing h
Comp uter
Ġoccup ied
ĠMah m
Am azon
ĠMad ison
Ġexcl usive
Ġcha os
FOR D
Ret ail
Ġsuspic ion
' d
F in
L ong
V ideo
i ate
n ation
v is
in ting
Ġw rest
Ġb ag
ĠA CC
ĠP orts
ĠP ersonal
ĠB U
ĠB acks
Ġl ived
ĠF er
ĠF ocus
ĠG iant
ĠG OP
ĠThe n
ĠJ eeves
ian o
our ney
Ġsh adow
Ġwor ms
ĠFr ed
Ġsc ale
Ġend angered
Ġsl id
Ġsl ashed
Ġli ber
oot s
Ġrele asing
Ġ19 80
Ġass et
Ġhost s
AR T
res ent
sh ire
imb led
Ġapprov es
Ġequ al
ĠMa ver
Ġnegoti ating
ĠReal Networks
ĠUs ing
Ġbas is
Pr esident
Ġamb assador
yl um
Ġvulner abilities
Cons umer
ĠFav re
ĠVen us
ĠSoy uz
Ġambit ious
E c
P P
a us
b ird
j et
on age
Ġp ays
Ġb rows
Ġd ress
ĠC ards
ĠM ill
ĠP av
ĠP arm
ĠB anks
Ġl ing
ĠF el
ĠF un
Ġst eep
Ġst olen
ĠD ere
os er
ag a
ĠJ os
ate ur
ĠCh apter
Ġk ids
Ġcl ues
Ġun w
od es
amp les
Ġsc heme
Ġfin es
ĠSh ould
Ġar rive
ĠCom cast
Ġreg ions
ĠOn ce
els ewhere
ĠMan h
AM I
ĠMed ic
Ġpres cription
ĠRob inson
yn am
bit ration
Ar senal
agu ed
mo il
ĠBomb s
ĠRam irez
Ġgather ing
ĠMalays ian
Ġpurs uit
Ġupd ated
ĠVik tor
Fl orida
ĠGun men
Ġham mer
ĠSum mer
Ġuncertain ty
ĠBlock buster
Ġsomet imes
ĠIssu es
Ġintellect ual
Ġoverc ame
ĠSER V
weg ian
imbled on
H ard
M al
R eg
S l
z ed
es l
Ġs ort
it als
Ġw ire
et ooth
ĠB aker
Ġl ength
ir ms
ĠN eg
im ony
ver y
ĠG al
ĠJ erem
ĠK urt
ning ton
iz umi
ull ah
Ġ4 6
ĠApp eal
Ġsw ap
af i
Ġfil ms
ĠAss embly
ĠBr ussels
ĠAT P
ĠAnd erson
ĠPhil ip
Ġemploy ers
Ġdiv ided
Ġfuel ed
ĠTra il
ĠInter est
Ġaff ord
Ġdomin ance
IM F
ALL AH
ĠBer lusconi
Wh ite
Ġadop t
Ġvulner ability
fe it
Ġmean ing
ĠGra eme
armaceut icals
Ġmys terious
terror ism
Ġmic ro
Ġfavour ite
ĠLim ited
Ġlibr ary
Ġgam ers
Ġmil estone
rah im
Mer ck
ĠMI AMI
Ġperman ent
Cong ress
Dar fur
Ġprofession als
Ġcong lom
ĠSEP TEM
ĠDere k
ĠSERV ICE
ĠSEPTEM BER
D eal
H all
S ox
b ell
b rahim
f ound
m n
Ġt anks
Ġc enters
is man
Ġm ix
Ġd amp
ĠT elescope
ĠC BS
ot ic
ĠW imbledon
ĠR up
ĠR isk
ĠG am
ith uan
ĠO uts
os a
ĠJ et
Ġsp oke
ĠV ivendi
Ġup rising
Ġint ent
Ġtr ucks
Ġar r
Ġor b
Ġstr uct
Ġind ef
ĠBl og
Ġmay be
ĠAl abama
Ġcharg ing
Ġadv ice
Ġacqu iring
Ġfac ilities
Ġhow ever
ĠSl ov
ĠDef ence
umb les
Ġlist ed
Ġreven ge
ID G
ĠMac Central
ĠHol mes
ĠBay ern
ĠRet ire
ĠMiss ile
Ġslow ly
Ġwrit er
ĠDVD s
ĠExpl os
ĠSur v
Ġsqu ee
Ġart icle
Mac Central
ĠExt ends
Ġesc ape
inds ay
Ġbatt ling
ĠVol kswagen
ĠJackson ville
ĠRoman ia
TER DAM
asc us
ĠCharl ie
ĠBelg ian
Ġnort heast
ĠPros ecut
Dis ney
Mot or
ucr ative
C ingular
D O
H S
H en
K E
T ennis
g eneral
s elling
v ision
z ens
Ġ elsewhere
Ġt ender
Ġt ype
Ġs ights
Ġb es
ĠS ug
ĠA ims
ĠI RA
ĠB C
ĠB LO
Ġn ote
Ġre ign
Ġre ass
ĠN V
ĠF ew
ĠF leet
ĠF ischer
ĠR ights
ĠR enault
ĠD anny
ĠH amp
ĠL LC
ul ations
ĠSt at
Ġus ually
pl us
ĠLe aves
Ġfl ow
Ġfl oor
Ġ7 2
ĠCon rad
ĠMar athon
enn e
Ġbat teries
ĠGre g
Ġviol ating
Ġdom ain
ĠRep resent
ĠAm elie
ĠCont ent
ĠVir us
ĠNet flix
Ġpriv acy
ĠDel aware
An t
Ġwrit ten
Ġmon itoring
Ġtreat y
ĠMex ican
ĠHis pan
ĠAv iation
ĠKh artoum
Ġgirl s
Off icial
Ġassoci ation
Ġdeleg ation
Ġpion eer
ĠMour inho
Ġexperim ental
Ġteleph ony
ĠHorn ets
ĠMao ist
ĠOpter on
; \
F E
R o
T aiwan
W atch
g n
r ino
Ġt all
Ġt ort
Ġf illed
Ġc ustody
Ġin k
ĠS enior
Ġh ip
ĠT ow
ĠC S
ĠC ur
ĠM ir
ĠP urdue
Ġre ward
Ġst ream
Ġr atings
im um
ĠD w
ĠD ET
ĠG DP
ĠL indsay
ew ell
ul ating
ap on
ĠK ings
Ġun ique
Ġun anim
Ġ5 7
Ġsur pass
ĠPl ace
Ġagre ements
Ġconf ront
Ġprov ision
Ġass embly
af e
bers ecurity
ĠSl ow
Ġpat ches
ĠSy rian
ĠMa ur
ĠRet urns
Ġdoc tor
Ġmass acre
ĠBang alore
ĠCharg e
Ġsit ting
ĠTreas uries
inh ua
Ġabs ence
Ġachie ve
Ġresum ed
Ġdepart ure
Pac ific
ĠJP EG
Ġestabl ished
ĠManh attan
6 7
E agles
R od
S k
T oshiba
W E
b acco
g ar
m ine
m are
Ġ icon
an ing
Ġf ault
Ġf aith
Ġw ear
re f
Ġp ir
Ġto uc
Ġto bacco
Ġb ail
is an
ĠS CO
Ġh undred
Ġth inks
Ġth wart
ec a
ĠP act
ĠB ali
Ġl ucrative
ol as
ĠN uggets
ĠR ick
ĠR ival
ĠD rew
ag ger
Ġcon ven
Ġex porter
Ġk il
ĠV ows
over y
port un
Ġsc rap
erv ed
ĠLe ave
Ġ7 1
Ġcar ries
Ġbr idge
Ġgu errillas
uk at
ĠAb ove
per cent
Ġmar riage
Ġsk ipper
ĠPaul a
Ġrep ublic
uff le
Ġvol atile
ĠSur vey
ED S
ĠVal encia
Ġclin ical
Ġdiplom at
Ġpled ge
ĠFeder ation
16 0
Ġrepresent atives
reg on
ĠOpt im
ĠRw anda
Ġdisrupt ions
Ġsle ep
Ġgren ade
ĠSuz uki
Ġmicrop ro
O pen
R ob
S ome
c ano
h and
l av
w inning
ĠS U
ĠS ar
ĠA MS
st ream
ĠM oss
ĠM ys
ac r
ur i
ig ar
Ġre op
ĠN ag
ĠF I
ĠF ALL
ĠR OME
ĠE le
ĠO C
ess ing
ĠJ OH
ĠY udhoyono
se qu
ĠV enture
Ġint ends
ov iet
Ġtr acks
ush chenko
Ġcomm od
ĠAd s
Ġbat ting
Ġgu y
Ġstrong est
Ġ' '
Ġmatch up
Ġest imate
Ġtelev isions
Ġclear ing
Ġdr ama
Ġblock ed
Ġarriv al
Ġcanc eled
Ġupgr ades
ĠTim berwolves
ĠRoy als
Ġfilm maker
Ġenc ounter
Ġsil icon
ĠDou ble
Ġbatt led
RO IT
Ġpun ish
Ġtempor arily
ĠDirect or
Ġgri p
Ġdial ogue
UST R
best os
Gre enspan
ĠInst ead
ĠKaz akh
Ġsuperm arket
ĠJerem y
Ġconglom erate
ĠBLO OM
ĠDET ROIT
C or
D E
G reek
T rust
at ers
re pr
Ġb ound
ĠT urns
ĠP SP
ĠF uj
ĠR ome
ĠR overs
Ġst ick
ĠH awks
qu ille
ĠE sc
Ġle ap
Ġqu ake
ight ing
Ġch air
ide ast
gh ans
az ing
ĠEx ecut
Ġsup ported
ĠRes igns
ĠSer ge
Ġ9 2
Ġreb ounded
Ġpay roll
Ġgu ide
Ġant ivirus
ĠNorth west
ĠBr idge
cl ass
ĠMc G
Ġcor rect
ĠEd die
Ġemb ry
Ġdist ance
Ġsim ultane
Ġdraw s
Ġrecover ing
Ġdam ages
ĠInvest ig
ĠBel arus
ĠShe ll
Ġastron aut
ĠNor wegian
Mar tha
angu ly
Ġintegr ated
ĠVenezuel an
ĠBern ie
ĠLook ing
Ġsemif inal
hell o
ĠDam ascus
Ġsens itive
Ġmist ake
ĠRev olution
Ġaband oned
Sm ith
Ital y
Ġroy al
Cit igroup
Ġspectac ular
Kee fe
ĠMaver icks
ĠRup ert
ĠAMS TERDAM
J ust
d am
g rowing
k om
w ater
Ġs yn
at ures
Ġc ouncil
Ġb orn
Ġb orrow
Ġm ad
ĠT oo
ĠM aine
ĠI brahim
ĠB ee
ĠR at
Ġst akes
ĠD rive
ĠH il
ĠH ist
ĠL ind
ĠO mar
ĠJ ump
oc aine
ard ier
ĠY en
ĠIs sue
Ġelect rical
ĠAr k
Ġ5 3
hip s
Ġdeal t
Ġtro op
ĠWith draw
off icial
put ing
Ġred ucing
ric hello
Ġclub s
ĠMo qtada
ĠHow ever
Ġpopular ity
Ex pl
AD S
Ġ199 6
Ġnegoti ators
Ġdraw n
Ġtow ns
Ġblock buster
Ġcelebr ation
Ġeffect ively
Ġcounter part
ĠEr icsson
ĠNort heast
ĠVict or
Ġbur st
ĠSha quille
ĠStan ford
Ġslam med
Ġtelecom s
Ġphys ical
ĠCrit ic
ĠPict ure
Ġcasual ties
Phill ips
G oran
M arsh
O w
R ock
p ts
p ect
s chool
u y
u ly
in ner
on ic
Ġs ends
Ġthe ory
it ation
Ġf ol
Ġf est
ro ck
ĠA BC
ac le
ĠB ah
Ġl ov
ĠR B
im ates
ĠD raw
ĠSt raw
ĠK urd
Ġcomp ound
Ġun changed
amp s
Ġcr ashes
ang le
Ġbl ocks
iam bi
Ġact ive
Ġow ns
ĠTr ump
Ġgu ards
str uct
Ġant icip
Ġcompet itor
mail s
umb ent
Ġemb argo
Ġrock ets
ament o
Ġkidnapp ing
Ġpack ed
arz eneg
Fr iday
ĠProt est
Ġmom ents
uz nets
ĠDou g
Ġcal endar
ĠRon ald
ĠHot el
Ġansw ers
Ġill ness
Ġtrib unal
BUR G
ĠJam al
Ġlibr aries
Ġcart el
ĠMu qtada
ĠMerc ury
Ġpersu ade
ĠVers ion
ĠMontg omerie
Ġlon gtime
Ġdeton ated
ĠFredd ie
acr amento
arzeneg ger
G et
N T
V odafone
c ane
j o
s ec
or se
it an
Ġw earing
Ġb oys
Ġh ikes
id ance
ĠM GM
ĠM eyer
Ġth rows
ĠP etroleum
ĠW ars
ĠF ame
ĠF CC
ĠR ac
Ġst able
im ination
ĠL ocal
Ġhe d
ĠSt rate
ĠK an
ĠK ath
ĠK idd
oo f
Ġj ourney
Ġse lect
Ġse lected
ĠV otes
Ġout break
AP L
Ġres h
ank ing
Ġcr unch
ina i
pl es
Ġim minent
its u
Ġcons ult
ĠPresident ial
oot ing
ĠAl aska
Ġsu ing
EN E
Ġbat tery
Ġcost ly
Ch ief
cl estone
lin ers
Ġinterest ed
Ġpres ented
Ġpres idency
ĠIslam ist
Ġroll s
ĠPort land
ĠExp ands
ĠHait ian
augh t
ĠSant ander
ĠTrop ical
Ġbas ic
Ġathlet ic
Ġvirt ually
Gr and
ĠSha ukat
Ġsal ary
cont rolled
wh ile
ĠGard en
Ġexerc ise
po ena
ĠBankrupt cy
6 9
C al
D I
F K
L Y
W ind
Z en
b ot
b ase
h ist
Ġb onds
ic its
ĠS ells
ĠC ars
ĠM ax
el ro
ad ers
ĠW olf
ĠF M
Ġr ugby
ĠD u
ri be
em in
oc co
ap es
Ġsp ots
ĠY UKOS
Ġcl ock
Ġcont ain
ous and
Ġ6 50
Ġpercent age
Ġsur ve
ĠCo le
Ġdeal ing
RE AL
ert ies
Ġunder go
ĠGu ilty
idd les
Ġprom otion
Ġhol idays
Ġtrans form
MS N
Sp ain
UR T
Ġfe els
Ġfresh man
NE T
Red s
Ġalleg ing
ĠPit cairn
Ġesc aped
ĠLeg al
Ġmist akes
Ġaband on
ĠSalv ation
Ġsav ings
Ġtoug her
Ġoverwhel ming
mand u
repr ene
uznets ova
B onds
C ell
E uro
H ome
M AN
O B
g ies
w ing
Ġt umbled
Ġto y
Ġb und
ĠS aints
il o
ĠA ction
ĠC ond
ĠC ircuit
ĠN ev
ĠN FC
ĠF ul
ĠF OX
Ġst ops
Ġst rokes
ĠG round
ĠG ateway
Ġpro of
Ġoff shore
ff ield
ĠV ac
ĠAn y
Ġ6 1
Ġserv ed
ĠCo al
ĠPl ane
Ġoper ate
head er
ĠSouth ampton
ĠTr ack
Ġsub urb
Ġgu idance
Ġclos es
let e
TO BER
Ġpat ient
Ġtrad ition
ĠDel ays
Ġpubl ishing
Ġwithdraw n
ĠInter ior
Ġcoun ted
As ian
ĠAv iv
ĠPalm One
Ġchalleng ing
rav aged
ĠPle ads
ĠCanc er
def inition
ĠPolit ical
Ġcongr essional
Ġdetain ees
ĠShr ine
ĠMONT REAL
ĠPorts mouth
4 50
7 00
H alf
N O
N ext
N AS
P O
R I
S ept
W ashington
d el
Ġt ree
Ġs acked
Ġc ow
Ġw r
ĠS ouness
ĠM etro
ĠI chiro
ĠB ook
ĠN J
ĠF idel
ĠF ernand
ĠG all
Ġbe aut
Ġbe leaguered
op es
Ġy oun
Ġwh ales
Ġab uses
ĠMon ey
ure au
ĠSp ring
Ġkill er
Ġdec lines
err ard
Ġbr u
Ġstri king
In vest
AT I
idn ight
cl osed
ĠSte ven
ĠPol icy
IL LS
Ġdr ink
lant ic
ĠEast man
Ġshut out
For bes
Ġident ify
Ġimport ance
ĠDrug s
ĠPort o
Amer icans
ĠCount ry
serv ice
ĠSant a
Tr ans
Air bus
ĠThreat ens
Ġprem ium
ĠKeep s
ĠLiber ty
Ġrelie ver
Ġcorner back
Ġorigin ally
Ġdesper ate
ĠOC TOBER
b al
c ar
g io
j a
k iller
t wo
Ġs ick
Ġc argo
Ġb ear
Ġb old
Ġm ph
ĠA ud
ĠC AR
ĠB anc
ĠB urn
Ġre iter
ĠN ist
ĠF BI
ĠF amily
ĠR al
Ġr aw
est y
ĠL ift
ĠL yon
ĠE RP
Ġbe er
Ġbe ach
ul ator
ast y
Ġsh ips
Ġpl us
iv als
Ġac compl
Ġun known
Ġun iform
Ġop inion
IN S
ged y
ĠSer ie
raw ford
sp yware
ĠWar ning
Ġred uction
Ġgr ant
ĠDis put
AC H
Ġfeat uring
Ġtw in
Ġdiscuss ions
ĠAnt ar
Ġplatform s
Ġowners hip
ĠPan ama
Ġdisappoin ted
Ġattend ants
Ġmarg in
Ġdesk tops
Ġcomprom ise
Ġcolle agues
ĠEarn hardt
ĠHamp shire
ĠNist elro
/ &
B rown
G P
M ex
b ound
d ict
h olm
Ġa ce
Ġc e
al om
Ġto pped
ĠS oft
ĠS acramento
ĠS inai
Ġm ud
Ġd ot
Ġd ubbed
ĠT ob
ĠC ome
ĠP itch
Ġfor th
ĠW right
ĠF reed
ĠR ow
ill es
Ġst ages
ĠO regon
ri ot
Ġpro ced
ĠJ un
ĠJ erry
um mer
ĠK yle
Ġun p
Ġsc en
olog ist
Ġbusiness man
eep er
Ġnear by
Ġgrow s
ling ton
enn y
Ġsm ooth
Ġsw imming
ĠWh y
Ġdel iber
ĠSe oul
Ġcamp s
Ġstra in
Ġopp osed
Ġdet ailed
Ġmod erate
Ġregul ations
ĠPol ish
Ġexper iment
wan ted
ĠMiss ing
Ġsurv ival
As ia
ĠArgent ine
Ġgreen house
Ġhun ger
Ġbrief ly
Ġflood ing
ĠSettle ment
ĠNO V
Ġnort heastern
ĠStra ight
Ġcyc ling
ĠChild ren
ĠLu is
ĠLP GA
ĠProduc ts
ĠGaz prom
ĠBLOOM FIELD
cane ers
ĠNistelro oy
' m
8 7
F ive
O r
P e
S ign
S onics
W hy
g overnment
h ot
h ire
i enced
v idia
Ġ error
Ġa ides
Ġc ert
ĠS ites
ĠA wards
ac o
ĠB AL
ĠB rowser
ĠB udd
Ġre action
ĠF arm
ĠD a
th at
ĠL ive
ew ork
Ġas ylum
ĠCh ancellor
ĠTh ough
ĠV ince
out i
ant a
Ġab rupt
og ts
Ġop portun
ach ers
ov an
ite z
oy ed
Ġim ag
ĠRe aches
Ġsup ports
Ġcap ped
err illa
iam en
Ġtri ple
St ate
Ġwe apon
Ġsub st
ĠHe isman
Ġche er
Ġste pping
ĠSu isse
Ġnegoti ate
Ġconv iction
ĠMiss ouri
Ġcomb ination
Ġval ued
ĠLaw yers
Ġblast ed
ĠSil v
Ġcompl aints
ĠInt rod
Ġcirc uit
ĠProd uction
ĠLow e
Ġhon or
Ġdevast ated
Ġunf air
Ġchem ical
Ġtre ated
Calif ornia
Ġwreck age
Ġadvoc ates
ĠOnt ario
Ġaccus ations
eleb rex
3 7
6 4
C enter
D ec
F all
R eb
S ym
W TO
b oy
n amed
Ġa wards
ar c
Ġp sych
ĠS end
ĠS ue
Ġh ide
Ġh aul
ĠC FO
ĠM CI
ĠP ension
ĠP iracy
ĠW H
ĠW el
ĠW arming
ĠN i
ĠN ears
ĠH im
ĠL U
ĠE th
ess or
ĠIn sp
ĠSt ay
Ġwh om
ĠK um
ĠY ushchenko
ĠFr ont
av ior
ĠAs ks
Ġco oper
air y
Ġtal ent
co a
ains bury
Ġgl ory
Ġstrong ly
Ġspec ific
Ġhand ling
Ġgold en
Ġvis ited
Ġav iation
oney well
ĠSl ips
ĠEl ena
Ġpolic emen
Ġent h
Ġaff ected
Ġmon itors
Ġdisapp ointment
AK E
ĠTy ler
ĠInt egr
Ġfun eral
Ġlock er
Pr ince
ĠCA IRO
Ad obe
ĠBlu etooth
Ġpra ise
Ġtur moil
bor o
Indones ia
cut ting
Hol lywood
ĠKazakh stan
Zen eca
3 2
D C
D eath
E I
L et
P ass
P ower
T w
T AN
W hen
b ut
b rough
h ol
l ow
o os
Ġ eld
in ted
re hens
Ġb ranch
ĠS ex
st ed
ĠM aking
el a
ĠB rom
ĠB ulls
Ġg e
ĠW id
ĠW NBA
ĠN Z
Ġst aged
ĠH oping
ĠL ose
ĠL uke
os is
ĠJ ud
Ġsa ving
ian g
Ġde g
Ġqu its
Ġcomp onents
Ġk icks
Ġcl assic
Ġcl oning
ail ing
com puting
Ġtr im
ĠSh ot
ĠPro gress
Ġdec lining
Ġ7 4
ĠPl ant
ĠJo h
AR A
ĠBe hind
enter is
Ġspec if
ĠSan ctions
Ġ16 0
ij sters
Ġsol ve
Ġchip maker
ĠPat ent
Ġstat ements
Ġprison er
Ġdraw ing
Ġblock ade
ĠPlan et
Ġdiffer ences
Ġacquis itions
Ġwild life
Ġprotect ing
ĠMem ory
ĠLab s
ĠSusp ected
Ġdemonstr ated
ĠBet ter
Ġhal ted
ĠBas que
Ġknock out
power ed
ĠBuc caneers
ĠHarr ington
ĠPeters on
Ġregis tered
ĠRu ud
Ġdistribut or
1 50
8 9
A I
C all
K H
M ed
P ort
S ix
Ġt ore
in er
it ting
Ġf ake
as a
Ġm un
Ġh ook
ĠA yad
ĠT ough
ĠC ambodia
st ad
ĠP ope
Ġfor est
ĠW ould
ĠW ired
ĠN ine
ĠN uke
ĠR uling
ĠR ookie
Ġst ays
Ġr ains
ĠD E
ĠH end
ĠL ate
ĠL iving
ul ted
Ġas p
Ġcon vers
Ġsh ared
Ġex ample
ome ter
Ġacc uses
ĠSp urrier
ĠLe on
ok en
ales e
pr esident
rac ted
eep ing
ĠMar at
Ġbomb ed
Ġdel ight
Ġdel ivers
Ġprogram ming
be ki
ĠWill ingham
ĠMan ufacturing
Ġfoll ows
res pond
Ġviol ated
ĠSun s
Ġshort ly
Ġpat rol
Ġdr inks
ĠHar ris
ĠCons ider
utin y
Ġdefeat ing
ĠVi acom
Ġcomplet ely
ĠIndust rial
ĠStar ts
Ġlab els
Ġindepend ence
ĠTri p
Ġlack l
Ġchar acter
Ġevac u
Phil ipp
Ġcease fire
ĠKe ith
ĠRoss i
Ġlandsl ides
Ġgenet ic
Ġcomfort able
ĠKl itschko
Ġmagn itude
ĠEnvironment al
UA IR
Ġerr ors
Ġaer ospace
Ty phoon
ĠScient ific
Ġvideot ape
ĠMahm oud
ĠFALL UJA
C ap
C assini
G un
M onth
N ow
V enezuel
a fter
b ow
f are
j ans
k ina
p ot
y er
Ġt ip
in f
Ġc ocaine
Ġp ill
Ġb ears
is er
ro yo
ĠA verage
ĠT ed
ĠC IA
ĠM ain
ĠM useum
ir med
Ġg ang
us er
ĠN BC
ĠF act
Ġr ib
ĠD ig
ĠU lt
ast ed
Ġcomp onent
ell ation
av s
ock ing
ĠAn s
ĠSp ir
ĠLe Bron
ĠBl asts
ĠWorld wide
ĠCl imate
ĠCl ippers
Ġunder way
Ġbank ers
Ġexecut ion
ĠHe ads
Ġhom ers
sh are
Ġtrad em
ĠMed al
ĠStri kes
Ġactiv ist
ĠLos es
Ġtravel ers
Ġident ification
Ġsurv ive
ĠRel ief
Ġsubscri ption
ĠPen nington
edd ing
Ġattemp ted
ĠMatt hew
olic ited
ĠRw andan
ĠAbd ullah
Ġprim ary
eps i
Ġadap ters
ĠCour se
Ġslug ger
UAL A
ĠNeg oti
;\ &
C helsea
D rug
I m
T el
Y ou
f light
h ost
o op
r ating
Ġt ons
Ġs ac
Ġs ank
it on
it ted
Ġf ee
Ġf ights
Ġo ust
Ġp ieces
Ġd u
Ġd aughter
ĠA im
ĠA IDS
ĠM ol
ĠM ideast
ur ation
ĠP ip
ĠP ORT
ĠB O
Ġg ambling
Ġst iff
ĠE TA
ĠO AK
em ic
op oly
ess ential
rom edia
Ġsh ipped
ĠK a
Ġpr iced
ĠCh urch
ĠV onage
Ġro vers
og g
Ġ200 9
Ġcont rolled
aw ati
Ġad ults
ĠSh ip
Ġinc umbent
ĠRe ported
Ġinvest ments
RE S
Ġ8 5
DA L
ik a
ik i
Ġ9 4
Ġsw orn
Ġprofit able
Ġgl ass
ĠX M
ĠX inhua
ator ies
ĠDec line
Ġinterest ing
Ġshort stop
Ġshe ll
ĠVir t
ĠDel ay
Bl ast
ĠGold man
Ġmet res
Ġquestion able
ĠBel ow
Col omb
Ġpurch ased
ĠVal ent
ĠVo ice
Ġocc urred
ĠExt end
ĠJeff rey
GH z
Ġurg ent
Ġphot ograph
ĠAust in
ĠHot els
ĠMeet ing
ĠBreak s
Ġsidel ined
ĠArrest ed
ĠRoll s
ĠBol ton
Olymp ics
Ear th
Ang els
Sen ate
iddles brough
D igital
J ets
K ey
P K
W oods
d a
k ies
n ow
Ġ x
he ning
en ged
Ġc ripp
ing ing
Ġp ending
Ġb ounce
ay a
Ġd awn
ĠC O
ĠC old
ur ich
ĠP ubl
ĠP ath
Ġfor ms
ĠB und
am m
ut ies
Ġst ability
Ġr iot
ra vel
ĠL ithuan
and als
ess ions
ĠJ int
ĠJ azz
um in
ĠK os
ab r
ens us
Ġcont aining
eb uck
ĠSp yware
pl ed
Ġreg ain
Ġmay or
Ġcar maker
Ġrem arks
ĠJohn ny
Ġpower ed
Ġinf ected
ĠGr ace
ĠMay be
TO C
Ġinst alled
ĠFir es
Ġjump s
ĠHol y
Ġsaf ely
ĠRo ebuck
ĠCH AR
mir ates
Ġtrack ing
Ġspe ak
ĠInt elligence
Ġund ers
Ġdeter ior
Ġplot ting
Ġfigh ter
ĠGun ners
ĠTer rell
Ġhelicop ters
init i
Ġindivid uals
ĠJagu ars
Ġbirth day
Ġmus cle
ĠEst imates
ĠAnim ation
Ġcoff ee
ĠMick elson
Ġric hest
Motor ola
ĠRepresent atives
Sym antec
3 50
4 2
8 8
A Y
A nd
F ootball
H ealth
O p
S M
V E
c ase
c ount
l aim
p oin
x imately
Ġ iron
Ġp ond
Ġp ensions
Ġb le
ĠA er
ou ds
ĠT ies
ĠC andid
ĠM and
ĠM ob
ĠM itsubishi
ol i
ir i
ĠW ells
ĠF at
ĠH ope
ĠL ay
ĠL ove
ul ent
ul ous
Ġcon cl
Ġex cess
Ġch urch
Ġwor s
Ġsec ured
od ox
rop ri
ĠSh uttle
Ġinc or
Ġteam ed
Ġpre v
Ġeconom ies
Ġnear s
ĠOp portunity
ient ed
Ġimp ossible
ĠDe an
In f
ĠAg reement
ĠMan uel
Ġstock p
AM P
Ġcampaign s
ĠRep l
Ġcell phone
Ġ199 8
Ġple ads
ĠCent rino
ĠShe ffield
unk ett
Ġdistrib uted
ĠHealth Day
Ġbrok ers
Ġtrib al
Ġtext ile
Ġinn oc
ĠInj ured
ĠQue en
ĠQuest ions
Ġporn ography
Ġod ds
Ġmedic ine
ĠIncre ase
Ġcos m
fr ame
Ġincent ives
ĠGib bs
ĠContinu es
ĠProble ms
ĠSus ilo
Ġremark able
ĠRAM ALLAH
ĠFul ham
ĠRal ph
ĠSilv io
B el
B oss
G olf
b a
b ian
d is
g ie
o a
Ġ eth
Ġt ear
ed s
Ġw er
Ġw rapped
re k
ĠS ave
ĠS orenstam
Ġm urd
ay an
Ġh ung
ĠP ull
ad os
ĠB HP
ĠB ureau
ol fer
Ġg ar
ĠD ip
ĠH ILLS
Ġan onym
os lav
ag ged
em a
ĠK at
Ġal b
Ġwar l
ĠRe form
ĠAr ms
pr us
St rong
Ġdem ocratic
Ġprot ocol
par ts
ĠBr ands
Ġref using
ĠPress ure
ĠCr isis
ĠShar p
osp itals
Ġexpect ing
Ġsk ills
Ġexplos ive
ĠBill iton
Ġfact or
Ġple ad
ĠSur ge
Ġdeep er
Ġintegr ate
Ġmount ing
Ġvar iety
ĠMess enger
Ġrac ist
Ġpan els
ĠSilver stone
oco Phillips
ĠKo izumi
Pat riots
Ġhell ip
Ġfro zen
ĠBamb ang
ĠOrgan isation
6 3
E nd
G C
H D
R ad
S B
d istance
h anded
k en
l it
l iest
s ol
x ious
Ġs kept
Ġc ement
Ġc ateg
Ġp in
ro te
Ġm idnight
Ġh amp
ĠA k
ĠT a
ĠT endulkar
ĠC elebrex
ĠM illions
ĠF T
ĠF an
ĠR ivers
ĠR ule
ĠR SS
ĠU F
ĠG iambi
ĠL ed
ts on
Ġan cest
ĠO ther
ĠO tt
ters h
oc ation
ĠSt ars
Ġch ose
Ġag ing
ĠTh under
ĠY esterday
ĠY anks
ub ai
Ġun ity
eop les
ĠSh opping
ĠInd y
ĠSp ani
Ġim pr
ĠBl azers
Ġrun ner
St eel
Ġtra gedy
Ġchief s
Ġsw itches
Ġgu errilla
Ġ12 0
Ġstud ies
Ġmem or
Ġmain ly
Ġbroad er
Ġste ad
Th ousands
Ġlist en
Ġmer ch
An nan
ĠFed Ex
ĠSu ite
Ġmet eor
Ġmult imedia
iven ess
Ġspecial ist
Ġcred itors
ĠBro thers
Ġval uable
Ġvol cano
fl ation
ĠMem bers
Ġresol ving
ĠKy i
CL A
Mo zilla
Ġhy brid
ĠBet a
Ġspr inters
ĠWil son
rob at
Ġbench mark
Ġdeleg ates
Ġmaster mind
ĠSchw ab
Ġbull pen
Ġdispl ays
aly mp
Ġexec s
Ġarchitect ure
Tur key
ĠConcer ns
Ġcult ure
ĠLawsu it
Ġrough ly
Ġdre ams
ĠAccount ing
Hew itt
Ġstruct ure
ĠMaur ice
Ġsimultane ously
Ġhed ge
ĠJint ao
. )
D ream
G o
P ad
P TI
T exas
f und
o iled
p net
Ġa ver
on ia
Ġf rag
Ġp etroleum
ro eder
ĠS utton
Ġm ice
Ġm otion
Ġh ub
Ġd uty
ĠT amil
ĠM ills
ĠP ossible
ĠB ash
ĠB ett
Ġn ov
Ġg ay
ĠW ord
ĠL E
ĠL ord
ĠL atham
os ite
ap ing
Ġsh aky
ĠK ost
Ġch at
ĠCh o
ĠTh ose
ab ies
ĠY ao
ere z
ĠV in
ĠV oting
ĠFr esh
com es
Ġtr uce
ous ing
ĠInd epend
Ġdef icits
Ġ7 9
ĠPl ot
ĠAl most
Ġtri o
ĠFl ash
ĠTr ust
Ġgu ys
Ġcamp us
Ġcol lection
ĠBut ton
Ġeng aged
Ġban ning
Ġpress ed
att rone
Ġsuccess ive
Ġur ge
Ġdownlo ading
ĠVi enna
Ġimprove ments
ĠExp o
Ġpit ches
Ġarg uments
Ġstun ned
Ġanim al
ĠBoost s
Space ShipOne
ĠIM F
Ġadvis er
ĠCD s
ĠQuest ion
Card inals
Ġfat al
Ġtrop ical
Ġrestaur ant
ĠKent ucky
Ġjun ior
ĠMig uel
ĠCompet ition
ĠBarg h
Rod dick
ĠVirt ual
5 7
C R
D R
M ich
O ut
P N
T W
e ering
f ast
n ell
Ġt rem
it ational
Ġc igar
ĠS ong
Ġd rought
ĠM IL
Ġl ie
ĠG ap
ĠL ik
ĠE mirates
Ġpro per
ast ing
ĠK irk
ie va
ep loy
Ġ3 50
ĠLe ading
enc er
Ġpart ial
ement ieva
Ġbo oming
riv ing
Ġsw ift
ley ball
Ġtest imony
Ġstri p
Ġresearch er
Ġprocess es
ann on
Ġfind ings
ĠDep uty
Ġca uses
Ġtrans port
ĠDes ign
Ġbeh avior
AC K
Ġent reprene
Ġport al
Ġqualif y
Ġdisput es
icip al
Ġconn ected
Ġunc on
Ġread ies
ĠStar bucks
Ġwalk ing
Ġresol ved
ĠDisc uss
irac le
Ġteen age
ĠMov ie
Ġuns olicited
Ġbehead ing
prof it
Ser ver
Ġwelcom es
Ġencoura ge
Ġencoura ged
Ġenjoy ed
Ġgro cer
Ġexperim ents
Ġscreens aver
dem and
ĠFil m
ĠChamp ion
Ham as
Ġfal se
Niger ian
Milit ants
Ġshrug ged
xy gen
Ġgad gets
ĠSett les
Ġemotion al
ĠKath mandu
Ġreiter ated
ĠKum ar
B ur
B ell
C EO
H it
H AR
M a
M MC
P ay
R el
c ue
g ages
l ift
s ign
t est
w ise
Ġt um
er i
Ġs amples
or ry
Ġf old
Ġp ig
Ġto x
il a
Ġd ug
ĠT ex
ĠM iddlesbrough
et own
ĠB uck
ĠB att
Ġn om
Ġn av
Ġst abil
ĠL ic
ĠL loy
ĠO scar
ag ain
ist le
Ġpr inters
ab i
ob od
Ġout standing
Ġro cks
com merce
ind ing
ilit ary
ef eated
ĠAustral ians
Ġ8 2
Ġbr ink
Ġsm oke
Ġ20 10
Ġdeb uts
ĠMan ny
ĠMc Gr
Ġhalf way
ĠGr id
ĠMot ley
Ġcre ates
Ġlik es
HE IM
ĠWe is
ĠFRAN K
ĠSen ator
ĠSu u
Ġdouble header
Ġtw ist
Ġtour ism
ĠEc clestone
ĠRich ards
Ġpurch ases
Ġprosecut ion
Ġlic enses
Ġrad ar
ĠCase y
Ġcirc ulation
ĠCamp bell
ĠCy prus
rig ley
Ġcle ars
Ġlegisl ative
Ġstem ming
ĠInf ineon
ĠRiver a
ĠSum mit
Sup er
Ġproceed ings
Ġadj ust
ĠWrit er
ĠBarb ados
Ġrot ation
Sil icon
ĠGri ff
ĠKel ly
Ġundis closed
Ġspre ading
ĠTow ard
ĠFOX BOR
Ġenth us
Ġwer en
A ut
B ert
C hen
I v
K A
M ets
M ajor
M usharraf
W enger
a igning
f old
i w
s m
s up
w aves
in cess
Ġs ch
at lin
Ġw ish
ĠS iebel
ĠA uction
ĠP oint
Ġl av
Ġl ights
Ġg est
ĠW at
ĠW oes
ĠR os
ĠR atings
Ġr ub
ĠL ah
ĠL ifts
ch ing
ĠThe se
Ġis ol
Ġy outh
Ġsa ved
ĠIn n
all ah
Ġv ig
ĠK uznetsova
ĠK enteris
ard o
Ġoff season
ell ites
tern al
ĠPr im
ile ver
Ġen ables
man n
man ned
az ir
ĠEurope ans
ĠAr ts
Ġdown town
Ġquarter backs
Ġnight mare
Ġdo ors
Ġ8 1
ĠRed mond
ai ro
In t
Ġattack er
Ġpeace ful
ĠAc robat
Ġev al
uj a
Th ai
ĠChe m
Ġintrod ucing
Ġmet al
ĠCons erv
Ġaff ili
Ġspeed s
ĠTech Web
ĠMor ris
ĠStock holm
Ġappro ximately
ĠMS FT
ĠSol utions
ĠDen ies
ĠSant ana
Ġwa ited
Ġdeploy ed
Ġ80 2
Ġsecret ly
Ġcy bersecurity
Ġrefer ee
Ġawa its
Ġpur ported
ĠDun hill
Ġoccup ation
ĠSalv ador
Ġexplo it
ĠInv itational
Ġdism ant
ĠMarc us
ĠTrib une
bour ne
ĠSlov ak
ĠFI FA
Expl os
Ġopportun ities
Ġtradem ark
obod an
: -
B B
B eckham
B road
G ates
H ar
K idnapp
L ay
M il
S oftware
T iger
c ell
f rom
l is
m ath
p et
s ession
v irus
it ure
Ġp riz
Ġd inos
ĠT reat
ĠT erm
ĠT oys
ĠC R
ĠC reat
ĠM aker
ĠP ierce
ĠB rief
ĠW R
ĠF L
ĠF ear
ĠF ix
ĠF lex
ĠR out
ĠR ivals
ĠH on
ĠL i
Ġas bestos
Ġv en
ĠK ell
ĠK rispy
ry ing
Ġse ize
Ġse lection
ie ves
Ġexp ense
ort ion
Ġ5 9
ough lin
Ġbuy er
Ġsw im
ĠOff ensive
Ġexpl oration
Ġattack ing
Ġattack ers
ĠBr ady
Ġleg acy
ĠQ west
Ġform ats
ĠGr en
Ġemp ire
Ġdet ention
Ġob st
IA EA
ĠMo ore
ourn ament
ĠRob b
Ġaff airs
Ġspot ted
Ġtour ist
ĠUr ban
Ġcatch er
ĠRun ning
Ġele ph
Ġtur f
ĠBuild ing
ĠRay mond
Ġconserv ation
ĠTel stra
Ġpolitic ian
Res earch
ĠSach s
ĠArm strong
ĠParm alat
Mal ays
Ġindef initely
Ġpir ated
rehens ive
ĠLik ud
5 9
B ill
B ack
D av
G ood
R ay
S audi
V a
c ite
m ember
n asdaq
p ers
Ġt ears
it o
Ġf ier
Ġc ra
Ġw ing
Ġp ose
Ġm ention
Ġh ers
ter dam
ĠT s
ĠT odd
ĠC airo
ĠM ond
ĠM IN
ĠM uch
ur a
ĠP IT
Ġfor get
ĠB it
ĠB ASE
Ġn one
Ġg ross
ĠR ash
ĠD O
ĠD er
ĠG ators
ĠG anguly
ĠH art
ĠL ibr
ul ators
Ġcon cent
por ations
ust ry
Ġsp urred
Ġj oy
og rap
ov en
Ġtr ick
Ġinc idents
Ġdec isions
app ers
led ge
Ġso le
Ġcar bon
Ġhead lines
Ġpoin ted
Ġindust ries
ĠProf essional
IS H
Ġrest art
Ġhom eland
ĠQu alcomm
Ġinvestig ations
Ġregul ation
Ġclear ly
ĠBay er
Ġold est
ĠAst ra
ĠBE A
Ġunc overed
ĠCharg ed
ĠRog ers
Ġread ers
ĠTy rone
Ġconc ert
Ġsport ing
Ġfix es
ĠThom son
ĠAct iv
ĠNep alese
Ġiniti atives
ĠWil kins
Ġbarg ain
Ġpra ised
Ġbul let
ĠColl ins
Ital ian
ĠJoin s
Ġcyc le
John son
ĠCast ro
Ġrecru its
Ġacadem ic
ĠBelt ran
Ġeld er
3 4
? "
B us
D olphins
F URT
M ars
Y A
d ec
m or
p ace
t rick
Ġ rom
Ġs ne
Ġf lee
Ġf leet
Ġb urn
ĠS D
Ġm ild
Ġm inds
Ġd ip
Ġd iver
ĠA y
et o
ĠP aper
ĠP RO
Ġl aser
Ġg olfer
Ġe g
ĠW ash
Ġr ings
Ġr anging
ĠD eep
ver ed
ĠU g
ĠH oya
ĠL am
ĠO thers
ĠO vers
ters on
ĠJ unich
ft ime
ĠSt em
Ġex cept
Ġpr ide
Ġj ack
Ġup held
Ġout fit
ĠUn ions
Ġsc or
pl ant
Ġdef in
ĠEx perts
Ġdown gr
atch ing
Ġwork st
Ġinvest ing
Ġ10 1
Ġ10 3
ath lon
lud ing
ĠAd ams
Ġass um
Ġhost ed
ĠZ urich
Ġ9 5
Ġbomb ers
Ġtest ified
AG UE
Ġturn around
ĠDec ision
ĠOut put
ĠPar ad
Ġprom oting
ĠSl obodan
itt al
Th ere
Ġsk ies
Ġopt ical
ĠAugust o
Ġball istic
Ġconv inc
14 7
Ġgener ic
Ġpick ing
Ph oto
ĠEnter prises
Ġdiffer ence
ĠExp and
Ġupgr ading
Ġreview s
Al italia
Ġisland s
ĠBen itez
Ġbox es
Ġlab el
Ġide as
Ġstrengt hening
Ġinflu ential
Sch illing
Ġsidel ine
Ġsurprising ly
Ġmarg ins
Ġobtain ed
ĠWeigh s
ĠEll ison
Ġhurd les
ML B
ĠAh med
Ġdict ator
Ġextrad ition
Ġconced ed
Ġtact ics
ĠDh aka
ĠCore y
tersh ocks
A tt
G reen
H ait
L ink
S af
c ourt
h ole
i op
t z
Ġ *
Ġ ug
Ġ essential
ĠA FC
ĠT ight
ĠC ivil
st eps
ĠP R
ĠP ak
Ġl ists
Ġg al
ĠR ic
ĠR esident
ĠR ober
Ġst uck
ĠD ale
ĠU td
ĠG mail
ĠG ENE
ĠJ enn
ĠSt un
Ġsh ield
Ġsh ocked
Ġsh attered
Ġwh olesale
Ġex ist
Ġpl astic
ug ged
ĠV illa
Ġro of
ĠPr ed
ant icipated
ex mark
od om
Ġres ulted
Ġsc ams
Ġrec alls
ict ing
ount y
Ġus eful
Ġdec isive
err ero
Ġunder w
riv al
ech an
ĠWh ere
Ġmin er
cl ays
eng es
Ġgr im
ĠFin n
Ġhard er
Ġhard ly
ĠCr im
Ġemb race
Ġloc ation
\\ "
Ġintrod uces
Ġfre estyle
comp any
Ġgun fire
ĠInvest ments
ĠMe an
ĠAdv ances
Ġsqu are
ĠGo ing
ĠOw n
ĠAre a
ĠRa ise
ĠBern ard
Ġwebs ites
ĠRoman ian
Ġorganiz ers
Ġrecomm ended
BUR GH
ĠInj ury
Ġfort unes
Ġpeacekeep ing
How ard
Phil ips
El s
Ġtrop hy
rie ve
ĠCas ino
ĠHaw ai
MR K
ĠPriv ate
Ġextin ction
Ġnerv ous
Ġorb iting
Ġunanim ously
Ġfol ks
ĠNOV EMBER
ĠSpir it
ĠFRANK FURT
E Y
F D
G I
G ame
G ateway
O ld
e uro
l ig
m ont
n esty
t urn
u ous
z ing
Ġ ing
on i
ar ation
ar ely
Ġb ump
Ġin str
ĠS oviet
Ġd airy
ĠC rawford
ĠM EL
el i
ac ted
ol ved
Ġe at
ĠN azi
ĠF ail
ĠR over
ĠR io
ĠD ism
ĠH ague
ĠE N
rom e
ĠK raft
ident ified
ep h
Ġab using
ĠCor porate
ĠSp encer
Ġbl ind
Ġdec iding
Ġsl ain
Ġsl ams
ons ored
Ġgo alk
Ġmed i
ĠCon v
Ġinter vention
Ġair ports
Ġsign aled
ĠPh armaceuticals
Ġeff icient
Ġsub poena
Ġany where
AT A
ĠHe avy
Ġmain stream
Ġ13 0
Ġremain der
Ġdiv isions
Ġloc ations
Ġchall enged
ĠWe apons
Ġel ig
Ġver dict
Ġdeliver ing
Ġpred icts
itness es
sw apping
Ġknow ledge
Ġprob es
Ġstay ing
Ġalong side
Ġwid ened
ĠLabor atories
Ġaud it
ĠCount ries
Ġrepres ents
Ġwind ow
ĠHit achi
oteb ooks
Ġexc ited
Ġfix ing
ĠStand ards
stitution al
ĠColomb ian
ĠChile an
Ġawa iting
Ġvill agers
Ġmaintain ed
ĠAcqu ire
Ġinstit ution
ĠMeg awati
ĠCommun ist
Ġlandsl ide
Ġhurd le
Ġcoordin ator
Ġreflect ing
ĠCro at
ĠCop y
Ġauthent ication
Ġdisrup ted
Hall iburton
ĠFuj itsu
ĠExecut ives
ĠJunich iro
F S
L ycos
N M
N Z
b sp
e u
f erred
h op
l aw
v ens
Ġt ar
Ġa vert
Ġa wait
or iented
al ia
Ġw rist
Ġw rote
Ġb ounced
ĠS vet
ĠS MB
Ġm ood
Ġh anging
Ġd uties
ĠA th
ĠT A
ĠM oya
ac c
Ġth umb
ĠB ase
Ġn bsp
ut u
ĠR en
ĠR ole
th odox
ra pping
ĠH ok
ri ends
ĠThe o
ĠIn it
ast rop
Ġcomp rehensive
Ġup per
Ġcl ar
Ġun iverse
Ġun wanted
ens ed
Ġrec onstr
Ġar ray
Ġsl im
Ġsl iding
Ġcons iders
IN CE
ĠAr nold
ĠAr royo
Ġso ar
St ock
Ġformer ly
ĠApp eals
Ġsm ugg
ĠCol o
Ġgl oom
Ġra ided
ĠTr in
Ġinf ilt
Ġrest ive
lin er
ott est
ĠMc Afee
Ġform ula
Ġemp ty
ann els
Ġdet ect
ĠPar alymp
Ġanal y
Ġtrans action
ĠRec e
yn ix
Ġwrit ers
ĠDon ovan
Ġtalk ed
Ġview ing
ĠSur gery
ĠTw enty
ĠMarket ing
ĠTele communications
ĠLoss es
En ter
Ġveter ans
Ġrestruct ure
ĠPalm Source
Ġspect rum
Ġovert urn
ĠMel bourne
ĠStud ios
Sm all
ĠNeed s
Ġfrust rated
Pac ers
Ġinstit utions
Indones ian
ĠMcN air
ĠLawsu its
ĠContin ue
ĠRamad an
Ġsymb ol
ĠYug oslav
ĠGuill en
Ġfu els
Ġovershad owed
esl iga
Ġlackl uster
Bert rand
ĠGren ada
0 6
7 9
B lo
B efore
E P
M yan
S he
k ara
l ana
u ert
Ġs ample
Ġo cean
Ġw al
Ġw aste
ĠS eb
ĠS MS
Ġh ints
ĠT ournament
ĠM d
ĠM ing
ĠM un
ĠM all
et ing
ac iers
ĠP ot
ĠP ra
Ġl ending
Ġl oud
Ġre porter
ĠW eather
ĠN ad
ĠN ash
ĠN elson
ĠR ing
ĠR ou
Ġr u
ĠD ubai
th ard
ĠG RE
ĠG aming
ĠL ands
ĠE AST
ĠO d
ĠJ up
ĠJ oy
ĠJ umps
Ġsa bot
if ul
ab lo
Ġse aled
ĠV ogts
ans son
ie v
oll ah
iss an
Ġnot es
Ġdis gr
Ġacc ur
ĠCom ing
Ġman ip
Ġsl ows
ĠAr g
ĠAr med
ins ula
aun ch
Ġmilit iamen
ms terdam
ĠAl ban
Ġunder going
Ġass ured
Ġexpl ore
Ġsub mitted
Ġleg it
ES TER
ĠBar richello
ĠQu ick
Ġmain land
ĠHigh bury
Ġfund ament
Ġcurr encies
ĠDef ends
ona ut
Ġent r
Ġfoc using
Ġsn ow
Ġwrit ing
ĠBomb ardier
ĠBob cats
ĠBen ef
oul thard
ĠMP s
Ġap artment
Ġtechn ique
Ġinsp ired
ĠStep s
reg ular
ĠSk ype
ca hn
ĠHard ie
ĠAB UJA
ipe i
ĠPict ures
ĠNic olas
Ġspons ors
Ġrestrict ions
ĠMaster Card
Ġenem y
ĠExec s
Oct ober
Ġhydro gen
Ġliber al
ĠDisput e
ĠAns ari
Ġhers elf
Myan mar
C le
C elt
c i
c op
d ated
g les
m ile
p ound
w orks
on ly
Ġs ociety
is ure
ĠS TOC
Ġm aj
Ġm ouse
Ġh azard
Ġh ospitals
le cts
ĠC L
ĠC P
ĠM umb
Ġn or
Ġn ic
Ġl obby
ĠF re
ill ance
Ġr id
ĠD EN
ĠG B
ĠL ink
ĠE ases
ak ar
ks ter
ast ro
ĠSt reak
Ġsh ops
ĠK IE
Ġsp ike
Ġse al
ĠV eter
ke ley
Ġsec rets
ign ment
ov t
Ġar ena
Ġcr ushed
Ġhigh way
Ġmilit ias
ĠAl coa
ĠSec ret
ĠAd vert
Ġrel uct
Ġcol on
Ġfoll owers
ĠWar riors
Ġhand ing
Ġbar red
opp y
ĠDis app
ĠMin ing
Ġperson nel
Ġfire wall
Ġsing er
Ġconv ince
14 8
Ġquestion ing
Ġsuper computing
Ġcanc el
ny se
ĠMilit ant
Ġsex ually
ĠBer keley
Ġtroubl es
ĠTake over
rig ging
ĠImp act
Ġattemp ting
At lantic
Ġdram atically
Ġrecall ing
ĠTerror ism
ĠConf idence
Ġlear ning
ĠOv al
Ġextrem ists
Ġsust ain
Ġparticip ate
Ġcru ise
Sec ond
ĠLuc ent
Ġassess ment
Ġgovern ance
ĠPA UL
ĠCustom ers
ĠLuk oil
BOUR NE
Hard enne
ĠThunder bird
Ġconvinc ing
ĠMEL BOURNE
ĠSvet lana
ĠSeb ast
ĠKIE V
9 2
A F
B ag
B ri
B ry
C y
F rom
F ree
I van
J et
S I
S i
S AP
a is
b itz
i y
i Sign
z ie
Ġc ited
Ġc af
Ġb urning
as se
ĠS M
ĠS ends
ĠA ce
ĠA way
ĠA msterdam
ĠT aj
ĠB P
ĠB Y
ĠB ud
ĠB ey
Ġl unch
ĠW is
ĠN ord
Ġr ural
est ed
est ine
ĠD ennis
ĠD uke
un a
ĠH AV
ĠL ear
ĠL ows
ri ati
ian ces
Ġhe ated
end ants
ust y
Ġch icken
und i
Ġcomp ly
ĠTh or
Ġsp are
ick ed
ke ys
Ġsec tion
av ed
ber y
ov ich
ĠAn alysts
Ġcr acked
Ġteam ing
Ġsl ipping
ier i
ĠCo ol
ĠAl b
istan i
rac ks
Ġinter face
Ġdem ol
Ġhost ing
Ġrel ax
Ġ9 00
ĠWeb S
Ġbat s
ret e
Ch irac
ĠGroup s
Ġref und
Ġvis a
Ġinvestig ated
ĠEd ucation
Ġdet ected
Ġtrans ition
ĠDef icit
Ġob vious
Ġclub house
Ġproduct ivity
ĠCent re
ĠExp ect
TS BURGH
Ġappro ached
Ġthough ts
ĠTele kom
Ġpain killer
Ġdep end
Ġund efeated
Ġlabor atory
Ġrequest ed
ĠSusp ects
En ron
ĠAust rian
ĠFrank lin
ĠDeath s
Ġapolog y
Ġplun ge
Ġshel ves
Ġextrem ely
Ġcollabor ation
Palm One
Ġrestaur ants
ĠSach in
ĠKidnapp ers
ĠRamad i
Ġded icated
ĠBox ing
Afr ican
ĠPortug al
ĠHist ory
ĠUF J
ĠMond avi
Ġug ly
ĠGENE VA
5 8
B T
B OS
H z
P an
P fizer
R angers
T TE
W ireless
b usiness
f ive
i ots
k m
m ode
s er
w ind
Ġt umble
er ous
or o
Ġf oul
Ġc oin
Ġp ump
Ġp ocket
Ġto t
Ġto ys
Ġb ed
Ġb one
Ġin ev
ĠS C
ion e
Ġd im
Ġd ipped
ĠT ries
id ad
ĠP AL
ĠB udget
ig o
ĠW eeks
ĠN amed
Ġst ance
ĠD ementieva
ĠU CLA
ĠH av
Ġcon sequ
ia h
Ġex ch
ug abe
ab a
Ġj eop
Ġup s
Ġout going
Ġun manned
ish op
act ice
Ġcont ention
Ġkill ings
Ġfl ies
ĠBl o
ĠBl ade
Ġmed all
Ġair ed
St orm
Ġcountry s
Ġrel ent
Ġsm oking
Ġdisc r
ĠSouth west
ĠDe als
Ġclos ure
ĠBr ent
ĠMan agers
ĠGre y
Ġenter prises
ĠAc ross
ĠEd itor
Ġmar ines
Ġunveil ing
look ing
An alysis
ĠFranc o
ĠChar lton
inc ial
Ġintrod uction
Ġ199 5
Ġsuff ers
Ġple ase
unt a
Ġreve aling
For ce
Ġcanc elled
Ġvol leyball
Ġweak ened
ten ance
ĠWi Max
Ġsett ling
augh an
Ġwind ows
ĠHus kies
ĠSusp ended
ĠDead line
ĠOs set
Ġarg ument
Ġhal ftime
Ġseparat ists
Ġrevers e
Ġbre ast
Ġfrust ration
Ġrespond ed
iab ility
ĠSilicon Valley
Ġcongr at
KO K
Ġsand wich
ĠHung ary
ĠBosn ia
ĠTem ple
ĠBANG KOK
cu ers
Wind ows
ĠTob acco
ĠIntrod uces
stad t
ĠBund esliga
Silicon Valley
ĠPIT TSBURGH
ĠAstra Zeneca
ĠAth lon
Blo omberg
ĠMumb ai
7 2
9 6
M iss
S W
b ook
d ig
i had
s en
s earch
Ġ id
Ġa ware
Ġw ages
Ġw edding
as ks
Ġh arsh
Ġd il
ĠC rystal
ĠM ail
ĠM LS
ĠB rem
ig gs
am ents
am ework
ir m
Ġre vel
ĠN OR
ĠF ee
ĠR ey
Ġst amp
Ġst ories
ĠD ays
ĠU AL
ĠG errard
Ġpro jected
Ġy uan
ell ar
ord inary
Ġafter math
Ġcl ashed
ber ger
Ġcont rolling
ood y
ĠSh in
ĠSh ane
ĠAn kara
ib illion
Ġhigh lights
ĠRe ad
Ġsl umped
ier ry
US C
Ġprof ile
ĠCl ass
ĠPal mer
ĠSec ure
Ġair stri
Ġact ing
erm o
ĠWith in
Ġreb uild
ivers ities
In j
Ġmiss es
ison ed
ific ial
ĠBr id
ĠDec l
Ġhom etown
Ġgr ass
Ġpress ing
Ġbet ting
key es
Ġtrans l
Ġexper ienced
Ġperform ances
Ġsk in
Ġfield s
Ġjump ing
Ġcontin ent
Ġfact ors
Ġcoun ts
ĠExp ects
Ġmort gages
Ġgra bs
Ġspe aking
ĠRock et
ĠWork ing
Ġautom otive
Ġrob ots
Ġdesign er
OO D
Ġlab our
ĠRel iance
Ġcoast al
ĠJim my
ĠCam initi
ĠBern hard
ĠTrans portation
Ġcollect ive
ĠBroad cast
ĠDam on
Ġtrib ute
ĠHop kins
ĠRetail ers
Ġcommand ers
Ġult imately
Ġsidel ines
Gu ard
Ġbreat h
Ġep ic
Olymp ic
Ag assi
ĠClar ke
Ġtun nel
Shar apova
Ġforth coming
Ġmun icipal
A ct
B US
E X
E lection
G eor
K n
M I
i ac
l ikely
n orth
o ops
Ġt une
in as
on ting
Ġs ter
Ġs oy
Ġf urn
Ġp apers
Ġp irates
Ġb ot
Ġb ust
Ġb ilateral
Ġm el
Ġh iding
Ġh idden
Ġd iving
Ġd ogs
Ġd umped
ĠA x
ĠA gr
ĠC ape
ĠC OM
ĠC oughlin
om o
ĠM beki
ĠB ond
ĠB MW
ers e
ĠW ade
ĠN T
ĠF ifth
Ġst opping
Ġr iding
ĠU P
ĠG ener
ĠH ay
ĠH oneywell
ĠE D
ĠE L
Ġat roc
ag ne
ĠIn vestor
Ġpl agued
Ġch annels
Ġpr est
ab o
Ġsp aces
Ġse quel
Ġout lined
Ġsc andals
Ġdis abled
ĠSh ui
Ġstr ange
Ġsl um
US A
Ġcap ping
err ing
ĠPl atform
ĠCl ash
Ġother wise
Ġgrow n
Ġbr anches
Ġ9 3
ĠCol gate
IS S
Ġleft ist
Ġcamp aigning
Ġhand ful
Ġturn overs
aul ts
ĠDar ren
ĠRec all
Is lam
UN D
Ġvo ter
Ġprepar ation
Ġprepar ations
Ġarriv ing
ĠTro jans
Ġpack ages
Ġground s
Ġmon etary
ĠKen yan
Ġbird ie
ĠMy lan
Ġinitial ly
Ġcounter feit
ĠNor odom
Ġcover ing
Pl ay
Ġcommun ities
ĠMount ain
Ġchar ity
Tech Web
ĠBur ma
Ġbarg aining
ĠPass es
Ġconvention al
Ġevac uate
Ġenh anced
Ġstrengthen ed
ĠConcer n
ĠContin ental
Ab b
To day
Ġneighbor hood
Ġtemper atures
ĠJos eph
Ġbru ised
Ġmurd ered
ĠOtt awa
Ġnov el
Ma uresmo
Ġtox ic
Ġgoalk eeper
Bag hdad
Bri en
ĠBrem en
A APL
B all
C ost
K odak
N CAA
S ri
S mart
X T
c al
l ist
l ash
u ve
u its
w ord
Ġt echnolog
Ġs ounds
or ganization
it age
Ġf ulf
Ġw alls
Ġb urd
ĠS ociety
ĠS ainsbury
Ġm ound
Ġm oons
Ġh ype
Ġh ref
Ġd iet
ĠC ay
ĠM ortgage
et ime
Ġfor um
ut rit
ĠD ur
ĠD ALL
ĠG ut
ĠH ad
ĠL ie
ĠL iga
ĠE C
ĠE DS
op t
ĠJ osh
Ġsa fer
ap ix
um bers
ĠSt el
Ġpl umm
Ġcomp ar
ment ary
iv an
ĠTh ierry
ab bed
ans om
Ġcl ouds
Ġquot as
Ġwin less
Ġcompany s
iss ions
Ġapp ointment
ĠInd o
Ġear ns
az en
Ġdef iant
ows ki
Ġdes ire
Ġdes igns
Ġ5 8
Ġreg ister
Ġne ither
ms on
ĠFor get
Ġconf ig
ĠAir line
ĠCl ijsters
Ġunder mine
ĠMar wan
ĠComm unity
Ġbank er
Ġgl obe
Ġmiss ions
Ch ar
AT H
ĠBr ight
sp aper
sp onsored
cl k
ES S
ĠOr thodox
Ġbar rier
Ġacqu ires
Ġcor porations
ĠGu ide
ĠQu ake
ĠPar c
ĠDef ending
OL M
Ġpubl ishers
Ġseem ingly
Ġden y
Ġlo oms
Ġblock ing
Ġdam aging
Ġmon opoly
Ġcelebr ating
Ġovers ight
Ġcheck point
Ġclimb ing
ĠIm am
Ġsil ence
ĠAv oid
Ġcal c
Ġcool ing
ĠQuarter back
Ġcross ing
Ġcommun ication
Ġneighb oring
Ġthr one
rob i
Ġder ail
Off ice
Ġadvis ers
Ġadvis ory
ĠShare holders
Ġbre ach
Sup reme
ĠSerb ia
Ġtim ing
Ġpal m
ĠKidnapp ed
Ġtail back
ĠAff airs
Ġbiot echnology
Ġmand ate
Ġbrows ers
ĠProsecut ors
ĠNag pur
respond ent
Ġconcl usion
Ġunderw ent
ĠDALL AS
A cc
D oom
L B
L M
M us
M ag
R N
S ant
e ast
f ts
m ade
m ons
p in
r ent
t es
Ġt ips
Ġt elescope
in z
er ts
es co
at ement
Ġf ren
Ġc ov
Ġp od
Ġb oot
as ma
ĠS AL
ĠS asser
ĠS QL
Ġm outh
Ġm ax
Ġh air
Ġd urable
ou k
ĠC AP
st en
ĠP epsi
Ġn ice
Ġn ights
Ġn ature
Ġn otebooks
Ġl ig
am in
ĠW rigley
ĠF le
ĠG a
ĠH ur
ĠH eld
ĠL ane
ĠL ara
ĠL illy
qu est
ĠE ase
ew are
ear t
ag ra
ri ers
ri ven
Ġhe els
Ġby pass
ĠK al
Ġpr int
ud son
Ġsp ur
Ġsp ate
ĠV AN
ros o
own ers
erv es
rit ical
Ġtr illion
Ġtr uth
Ġapp ly
Ġcr ush
hes s
Ġsl ips
Ġbu oyed
tt e
Ġnight cl
Ġreg istr
Ġ10 4
Ġso il
Ġ19 70
Ġ8 3
Ġbuy back
Ġass istance
ĠOpen ing
Ġpass ion
Ġcourt room
Ġfound ers
Ġ11 0
Ġant isp
Ġpar am
The y
sp ot
leg es
ĠOr bitz
ĠWest wood
Ġord ering
Ġmain frame
ĠServ ers
Ġinv ited
mit t
eth lis
Ġtrans ist
Ġbattle ground
Ġequ ival
ĠPart ner
Ġfur ious
Ġlet ting
Ġconv in
Ġden ial
Ġben eath
Ġlo oming
ĠTro ubl
Ġaff air
ĠPower Book
Ġdiscuss ed
oper ability
NE APOLIS
ĠMusic match
Ġcrow ds
Ġdistrib ute
Ġshoot out
istic ated
Ġart ists
ĠBry an
Ġtrain er
Ġresc ued
ĠJim enez
ĠRele ased
Ġhun ters
ĠMarsh all
Ġcy cl
Ġentire ly
ĠSim on
Ġdiscl ose
ĠBron x
Ġcontrib uted
Ġreject ing
Ġbell w
Ġdi agn
third s
Ġescal ating
Ġfinger print
ĠDU BAI
Ġsteal ing
Ken zie
ĠJen kins
Sur vey
Ġsurr ender
Ġsear ched
Ġsubstant ial
ĠMedic are
Ġborrow ing
del ayed
ĠOAK LAND
umin um
ĠGriff in
Si emens
B at
C ubs
H K
H ost
e on
Ġt orr
in ations
es ars
en ko
Ġf ishing
Ġw et
Ġp oured
Ġb iz
is a
Ġin ex
Ġin coming
ĠS ame
Ġm useum
ĠA ung
ĠT aking
ĠC arm
ĠC aps
ĠM ur
el o
ĠP os
ĠP ace
ĠB order
Ġl ender
Ġl augh
Ġre aff
ut ri
Ġe Server
ĠW orm
ĠW ang
ĠW MC
ĠN issan
ill on
Ġst ole
Ġr aced
im an
ĠD ual
th reat
ĠL AKE
qu er
ĠO t
ĠO x
Ġsa il
Ġpl ate
Ġj ur
Ġj aw
ĠV ie
ĠV ital
ĠFr es
Ġun identified
ĠUn c
Ġres orts
Ġsc ar
Ġsc aled
Ġnot orious
Ġdis ag
Ġapp et
Ġcr ater
Ġann ually
Ġret ains
cent ury
ĠRe ve
ĠEn t
Ġcap ability
Ġ10 2
Ġconf usion
ĠRes ume
Ġso ars
ĠSer gio
ax y
Ġsu its
Ġexecut ed
Ġdeb ts
Ġhold er
Ġbar rage
Ġhist or
ĠWall ace
Ġmod ified
Ġsmall est
Ġpat tern
by e
Ġtrans actions
Ġouts k
ĠMac ed
set ting
Ġactiv ated
Ġcapt ive
Ġmult ibillion
ĠAN A
Ġsn apped
ĠAnn ika
Ġcoll ision
Ġdiscuss ion
Ġspe aks
Ġbad ly
ĠBE ACH
yc ling
ĠIN Q
ĠSuper computer
ĠFour th
Wh o
cel and
Ġinsp ector
Ġcas inos
Ġadop tion
Ġrall ies
OU GH
Ġnarrow ly
Ġelimin ated
Ġdi ox
Ġrelie ved
ĠSchw arzenegger
Ġir regular
Ġchem icals
Ġrequire ments
Ġhur ting
ĠOper ating
ĠDet ails
charg e
Ġconsolid ation
Def ense
ĠLock heed
Ġguarant ee
ĠAuss ies
ĠAuss ie
Ġresident ial
Ġling ering
ĠVac cine
ĠSpani ard
ĠTex ans
ĠMIN NEAPOLIS
Ġelder ly
Ġdefin itive
uert o
ĠParc ells
0 1
8 1
H O
H ong
I I
M in
N ep
O hio
P ackers
P helps
S C
S usp
T M
V i
f ers
i ago
m i
m ans
p ose
w id
Ġt ying
Ġo xygen
Ġc od
Ġw oo
Ġb reed
as ia
Ġh all
le v
ĠA round
ĠT ar
ĠT ext
ĠM add
ĠI l
Ġn ick
Ġn ose
am as
ĠN ame
ĠF acing
Ġst ats
ĠD al
ĠU ran
ĠG rows
ĠL az
and y
ĠSt age
end ment
iv o
Ġk it
ach ov
ov ic
Ġtr ades
Ġcr ushing
enc hed
Ġph arm
ult ure
ĠAf ghans
Ġprov incial
Ġdeb ates
ne ft
be k
ĠBr un
Ġrev amp
Ġspec ification
ĠTe ams
ĠMc D
Ġred eploy
ĠSw eep
ĠGr ant
ann a
ĠMin i
IC K
ĠRec ords
Ġissu ing
Ġperform ed
Ġstat istics
Ġmid st
Ġnegoti ator
ĠAN D
Ġdefeat s
Ġsat ellites
ĠCap tain
ĠExp ansion
Ġview ers
Ġappro aches
Ġfront ier
yc le
ĠSuper Sonics
Ġconfl icts
ĠIm ages
Ġfun ctions
ĠGet ting
Ġvac ation
ĠJav ier
ĠVict ims
Ġarg uing
Ġcollect ed
ĠDS L
Sch w
ĠVis it
Ġdies el
Ġknock ing
ĠStud io
ĠWild life
Ġobtain ing
ĠSO UTH
Ġoutl aw
ĠIND IAN
Ġembarrass ing
Ġkidn ey
Ġmicropro cessor
ĠSU V
Ġanticip ation
ĠNev ada
ĠLithuan ia
Ġalb um
Ġsch ol
Bus ch
ĠJenn ifer
ĠJup iter
ĠBey ond
dig it
ethlis berger
Ġoutsk irts
A uss
B L
E lect
E Bay
L ow
M ortgage
P oll
P anel
R oman
T ele
V ol
c ol
e ff
k ers
k ok
p ark
r ence
Ġs outheastern
or i
ar o
it ched
at ar
Ġw ary
Ġp hen
ĠS osa
Ġm all
Ġm echan
ay ev
Ġh ails
Ġh ottest
Ġd ivers
ĠA D
ĠT all
ĠT ung
ĠC rown
ĠC NET
ĠM om
ĠM akers
ĠM inisters
el ig
el ines
ĠI A
ĠP age
ĠB ear
ĠW er
ĠW orth
ĠW ool
ĠW orks
ĠW EST
ĠF ro
ĠF oster
ĠR ent
th ree
ĠH an
ch ild
ĠE Bay
ĠE ADS
ag ent
Ġpro l
ap les
Ġsh y
ist a
Ġsp ree
Ġover he
ĠV ander
Ġcl us
Ġro utes
ĠPr incess
Ġsec uring
ĠUn t
Ġapp s
Ġatt ended
pl ane
ĠIntern al
ix ar
IN N
Ġdown ward
Ġpart ly
ĠBl ues
ĠBl unkett
aun ted
ath ai
ĠMar ks
Ġbro thers
Ġtra v
Ġsm ashed
Ġsusp icious
ĠOpen er
Ġsub mit
Ch ile
ĠKore ans
Ġrest ate
sp ec
ĠBut t
AM E
Ġdirect ories
ĠQu in
ĠQu attrone
Ġrece ives
ĠSl ide
Ġmar ched
Ġlist ing
Sp yware
Ġreac ted
Ġfield er
ĠSu icide
Ġple as
Ġmat ched
Ġrej oin
ĠKill ing
comp et
ĠMos que
Ġtravel ing
ĠShe ikh
NY S
Ġmag ic
Ġsouth western
ĠDeb uts
aut hor
Fed s
ĠKing dom
Ġcatch ing
Pro t
Ġextra ordinary
Ġamb ush
ĠCam bridge
Ġathlet ics
ĠChall enges
Ġaccep ts
Ġaccep ting
Ġspr int
ĠProp erty
ĠConf irms
ĠRand olph
Ġachie ved
Ġlap tops
ĠOpt ions
ĠId ent
Ġmodest ly
ĠHarr ison
ĠBec ause
ernand ez
Ġgenet ically
Ġroads ide
ĠWhe at
ĠDoes n
Ġsoph isticated
Job less
ĠAlbert a
Ġprinc ip
Ġgreet ed
ĠGer hard
ĠLarg e
Ġtouc hed
ĠArk ansas
Ġsurve illance
ĠCoal ition
ĠFernand o
Ġce iling
Ġsubst ance
ĠHend rick
Ġdu o
ĠCHAR LO
Ġunders c
ĠSlovak ia
Ġatroc ities
Ġequival ent
Ġconvin ced
ĠANA HEIM
0 2
A thlet
A IG
C OR
D od
H uman
I GH
K mart
R ound
S ears
T X
c ash
d in
e i
f ix
f irst
g reen
m ajor
m eg
p at
on ium
or ter
ar ms
Ġc overed
Ġc rystal
Ġw icket
re ated
Ġb urned
Ġh acker
ĠT ask
ĠC hel
om y
ĠM ats
ur u
ur ry
ur ches
Ġth ick
ĠI SP
ĠP ier
ĠP ushes
ĠP ocket
ĠB ids
Ġn an
Ġl uck
Ġl ashed
ol ly
ĠW ol
ĠR BI
Ġst om
ĠH um
ĠO mn
ess el
Ġsa ves
ft y
Ġag g
Ġj u
uc ci
ide press
ant on
ant ly
Ġad vent
AN E
Ġdes er
Ġcount y
ĠCo operation
Ġprof essor
ĠAir es
Ġunder lying
Ġrem inder
ĠRuss ians
St ud
Ġbr ut
Ġdevelop s
ĠComp uters
Ġprot ected
Ġcent uries
Ġ... \\
Ġpar ade
Ġnum erous
Ġviol ation
Ġmain tenance
uj ols
ĠGl obe
Ġmer c
Ġob sc
ĠMa athai
Ġpriv at
ĠEarth qu
ĠPay ton
Ġbird ies
Ġovers ee
ĠDev ils
Ġread er
ĠIm age
OO T
Ġconc rete
Ġindic ating
ĠHot mail
Ġspark ing
Ġindex es
Ġjud gment
ĠGra ham
ĠVis a
ĠJordan ian
ĠLiber ation
Ser ies
Ġreject ion
Ġattorney s
ĠPet e
ĠSold ier
Ġaggress ively
ĠAppl ications
ĠMour ning
Ġdispl aced
Ġcru ised
Ġrobot ic
ĠMcN abb
ĠSoon ers
Ġdrag ged
Ġinnov ation
ĠDoub les
ĠDream Works
ĠSpec ies
ĠFel ix
ynam ic
USTR AL
Reds kins
KH OLM
ĠValent ino
ĠTa ipei
Ġgest ure
Bry ant
Ġinev itable
achov ia
6 2
J ones
L at
L ast
N ets
O ver
P ar
P ress
h at
m un
n ote
v on
w yn
Ġt ipped
in ental
or a
Ġf ares
Ġm eat
Ġd angers
ou ver
ĠT ell
ĠT racy
ĠC row
ĠC oulthard
st ellation
et a
et ic
ĠI Pod
Ġfor ge
Ġn ob
am er
am med
Ġre organization
ĠN ike
ĠN otebook
ĠN vidia
ĠR osen
Ġst if
Ġst ated
ĠG U
ĠH aving
ĠE p
ri k
ri p
Ġcom merce
Ġy ellow
Ġv eto
ast on
Ġsh ower
Ġex ception
Ġch apter
Ġpr ayers
ĠY ellow
Ġj unta
ĠV iol
are a
Ġup ro
Ġro uters
ber ry
Ġdis e
ĠSh oot
ĠSh ift
ush ita
pl an
Ġbl ows
Ġwar rant
Ġsl alom
ph y
Ġbu ff
Ġcons ulting
Ġme g
ĠCl oser
ĠMar iano
Ġbr ill
Ġ9 7
arm a
CO U
urg ent
uck ed
ene uve
Ġche ese
lo ads
Ġemp has
ĠAc adem
Ġdri ft
ĠSl ight
ĠHam za
Ġengine ered
ĠPer form
Ġel bow
Ġrequ iring
Ġcapt ivity
Ġgeneral ly
Ġwithdraw ing
ĠArab ic
Ġsuper b
Ġeuro zone
Ġchips et
ĠMal one
ĠAcc used
Col ts
Ġcomplet es
ĠDo zens
ĠBang kok
Ġautom atic
Ġautom atically
Ġdecl aration
Ġadvert is
Ġroom s
MP AA
ĠCost a
CH ESTER
ĠStart ing
Ġpers istent
Mc Donald
Ġscr utiny
Ġhear ings
Ġvar iant
ĠCell ular
Ġorgan isation
ĠProp os
Ġcast ing
Bra ves
ĠTurn er
ĠHand held
Ġimpl ant
Ġintens ified
dem ocracy
Ġpet ition
Ġtyp es
ĠDoc tors
uls ion
Ġtoss ed
friend ly
Ġmour ning
ĠStrug gling
perform ance
Ġax e
ĠEmploy ees
Ġunle ashed
ĠHispan o
ĠMys kina
sec ond
Mex ico
ĠEth iop
Ġdeg ree
Ġevacu ated
ĠUlt ra
Iv ory
Ġsabot age
ĠSTOC KHOLM
ĠDEN VER
Ġrelent less
ĠAgr icult
ĠVital i
OOT BALL
9 00
A stron
F ox
G overnment
d ep
g art
g ens
h r
h ab
p ol
u ese
Ġt ired
Ġs ister
or ia
Ġf illing
Ġb ans
Ġb ars
Ġm isc
Ġm amm
Ġh abit
ĠA wa
ĠC ink
ent ry
ĠB in
ĠB ou
Ġre un
Ġg ig
Ġe ating
ĠF e
ĠF ails
im a
ĠD ist
ĠH ands
ly n
ĠL osing
Ġan xious
op her
Ġcon cept
ap han
ĠSt one
ell ini
ab out
ĠV ar
ail able
og h
ich ick
Ġcont ender
Ġfin ances
Ġtr ends
anc ouver
ĠAn il
ĠCom ments
Ġstr essed
Ġbl own
Ġbl itz
Ġbl aming
gr ams
Ġpre fer
ĠFor ward
ĠPl ays
rac es
ĠCon ocoPhillips
ĠCl eric
co hol
ER FORD
ĠComm on
Ġbr anded
Ġdevelop ments
Ġreb ell
Ġext reme
ĠSc iences
ĠCanad ians
In vestor
Ġprot otype
ĠBank ing
uk es
Ġpar ach
ĠBr ing
Ġhold ers
ES BURG
Ġkey board
lin ary
Ġacqu itted
Ġref us
Ġref uses
ĠEd g
ĠEd ges
cy cle
ĠRec alls
ĠAm ateur
ĠTest ing
ĠPost al
ĠCont e
ĠSch roeder
Ġfeat ured
ĠJe ter
que z
ĠBill y
urch ase
Ġ199 7
Ġfact ions
Ġfe ud
ĠCle mson
Ġ22 5
EM ENT
Ġgener ated
ĠVi agra
ĠCap riati
Ġgra ve
ĠMy er
Ġautom akers
ĠTaiwan ese
Ġtight en
kn app
ĠHen in
Ġdep th
ĠKn ight
Ġexc iting
ĠNort heastern
te am
aks in
Ġspr inter
ĠThan ou
Ġmot iv
Ġcitiz en
ĠAuthor ities
Ġassoci ated
ĠAthlet ic
Ġult ra
Ġdeadl ock
ĠAcqu is
Ġrevers ing
Ġris en
Le hman
Ġrecr uit
ĠBrad ley
Ed wards
ĠFut ures
Ġep id
Ġaccel erate
Ġmeth od
Ġinnov ative
Ġyield s
Cub e
Ġbrac ed
Ġenhance ments
Ant i
Ġconfront ation
Ġcommod ity
Chief s
Invest ors
Ġinnoc ent
Steel ers
Chen ey
ograp her
Hait i
Ġtar iffs
Ġmedall ist
apix el
Mus lim
Ġcov eted
0 3
7 4
C ity
C orp
D el
I ll
J agu
M ys
N e
R ep
S ky
S QL
Z imbabwe
e lected
f ew
h ow
l a
l if
m is
m ap
o ided
p age
r ington
s a
s tered
t ake
z am
Ġt ense
Ġt aste
Ġs ounded
Ġs essions
Ġf iber
al og
Ġp ile
Ġb ite
ĠS port
Ġm ale
ĠA IM
ĠC AN
ĠM ine
Ġth ousand
ĠP icks
ĠP ensions
ĠP uerto
ĠB al
ĠB urt
ĠB ode
ĠB ald
ol ese
Ġg ifts
Ġg otten
ĠF eed
ĠR ud
ĠD ue
ĠD EC
ĠD IE
ĠU BS
ĠH ike
ĠH IV
ĠH udson
ĠE asy
ri etary
ĠJ erm
oc ated
Ġsh oes
Ġag ed
ĠCh am
ip er
Ġse gment
Ġout right
Ġro ver
Ġro ots
Ġun iversities
ON Y
act ic
Ġrec laim
ov ed
iss ue
ade i
Ġapp rec
ven ge
ĠRe ject
ef a
Ġrecord ers
Ġcap s
ĠAl f
app an
ĠRes cue
ĠAir craft
Ġins isting
ĠFl or
Ġtra ins
ik o
ĠApp ar
Ġ9 8
Ġgl imp
ĠOff ering
Ġexpl an
uel ing
ĠBank north
leg raph
Ġconsum ption
Ġav oided
ĠQ atar
ĠPlay off
Ġtrans portation
Ġed uc
Ġmar ried
eg u
ĠShar ply
AC AS
ĠDel ayed
Ex perts
ĠDown load
aud io
Ġdownlo aded
rich aphan
Ġcomb ine
Ġgener ate
ĠJob less
ĠMor ning
Ġcelebr ates
iplom ats
Ġappar el
Ġunc lear
ĠLabor atory
Ġcounter parts
ĠSant iago
ĠMem orial
Ġlay offs
ĠGeorg ian
Ġprevent ing
Ġindic ates
Tr ade
ĠVol vo
ĠTrans port
Ġdemonstr ation
ĠLeg isl
Ġsy mp
Ġrevers ed
Se ven
Ġclinch ing
ĠOper ations
worth s
Ġpet rol
ĠHung arian
ĠBosn ian
Ġinform ed
utt gart
Ġimmig rants
ĠRut an
Ġtort ure
Ġyoun ger
ĠCAR ACAS
ĠJoh ansson
ĠBash ir
Malays ia
cop ic
ĠVAN COU
ĠINDIAN APOLIS
din and
Ġglimp se
ĠVANCOU VER
D isk
F F
I reland
M ayer
N S
N apster
P it
P re
P rod
R ocket
c ious
h ave
i ors
i ency
j ax
l i
n ame
r as
s ecurity
u ana
Ġt or
Ġt aps
on ight
ar re
it ement
at ter
al band
Ġto uts
Ġb out
Ġb ury
ic les
ic ator
Ġm ln
Ġd ire
ĠC elebr
om ore
ĠM ason
ĠI C
ĠI ce
ĠI ron
ĠB on
Ġl ung
Ġre eling
Ġg ases
ĠW a
ĠN av
ĠF ine
ĠF ull
ĠF ein
ĠR h
ĠR oc
ĠD iffer
ĠD anger
ĠH ub
ĠH eath
ĠL I
ĠL ance
ĠL owers
ear lier
ĠO ur
ag an
em aker
op ening
ate ver
Ġle aked
ĠK UALA
ell i
Ġal ter
ĠTh aksin
ĠV ick
Ġup ward
Ġcl utch
ond er
AN GH
ron ts
Ġind ict
pr ice
Ġ10 6
ĠAl a
Ġinter ior
St ewart
Ġfinal ized
AR Y
Ġsw eat
Ġdisc s
EN D
ĠBr ings
Ġposs ession
lim ited
Ġbuild s
ĠCr ashes
TO WN
of ts
ĠTO WN
ett a
ĠPost p
ĠCont rovers
Ġpoll ing
Ġple ading
Ġport ion
Ġqualif iers
Ġrep eal
Ġpos ed
Ar gent
Ġhapp ens
Ġprop erties
Ġtight ened
ĠMarket Watch
ĠAL CS
As k
Ġgen es
ĠUr ged
MP UR
Ġmis leading
Cl ar
Ġarg ued
Ġdelay ing
Man ning
Ġaddress es
Ġscr am
Ġscr amb
ĠRem ains
Ġcopyright ed
ĠLib yan
hit ter
Ġspir its
Ġrout ine
Ġcommand ing
Ġult imate
Ġsurround ed
Bar adei
Ġcontest ed
Ġrecogn ition
Sec ure
Ġtyp ical
Ġweigh ing
Ġtank er
Ġmedic ines
Ġfled gling
Ġlegend ary
Ġconstitution al
Ġrecommend ations
Ġnomin ee
ĠDom ain
Ġimmig ration
Ġprinc iple
Ġwrap s
ĠBaker ies
ĠCS KA
Ġfest ival
Next el
ĠBAL CO
Ġabrupt ly
ĠLU MPUR
Ġwarl ord
eli hood
azen ove
ĠTung sten
alband ian
8 4
B ird
C hip
D IS
E ight
H ung
I CO
J P
L iber
M D
M y
M or
M ay
M ark
P ros
R umsfeld
S o
T D
T est
b ag
e ign
s oftware
u ilt
v ian
Ġs lee
Ġs aga
or b
en h
en o
at ra
ing ers
Ġp enn
Ġin mates
ĠS elling
Ġm iracle
Ġh o
ĠT an
ĠC urr
ĠP ujols
Ġl obb
Ġl iable
ol o
Ġg earing
ĠN asa
ĠF eat
Ġr ust
Ġr if
im illion
ĠU C
ĠG ogh
ĠH E
ĠH ynix
ĠL G
ĠL umber
ĠE cl
ear y
Ġv ow
end ered
ĠK er
Ġpr inter
ĠCh arter
ĠY ield
ĠV eer
Ġout lets
over eign
Ġres ource
ON A
Ġcont enders
Ġdis order
ict ions
ĠSh er
ĠSh aring
Ġus age
orm an
Ġar bitration
ĠSp lit
Ġear liest
Ġret iring
ix on
pr iced
Ġ10 7
ĠRes p
Ġtal e
Ġam azing
Ġinter ven
Ġunder standing
ĠFl ood
ĠFl ights
ĠOp era
ax o
ĠCol es
ĠSc andal
Ġpass words
Ġstud ying
Ġfirm ly
ĠTe legraph
ĠBar clays
ĠCr ack
TO UM
ĠOver ture
ij uana
ĠPlay ing
ĠGl enn
Ġmar ine
Ġcrit ically
Ġequ ipped
ĠWin ning
Ġpolic eman
Ġpres erve
Ġsum m
Ġfoc uses
Ġmid size
ĠFranc is
Ġrequ ires
Ġ199 2
ĠRob son
Ġwithdraw s
ĠMiss es
ĠInter fax
Ġrep ay
uff led
ĠLaw rence
ĠMe as
ĠWal ter
Ġlink ing
Ġprop rietary
Ġupgr aded
HP Q
Ġwid th
Ġtight ening
Ġtem p
NN N
Ġpain ful
Ġocc asion
ĠUr ge
Ġcrim inals
ĠRam allah
con f
Ġcreat or
Ġdismiss es
Ġrepresent ative
Ġathlet e
Ġapproach ing
edd ed
Ġseed s
ĠBur undi
ĠHer itage
ĠColumb us
Ġremov ing
ĠSpam mers
Ġbull ish
ĠRef ug
Ġflo at
ĠPeters burg
Ġmeth ods
Ġdiss ident
Ġod d
ĠSH ANGH
Ġfrequ ency
ĠMoham mad
ĠRub ens
Afr ica
Ġbiot ech
Ġflex ible
Ġlength y
Ġafford able
ĠKurd ish
sted t
abr era
Ġentreprene ur
ĠKell ogg
ĠResident s
ĠHawai i
ĠTrin idad
ĠWebS phere
ĠOsset ia
Ġlig ament
Ġnightcl ub
Ġappet ite
ĠUran ium
ĠCHARLO TTE
Ġrefus al
ĠSHANGH AI
9 3
9 4
B er
B ro
B ears
I f
M M
M em
M our
N C
N ations
Q tr
S N
T IS
X inh
a he
c or
f ired
i ap
s b
t ains
Ġt urb
Ġs ad
Ġs lew
or ted
Ġf oes
Ġp osing
Ġb og
Ġb ets
Ġb uses
Ġb earing
ro t
ĠS urg
ĠS aint
Ġm ines
Ġh ug
Ġd ance
ĠA venue
ĠT otal
ent h
ĠM aterial
ĠM ugabe
ac ters
Ġth igh
ĠP erez
ĠB enson
Ġl in
Ġl ots
ig l
ĠN atural
ĠN umbers
ĠR UTH
Ġr he
Ġr ent
Ġr ubble
Ġr ansom
ĠD id
ĠD AV
th ur
ĠG erm
ĠG amb
ĠH unt
ĠL AS
ĠIn vent
ia z
ĠK HAR
Ġch art
ell a
Ġk een
Ġsp arks
ĠY ang
ĠY emen
ĠV aughan
Ġcl er
port ant
Ġrec ip
ov ina
anc he
Ġad mitting
man agement
ĠCom mercial
Ġim aging
ĠPro bes
Ġserv es
Ġcons p
ah o
Ġdown hill
ier ra
ĠCo ors
ĠCl ashes
ĠJo han
Ġunder st
rov ed
AL ORE
ĠApp ro
Ġpoin ting
ĠBe head
Ġfound ed
Ch icago
Ġany way
ĠAss am
ĠWill is
ĠAb use
ĠCar ly
ĠWar ne
ĠOr der
Ġmem ories
eng agement
ĠBar n
ĠBar rett
ĠBu ying
ĠAng lo
alk ing
Ġmar red
TE D
ĠPer fect
ĠCong olese
ĠRo ethlisberger
ĠInter state
Ġpos es
ĠBro ker
IP EI
ĠMe ets
ĠForm at
ĠTele vision
iar ies
idel ines
ĠReg gie
ĠThom pson
Ġarg ue
Ġfoot age
Ġthr illing
uan et
PM G
Ġassass inated
Ġfort ified
Ġencoura ging
Ġgri ev
Gold wyn
omet imes
Ġconduct ing
Ġ/ &
Ġaffect ing
ĠEff orts
PR INCE
ĠBA Y
ĠFil ip
Tur kish
Ġmig ration
Ġbug s
ĠTry ing
Ġdiscip linary
Ġfunction ality
ĠBANG ALORE
ĠDR AM
Rec ord
ĠHa as
ierre z
Ġdress ed
ĠPav ano
ĠAntar ctic
Tw ins
Colomb ia
ĠFat ah
Ġisol ated
ĠLibr ary
ĠParad orn
ĠAdvert ising
Ġconsequ ences
Ġexch anges
Ġbellw ether
wid th
Ġstom ach
Ġdise ases
Xinh uanet
ĠRUTH ERFORD
6 8
7 50
9 7
A re
C T
L ions
L eban
P ost
P istons
S CO
T F
T ass
V an
W in
W ave
d ed
d ale
f our
g ary
i ov
s erve
w as
Ġt ub
Ġt ally
Ġt reas
Ġt apped
or g
or ough
it ated
it ical
Ġf er
Ġf ence
Ġc ul
Ġp a
ic ian
ĠS on
ĠS ide
Ġd ump
ĠA SE
ĠT ack
ĠT ens
ĠC ra
ĠC ALI
ĠC endant
ĠM it
ĠM ight
ĠM aj
ĠM UM
et ter
ĠI OC
ĠI cahn
ĠP as
ĠP oints
ot ions
ir ation
Ġre ly
Ġre vered
ut onium
ĠW oman
ĠF ly
Ġst ored
Ġr ack
Ġr av
im m
im o
ĠD ept
ĠG oods
ĠG onz
ĠH AGUE
ĠL ux
ag os
ri ott
em ma
op utri
ĠJ iang
Ġcon stant
Ġex ternal
ĠK rist
Ġch ains
Ġag ric
Ġk id
se x
are va
ark o
Ġexp osed
Ġte a
Ġdis ruption
ĠCom es
ĠPro cess
az ed
Ġcount ies
onom ic
ĠBrit ons
pt ions
els en
ĠRes cuers
Ġmed ics
ĠJo ey
Ġunder min
Ġunder ground
Ġnear ing
enn ium
ĠSc r
ĠAss ault
ĠBr u
Ġmem o
ĠNov ak
ĠFin als
hold er
ann stedt
Ġmod er
Ġappl ied
ĠSAN TA
ĠSAN TI
Ġdiv ide
Ġevery where
Ġwound s
Ġdr inking
Bl og
Ġwatch ers
utch ison
Ġmult imillion
ille tte
ĠTra ffic
Ġpred ecess
Ġprotest ing
Col lege
ĠSo ars
Ġcompl iance
Ġdecl are
Ġdistrib uting
arn oputri
ĠEngine ering
Ġhel m
Ġsurf ers
Ġshr inking
ĠBell South
Ġcat astrop
Ġele v
ĠMet eor
ĠWalk man
Ġder by
Ġpredict ing
Ġstret ched
Ġwond ering
ĠDun can
ĠGov t
ĠQue bec
Ġexam ine
ĠAppl ication
ĠPS V
prod ucing
Niger ia
Ġsoph omore
claim ed
Te am
ĠFlaw s
Ġintr ud
ĠPrep ares
Ġsen ator
Ec onomy
Ġhammer ed
Ġarr ang
Ġprovision al
Sept ember
Reb els
ela ide
UAIR Q
Ġrub ber
ĠTA IPEI
Ġsoy bean
Ġprest igious
Ġpod ium
ĠUnt il
ĠQuin cy
ĠMats ushita
ĠAgricult ure
sb c
ĠKHAR TOUM
ĠMUM BAI
ĠSANTI AGO
3 20
A IN
B ang
F ederal
F NM
G as
J AN
L INGTON
M G
M ount
P riv
P aul
P FE
R ain
R IAA
V ik
b old
d rive
g roup
j ay
l s
l og
m od
v al
w icket
y e
Ġt ag
Ġt one
Ġs ore
Ġs tern
ar ia
Ġc ites
Ġp ause
ic ians
as ch
ĠS uk
ĠS inn
ĠS oura
ĠS richaphan
Ġm ull
ĠA ch
ou f
ĠC ov
ĠC ities
id ation
ĠM ade
ĠM ead
ur se
Ġth orough
ec oming
ĠP ulls
Ġl od
ol ed
Ġg t
ĠN umber
ĠF C
ĠR an
ill ar
est rian
ĠD anish
th al
ĠU l
ĠG atlin
ĠH AR
ĠH ernandez
ĠL ars
ĠL exmark
ch o
ĠE ach
ĠO re
Ġas teroid
ag ate
em ble
em bers
ĠJ ess
ĠJ ail
ĠJ azeera
ĠJ enson
Ġcon vert
ap t
Ġv ent
Ġsh ark
Ġsh uts
Ġqu ant
ard ed
Ġsp ell
ip her
ĠV EG
Ġun author
og ether
ĠMon aco
ĠUn ilever
ect ions
Ġrec on
hn uts
ov es
ov ing
Ġad mit
Ġinc hes
Ġor ange
ang led
ĠRe porter
ĠRe ader
Ġdec ides
Ġsup rem
Ġsur plus
app er
Ġrun ners
ĠPal estine
Ġair waves
Ġbo ards
ĠMar io
Ġrel ative
Ġsm ile
Ġsw ung
Ġtest ify
ĠSc ores
ract ion
ĠUp set
Ġsub d
Ġ11 3
str ata
AT CH
sp oken
Ġbel ief
red ible
Ġfail ures
ĠSup pl
ĠGu errero
Ġban ner
ĠQu its
ĠFin ish
Ġinv itation
ĠNot ting
ĠRec ording
ĠMac int
LE X
Ġdr unk
ĠTur in
Ġ199 4
Ġpitch ers
Ġsug ar
Ġlo ad
Ġlo aded
Ġrally ing
han ouk
ĠEgypt ians
Ġval ues
FT C
Ar my
ĠDev ice
Ġcontent ious
ĠExt ra
Co ke
ĠSusp ect
ĠHom es
Ġchar acters
ĠMess age
ĠBas ra
ĠForec asts
Ġbarg ains
Ser ena
Ġsucceed ed
Ġten ure
Ġelimin ating
Ġbul k
Ġtrigger ing
Ġswitch ing
ĠJer ome
Ġimplement ation
abe u
ĠCOL UM
Ham m
ĠMAN CHESTER
Ġcolumn ist
ĠAmb ani
ĠBert i
ĠMonth s
Ġsalv age
Ġenem ies
ĠPortug uese
ĠHil ton
ĠStrate gy
Ġproced ure
Ġscen es
Ġspecif ically
ĠPip eline
Rad cliffe
ĠBargh outi
ĠFinn ish
Ġelig ible
ĠBroadcast ing
Ġburd en
ĠGut ierrez
Ġregistr ation
Ġantisp am
Ġparam ilitary
Dod gers
ĠEcl ipse
iap arra
ĠSoura v
ĠVEG AS
" .
6 1
A O
C ards
D ead
D oping
D ELL
G aza
H y
H ot
H onda
K o
L ead
M os
M iami
N EC
R w
S chool
S istani
T om
V EL
V iolence
W R
b ane
b uild
c ro
c orp
d oor
e ur
s qu
t ra
z i
z er
in ct
in art
in stein
Ġs ed
Ġs ack
en os
en ary
Ġf el
Ġc ous
al one
Ġto uted
Ġb oo
ĠS R
ĠS in
ĠS iege
ĠC ert
ĠC LE
ĠB ooks
Ġl ies
Ġl aps
ig en
ig ue
Ġre act
Ġg ymnast
ut ure
ĠN ed
ĠN ature
Ġst aging
un ning
Ġas h
Ġpro hib
Ġhe fty
um man
ĠSt uttgart
our g
Ġsh ipment
Ġpl asma
Ġch asing
Ġcomp act
Ġk m
Ġal ien
Ġsp rained
Ġse as
Ġse izing
se at
ĠV e
ĠV ancouver
Ġup start
ome ters
Ġro ared
ant ile
Ġint im
Ġte achers
ĠSh oppers
ang o
ĠLe isure
ĠLe inart
Ġsl aying
Ġdef enses
Ġdef inition
ĠEx it
Ġcons oles
Ġcons ensus
ĠAr bitration
ĠCo aches
ĠWorld Com
ĠCl ark
ĠCl oses
Ġinter cept
Ġinter operability
Ġtri pled
ER IC
Ġhead scar
ĠAd elaide
Ġtra ff
ĠComp uting
In c
uk a
eng ine
ĠMc Kenzie
Ġcor ps
Ġpress ures
ĠGr umman
Ġshort ages
Ġlit er
Ġbroad en
Sp anish
Sp itzer
ĠSu ff
Ġple ased
ĠRo h
Ġdomin ating
comp uters
Ġbenef ited
ĠLaw makers
che ll
che ck
Ġavoid ing
Ġautom ated
Amer ica
Ġcho ices
As s
ĠBR IT
Ġinterview s
Ġlay er
Ġtack les
VER TIS
Pr ice
heim er
ĠCA RE
ĠLank an
ĠBern abeu
Ġmount ains
ĠRem ain
ĠFOR T
Intern ational
met a
ĠQue ens
ĠMcC ain
ĠSeek ing
Ġevac uation
ĠArrest s
ĠCanc els
Ġmus c
Ġfrequ ent
ĠIncre ases
Ġcompat ible
Ġaf tershocks
Ġcrop s
ĠMichel le
do ing
ĠSerge i
Venezuel a
ĠFact ory
ĠFOXBOR OUGH
Ġdiver ted
ĠDism iss
eu ver
Ġmaj ors
ĠSebast ien
Ġcaf es
Kn icks
ĠCay man
ĠCAP E
ĠOt ellini
ĠWer der
von areva
Ġnob ody
ĠAcadem y
ĠDIE GO
ĠHeath row
ĠMacint osh
5 50
9 8
B rowns
K I
L eg
M ic
R avens
S ales
S eattle
S ummary
S now
U t
Y anks
c rib
j i
k ick
m u
s el
x on
Ġt ags
in ces
Ġf ool
Ġp ct
Ġto pping
Ġb ones
Ġb uck
is ys
ic as
ĠS AS
ĠS UN
ĠS oph
ĠS ector
Ġm ounted
Ġh ills
Ġh overed
Ġd ying
Ġd irty
ĠT ire
ĠC ox
id al
Ġth er
ĠP ain
ad ic
ĠB art
ĠB ody
Ġn ep
Ġn urs
Ġl ined
Ġl enders
ig e
ut ter
ut ral
Ġe ases
ĠW ounds
ĠW GC
Ġr and
Ġr iver
ĠD ubl
ĠD rives
ĠU efa
ĠG illette
ĠH ousing
ĠL one
ĠO sw
ri or
ri ver
ld ogs
ĠIn flation
Ġde pos
um ing
Ġqu ad
Ġwh istle
ist ol
Ġsp an
Ġj ol
Ġj ew
Ġac ts
Ġquot a
Ġro uted
ke le
od a
Ġint act
og en
urs ion
Ġtr uly
anc ier
ĠAn field
Ġinc hed
ib et
Ġatt ached
ĠLe vel
Ġ7 3
Ġmarket place
ĠAl ready
RE VIEW
Ġam ounts
Ġinter ference
Ġsign aling
riv ers
Ġprov es
ĠComm and
Ġact or
med ia
ĠZ h
ĠZ arqawi
Ġ9 1
Ġthem e
Ġgl itches
Ġpower house
Ch arg
down s
ĠCalif orn
Ġfall out
Ġrev amped
Ġref use
Ġche ered
Ġord inary
ĠSw ift
ĠFin ally
Ġopp osing
Ġlow ers
idd ing
Ġdet ail
uj ah
Ġnational s
Ġed ging
Ġur ban
Ġsk i
ID JAN
AC KS
ĠiPod s
Sh aring
Ġmedal ist
inc ome
Ex pos
iron ments
ĠBel ichick
Ġdiscuss ing
Ar t
Ġcheck ing
ĠGo al
Ġboss es
ĠSaf eway
ĠDod ge
cep ts
emb ourg
Ġcross ed
ĠHom er
Ġpurs uing
Ġprem ature
Ġlands cape
Ġmiddle ware
oom s
Ġdiscl osure
ĠEv idence
ĠVis its
ĠII I
Ġvill ages
Ġlog ic
BUR N
Ġcondem ns
ebr aska
ĠAcqu ires
ĠAB IDJAN
ĠKar l
ĠId aho
Ġvide os
ĠOb serv
Ġprec ious
Ġspons ored
ĠSpe ech
ĠMerc antile
Ġrevolution ary
ĠLaur en
ĠMAR K
Real Networks
Ġconfirm ation
Ġdisarm ament
Ġbrew er
Ġgad get
ĠPop ular
ĠBrand on
Ġbroadc aster
Ġsear ches
Ġendors ed
Ġsimpl ify
Ġinspect ors
Retail ers
ĠRetire ment
Ġembry onic
ĠDoug hnuts
ĠHim al
Ġsac rif
ĠKat ie
Ġfrag ile
mor ning
ĠRen ew
Ġbrill iant
ĠSlight ly
ĠVeer appan
igl ione
VERTIS EMENT
. :
0 9
7 6
; :
= =
B en
B ox
C amp
G S
I OC
K azaa
L ondon
N J
S und
S old
T or
T aking
V R
V ote
b one
f ront
h ome
h uman
i ques
j ust
in to
Ġs wo
ar rows
Ġf right
Ġf umble
Ġf oiled
ing e
Ġb asket
as uri
ĠS ure
Ġm aid
il ant
Ġd ating
ĠA ston
ĠA USTRAL
ĠA LEX
ĠT IM
ĠC alled
ĠC abrera
id g
om ar
st ock
Ġth ieves
ĠP un
ĠP ick
ĠP atch
ĠP ole
ĠB oss
ol ve
ol ive
ĠW ent
ĠN athan
ĠR IAA
ĠD H
ĠD ate
ĠD rag
ĠG ay
ĠG ross
ĠG irl
ĠH ind
ĠL AN
ear ly
ak i
igh ters
ri ble
op al
op ular
Ġle ase
ĠCh ance
ab ling
ab eth
Ġj it
are z
ub er
Ġcl uster
Ġout post
ĠPr int
Ġsec tors
ber to
Ġfin ishes
ov ation
Ġad ult
ull ivan
Ġdis pos
ĠSh ah
ĠSh aun
Ġapp oint
Ġatt ending
Ġstr ict
ind h
Ġback ers
inis hed
ĠAr lington
pr ints
Ġrecord er
urr ing
ath ers
ĠCl ara
Ġstart up
Ġrem ind
alif ax
ĠPh ys
ĠAd ministr
AR C
ched uled
ai robi
Ġgl itch
EN A
Ġpe ers
ĠBe ing
Ġsell er
ĠWill ie
Ġrest oring
ĠWar ren
uck er
Ġche st
10 5
Ġcontract ors
ĠBar roso
IT E
ĠCr ime
Ġappl iance
Ġstar ters
Ġbeh alf
ĠBig gest
Sp eed
ĠDel iver
ĠSu its
Ġannounce ments
Ġmult ic
Ġqualif ied
14 0
ĠBack man
Ġsuggest ions
ĠAnt itrust
Ġmag net
Ġcomplet ion
ĠSo ar
Ġcompl ained
Ġdecl aring
pro t
ĠGo osen
Ġaud itors
CS CO
ĠExt ension
Ġpoor est
Ġbook ed
Pakistan i
Pl ayers
Ġindic ate
Mc Afee
ĠMag azine
Ara b
Ġdemonstr ators
Ġhon ored
Ġorgan ized
Ġsmart phone
ĠEv ans
Ġbol stered
Ġdestro ying
Ġpip elines
bar rel
ĠFerr ero
Sw ed
Ġbreat hing
Ins urance
ĠDefeat s
ĠDomin ican
ĠCa esars
Ġpound ing
Ġeager ly
ĠCre ate
Hen man
Ġpayroll s
ĠBah amas
Ġsuburb an
azir istan
Research ers
Ġworkst ations
ĠCopy right
Ball mer
Ġmax imum
ĠMur phy
ĠLaz io
ĠAcquis ition
ĠLux embourg
ĠNotting ham
Ġnep hew
9 1
A X
A BC
A uburn
D oc
F il
H are
J ordan
L ate
L ock
N ob
N ovember
P ope
R ap
T al
T igers
U s
U nd
W i
b ul
d rop
f ight
p eople
p oints
s k
v chenko
z ar
Ġt ension
es y
Ġs ink
or ate
at ollah
Ġf end
Ġw ip
Ġp ed
Ġp iv
Ġp aving
as an
ĠS outheastern
Ġm art
Ġm ile
Ġm ath
Ġm elt
Ġd od
ĠA V
ĠA mit
ĠA jax
ou b
ĠT R
ĠT X
ĠC ow
ĠP ear
Ġfor ests
ĠB omber
Ġn asty
Ġl os
ĠW ide
ĠW ait
ĠW PP
ĠW aziristan
ĠN y
ĠN ich
ĠN ever
ĠN albandian
ĠR i
ĠR ico
Ġst ub
ĠG ol
ĠG iven
ĠH ots
ĠH alt
ĠL ion
ak ota
ist ant
ard en
Ġk icker
ĠTh abo
ĠV O
Ġout ages
over ing
Ġexp ires
Ġab used
ors es
Ġrec re
ov ie
mp h
Ġtr aces
aw atra
ous es
ĠAn ast
ib les
Ġret ires
Ġdec re
ph i
ĠEx porting
ĠEn h
Ġind ication
ins ent
Ġph il
ĠCo ke
aun ting
ĠAl leged
RE N
Ġinter ception
Ġair plane
Ġbo at
St ore
ER T
Ġno on
ĠZ vonareva
Ġsw apping
Ġdisc ounts
Ġreb uff
ĠCol on
Ġsusp ensions
pos es
Ġput t
ĠNorth rop
Ġdrug maker
Ġmin imum
ĠGre ene
ĠAT I
Ġrev ived
Ġrev ival
ĠNetwork ing
ĠBo ise
ĠBu ick
ĠBu enos
ĠGr ay
elf are
Ġshort fall
Ġprom oted
Ġtrans plant
Ġsol o
ĠPat terson
ĠDel phi
Ġappear ing
ĠRob in
Ġmult ip
Ġden ying
Ġlo ose
EM C
Ġsuppl iers
Ġsuper star
Re view
Ġpack ing
News wire
Ġenv ironments
ĠGreen berg
ĠTor re
Ġwant ing
Ġcanc els
ĠTom orrow
ĠCap sule
Ph one
egr ity
Un ion
Ġsouth west
ĠGrow ing
Ġcirc um
ĠRel ations
Ġexc ell
ĠFree ze
Ġprevent ed
ĠImp er
Ġsubscri ber
Ġshift ing
Ġhon our
Ġsteel maker
ĠSi hanouk
Ġrac ial
Ġrac ism
Ġsy nd
Ġfort une
born e
Ġrecogn ize
IV ES
Ġcur se
ĠGe off
ĠPad raig
Ġrat ified
Ġign ored
Ġremember ed
Palm olive
ĠSep ar
ANN ESBURG
ĠSpe aking
ĠLaur a
Sy ria
Ġdesper ately
Ġvolunt ary
Ġrum ors
Not re
elect ric
ĠPDA s
Ġrepeated ly
Ġkidn ap
Long horn
found er
ĠSug gest
ĠJOH ANNESBURG
Ġpunish ment
Ġaccompl ish
ĠWid ens
ĠFALLUJA H
count ry
Inf ineon
ĠHealthDay News
Hit achi
Ġfundament al
Ġreluct ant
Ġcoin c
Ġspaces hip
utrit ion
ĠIA EA
Athlet ics
Ġepid emic
Ġexplan ation
ĠAch illes
Sund ay
" /&
A c
C ircuit
C ambodia
D F
D Net
E ver
F ans
F resh
H oll
L og
M ER
P E
P il
R IA
R ev
S erv
T en
W OOD
b omb
b uilding
c ould
e a
f iger
g ia
g ence
m ain
p ots
r anging
t ele
Ġs id
Ġs inks
or ian
or ous
ed ges
Ġo uter
Ġc ry
Ġc opper
Ġw alks
re ported
Ġb atch
Ġb other
is ks
is ley
ic om
ro ads
Ġd ates
Ġd inner
ĠA ere
ĠT echn
ĠT een
ĠT ells
id t
ĠM ist
et able
ac ew
Ġfor ay
ĠB EL
ĠB eck
ot hes
Ġg a
ut to
ĠW W
ĠW els
ĠW achovia
ĠF iat
ĠR ouse
Ġr attled
ĠG erry
qu alif
ch rist
ew hat
ul tery
and ro
em n
em p
op en
Ġpro c
ĠJ ar
ĠJ ol
ĠJ Boss
ĠIn quiry
Ġhe ir
ĠSt ory
Ġle an
ĠK end
ĠK umble
ell ers
Ġsp inning
ĠV ent
ĠV iz
ub ar
ile y
ire c
row th
Ġcont ing
Ġcont am
Ġcont acts
iz ens
Ġnot ed
ĠSp y
ced es
Qu est
ĠPro cessor
Ġfl urry
IN A
air ed
ĠAr rington
Ġdown grade
ĠAl ger
ĠCon stitution
Ġoper ates
Ġ8 7
Ġimp ending
ĠAd mits
Ġtra ined
Ġnow here
ĠUp s
ĠUp sets
ĠDe port
ĠDe Lay
Ġtele cast
Ch rist
Ġdeb ris
ĠPC I
Ġshould n
ĠNational s
Ġkey note
ĠSan jay
ĠEar lier
ĠQu it
Ġrece ivers
Ġfund ed
ĠSte ady
Ġmight y
ĠSy l
ĠRec overy
Ġsol ved
Ġpolitical ly
Ġloc ated
ern ic
ĠWin ner
ĠShar man
ift y
itz ki
Ġsem is
Ġrepl aces
Ġinfl ated
Ġ199 1
press ed
Ġmat ters
ĠCle ars
bit r
30 1
Ġtreat ments
Ġshoot s
Ġdeep ly
ĠTy son
Ġlic ensed
ĠOw ners
Ġsil ent
ĠMotors ports
Ġwat ches
Ġclass ified
Ġpromp t
ĠCam era
Tr ump
Mc N
Ġhear ts
ĠJac ob
Ġbur ial
ĠCal gary
Ġbroadcast ing
Ġnarrow ed
ĠMid way
Ġterrit ories
aby te
ĠHear ts
Ġapolog ized
Ġaltern atives
ĠJam mu
ĠAdd ress
Ġexplo its
Sw iss
ĠHospital ity
ĠPa isley
Ġexcl us
ĠTD s
ikh ail
Ġdism al
ĠWhe ther
Ġheight ened
Per u
Ġramp ant
Ġadministr ator
Ġobject ions
Ġhousehold s
Ġgall on
ĠSpot light
ĠGE OR
Ġbeaut y
Ġdelight ed
eoples oft
Ġmerch and
ĠRichards on
Saf in
Ġreconstr uction
astro us
ĠThor pe
ĠShin awatra
ĠFle ming
ĠWang ari
ĠWol ver
Ġpenn ant
Vik ings
cro ft
ĠAnast asia
5 6
B est
C N
D own
F ON
F OOTBALL
G N
G DT
H AL
H urricanes
L uc
L ES
L iverpool
M itsubishi
Q west
R og
T oyota
d on
d ates
d riven
h on
k ed
k il
p ack
p ective
r c
s z
s ki
w ealth
Ġt earing
in ema
Ġs rc
at ics
Ġf ading
Ġc ere
Ġw ood
Ġb unch
ĠS ound
Ġm ere
Ġm ental
Ġh inted
ĠA ge
ĠC ON
st ill
ĠM ikhail
et e
el er
ec ided
ĠI V
ĠP ound
ĠP orn
ĠP onting
ĠP ixar
ĠB re
ĠB and
ĠB ail
ĠB ES
ĠW end
ĠR um
Ġst ing
Ġst ellar
ow een
im g
ĠD or
ĠD akota
ĠG ot
ĠG ran
ĠL akes
ĠL azard
ĠE indh
ul pe
ĠJ oint
Ġhe ats
Ġsh ifts
ĠK ANS
Ġcomp iled
if w
Ġal t
Ġal arm
Ġsp ying
ĠY us
arg et
ĠPr actice
Ġres ulting
ach o
orm one
Ġstr anded
Ġdef raud
ĠEn ters
ah a
Ġdown s
Ġsur ges
US E
Ġ10 8
app ointed
Ġrun off
Ġcomm issions
ĠMar riott
ĠAd elphia
Ġlat ely
Ġow es
Ġproduc es
Ġ11 4
ys sey
Ġrev olt
enter ia
Ġadv ancing
Ġvis ible
Ġdirect ed
ĠGu y
Ġhom eless
EC D
ĠFin ley
Ġenter tain
Ġmain tains
ĠEd ward
Ġ13 5
ĠNot es
Ġnational ly
Ġcell phones
ric ted
ential s
for ced
Ġtelev ised
ĠPer haps
AD VERTISEMENT
Ġsaf egu
151 450
ĠNext Wave
ĠCons iders
ĠAnn ounce
tor ic
ĠInter active
Ġfraud ulent
Ġgener ator
ĠMor occo
Ġappeal ing
ĠVer iSign
pan el
200 301
ĠCan as
ĠBomb ing
ĠVal uable
Ġpri est
iller y
ĠIns ide
Ġcho osing
Ġcrash ing
ĠTy co
OO K
Ġflaw ed
Ġmurder ing
Ġtack ling
Ġsurf aced
Ġsurpr ises
Ġshr imp
ĠDevelop er
Ġhor izon
Ġhor ror
Ġteen agers
Ġband it
Ġband width
ĠCall ing
Ġdevast ation
Kore an
Ġabs ent
Ġking dom
Ġrat ification
Ġenjoy ing
iab et
ambod ian
Ġparticip ants
ĠApprov al
ĠTool bar
ĠWood ward
ĠEff ort
PR Newswire
ĠGard ner
Ġbow ler
Ġincent ive
Ġguarant eed
Ġtend on
person ic
Ġunh appy
onz o
Ġforg otten
Ġinspect ions
Ġacceler ated
ĠFer dinand
ĠFun ai
Ġsquee ze
Official s
ĠDw ight
Ġkil ometers
Ġreop en
ĠPitch er
ĠBudd hist
Gun men
ĠMob il
ropri ate
Ġstockp iles
Ġcigar ette
Ġeval u
Ġpurported ly
Ġdinos aur
Dav id
ĠBlo omberg
Ġfurn iture
ĠWool worths
Ġbrut al
ĠDEC EMBER
ĠSuk arnoputri
ĠBES LAN
ĠEindh oven
ulpe pper
ĠKANS AS
200301 151450
C IA
J ury
M anchester
P ent
P art
T R
T echnology
V S
V irus
V ivendi
W are
W ork
d i
g irl
l ayer
p iece
s ub
s ome
s burg
u ware
y ou
er b
on et
Ġs ew
Ġs overeign
en za
en abled
Ġc hess
Ġw is
Ġb ags
ĠS K
ĠS ims
Ġm ate
Ġm ask
Ġd ent
ĠA lp
ĠA RM
ĠT at
ĠT ouch
ĠT onight
ĠC ou
ĠM ull
ĠB ed
ĠB ucks
ir ut
us en
ĠN airobi
ĠF ig
ĠF ab
ĠR ee
ĠR ange
ĠD est
ĠD ips
ĠD illon
ĠH o
ĠH ans
ĠL ap
ĠL ack
os ex
em ex
Ġpro ud
ĠJ ake
um a
ĠK iev
Ġch ant
Ġal uminum
ĠV end
Ġcl ick
old s
Ġun limited
av or
Ġcont ained
Ġcont rad
Ġen rich
ade qu
ĠAn sw
her n
ĠCom pl
ext ra
Qu alcomm
Ġbl ames
Ġbl ogs
hes ter
ise um
Ġsl apped
Ġdef initely
ĠEx ports
Ġdes erved
Ġquarter final
Ġreg ret
Ġ10 5
ĠAl ert
Ġec ho
urr ay
Ġdo omed
ĠCon c
Ġair liners
St orage
ĠMar x
ĠPh on
ĠRed knapp
ĠZ DNet
AR M
raw ling
Ġgl aciers
EN G
EN RN
Ġsusp ends
ĠWh it
ĠWh olesale
Ġrest ored
put ed
ĠBy rd
OS T
leg al
BA Y
Ġvis ual
eng u
Ġfac ts
ĠEar ns
Ġgr illed
Ġconcer ning
ĠQu alif
Ġopp ose
Ġopp osite
Ġlower ing
Ġsever ely
br en
ĠDem ands
Ġlit igation
ĠPlay boy
ĠSy n
Ġbreak away
Ġlik elihood
Ġmatch ing
Ġmer ely
IL A
Ġsk ip
Ġent it
An cient
Ġball park
Ġhot ly
Ġsing led
IR UT
Ar ctic
Ġtourn aments
Ġcelebr ity
ĠMy SQL
Ġimprov es
ĠVal ue
ĠWi Fi
Ġcompl icated
Ġmeas uring
Ġart illery
ĠAlex and
Ġkick off
Ġrad iation
Pro f
Con f
ĠCam er
Ġdoubt ful
Ġfr ame
Gl azer
Ġclean ing
Sudan ese
ae ologists
Ġfit ting
ĠLo eb
ĠNA IRO
All awi
antas y
Ġpion eering
Ġir re
Ġmil k
Ġprim arily
sl aught
Do zens
Hol iday
Ġadap t
ĠMAN ILA
Ġexceed ed
Ġoutl ooks
Ġadministr ators
ĠPhot os
Sol aris
Ġwrest ling
Dec ember
Ġcooper ate
ĠIntegr ation
ĠKa hn
ĠMcGr ady
Mil osevic
ĠRobb ie
ĠBASE BALL
Ġdowngr aded
ĠMean while
ĠEN G
Ġinstitution al
ĠAce h
Ġmel ting
ĠIndo ors
fix ing
Lat est
Argent ina
Ġscramb led
ubar ak
ĠGEOR GE
ENRN Q
2 10
7 3
B E
D ev
F oreign
I RE
J PM
M iller
M arket
N or
N avy
O W
P ak
P rize
P aris
R adio
T imes
l ock
n m
p es
p rop
s ee
er ro
es ity
or ge
ar er
ar an
Ġf ert
re ams
Ġp ink
Ġb ree
is bane
ic ity
ĠS olution
Ġh ires
ĠA le
ĠC ause
ĠM eth
el est
ur st
ĠI gn
ĠB L
ĠB akar
Ġl aud
Ġl angu
Ġre wards
Ġg ates
ut en
ĠN am
ĠN othing
ĠN ebraska
ĠF ees
ĠR ED
ĠR isks
ĠD og
ĠD atabase
th rop
ĠG ad
ĠG ear
ĠG av
ĠH K
ĠH os
ĠH alifax
ch i
ri y
em ed
em pl
ess im
Ġcom a
ĠJ E
Ġhe ars
ĠSt u
ĠSt al
Ġle agues
Ġle thal
Ġpl utonium
ĠK ee
Ġch arter
Ġpr inting
ĠTh r
ĠY an
Ġse als
tern ative
ĠPr eseason
ex pl
ĠMon itor
Ġcont ains
iz abeth
ĠInc ome
ĠSh ock
Ġlast ing
ĠSp arks
Ġatt itude
Ġret ained
Ġret reated
ĠRe ed
az quez
Ġsl ashing
ons o
ĠCo ff
ĠAl ive
Ġtal ented
ĠFl oods
ING S
Ġrel iable
enn ial
Ġdisc ont
ĠCol iseum
Ġgl ance
Ġstri fe
ĠTr end
Ġpass age
ne z
ĠBr isbane
oth ers
let ter
cl usive
Ġkey s
oods hed
Ġhom ecoming
ĠQu inn
ann es
IT H
ĠHigh s
Ġ14 4
Ġtrans mission
ĠRec ent
ĠGl as
go al
for mer
ĠIT unes
ĠMac romedia
Ġfuel ing
Ġmid day
raph ic
Ġlet ters
ĠCle an
ĠCle ment
Ġcomb ines
Ġrisk y
Ġvol umes
ĠPlan ned
Ġbody gu
Ġview ed
ny der
Ġprop elled
ĠCan on
ĠBE IRUT
Ġpri x
ĠSol id
Ġcheck ed
Ġcritic ised
Ġreview ing
Ġnorth west
Ġart ificial
Ġguard ed
Ġwitness ed
ĠKn ow
Ġrequest s
Ġneighb ors
ĠMov ing
Ġinflu enza
Ġfr amework
ĠPoll s
Ġnarrow er
ĠMid west
Ġcontrib utions
ĠKar achi
ĠStud ents
ĠWild cats
Ġcur few
Ġdetermin ation
omet ric
ĠOb asan
ĠProv idence
ĠBuc keyes
Ġcult ural
Ġpal ace
ram jet
Ġrail way
ĠVill eneuve
ĠMoham ed
ĠSab an
ĠBow den
ĠGuill ermo
ĠMill ennium
Ġsurpass ed
Ġbund le
ĠCandid ates
Ġproper ly
Ġenthus i
ĠChem ical
Ġeg gs
Ġroof s
Ġfren zy
eart hed
Ġbiz arre
ĠOx ford
ĠVie ira
Nep al
Ġschol ars
COR RE
ĠPerform ance
ahe e
ĠMit chell
ĠHimal ayan
Ġmaid en
ĠAdministr ator
Ġga uge
irec TV
ĠNAIRO BI
4 30
7 1
8 50
D isc
D aven
F inal
H AM
K D
N otebook
R Y
R oyal
S ab
T it
T ax
U X
V oting
d ers
f ighting
p illar
r ates
s ite
w ick
Ġt ee
Ġt asks
in x
on ian
ed ition
at ican
Ġf oe
Ġc ens
Ġin fo
ĠS ometimes
Ġm ir
Ġd ry
Ġd umping
ĠT old
ĠC ANA
st ances
ĠM ort
ĠM yst
ĠM uk
ĠM urder
ĠB ent
ĠB RE
ĠB etween
ol itan
am an
am ine
am ford
Ġg ate
Ġg ovt
ĠW ire
ĠW annstedt
ĠF riends
ĠR are
ĠR ush
im on
ra ising
ĠG od
ĠG raphics
ĠG ymnastics
ĠH ide
ĠH ires
ĠL ost
ĠL ama
ĠE AS
Ġbe aches
ain ted
ĠSt ef
Ġsh oe
ĠK iw
Ġsp oof
Ġse qu
ĠV era
ĠV ulner
are house
ans k
Ġun armed
od o
Ġres emb
Ġte ens
Ġtr icks
ade ga
Ġdis asters
ock ets
Ġar senal
ĠSp in
ind ustry
uss ion
Ġdec ept
Ġdef ect
Ġfl own
air es
ĠAr rives
Ġme ga
ĠBl ood
under ing
Ġtop ics
Ġmed ley
Ġam ateur
Ġinter active
Ġunder dog
Ġair lift
lud es
ĠOp inion
ĠMar vel
Ġprov inces
Ġbr isk
Ġexpl ains
Ġexpl icit
Ġany more
ater pillar
ĠMot o
Ġsever ance
ĠSte vens
Ġsuccess ion
Ġtax p
Ġfore ver
Ġste ering
Ġcre am
Ġwhe el
ĠGl en
Ġforec asters
Ġemploy ed
Ġloc usts
Ġmer gers
ID C
Ġless on
Bl ock
ĠJust ine
Ġel imination
Ġter rif
ĠTra in
ĠTra vis
Mart in
12 0
ĠChrist opher
ĠCent ury
ĠEarth Link
Ġstrate gies
Ph ishing
ĠPlan es
Ġsom ewhat
ĠBomb ings
ĠMy Doom
Ġmeas ured
ĠPre par
Ġnorth western
Iran ian
Mac romedia
13 5
Ġdesc ribe
ĠReg ion
Ġmis ery
Ġdismiss al
ĠImp rove
Ġscr ambling
atab ases
eas y
Net flix
Ġjud icial
ĠGM ail
ĠGreat er
Ġabd uct
Ġconfident ial
ĠDirect ors
Ġresum ing
ĠMah al
Ġimpress ed
Ġattract ive
bor g
ĠLyn n
Ġmus ical
ĠGarc iaparra
ĠFav or
ĠPolit ics
Ġconver ted
ĠGro kster
ĠBul ldogs
Cont inental
ĠWake field
Gen esis
Ġbow ling
Ġrig ged
ĠAh mad
Ġhij ack
Ġsatisf action
ĠRound up
Cub a
Des pite
Dem ocr
de velop
ĠEmer gency
Ġdisappear ed
ifer ation
Ġsquee zed
Ġkil omet
ĠOptim ism
Ġembry os
ĠInvestig ators
Ġdeliber ately
Philipp ine
Ġeth ics
Ġanonym ous
Ġancest or
ĠIndepend ent
ĠMIL AN
Ġgrocer y
ĠBatt les
ĠLloy ds
ĠPrim era
Kidnapp ers
ĠWilkins on
ĠHok ies
ĠParalymp ic
Ġentr ance
ĠPAL M
Abb as
Ġcycl ist
Ġreaff irmed
Ġjur ors
Ġdiox ide
ĠShoot out
ĠMaterial s
Ġunauthor ized
VEL AND
ĠMarx ist
ĠStu art
ĠObasan jo
Daven port
A W
B ased
C am
C TED
E ast
F und
G OP
G artner
I F
K y
M inister
Q ue
R y
S ir
T iVo
V C
c ritical
e o
j ave
k el
r anking
s ky
u um
u ine
Ġt arn
Ġs way
Ġs orry
or ca
ed own
at ami
Ġf erry
Ġf amed
Ġc ook
Ġw elfare
Ġp umm
Ġto ler
ĠS hel
ĠS elig
Ġh ill
le ague
Ġd ash
ĠT un
ĠT ie
ĠC N
ĠC iting
ĠM ate
Ġon slaught
el le
ur k
Ġth ank
ĠI celand
ĠP osition
ĠP owers
ĠW ally
ĠR om
Ġst ark
ĠH ackers
ĠL av
ĠE id
ĠE DT
ĠO g
ĠJ FK
ĠIn stant
ap y
Ġsh aken
Ġqu e
Ġex ha
ĠK O
Ġch ronic
Ġoff ences
ine es
Ġwas hed
Ġal cohol
ĠY es
ip lex
ĠV ision
out ing
Ġout p
Ġun ited
ĠPr inc
Ġsec t
Ġint ensive
ass es
Ġres ur
ĠNew spaper
Ġnot iced
ade a
Ġdis astrous
ĠSh ips
Ġbl owing
Ġsl ice
Ġfl ows
Ġcons ulate
ons ter
Ġ7 50
cess ors
use gun
Ġmed ication
Ġrem atch
rug u
Ġ19 18
Ġtro un
Ġext ensive
Ġleader board
Ġaut onomy
ĠUp dates
ĠTr uck
ĠBe irut
ĠAss ets
ĠCar ling
ĠAfr icans
amil iar
Ġretail ing
Ġviol ate
hold ing
ĠFrench man
Ġsent ences
ĠSl ows
ĠSy base
Ġed ges
Ġpropos ing
Ġregul ate
ĠDes ert
ĠBra in
Ġresp ected
Ġemploy er
Ġemb edded
Ġlist ings
Ġlist ening
ĠEl izabeth
Ġfire works
Ġconfir ming
ĠRet reat
ĠMo jave
Ġmid way
Ġel usive
Ġvo iced
ĠSu SE
Ġfact ion
Ġcapt uring
ĠTra ining
Ġconsider ation
Ġsn aps
Ġ23 0
Ġfav ored
mar ks
Re ports
ĠTech s
ĠBro ck
Ġident ifying
ĠAcc uses
ĠProt ect
200 5
Ġrow ing
ĠMilit ia
dog an
ĠMass u
Ġpain ting
ĠDen mark
ĠIm m
ĠSaf e
Ġvac c
Ġap iece
Ġmis steps
VER AL
ĠKh atami
Ġresc u
ĠDisc overy
ĠSam my
ĠTri ple
ĠPen insula
tr ading
ĠDam age
Ġcat alog
Ġabd uction
terror ist
Ġdescrib es
Ġpur poses
Vo IP
Ġcontrib ution
Ġcontrib ute
Ġachie vement
Ġinstall ation
Ġresum es
Ġworry ing
Ed itor
icken ham
Ġnorm ally
ĠCross ing
Ġtim etable
ĠPeru vian
ĠOl usegun
Ġweigh s
cap able
ĠLehman n
ĠAU G
ĠClimb s
ĠBelt re
Ġpoison ing
gl as
cr ime
ĠScient ist
Ġhang s
ĠPo ised
Ġextin ct
ĠAstron omers
ĠGam ble
ĠFew er
Ro oney
Ġfault y
Ġtouc hes
Ġcommod ities
Ow en
ĠRonald o
ĠFidel ity
Fall ujah
ĠNi elsen
ĠPubl isher
Ġhung ry
Ġcateg ory
Ġstead ily
ĠKost as
ĠBuck ingham
Ġnom ination
Ġnav ig
Ġaffili ate
ĠAy atollah
ĠUg anda
ĠCrim inal
ĠRou ge
Celt ics
Ġdemol ition
ĠRead ies
Ġtechnolog ical
ĠButt iglione
ĠEthiop ia
Ġrebell ion
enh ancing
Bang ladesh
ĠCLE VELAND
ĠSoph os
Ġlos ers
Ġmerchand ise
adequ ate
CORRE CTED
Block buster
6 50
B ad
C endant
E K
I mp
J ackson
K rispy
L ed
L os
L ocal
O per
R aid
T IM
W estern
X M
Y S
c all
c lear
f n
f orth
f ought
f lying
h ors
i el
i ya
m O
o h
r us
r ise
s oft
s aving
s igned
v ity
w atch
z es
er able
Ġs oot
Ġs outheast
or ig
al ke
Ġw ings
Ġp ac
Ġp ave
Ġp inch
Ġb abies
ĠS eat
ĠS iber
ĠS teroid
Ġm ulls
Ġh av
Ġd orm
Ġd uel
Ġd azz
ĠT W
ĠT ower
ĠC irc
ĠC urb
ent e
ĠM other
ĠM unch
et tle
ac cept
Ġth aw
ĠB ovina
Ġn as
Ġn ets
Ġn avy
Ġl ays
Ġl ucky
ol ester
Ġre writ
ut tering
ĠF aster
ĠF rees
ĠR ew
ĠR ail
ĠR aj
ĠR ugby
ĠR anking
Ġst unt
ĠD ro
ra ining
ĠG i
ĠG em
un ately
ĠH orse
ĠL ak
ĠO ption
ag ar
Ġpro long
Ġy ard
ĠJ ailed
all ies
ap itated
Ġde portation
Ġsh akes
ĠK on
Ġch ancellor
Ġch urches
ĠCh and
Ġal g
Ġnew com
ĠV azquez
Ġout ing
Ġun earthed
ark in
ure ment
rop olitan
Ġbut ter
Ġrec k
Ġcr acks
ib ilities
pl ays
Ġman ner
Ġstr ess
eral ly
Ġsecond ary
ons ider
ĠEn c
Ġreg ained
ĠAl onzo
ĠRes ort
istan ts
rac ed
ĠCon struction
ĠCl oud
Ġinter cep
riv als
Ġhead ache
ĠSer ious
Ġbr ace
ipp en
Ġmake over
Ġlat ter
Ġprofit ability
Ġinj ures
Ġexpl oring
Ġ11 5
Ch ampions
ĠAss et
Ġcol our
ĠAb uja
Ġleg ally
ĠOr ig
aul ted
Ġcor on
ĠBar ney
ĠDis play
ĠMin n
Ġ14 0
br and
ĠSte in
Ġpat ience
Ġchamp agne
ole c
ĠDef ensive
OL D
ĠGl aus
Th atcher
Ġmar ijuana
Ġmanager ial
ĠWin n
Ġevery body
IL E
the m
ĠNet egrity
Ġchild hood
Ġfar ewell
Ġseek ers
Ġbill ing
ĠDown er
Ġshut t
ĠAnn ual
ĠInter im
Ġinvol ves
IR A
Ġcred ibility
Ġcred entials
ĠInvest igation
Ġspeed ing
Fr ances
Ġstrate g
Ġdiscuss es
iber n
ĠCap t
NE W
Ġcrow ned
Ġgra pp
Ġcelebr ations
ĠLaun ched
ĠUs ed
Ġwid en
Ġwid ens
AK A
Ġcompl ain
Ġdecl ares
ellig ent
pro cessor
ĠReb ounds
ĠTw ickenham
ĠHall oween
Ġz ero
Ġrain y
ĠExt reme
ĠMicros ofts
omin ated
Ġcirc ulating
Ġinvent ed
Ġexpress ing
ĠIS S
Ġphot ographer
ĠOs lo
JA VE
Air lines
ĠSem if
ogn ition
LC D
Ġdifficult ies
Ġorgan is
ĠColomb o
ĠSchool s
Sch umacher
ĠRand all
ĠMove ment
ĠMach ine
Ġpen et
Ġconclud e
Ġshel ters
ĠBA E
ĠKe ane
ĠLaur ent
ĠMO JAVE
nan ometer
Ġvolunt arily
Ġconsolid ate
bro ok
ĠAR S
Ġcos met
Ġla ure
SH IP
Ġundis puted
ĠRut gers
nold s
Ġmicropro cessors
Just ice
ĠLind a
ĠDraw s
hist oric
ĠBrom wich
ĠMol ik
poin ter
again st
Ġven ue
Ġobst acle
Ġfier y
ĠRic ardo
Ġing red
ĠLie ber
Ġpalm One
Ġclus ters
Ġadvertis ements
Ill inois
Pros ecut
ĠSurg es
ĠASE AN
Priv ate
ĠSR IN
Ut ah
ĠDubl in
Ġjol ted
ĠWent worth
Ġpiv otal
ĠDeport ivo
ĠWolver ines
erro uj
ĠCANA VERAL
ĠMoto GP
olester ol
2 25
5 36
B P
B i
B uc
C are
C lin
D ep
F ighting
G arc
H ackers
I Y
J ames
M any
M ake
M eg
R and
T OR
T alks
\ "
a urs
b ps
c ter
d ev
f ish
h al
l ink
l usion
l anguage
n ai
p m
r ison
w ould
Ġt issue
Ġs oul
it ol
it ous
Ġf ray
Ġo l
Ġo uster
Ġc ache
Ġw ard
re aching
Ġp ure
Ġp ubs
Ġp ockets
Ġto uting
ro ger
ĠS L
Ġh ots
Ġd ashed
Ġd atabases
ĠA I
ĠT ag
ĠC AL
ĠC ells
ĠC azenove
st ation
st ated
ĠM A
ĠM as
ĠM ardy
ĠM ittal
et ch
el ve
ac les
ĠP ounds
ĠB og
ĠB ott
Ġl ib
Ġl ining
ot ted
ĠW ere
ĠW BC
ĠW rong
ĠW itnesses
ĠN est
ĠF R
ĠF unk
ĠF isher
ĠR enteria
Ġr ift
ĠD iet
ĠU z
ra ged
ĠH BOS
ĠL j
ĠL oc
qu ality
ĠE sp
ĠO AO
ce ans
ce ived
ĠJ ihad
ks on
Ġsh ine
Ġsh aking
ĠK le
oo ter
iv ision
ud ed
Ġsp at
Ġover coming
ĠV erm
ĠV CR
Ġout rage
Ġun official
ex p
og an
og le
og ul
Ġres idence
ote urs
Ġen abled
Ġen abling
anc er
ĠSh ia
Ġinc ursion
ĠCor respondent
ĠSp ark
Ġbl n
Ġbl oodshed
AS S
ĠRe fer
ĠĠ ĠĠĠ
Ġind eed
Ġpart ially
Ġpre t
ĠBrit ains
ĠPl edges
ath ina
Ġso ap
Ġpresident s
Ġins ider
ĠFl ushing
St ars
ĠOp ec
ĠPh armaceutical
Ġtra iling
Ġkn owing
enn ett
Ġeff ic
Ġfound ation
Ġ11 7
ĠX strata
ĠGre ens
Ġhold ings
Ġleg s
Ġbel t
ĠBag le
ĠSup porters
Ġfac ilit
Ġred uctions
Ġform ation
lo aded
Ġrece ption
ĠMin aya
ĠCr u
Ġpop ulations
IC ANN
Ġappl iances
ĠPlay offs
ĠGl axo
Ġob esity
the ir
ane k
Ġjump er
we ights
Ġball s
ĠMart ins
Ex t
Ġconfer encing
Ġfre es
ĠRo om
Ġsn atch
Ġden ounced
Iraq is
Ġroll out
Ġdon ations
ĠEc u
Ġterm inate
ope z
Ġspe aker
ĠLa os
Wh ere
serv ices
Ġesc apes
Ġconc ussion
Ġvac ant
con ference
Ġdeploy ing
Ġtechn iques
ĠSusp ends
Ġexc itement
Pr ime
Ġindic ators
ĠSam uel
ias m
ĠThreat en
Ġmiddle weight
Ġquit ting
Ġorgan ize
ĠProp erties
Ġconnect ivity
Ġspect ators
Ġpur pose
ĠRetail er
Ġovert urned
Ġpostp one
Ġder ailed
Ġemail s
Ġinstall ing
Ġerup t
Ġliqu or
wh ich
Cons umers
ĠOper ation
ĠAbd ul
ĠPartners hip
ĠOl iver
Ġtoug hest
ĠPenn ey
Ġconcess ion
ĠJul ius
ASE AN
ĠHun ter
Ġrecommend ation
Ġhij acked
MR T
Ġmotor cycle
ĠAutom otive
ĠSent enced
bat tle
Ġtopp led
Sat urday
ĠLuk as
Ġbon us
Ġacceler ating
ĠOuts ide
ĠCur se
ĠJOH N
ĠHil figer
Ġlov ed
Trans actions
ĠAntar ct
ĠCome back
Pe ace
Ġimag ine
ĠMol son
ĠVin cent
Ġuncon stitutional
Explos ion
Ġeleph ants
ĠAlban ian
ĠHAV ANA
Inj ured
Ġcompar ison
ĠTall adega
ĠRosen borg
ĠJerm aine
Ġbog us
Ġlin eman
oled o
Ġheadscar ves
ĠKee gan
7 8
8 3
9 65
A ust
A ud
B EA
C ash
C redit
D ER
E r
E v
F ar
G R
H OO
J NJ
M en
M GM
M edia
M urdoch
O pp
O FT
P en
P ark
V ID
W omen
Y oung
c ale
d y
d isc
f i
h un
i ated
i Pod
l as
l isted
m usic
n eed
n eck
p a
r at
r id
r ights
s ur
t echnology
v oting
z el
Ġ iv
in ions
in ction
er ia
ed ing
en ess
en aries
ar agu
Ġc ure
re p
re ets
ic ia
ic iary
ro se
ĠS ao
ĠS ierra
Ġm ent
le ep
le ader
ĠA ld
ĠA IG
ĠT sunami
ĠT ibet
ĠC T
ĠM oo
ĠP ap
ĠP ors
ĠP insent
ĠB iot
Ġn od
Ġn erve
ol ia
ir ie
ĠF eb
ĠF oot
ĠF ights
ĠF ij
ĠR allies
Ġst oked
Ġr iots
ĠD iana
ĠG annon
ĠH ang
ĠH ole
ĠH iring
ĠH earing
ĠH SBC
qu is
ri ft
em ption
Ġpro ven
oc ate
Ġv owing
Ġde af
Ġde ple
um ed
ĠSt amford
Ġsh un
Ġch ass
ug s
ĠCh iron
ud ged
Ġj ersey
ĠV ic
over ished
ant astic
Ġexp ire
Ġint rig
ĠUn its
Ġ-- --
ĠNew ton
Ġsc attered
Ġsc rapped
Ġad ultery
Ġdis engagement
ict ory
oin ting
ĠAn cient
ĠAn alysis
ĠSp acecraft
Ġim ported
Ġman euver
ĠCorp s
Ġend less
ĠEn richment
ins p
ild er
ĠBl ogs
aun ts
ĠAl v
RE SS
Ġins ects
Ġtri ps
Ġhead line
rov es
ĠMar ino
Ġprov ing
ĠComm ons
Ġshow case
Ġimp er
Ġimp asse
ĠEng ines
thern et
Ġher oes
Ġsusp ending
ĠSc reen
Ġaut umn
ĠBe agle
Ġgu ided
Ġgu ests
Ġant idepress
Ch ild
ĠAss ass
ne apolis
Ġi Book
ĠOr ganiz
Ġadv ised
Ġpublic ation
Ġpublic ity
Ġche ating
Ġord eal
Ġ18 0
Ġinv ade
ĠDem ocracy
ĠPar am
Ġprom o
ĠSl ams
Ġappl aud
Ġgood bye
Ġshe et
imb o
ĠPol ic
Ġemb ark
Ġmor ale
ĠNet Ware
LE D
Ind ians
Ġshar ks
ĠRet ief
Ġvo ices
ring ement
ĠRob ot
Ġmanufact ured
Ġfre ely
Ġpot ent
ĠInter view
Ġinvol ve
Israel is
Ġdomin ation
Ġdomin ates
Ġfig ured
Ġtravel ed
ĠBro ok
Fr anc
Ġpick up
ĠNow itzki
Ġweak ening
Ġhospital ized
Ġprob ing
ĠProt ests
ĠPri est
ĠSil va
AK ING
ĠHen rik
ĠReb ound
Af ghans
.\ &
ĠDiv idend
CS I
Ġfly by
arn ett
Ġwa its
ĠJeff erson
ĠKn ee
Ġwind fall
Mar iners
Ġinvent or
Ġphot ography
Ġwrong doing
ĠOkl a
Ġneighb ouring
Air line
ĠEmb attled
ĠThreat s
ĠCit izens
cat el
ĠChen nai
ĠJew s
Ġfr uit
bl ower
Ġanim ated
Ġhum ili
ĠHeat ing
Ġtent atively
ĠRad ical
rob able
Ġfair ly
ĠMel vin
Ġpredict ions
ĠInj ures
Ġsal aries
Ġpra ises
Ġcurb s
elesc opes
Ġpresent ation
Ġimpl ications
Ġgro in
ĠProv ince
Ġcollabor ate
ĠEri k
ĠCommun ication
ĠCommun icator
Ġbolster ing
Ġmob iles
Che ck
Ġrum ours
Ġimproper ly
ĠDoub t
War ner
ĠGil christ
ĠTown s
ĠProble m
ĠBh opal
Ġbroadc asters
ĠThink Pad
ĠYug ansk
Ġintr usion
Ġsubstant ially
ĠFur ther
ĠOuts ourcing
ĠSurv ivors
ĠBee f
ĠWithdraw al
Ġlov es
Ġresh uffle
Ġoverwhelming ly
Ġtrim med
ĠCandid ate
Dream Works
Mich ael
Ġwal lets
ĠMall orca
Ġsponsors hip
ĠPAUL O
ĠTroubl ed
ĠCaps ules
Ġpharm ac
bag bo
Ġfer oc
arko zy
ĠSuppl ies
ĠOsw alt
Ġconting ent
ĠAUG UST
Ġhav oc
accept able
ĠAntarct ica
Ġiv ory
Ġchass is
A id
A RE
B BC
B HP
D eb
F uture
H uge
I chiro
K KD
L P
M ost
M AND
S iebel
T een
U C
W ords
b ok
c hens
d itch
d iman
e ven
e ered
h ighest
h urst
i ere
k ov
m ay
n ants
p ike
r ics
t rust
u ations
in vest
er re
Ġa pe
at ur
Ġf le
Ġf ingers
Ġp ent
Ġp essim
Ġb ay
Ġb orders
ro e
Ġm ill
Ġm alls
Ġh ate
Ġh erald
Ġh orses
ter ior
Ġd olphins
ou ted
ĠT ata
ĠC atch
ent ech
ĠM ap
ĠM IT
ĠM urray
ĠP ir
ĠP ul
ĠP urs
ĠP etro
ĠP orter
ad ows
Ġfor ged
Ġfor ums
ĠB AS
ol n
ot ton
ĠW y
ĠW ag
ĠW onder
ĠR ah
ĠR IM
ĠR occo
Ġst ent
Ġit em
ĠD ial
ĠD raft
th is
ĠG SM
ĠH aven
ĠH ikes
ĠH utchison
ĠL inked
ĠE urop
ri o
em ia
Ġcon gress
Ġhe s
Ġv ener
Ġv oid
ĠSt ays
ĠSt akes
Ġwh ale
ĠK it
ĠK ir
ĠK ids
Ġwas hing
ĠY as
ĠV ald
ge y
Ġro uting
Ġro aming
ant ic
od ed
od ing
amp ling
ĠIraq s
Ġcont rast
ach t
Ġte acher
Ġtr icky
Ġad mission
ull i
ound ing
Ġcr ick
ĠSp aces
ĠIs n
ĠLe ver
ise ase
az y
Ġsl ated
Ġdef l
ĠEx xon
Ġpre ferred
oot ed
Ġrele g
ĠRes ign
ĠRes orts
ĠCon stellation
ĠJo el
Ġam endment
St ri
St art
Ġlaw maker
su i
Ġtra p
ĠZ emin
Ġrel ating
AR S
ik ed
Ġsm ell
Ġinj unction
Ġsell ers
ĠAg enda
Ġmusic ians
ĠNorth western
Ġrul er
sp e
ater ina
ĠWar n
Ġkeep er
AG AR
Ġche ers
ĠAll ies
AM AR
ĠGu errouj
Ġhom osex
Ġpress ured
ĠSw itch
sh mi
EC B
Ġform ing
ĠItal ia
ĠMin neapolis
Ġpop ulous
abor ate
Ġpropos es
Ġste als
ĠIv erson
ĠPol y
ĠGl oria
ĠEl Baradei
Ġrock y
ĠWe ight
Ġreal ize
Ġver ify
Ġsn atched
Ġgun point
Ġspeed y
roll er
ĠPower ful
ĠRich mond
Ġsurv iving
pro of
ĠMajor ity
Ġdesign ated
Ġinsp ire
Ġinsp ection
ĠPan athina
Ġarm ored
ht ar
Ġneighb our
Ġhy personic
Ġspl ash
ĠBell amy
Ġorganiz ing
asc ular
Ġill ust
ĠTer diman
Ġsens ation
Ġsens ational
ĠVis ual
Ġele ments
ĠInf onet
ĠSA O
Ġrein force
Ġassoci ate
Ġresum ption
Ġexam ining
Ġweight lif
ĠNeed ed
Ġextrem ist
Ġir rit
Ġ198 6
Ġparticip ation
irt ual
ĠTool s
Ġcitizens hip
Palm Source
Ġflo ated
ĠLinks ys
Ġtyp ically
Ġexerc ised
Ġblog ging
North west
ĠSand ers
Ġliquid ation
Ġcha otic
Ġgrad uate
ĠAR LINGTON
Ġhighlight ed
Ġrecru iting
ĠAmb assador
Ġacadem y
Ġgren ades
Per fect
ĠAp ache
ĠPhot osh
ĠStrug gles
Ġharm ful
ĠAsh croft
ĠBh utto
Ġspre ads
ĠRO UND
Ġbon uses
Conn or
Ġbrows ing
ĠOptim ization
Ġsyn ch
Ġconsult ant
ĠCole man
Ġyoun gest
ĠNegoti ations
ĠKos ovo
ĠAer onaut
Ġincor por
Ġcosm ic
ĠFan ning
Ġmemor able
ĠBett man
ĠIndepend ence
TW X
ĠLic ense
Ġpriz ed
Ġeleph ant
ĠRober ts
ĠCroat ia
Ġlegit imate
ĠBenef its
ĠExpect ations
Ġdiscr imination
Ġdil emma
Ġtorr ential
Round up
ĠPropos al
Ġimplant able
Jagu ar
Ġrhe toric
ĠCov entry
Ġquad rup
Rap tors
Ġcircum stances
iabet es
Ġentit led
Tit ans
Ġintercep ted
ĠSRIN AGAR
Clin ton
ĠEcu ador
ĠPors che
MAND U
2 65
A ug
C ore
D NA
F amily
G ard
H G
H eat
K MRT
L en
M add
N etwork
P rem
P aper
R ight
R oss
b h
f eed
h is
h ana
k os
l ic
o it
y ip
z o
Ġ ub
Ġt unes
in agar
or ke
ar en
Ġf are
Ġc up
Ġc ord
Ġc overs
Ġp and
Ġto e
ic ism
ro at
as man
ĠS or
ĠS alt
ĠS igned
Ġd oses
Ġd wind
ou lt
ĠT ale
ĠT ONY
ĠC over
ĠC AMP
ĠC ulpepper
id ians
ĠM LB
Ġth us
ĠB ans
ĠB AN
ĠB rawl
ir sol
ĠN ik
ĠF o
ĠR ocks
Ġst all
Ġst ack
Ġr arely
ĠD yn
ĠG ig
ĠG ona
ĠG illes
ĠG ONA
ĠE thernet
Ġcom et
Ġle ak
Ġqu ell
Ġwh atever
Ġpl acing
ĠK BR
ĠK ATH
ĠK aterina
Ġch ants
ard on
if ications
Ġpr ince
ud ential
ĠTh orn
Ġover th
Ġj am
Ġj ockey
ĠV PN
Ġup sets
any on
Ġout we
ge oning
ke ters
ree ks
od er
ep id
ens ity
ass ies
Ġfin est
rit re
Ġen orm
Ġtr ump
ite k
Ġad equ
ĠSh ut
Ġatt rib
Ġbl ank
ĠRe id
Ġback ground
az in
Ġsl ot
Ġsl ap
Ġdef ied
Ġpol ar
Ġpre gn
ĠBl acks
Ġvict orious
ied ler
ĠAl z
ĠAl ong
ĠAl ph
ĠCl ive
Ġair liner
Ġbo asts
lud e
Ġass emb
Ġno ise
Ġbid ders
Ġra ft
rup ted
Ġpe aks
Ġgu ess
ĠSe ville
ĠBr istol
Ġ12 5
ĠMan ila
Ġrev ital
Ġdirect ory
ĠGu ards
Ġgr ace
Ġdet ection
per ate
Th om
Ġob struction
alth am
ID E
Ġpres ents
Ġless ons
ĠHol tz
ĠDavid son
ĠPart ies
ĠFranc ona
ĠMart nez
inc oln
Ġdoub ling
ĠSP R
Ġcapt ures
ĠDown loads
ym akers
Ġfe ver
Ġport ra
12 5
ĠTro op
Ġpred iction
Com cast
ĠCap itol
Ġprob ation
MC D
Ġgra in
Ġproject ions
ĠUs es
ĠIns urers
Ġalleg es
Ġgen ome
ĠIm ports
rag ging
ĠEver ett
Mar lins
Ġap es
Ġexplod es
ĠDou glas
ĠEr dogan
Ġtie breaking
ĠAct ivity
ĠBangladesh i
fe iting
Ġchar ts
Ġregular ly
Ġhor rif
Ġring ing
asc ar
Ġsmart phones
ĠEv il
ĠRun s
ĠLiber al
ĠNL CS
ĠSub scri
Pol ish
Ġbi ological
ĠNe il
Ġpartic les
rav id
Ġexam ined
ĠLim a
Neal y
Ġattract ing
eneg ro
Ġrespond ing
Ġign ore
Ġign oring
Ġimplement ing
Ġinaug uration
Ins urgents
ĠTay yip
Ġpan ic
Ear ly
Ġblog gers
Ġlif estyle
Gre ece
Ġgrad ual
Ġvolunt eers
ĠDi ouf
ĠPrison ers
ĠGil bert
Ġpoison ed
Ġinform al
ĠSom ali
mind ed
Ġadministr ative
Ġdict ators
Ġsatisf ied
empt ive
BOUR G
Ġfract ured
ynam ics
Ġintent ions
ĠSug ar
ĠStat istics
ĠContent Guard
Rock ets
NAS CAR
ĠBanc o
Ġconvers ation
ĠLeon id
president ial
Im m
Ġcripp led
poin ters
Ġimpr isoned
Bur ma
ĠLloy d
Broad band
Ġmention ed
ĠRober tson
ĠNash ville
ĠArg os
ĠVeter an
ĠHav ana
ĠBlade Center
Geor gia
ĠCarm elo
Ġindict ment
Ġinterven e
Ġcler ics
Ġpredecess or
Ġdrunk en
Ġtraff icking
Holl inger
ĠKend all
bitr ator
Pent agon
Ġrescu ers
ĠUz bek
ĠPhotosh op
Ġub iqu
oult ry
ĠGona ives
ĠGONA IVES
ĠKATH MANDU
1 36
7 7
? \\
A round
B AN
C owboys
H op
H ouston
H undreds
H armony
K line
L ive
L abor
M id
M ort
O UR
R ice
S AN
S pr
T er
T im
T ex
T orr
U D
V O
X P
Y en
b uilt
h ar
k usen
r ors
r ayed
t ronic
er ted
on na
Ġs acks
Ġs izz
Ġthe ater
ed ay
Ġf ab
Ġf oods
al id
Ġw ishes
re ading
re ction
Ġp es
Ġp eek
Ġb n
Ġb aff
ĠS ear
ĠS arg
ĠT ape
ĠT oledo
ĠC OR
st ory
ent ative
ĠM ack
Ġth rust
ĠP urn
ĠP rag
ĠP DF
ad ler
ad ona
ĠB extra
Ġn aming
Ġl ake
Ġl one
Ġre pr
Ġre hab
Ġg ears
ĠW ard
ĠN arrows
ĠF ener
ĠF TC
ĠR ank
ĠR att
ĠR uth
Ġst opp
Ġr ated
ĠD ust
ĠD ome
ĠD rivers
ra x
ĠG ore
ĠG oss
ĠG bagbo
ĠH erman
ĠL aud
ĠL UK
ĠL ooms
ch ips
ĠE missions
ĠO UT
ĠJ edd
ĠJ iri
ĠJ ACKS
Ġcon struct
Ġv ault
art z
ĠCh er
ĠCh ain
ĠTh ings
Ġse iz
Ġcl othes
uc ts
Ġro les
Ġun named
Ġexp ired
og ged
ĠMon ster
ĠUn likely
Ġbut ton
Ġsc our
Ġfin ancier
orm al
pl aced
pl agued
ĠLe v
Ġend orse
Ġind ec
Ġreg rets
ĠBl ame
Ġrele v
els at
Ġdeal er
rac ing
RE D
Ġcar n
Ġair ing
Ġimp robable
head s
Ġbid der
ĠZ UR
Ġsm iling
Ġreb uilding
Ġgl ad
ĠSc ore
Ġow ed
ĠUp grade
Ġexpl ained
ĠTr ue
Ġgu idelines
AT E
Ġrest ricted
Ġmin im
The Deal
AG E
Ġfight back
AM PA
Ġpress es
sh irt
Ġemp h
Ġopp oses
ĠEd gar
ĠItal ians
Ġcampaign ers
ĠPar ts
Ġnational ist
Ġste er
Ġauthor ized
Ġob lig
ĠSch alke
Ġgreat ly
Ġ0 4
ĠPer th
LE ANS
ĠDel ivers
An alysts
Ġmid session
rust ed
Ġ199 3
Ġpubl ish
14 5
ĠEnd angered
ĠBusiness es
Ġcomb ining
ĠShe vchenko
Ġradio active
egr en
Col umn
ĠProt esters
ĠSur prise
Ġspe akers
ĠCongress ional
bo ards
Ġproject ion
Ġpurch asing
ĠSol berg
Ġblood iest
ĠTw in
augh ters
ux erre
ĠCut ting
ĠFund ing
Ġdesign ers
Ġcommit ments
Ġdesc ended
Ġcirc le
ĠReg ional
Ġinterview ed
Ġmis erable
Pl ayer
ĠBat man
Ġaddress ed
erg ie
At hens
tr ack
ĠConf ident
ĠBron ze
Ġaband oning
ĠCurt is
Ġcur tain
ĠAppl iance
Ġdepart ments
Ġsky rock
ĠMut ual
Ed ge
Ġvirtual ization
eder ation
Ġrebound ing
Ġdark ness
Ġadj usted
Ear nings
Ġmeth ane
Ġlif etime
Che chen
ĠSymb ol
ĠBird s
Ġperman ently
Ġprior ities
ĠBor is
Ġgovern ors
ĠLeft wich
ĠSom alia
Be ijing
Ġtend ered
Law makers
onym ous
Ġsurr endered
Ġunh armed
ĠPrep are
ĠOR LEANS
ĠSr inagar
ĠExplos ion
ĠExplos ives
Sk ulls
gar ia
ĠMcG ahee
Smith Kline
ĠKidd e
Ġbeaut iful
Ġaccompl ished
ĠJun ior
Ġskept ical
ĠBett is
Mich igan
Ġpig s
ĠCreat ive
Ġobst acles
Ġgal axy
Ġgloom y
Ġnic he
Ġrid ic
AF X
ĠPepsi Co
Bat tle
Host age
ĠMcD owell
Schw arzenegger
ĠFro ogle
ĠWheat on
TX N
ĠEarthqu akes
ĠTOWN SHIP
Ġlobb ying
Ġsumm oned
Ġgriev ance
iov ascular
ĠPas o
ĠKrist en
Ġsubd ued
ĠCOLUM BUS
Ġfel ony
Ġintercept ions
Ġcorps es
Ġswo op
ĠDH AKA
ĠWels h
ĠTat iana
elest ial
Ġkilomet res
Ry der
Raid ers
ĠLak shmi
Ġdeple ted
Ġvener able
ĠJedd ah
ĠJACKS ON
ĠZUR ICH
, '
B ut
C arter
F ood
F light
G reat
L o
Q U
Q antas
R ugby
T ake
T urn
T rib
W ood
W izards
Y UKOS
b order
f ly
f illed
f ashion
g reat
h ou
h all
h oods
k ie
k ind
s y
u is
w ave
x iety
z man
z amb
Ġ ump
Ġt ire
in st
es a
es ome
Ġs orts
ed y
it omo
at o
ing es
re le
re ason
Ġb rib
Ġb owed
Ġb ubble
Ġin her
ro en
ĠS ources
ĠS kins
Ġd a
Ġd ips
Ġd itch
ĠT aser
ĠC er
st age
ĠM B
ĠM ubarak
ac ious
ur ate
Ġth under
ĠP itt
ĠP LO
ĠB urns
Ġn uke
Ġl overs
Ġl umber
Ġl iability
ol k
Ġre ar
Ġg host
ĠF ior
ĠF ired
ĠF inger
ĠR im
ĠR ex
ĠR ica
ill o
Ġr ider
Ġr ighth
ĠD err
th ink
ĠG L
ĠG erald
ĠE agle
ĠE MI
ul ates
ri x
em aking
ĠThe Deal
oc used
ks hire
Ġv oy
ĠSt ing
ĠSt ops
Ġsh ade
Ġsh irt
ĠK err
ust ing
ard in
Ġag es
Ġsp illed
Ġsp acew
ob i
ĠY ale
se ille
Ġcl amp
ant e
ices ter
ON ES
Ġop inions
ĠNew ly
Ġsc oop
Ġsc rapping
Ġ3 20
Ġdis gu
oy ant
ĠSp A
ĠSp art
Ġear ning
reat ing
ĠAmer icas
Ġsl ides
Ġdef y
ĠEx hib
Ġsup erv
Ġdes erves
Ġ5 50
Ġseason al
ĠBl ames
ĠAl am
Ġconf ron
ath y
ĠCl ough
Ġsign ature
Ġoper ative
Ġ19 60
Ġimp overished
ĠAd Words
Ġass igned
Ġact ual
reak ing
ĠZ ee
ik os
ched ule
erm en
ĠTr ent
arm azin
Ġany body
ress ed
ress ion
Ġhold out
red o
let cher
ater n
ES PN
Ġturn out
Ġref lects
ĠDec lines
Ġav ian
rel im
Ġcor al
ĠSun Trust
ĠBar ber
Ġgr ade
Ġeng ulf
Ġyour self
ĠEd m
Ġlit erally
ĠSl ump
ĠOver time
ont e
Ġemb assies
Ġexper iences
Ġmer cy
Ġsk id
Ġtrad er
ĠMed i
Ġ0 1
ĠAtt endants
ona uts
Sh ack
UN I
UN TA
ĠHow e
Ġver t
ĠBlack berry
Ġcop e
ĠTro uble
Ġsuggest ion
comp at
Ġey eing
Ġdon ors
ĠPlan ning
ĠMil ton
MC I
ĠAdv is
ĠMont oya
Ġautom ation
Ġadvert isers
Ġart ist
ĠHealth care
IE TF
ĠDie bold
Ġarch rival
Ġund ecided
iconduct ors
ĠAv ailable
Fed Ex
Ġbook ing
Ġlay ing
ĠEngine ers
ĠSwed e
Cl ick
Ġlegisl ators
Pl an
Ġboy c
Ġcommun icate
Ġgreen back
Ġgirl friend
cri pt
Ġbrief s
ĠMess aging
Ġscreen ing
Ġmist aken
ĠSub s
aby tes
ĠEqu ity
ĠDun n
Ġtruck ers
ĠPH O
ĠKenn y
ĠLim its
ERS ON
Ġbal anced
ĠOrd ered
ĠOb ject
ĠDet ain
Ġgam ble
ĠBuc s
ĠMeg son
Ġflo ating
ĠControl s
ĠMat sui
ĠBec ome
ĠEvery one
Ġbra ve
charg ed
roc od
ĠGene va
Ġoverwhel med
De utsche
elect ronics
Ġrig ging
Ġpark ing
Ġmour ners
stan bul
Ġcompat ibility
ĠClar ett
MA X
ĠMichel in
olt z
ĠFur cal
esl ie
Ġreass ure
ĠStat us
Ġstream ing
ĠRB Is
ĠWolf sburg
Let ters
ĠConsider ing
Philipp ines
Ġble ak
Bel g
Ġanonym ity
ĠMcGr ath
Ġenthus iasm
ĠLah oud
ĠTreat y
Ġdisgr aced
Cle mens
ĠAlb ion
Ġjeop ardy
ĠStel co
Ġagg rav
Ġmisc onduct
Ne ill
ĠRh ode
Ġho ax
Ġcatastrop he
Ġcous in
crib ed
Ġjew el
kele ton
Charg ers
Tal iban
Und er
McN air
Ġwis dom
Ġchant ing
Ġnas cent
ibern au
ĠAlz heimer
! \\
B and
B ob
B ills
B engals
C MC
C oca
D oes
E le
E isner
F B
F ast
F ile
H el
H ead
K l
L ike
M ovie
R anked
S em
T ough
T enn
T erm
T HE
T arget
V M
W il
b ah
c ke
d ue
e Bay
m atic
n ob
p ublic
u h
Ġt ablo
Ġt epid
in j
or us
ed e
it ter
at ches
at tering
Ġf ra
Ġf ame
Ġf ung
Ġf itness
Ġc ats
Ġc andy
Ġw ipe
re qu
Ġp up
Ġp enny
Ġb acter
Ġin struments
ĠS S
ĠS ens
ĠS onics
Ġd aughters
ĠA J
ĠA K
ĠT esco
st orm
st able
st akes
ĠM iz
ĠM ash
ĠM oy
ĠM IC
ac io
ec hes
ĠP OP
ĠB B
ĠB iz
ĠB alk
Ġl iv
Ġl ull
Ġre ins
Ġre ference
Ġg rit
Ġg amb
ĠW E
ĠW altham
ĠF ell
ĠF ried
ĠF ilder
ĠR iggs
Ġst one
Ġst icks
Ġst agn
Ġr ip
Ġr ays
im i
ĠD L
ĠG y
ĠG arnett
ĠL on
ĠL anguage
ĠE A
Ġbe verage
ĠJ ong
ĠJ PM
Ġcon j
ian i
Ġhe al
Ġv essel
ĠSt ream
our se
Ġqu akes
ĠK ick
iv or
iv is
ĠCh ic
Ġsp oken
ĠFr an
ub bing
Ġcl aw
Ġro ot
Ġun ite
od us
Ġexp elled
Ġper ks
Ġsc uffle
hn y
aw ar
Ġnot ables
Ġdis l
ĠSh adow
ĠSh rek
ib ank
ĠSp a
ĠSp adea
Ġatt ach
Ġhad n
Ġstr ide
ĠLe ander
uss ina
Ġdec ent
Ġdec apitated
Ġfl ared
Ġsup ple
Ġplan etary
Ġind ications
uch i
err est
ult ural
Ġcomm em
St ill
ck er
Ġimp osing
Ġsw amped
ains on
Ġgl ow
EN IX
ĠSc he
eed s
Ġprot ester
ĠAg ent
CO M
ves co
ĠHe inz
ĠBy ron
amil ies
Ġmem orial
ott a
Ġref uge
ĠBar nes
ĠQu iet
ĠFin cke
ĠSte am
Ġtrans formation
ĠAm nesty
Ġbeh avi
ett es
ĠPat ients
Ġdr illing
ĠPaul o
AD E
Ġreal ized
Ġsoon er
Ġmet als
Ġstorm y
Ġkidnapp ings
Ġmanufact ure
Ġcapt ives
Ġnet ted
ĠArab s
Ġrep rieve
Ġsuper computers
Ġdeliver ies
Ġtravel s
CC I
Ġvol can
ĠPark er
Ġhapp ening
Ġautom obile
Ġcommercial s
Ġtight ly
Ġtight ens
FA X
udd y
Ġenc oun
ĠSant os
arn o
Ġkick ing
oul ter
Ġdesc ri
ĠMotors port
Ġvac ancy
ĠReg ulators
Ġcreat ors
ĠOf com
Ġsubsid iaries
Ġintegr ates
ĠPAR K
Ġsurf ing
Ġshr ink
box es
Ġpers ist
Ġaddress ing
Ġ34 0
ĠEy ed
tr ade
ĠRobert o
lins mann
ĠSwiss com
Ġsens or
Ġsens ors
Ġut ilities
Ġshock ing
Star bucks
ĠShow down
ĠBas ayev
Ġassass inate
Ġgrab bing
ĠWor ry
Ġsal mon
Ġbi ometric
Ġfeel ings
ĠPle ase
ĠTre k
Ġrecogn ized
Ġgear ed
Ġenvironmental ists
ĠRyan air
ĠPil ot
ĠSerb ian
Ġdefend ants
ĠEnv oy
Ġdig it
Ġdig ging
Su ite
ĠMult iplex
ĠCrit ical
obb led
oco a
Ġgrad ually
ĠView s
Ġfeed ing
ĠLet ter
Ġstir ring
Ġaer ial
ĠMoham med
ĠKuwait i
Ġestablish ment
Ġflex ibility
Ġtopp le
Tro ops
Ġbelong ing
ĠMedic ine
ĠFleet Boston
Ġwear y
ĠCritic izes
Ġproced ures
Ġsac red
fund ed
ĠKirk uk
ĠWat son
BB D
Ġjack pot
ĠSMB s
Ġjeop ard
ĠFee ley
Ġairstri ke
rent ice
ĠPos itive
ĠMaced onia
Susp ected
Ġphen om
ĠChel s
ĠISP s
Ġnan ot
Ġadvent ure
Ġoversee ing
ĠDiffer ent
ĠCharter ed
ĠYield s
ĠFilip ino
igen ous
Ġsacrif ice
Ġstub born
Ġexclus ively
Luc ent
Ġlangu ages
ĠCoff ee
ĠMyst ics
Ġtaxp ayers
TIM ORE
ĠSemif inals
ĠMartins ville
ĠWag ner
Len ovo
Ġubiqu itous
Torr ent
ĠPrag ue
relim inary
ĠPHO ENIX
ĠFilder stadt
1 15
A riz
B arg
C U
C op
E ll
F red
F BI
G T
H us
I ES
M utu
N ATO
N TT
N otes
N vidia
O T
O ur
R un
R ich
R oy
R ams
S ex
S addam
S alv
T itan
V en
V ar
V EN
W ild
W PP
a ude
b red
f alls
g ow
g ear
g old
g ood
h u
h ours
h ift
m ess
p oen
r ations
z hny
Ġt ighter
Ġa ston
Ġs ons
Ġs acking
or ox
ar ity
ar ians
Ġf ed
Ġf ury
Ġf ret
Ġc urs
ing o
Ġp ub
Ġb its
Ġb ike
ic z
ĠS is
ĠS inks
ĠS arkozy
Ġm icros
Ġm alf
Ġm apping
Ġh acking
Ġh ormone
le aning
Ġd up
Ġd istr
ĠA w
ou g
ĠT am
ĠT ank
ĠT aba
ĠC ab
ĠC ros
ĠC red
ĠC OO
ĠC ambodian
om ery
ĠM ul
el come
ec o
ĠI L
ĠP ool
ĠP erson
ĠB aby
Ġl ad
Ġl oft
ig ion
am al
Ġg ene
ĠW S
ĠW ig
ĠW anted
ĠN IT
ĠN ader
ĠN omar
ĠF est
ĠR aul
ĠR ape
ĠR ather
ĠR MC
ĠR idge
Ġst ave
Ġst aunch
im at
ĠD ent
ĠD river
ĠU rugu
ĠG overn
ĠG RO
ĠH R
ĠH em
ĠH ank
ĠH AM
ĠH icks
ĠL es
ĠL or
qu ar
ch ief
ĠE as
ag anda
ri bery
em ade
oc can
Ġhe aven
ĠSt arter
ĠSt ata
Ġsh aping
Ġex ile
Ġex agger
ĠK U
ĠK ier
ĠK PMG
Ġcomp elling
ard i
ug ger
ud a
Ġal ike
ab its
Ġnew er
Ġsp ies
Ġsp awn
ob ber
ĠY um
ĠV ia
ĠUS D
Ġout spoken
Ġro uter
Ġro de
AP EC
oll er
Ġsc ri
ach im
Ġ3 000
Ġrec onsider
Ġtr action
Ġnot ified
Ġinc redible
ĠCor ner
ĠCor nell
AN T
ĠAmer i
ok ers
Ġsl ashes
Ġfl ock
Ġfl owing
Ġcons istent
IN C
IN TER
ons on
Ġplan ted
Ġdown ed
Ġreg istry
Ġph r
ĠBl oom
aun ched
omb ie
ĠRes olution
Ġmed d
ĠCl ay
Ġins ist
Ġday light
Ġbo ats
Ġbo gey
ĠOp el
Ġass urance
Ġass ume
Ġact ed
med al
ĠApp rove
Ġhit ter
Ġexecut e
Ġsw all
Ġpay out
Ġgl ob
IS P
ĠTr adem
ĠDe leg
Ġdel ta
Ġinf ield
Ch avez
Ġcol leges
Ġrest ated
Ġmin ors
Ġrev ision
Ġshould ers
ĠFall ing
ĠOr ton
Ġbar riers
ĠGu zman
ĠSw ainson
sh aped
Ġstra pped
lo at
ĠAc cepts
Ġev il
ĠDep loy
IC S
ung es
Ġschool girl
Ġ17 0
Ġbroad ly
Ġgood will
Ġed itors
ĠWin FS
Ġ24 0
Ind ustry
Ġappear ances
Ġhuman ity
ĠMer ge
Ġheart beat
Ġsn apping
ĠBack e
ĠMos ley
Ġmon key
illeg al
Ġgener ating
Ġpil gr
ĠExpl oration
ĠAdv anta
." \\"
ĠWork er
ĠMont ana
Ġdest ination
Ġwid ening
ĠWi MAX
ĠSol ar
ĠRog ge
fl ow
Ġrob bed
ĠNHL PA
Ġvac uum
ĠIS V
Ġexc use
ĠCost co
Ġprosp ective
ĠDisc ount
Ġadop ting
Ġscore board
Mc C
Ġneighb ours
ĠNob ody
Ġbur geoning
Ġfoot hold
Ġdemonstr ate
ĠMcL aren
ĠArt isan
Fl a
ĠSim ulator
Ġorgan isers
Ġthr ashing
ĠEv olution
Ġcat ches
Ad v
ELS IN
room s
Ġtent h
Ġremov al
Ġdiscover ing
Ġfan fare
Ġabs or
Ġenj oys
met re
ĠPet rov
Ġcerem on
Ġplun ging
ĠBuild s
Ġrevers al
Se ahawks
Ver itas
Ġstronghold s
Ġproceed s
ĠCat al
ĠMult i
Do CoMo
ĠJul ian
prod uct
Ġanger ed
Ġmountain ous
ĠBor land
uzz i
ĠIR S
Ġcomprom ised
Ġcaution ed
iqu id
WS J
Ġmicro chip
Ġdamp en
Get ty
Ġsurve ys
Ġgrant ing
Ġcert ific
ĠBAL TIMORE
Ġconvers ion
ĠAer ospace
Ġancest ors
Ġnav igation
Ġpriz es
Ġven ues
Ġconservation ists
ĠFail ure
Ġsmugg ling
ĠRece ives
ĠGRE EN
ĠVeter ans
Ġrevel ations
Ġairstri kes
Ġbot tle
Islam ic
Ġtransist or
Ġdiagn osed
ĠFres no
ĠReve als
Ġirregular ities
Vi acom
Low e
Ġdrift ed
ĠCommon wealth
ĠDAV ID
ĠCALI F
Rw anda
ĠVe hic
Ġliter ature
Ġmusc les
Ġrand om
ĠALEX AND
Ġwip ed
ĠHots pur
Ġphil os
Ġproc urement
bren ner
ĠBRE AKING
Ġvacc ines
Ġlib el
ĠGlaxo SmithKline
ĠLever kusen
bah ce
poen as
3 80
B Y
B oy
B LIN
B osn
C lim
C avs
D etroit
E arn
F al
F ort
G ene
G ARY
K im
M ad
M ick
M aking
M iddle
M erc
P ont
R em
S D
S ources
S orenstam
V IA
b ooks
c ade
e k
f il
f aced
g rown
i Tunes
s an
t oo
Ġ ore
in ite
Ġa il
he user
es ley
Ġs ou
Ġs our
an ed
at is
Ġf als
Ġf iction
Ġf izz
Ġc urt
al le
al iation
Ġw ww
Ġp und
Ġp enal
Ġp umped
Ġp uzz
ic ycle
as ive
ĠS uch
Ġm olec
Ġh oney
Ġh udd
le ch
le ft
Ġd irt
Ġd iabetes
ĠA ide
ĠA ber
ĠA hern
ĠA uxerre
ĠT une
ĠT iny
ĠT SB
ĠC ed
ĠC and
ĠC ook
ĠC ounter
ĠC ateg
ĠC avs
ĠC emex
ĠC aterpillar
st ep
ent in
ĠM ON
ĠM ath
ĠM UN
ĠM TV
ĠP ierre
ĠP ablo
ĠP eoplesoft
ĠB ennett
Ġl ocks
am ax
Ġre igning
Ġg uru
ĠW ary
ĠW MD
ĠW ATCH
us ers
ĠN on
ĠN az
ĠF itz
ĠR A
ĠR olen
ĠR iley
Ġst inging
Ġr age
Ġr eneg
im portant
ĠD B
ĠU R
ra id
ĠG ator
ĠG PS
ĠH oo
ĠH od
ĠH urd
ĠH ELSIN
ĠL if
ĠL incoln
ĠE ld
ĠE vent
ear th
ĠO h
ĠO le
ul ative
and ered
Ġ1 000
Ġ1 66
ĠJ ury
ĠIn nings
end ous
Ġpl ague
ist ans
ud es
Ġsp ar
Ġsp ite
ob s
ob ble
ĠY orke
ĠFr at
ub a
ub ic
ĠUS B
Ġro aring
Ġun se
ros copic
Ġexp osure
Ġint elligent
ĠUn f
Ġsc ans
ov sky
Ġtr ims
Ġnot able
Ġdis qualif
ĠSh amil
ĠSh aq
Ġapp oints
Ġacc use
ĠAn ne
Ġatt racted
Ġret ali
Ġbl aze
ĠLe aving
gr ily
ĠSund ays
AS SE
ĠRe quest
Ġsl umping
ĠSaturday s
ĠBl ow
outh i
ĠCl osing
ĠCl audio
Ġam mun
Ġair planes
Ġsign alled
ield ing
Ġoper ated
Ġoper ational
ĠMar vin
ĠMar seille
ĠPh ishing
ĠOlymp ia
Ġass istants
Ġkn ife
Ġbr ushed
Ġbr ighter
Ġsu ic
ĠZ en
ĠZ amb
ĠComp lete
ĠCol umn
ty ing
ĠUp beat
Ġexpl ode
ĠTr ulli
Ġsub sequ
pos ition
Ġinf amous
str ate
ĠWar nings
10 6
ĠSup ports
Ġdev oted
Ġcor rupt
ĠSw ap
ĠSw atch
ham oni
ĠFin ed
Ġhard est
ĠDis aster
Ġinv ite
Ġpop ulated
mit age
itt e
ler osis
ĠAm ir
eg az
Ġ0 5
Ġdist urb
ĠTur k
Ġmass es
Ġreal m
UP S
comm od
ĠRo jo
Ġmakes hift
Ġforecast ing
Ġaid ing
Ġspecial ists
Ġmon arch
Ġchips ets
uff les
ĠAcc ord
Ġsurvey ed
ĠShe arer
ĠPay ments
Ġmort ars
Col umb
Col gate
Ġspe eches
Ġcard iac
Ġprop ose
ĠIN G
play ing
Ġcam c
ĠAL L
Ġgen uine
idel ity
Ġfun ny
ĠNets ky
ĠDead ly
Ġblue print
ĠFrank fur
Mc Gr
We ak
ĠVol unt
keep ers
ĠMag n
ĠRem ember
Ġgolf ers
Ġdemonstr ations
Ġring ers
bl ock
Ġthr iller
ĠPoll ution
Ġanim ation
ĠLeg g
Ġut il
Ġut ter
Ġflood ed
Ġhal ting
hit ting
ĠLiber ia
Ġ38 6
Ġcontrib uting
ĠSi hamoni
First Call
ĠGh ana
Ġwond ered
Ġtur key
ĠHoll and
29 5
ĠMcC aw
Ġunf old
Ġfavour ites
ĠNO T
IV E
ĠGe Force
Ġconclud es
hem es
Ġ198 8
Ġgran ts
Ġparticip ating
Ġintens ity
Ġarchitect ures
ĠCrit ics
market ing
Ġflo ors
ĠBec omes
ĠNic aragu
Ġspons or
Ġloyal ty
Ġtank ers
Ġcomfort ably
Ukra inian
Ġestabl ishing
Ġhighlight ing
ĠMod el
Ġsuspic ions
Ġsomet ime
ĠDU BLIN
ĠAlt ria
ĠBarb ara
Ġnomin ated
Bron cos
Phill ies
Ġdiscip line
ĠFast est
ĠArch itect
Ġembarrass ment
ĠPriv acy
Ġgall ery
Ġsymb olic
Ġbroadc asts
ĠLog ic
Ġnerv es
ĠAstron aut
Shar p
ĠSurv ives
ĠCur ry
Sk ype
Ġconven ed
ĠSar ah
struct ing
Ġconsult ants
ĠSoft bank
Ġmud sl
UALA Q
Earth qu
ĠKos kie
Ġwors ening
Ġhamp er
ĠCho ice
Ġlie uten
Ġswift ly
sign ificant
Ġtum ult
Ġlav a
Ġlav ish
Ġdinos aurs
Ġswim mer
ĠBit Torrent
Ġscor eless
FD X
ĠInit ial
ĠBenef it
ĠLear ning
Ġrefund s
ĠRey nolds
Ġplumm eted
Ġconfig uration
Ġtransist ors
mans hip
Auss ies
Elect ronic
Tele com
Mark ets
Ġslee k
Mour inho
Ġrack et
ĠCaliforn ians
Ġjit ters
Ġmultic ore
Ġmagnet ic
ĠPear l
ĠVO IP
ĠImper ial
ĠENG LAND
ĠGlas gow
ĠMuk esh
ĠStef an
Ġferoc ious
ĠEurop es
ĠPanathina ikos
ĠROUND UP
Ġsynch ron
Ġenorm ous
ĠSear ches
ĠFener bahce
fashion ed
ĠAlam os
ĠALEXAND RIA
Earn hardt
. (
A z
D aimlerChrysler
F orm
G erm
H ist
H AT
J Boss
L a
M ol
M OND
P ut
P iracy
R am
R FID
S tern
S enior
S UN
S ouness
T rial
U BS
W ay
Y HOO
\ (
b il
b rew
f ats
g ue
h id
h ouses
i ens
k owski
l ast
m idt
p c
r uled
t un
u ven
v ol
Ġt el
Ġt umbling
Ġt aught
er ox
Ġs its
Ġs unk
ar est
ar ling
ar aval
at ters
Ġf antasy
Ġo ceans
ing u
Ġw ore
re ads
Ġp acks
Ġp unt
Ġb ore
Ġb ells
Ġb read
Ġb owled
Ġb oots
Ġb ragging
is ode
Ġin ner
ic hes
ro tt
ĠS I
ĠS ag
ĠS elf
Ġm ish
Ġm aps
Ġm ourn
Ġd ocked
Ġd ynamic
ĠA APL
ĠT EL
ĠT uts
ĠC E
ĠC ad
ĠC oun
ĠC ass
ĠC FL
ĠC reek
ĠC oup
om p
ĠM old
ĠM iles
ĠM esh
ĠM EX
et on
et ica
ac on
ĠP ion
ĠP erm
ĠP eg
ĠP ippen
ĠB I
ĠB elf
ĠB ounty
Ġn est
Ġl ag
ol ving
ot ine
ir s
ir ted
Ġre ply
Ġre actor
Ġre election
ĠW O
ĠW ays
ĠN ukes
ĠF iedler
Ġst im
Ġst icking
Ġst abbed
ĠD iss
ĠD irk
th roscopic
ĠU Mass
ĠG and
ĠH ire
ĠH uge
ĠH ampton
ĠL y
ĠL ady
ĠL ater
ĠL isa
ĠL opez
ĠE ug
ĠE lin
ĠE lim
Ġan ch
ĠO k
ag raph
Ġy es
ĠJ arno
Ġv ibr
ĠSt aples
por adic
Ġsh ore
Ġsh ame
Ġqu een
Ġpl ain
ĠK ap
ĠK armazin
Ġcomp are
iv ists
oun cing
ug itive
ĠTh irty
ab in
Ġsp oil
Ġfir mer
ĠV f
ans a
ie i
ie ved
Ġac es
ĠPr udential
av a
Ġres ist
Ġ-- (
Ġcont acted
Ġsc lerosis
Ġen larg
iz a
iz za
Ġtr usted
ĠSh op
ĠSh akes
Ġapp lying
Ġus her
Ġacc ession
Ġinc iting
her ald
pl ayed
ey ed
ĠAs araval
Ġret aliation
ĠLe icester
ĠPro b
ĠRe ally
ok er
Ġend ured
Ġdef ined
Ġfl our
ĠEx porters
Ġind emn
Ġpre vention
Ġli ed
aun te
ran ean
ĠAl ly
urr ent
Ġtop ic
ĠJo achim
St raw
ĠAt las
Ġjust ify
Ġdem ise
Ġshow c
Ġtra gic
ĠSc am
af ia
ĠTr im
ĠSe venth
Ġmove ments
Ġant enn
ĠUN IX
Ġpar ad
ĠHe els
ĠHe aded
sp ace
red ibles
let es
Ġbar on
Ġbar ring
Ġfree zing
ĠDec ide
sh ow
Ġhard line
Ġmen u
Ġshe ep
Ġcond itional
Ġminister ial
Th ailand
Ġequ ities
Ġemb ro
oid s
ett les
Ġexpect ation
ĠPat riot
ĠPe irsol
ĠSch ol
Ġdist ant
cil iation
Bl asts
ĠRet ired
ĠWe aker
Ġmid range
Ġel aborate
AD V
Ġconsider able
Ġconsider ably
Ġsuper ior
Russ ians
Ġtreat ing
sw appers
ĠPort is
Ġprob able
Ġsepar ated
ĠRock y
Ġeffect iveness
bo ost
ĠVal ve
Ġreview ed
aut ious
Sc ience
Ġclimb s
ĠNor wich
Co ach
fect ure
Ġfavor ites
Ġcreat ive
ĠRel atives
ĠNAS D
Pro be
Pro fit
ĠDevelop ing
Ġnames ake
Ġsoft ball
ĠCit ibank
Ġshift ed
ĠBall ot
ĠTer ms
ĠAz eri
ĠProp ulsion
Ġtext iles
Ġhal ts
ĠKey s
Ġlog ging
Ġlog istics
Ġterrit orial
ĠBas el
Ġspir al
Ġpredict able
Ġbi ologists
Ġimm unity
ĠBuild er
Bar celona
cont rol
ĠLo an
Le ading
ĠGe ico
ĠLonghorn s
Afghan istan
Ġhur ry
Mon ty
ĠEff ect
ĠWater ford
riend ly
ĠLuc as
ĠProm ises
ĠEll is
Ġguns hips
Ġrum or
De velop
Ġhar b
Ġcompat riot
Ġ197 3
Ġbuzz er
perform ing
omed ical
Ġwealth y
ĠNation wide
rog ba
Ġbrac ing
Ġbelong ed
ĠPhilip kos
Ġbes et
Ġtall est
Ġreward ed
ĠVictor ia
Ġtransform ed
Ġdeg rees
Ġasp ir
ĠShip ments
Ġphotograph s
ĠRepl ace
ĠLah ore
Ġdismant le
ĠOvers eas
ĠCL ARA
ĠNord egren
ser ver
Ġdiscr imin
neft egaz
child ren
ĠOmn imedia
ĠEp stein
ĠAwa its
ĠVar itek
Ġmotiv ated
zam am
ĠRud i
ĠFlor idians
Hung ary
ĠCrack down
ĠRefug ees
ĠYemen i
Ġconsp iring
Ġpa used
Ġarrang ements
ĠNed bank
Ġash ore
Ġmart ial
ĠYan uk
Sir ius
Ġtarn ished
ĠOg den
Ġlaure ate
Garc ia
ĠRefer endum
ĠGreens boro
Opp osition
Ġoverth row
nob r
ĠJPM organ
ĠChels field
ĠCateg ory
ĠHELSIN KI
Ġammun ition
ĠMEX ICO
ĠAsaraval a
ĠPhilipkos ki
B uilding
C a
D B
E th
E ri
G n
H uy
H ATI
K obe
K ashmir
L U
M as
M et
M ON
M yers
N K
N ine
N uclear
O VER
P et
R OS
S om
S im
S ite
S par
T ra
T ran
T endulkar
V ING
V AL
c up
g ones
g iant
i ative
l en
l op
m em
n ar
n uclear
r ans
r isk
s av
t ank
u Secure
w r
y ane
Ġt ug
Ġt ant
Ġt ainted
in ational
er or
Ġa st
on ement
he less
Ġs igh
en berg
it iveness
Ġf asc
Ġf ronts
Ġc ree
Ġc ock
Ġc elestial
Ġw asted
Ġw arehouse
Ġb rown
is ons
Ġin ks
Ġin active
ic ap
ĠS it
ĠS ak
ĠS eal
ĠS ask
il iation
Ġh aw
Ġd ose
ĠA ides
ĠA IR
ĠT out
ĠT av
ĠC TO
ĠC ertain
ĠC INC
ĠM D
ĠM is
ĠM ia
ĠM ong
ĠM ICH
el ena
ac ities
ĠI stanbul
ĠP ays
ĠB our
ĠB ases
ĠB rees
ĠB orders
ĠB ACK
ĠB CCI
Ġl ured
ig s
Ġg ent
Ġe agle
ers p
ĠW ITH
ĠN ote
ĠF ra
ĠR s
ĠR outs
Ġst ung
Ġst agger
Ġr it
Ġr anges
im posed
ĠD over
ĠD isease
th ansa
ra ham
ĠG OOG
ĠH ugh
ĠH ij
ĠH ours
ĠH ALI
ĠL ets
ĠL IN
ĠL enn
ĠL inz
ĠE ra
ĠE pson
igh am
ag ong
ain en
ĠJ orge
ĠIn k
ap ters
Ġhe ights
Ġle v
Ġpl ac
Ġpl ots
Ġch am
Ġch unk
Ġch olesterol
Ġpr ayer
.. ..
ĠCh ang
ĠCh ronic
ĠTh er
ĠTh ing
Ġsp o
Ġsp ill
ob iles
Ġj ub
ĠV P
Ġup hold
Ġup scale
Ġcl out
Ġun ilateral
Ġun ravel
ĠPr icing
Ġsec ures
ĠUn iverse
ĠUn isys
ĠNew man
Ġper f
Ġsc re
Ġrec ession
Ġtr ash
ĠSh ower
ĠSh ifts
Ġlast ed
ĠAn kle
ĠAn alyst
Ġar ra
Ġar throscopic
ib ia
ĠLe eds
ĠPro ves
uss le
gr ades
gr ession
Ġback lash
Ġsl ick
Ġdef er
Ġdef ine
Ġdef ens
Ġdef iance
ah u
ah an
Ġpre tax
aun t
Ġne utral
ĠAl icia
ĠRes pond
ĠCon fl
ĠCl ick
lud ed
Ġhead lined
Ġprov isions
Ġdem ocr
ink ies
Ġtra iled
ĠZ e
ĠZ ig
ĠZ oo
ĠZ afi
Ġbomb ard
Ġsw itched
EN OS
ĠSc rap
ĠOff ense
IS E
Ġaut hors
rup ts
Ġpe g
ĠDe vers
Ġpass ports
Ġinf ection
Ġprot ects
ĠAg encies
ĠX ML
CO L
Ġcol ony
Ġ12 1
ĠWest field
Ġref lected
Ġref erred
Ġgold s
ĠMc M
Ġcor poration
Ġgr ay
ĠNov a
ness et
Ġ14 1
Ġcare ful
Ġcare fully
Ġmod eling
Ġhol iest
Ġarrest ing
itt agong
Ġcre pt
ĠCourt ney
Ġsol ic
Ġapprov ing
Ġresp ects
uf thansa
ours es
ern el
Ġperform ing
for cing
Ġsk ating
ID GE
ĠMed iter
Ġ0 3
Ġ0 8
Ġclear ance
ĠHol idays
Bl u
ĠBay lor
An n
ĠRet urning
Ġball oting
Ex p
Ġver bal
ĠMer cedes
Ġbill ed
ĠIndones ians
ĠCons ortium
Ġpersonal ity
Mart inez
Ġsn ag
Ġqualif ication
Ġlo oph
Ġrep urchase
Ġspecial ly
ĠTHE RE
IR M
Ġgun battle
Ġcred ited
Ġenv oys
ĠBel grade
Ġpil ed
ĠPrem inet
Fr ank
uff icient
Ġheavy weights
IP O
ĠLaw yer
Ġsom ewhere
Ġbird ied
Ġlight ning
ĠBuy out
Ġroad map
Ġclin ches
Ġaud itor
fl u
Ġbus iest
ĠAL H
ĠOS LO
Ġz oo
Ġdiplom acy
Ġyoung sters
ĠFeder ated
angu ard
Ġmis led
ĠRel ay
Ġintegr ity
ĠGovernment s
Ġexc luding
It ar
ĠKh in
ias co
Ġhun ted
Ġunl ike
keep er
keep ing
Ġdraft ed
Ġbrief ing
Ġcollect ing
Ġcollect ions
ĠKey hole
Ġattend ance
Ġreserv ations
Ġmaintain ing
ĠSum itomo
ĠLeaders hip
Ġcondem n
Ġerup tion
Ġcold er
ĠPle a
Ġmos ques
hem oth
ĠHy per
Ġcompens ate
def ine
Ġexpert ise
Ġhur ts
alem ate
Ġintens ify
Ġdispl ayed
ĠSmart phone
ĠHu y
ĠProm pts
Ġconver ged
cap acity
ĠVen etica
Ġbowl ers
Ġcasual ty
Ġyield ed
Ġcoordin ated
gl obal
Ġded uct
Ġstir red
Ġcolle ague
Ġdiscip lined
ĠProduc er
ĠStrug gle
ĠSus an
ĠStr ength
iat ric
ĠAstron auts
Sat ellite
Tro jan
Hew lett
Ġspirit ual
Mont g
Ġfract ion
ĠBU ENOS
ĠExplos ions
Ġtort ured
ĠDw yane
Ġreop ened
ĠProtest ant
ĠRac eway
ĠCars on
Ġbund led
Mex ican
Ġscen ario
Ġsubst ances
Power ful
Ġspecif ications
Ġasp ects
Tel stra
Ġphotograph ers
ĠHoly field
Ġexcess ive
Ġstockp ile
Ġdug out
ĠInn ovation
ĠConserv ative
Kidnapp ed
Ġconcent rate
Ġsne ak
Ġexist ence
Ġsubpoena ed
ĠNad al
ĠOd yssey
Ġaccur ate
ĠCP U
Pan thers
ser ious
ĠUP DATE
opt ic
ĠUnc ertain
Ġpattern s
ĠDal ai
Auss ie
Ġoverhe at
INN ATI
Ġprincip al
IGH T
plan ned
Ġhabit at
Mys tery
ĠCham bers
ĠLegisl ation
ĠIC ANN
Liber ty
Ġhug ely
Ġcul min
Mos cow
ĠGross man
Lock heed
Nob el
ĠNy unt
ĠRi yad
Christ mas
ĠWend y
Ġsafegu ard
Ġevalu ating
Ġsovereign ty
ĠCamer oon
ĠStal ey
Ġbodygu ards
ĠTW O
Ġshutt les
Ġorganis ations
ĠAI RES
ĠCAL GARY
ĠParam ount
Ġfle eing
Madd en
Ġdictators hip
Ġrehab ilit
Ġrighth ander
errest rial
Ġbehavi our
Ġdescri ption
Barg h
Salv ation
ĠSis ler
imat um
Mick elson
ubic ic
ĠFrankfur t
ĠEug ene
herald ed
Eri ksson
Huy gens
ĠCINC INNATI
ĠHALI FAX
ĠMediter ranean
0 8
0 10
1 12
A WE
D L
E mp
E ADS
F R
F ound
F uj
F erguson
G ators
J im
J ack
K h
K EL
N uggets
P G
S ense
S CH
S oviet
T ri
V ill
V iew
W ire
W ater
b aston
c am
d ist
d irect
f ell
f aces
f ires
h unt
h afi
l ings
n ic
p d
s old
s eries
t urned
v ia
Ġ icy
in ating
on en
he avy
or ated
or ied
an ova
Ġf ax
Ġf aded
Ġc ro
Ġw reak
Ġp ork
ĠS ought
ĠS ullivan
Ġm um
Ġh acked
ĠT aken
ĠC IO
om on
ĠM BA
ĠM RI
el b
ur ated
ĠB j
ĠB le
ĠB ot
ĠB ros
ĠB ars
ĠB odies
ĠB irth
ĠB owa
ĠB abe
Ġn agging
Ġn utrition
Ġl ighter
ol ics
am is
Ġg ymn
ĠW ine
ĠW OR
ĠW ife
day s
ĠN ab
ĠF aced
ĠF lying
ĠF letcher
Ġst int
ow orld
est ation
im ated
ĠD ra
ĠD eng
ĠD AY
ĠD iplomats
ĠD ynamics
ĠD aunte
th y
ĠG Hz
ĠG reeks
ĠH oy
ĠH utu
ĠH OST
ch ar
ĠE T
ĠO P
Ġat oms
ul atory
ul iani
Ġpro port
Ġpro xy
ĠJ ab
Ġcon gest
ĠIn fo
ĠIn zamam
ast ically
ĠK AR
ĠK ewell
art ed
if i
ĠCh anged
ĠCh ittagong
ĠTh rows
Ġsp aw
Ġsp ray
Ġover looking
Ġj ails
ĠV AL
ĠV atican
ong ue
Ġup ped
Ġcl ip
out imi
Ġout lines
Ġac commod
Ġun ified
Ġab ortion
ors hip
og a
ĠUn beaten
ber ly
Ġper mit
ect ors
Ġcont end
Ġcont empl
Ġsc ream
erv ing
iss a
Ġdis band
Ġacc ounted
oy ing
ĠInd ias
her tz
ib b
ĠSp ike
ĠCom mentary
eat ing
ind el
ĠLe iter
ĠPro grams
ĠRe venge
Ġsl ack
Ġsl aughter
Ġdef ault
Ġfl att
ĠEx per
Ġsup reme
Ġsup porter
pr ession
Ġpre y
Ġ7 100
ĠPl edge
ĠAl leg
ĠAl ternative
ath ing
ĠCl oning
year s
Ġso fter
Ġins ufficient
ĠAustral ias
Ġnear ed
ĠRuss ell
Ġtri bes
Ġbo oster
St and
ĠNo ah
ĠMar bury
Ġ8 50
ington es
ipp le
Ġsm arter
Ġext ent
ĠComp uware
EN AL
ĠSc ream
IS ON
Ġfil ings
Ġexpl aining
ĠTr ad
ĠTr aders
Ġpe pper
ĠDe ion
ĠOpen World
ĠSe ver
iver t
Ġcourt esy
Ġprot e
Ġ11 2
Ġany time
ĠAss igned
Ġcol ors
ific ance
ĠBr end
ĠBr igham
ĠCar r
ĠBag well
res p
ĠWest brook
ĠAll an
ĠAll ow
Ġdirect ions
ĠSun ny
Ġred uces
rib ution
Sports view
sh ort
BC CI
ĠCr imes
iff any
ĠOver haul
Ġhol ed
Th ird
Ġbattle field
Ġresp ective
Ġmor al
ĠPat rol
ĠPe ak
Ġpolic ymakers
the y
AC HI
Ġhealth care
LE Y
ĠDel ray
Ġshar per
ĠChe ap
ĠMer ri
Ġfre ight
Ġtow ers
14 9
aud is
Ġspokes person
IR S
Ġgun ned
add y
ĠBel mont
ĠMor rison
ĠMor occan
Ġweak en
che m
Ġlight weight
Ġposition ing
ĠBomb ers
Ġcou ples
Ġcompl aining
Ġdebut ed
Ġtem pt
ĠBen j
ĠSant ini
cel o
bur st
Europe ans
Ġdismiss ing
Ġphot ographic
ĠNort on
Pl ugged
Ġextra v
Ġpromp ts
On t
ĠFood land
Ġpers pective
Mc G
Don key
ĠHom ers
ĠIll ini
Ġaccept able
ĠGood en
ĠSEC UR
ĠBell horn
ĠBet rusted
aine ers
ĠStorm s
Fl ash
Ġorgan ic
Ġfr anc
Ġthr illed
ĠZimbabwe an
AZ N
ĠRaid s
zy u
Ġovert ake
Ġsucceed s
Ġabs ol
Ġstret ches
Ġbi ology
Ġpen insula
Ġbul lets
Bomb ardier
Ġdeadl ocked
Ġerup ts
Bar richello
ez man
ĠLo a
ĠTurn pike
Phil adelphia
Ġshel f
LAND O
Ġfrust rating
Ġphys ics
ĠFox boro
ĠColl abor
ĠPhill ip
Ġexplo ited
Ġhur led
Ġimplement ed
ĠWood y
Ġem otions
Ġspin ner
Ġcollabor ating
Ġsupposed ly
Group s
Ġconver ting
charg es
Sy base
ĠBul garia
Ġteleph ones
Ġunus ually
bro ker
Ġrecru ited
Ġhar vest
Cong o
Ġfeed s
82 17
Br anson
ĠSav ings
Ġroy alties
ĠCop ernic
ĠRub ber
Ġjun gle
Ġrefin eries
ĠSent ence
Ġtopp ling
ĠOR LANDO
Ġdisappear ance
Ġendors ement
ĠHispan ic
Ġunanim ous
Ġsurpass ing
Ġsleep ing
USTR Y
official s
Ġpremium s
ĠBanc orp
ĠBurn ett
Ġsmooth ly
ĠWel ch
ĠJud ges
ĠReported ly
Colomb ian
Ġcripp ling
Ġdeterior ating
oa ib
ĠReform s
Ġtrem ors
Ġtum or
Ġnom inees
ĠFOXBOR O
ĠBrief s
ĠHon or
Ġcra zy
Ġassum ed
Ġclar ify
Ġwal let
Ġcolon ial
ĠSM ART
Sant ander
ĠFres hman
ĠMadd ux
ĠMom ent
Ġtrav elling
Ġundersc oring
Ġstif ling
Ġparach ute
Ġparach utes
ĠEdg baston
mis phere
ĠAppar ently
ĠFeat ures
Ġrif les
ĠBroker age
Leban on
Ġtub e
Ġlod ged
ĠBRIT ISH
ĠQueens land
Fil m
Ġmelt down
Ġexcell ent
Log ic
tele vision
Ġcontam inated
ĠAlp ine
Ġecho ed
ĠAlexand ria
Ġsect arian
ĠStein brenner
Ġeffic iency
Ġhumili ating
ĠYugansk neftegaz
Ross i
ĠUzbek istan
rocod ile
Ġtablo id
ĠChic outimi
Ven us
ĠCros by
INTER VIEW
ĠHuy gens
ĠRiyad h
) ;
- \$
1 30
B y
B AL
B BI
C AS
C AT
C MP
G all
G IN
G errard
G ovt
H amilton
J ean
K idd
K ET
K uwait
L ib
L ewis
L ittle
M od
M ult
M oon
N R
N ajaf
O x
P ages
P arm
R a
S oy
S GI
T eer
V W
W ake
b ie
d igital
d isk
d ominated
e ters
f its
h ers
h um
h awks
h wag
k onen
l asting
n etwork
p it
p al
p ies
p acked
r uit
t alk
w ear
w ana
Ġt ones
on ter
he et
es c
Ġs inking
Ġs oup
ar ion
Ġf its
Ġo k
Ġc rem
Ġc afe
al on
al ie
Ġw inger
Ġp orts
Ġp umping
Ġb un
Ġb ud
Ġb ands
Ġin adequate
ic ist
ĠS CH
ĠS aks
ĠS GI
Ġm o
Ġm ush
Ġm others
il ation
Ġh i
Ġh ack
Ġh int
ĠA cer
ĠT ied
ĠT aps
ĠT outs
ĠT ae
ĠC ian
ĠC ana
ĠC ease
st ars
ent ing
ĠM ice
ĠM AT
ĠM oody
Ġon board
ac ier
ac cess
ur ge
ĠP ER
ĠP ats
ĠP enalty
ĠB J
ĠB ab
ĠB ased
ĠB OM
Ġn ail
Ġn aval
Ġl ob
Ġl over
Ġl ooting
Ġl imbo
am ation
ot os
Ġre actions
Ġg raphic
ĠW en
ĠW AL
ĠW ounded
ĠW ORLD
ĠW ELL
us ions
ĠN arrow
ĠF ather
ĠF iling
ĠR ite
ĠR ating
ĠR BC
ow ay
est on
ĠD irecTV
ĠD ravid
th ousand
ĠU ribe
ra int
ĠG or
ĠG ill
un ate
un ge
ĠH Q
ĠH erald
ĠL amp
ĠL ula
ch a
Ġan grily
ĠO NE
os ters
os ys
ri arch
ĠJ asch
oc re
ct ure
Ġhe misphere
Ġde ported
Ġle af
Ġle aks
Ġsh adows
Ġwh oles
Ġex odus
ĠK in
ĠK ov
ĠK idn
ĠK linsmann
ĠK nesset
Ġch illy
oo q
ist ical
if a
ĠCh inas
ry ption
Ġover look
Ġj oke
Ġse am
ans ing
ub b
Ġcl oned
ick ers
Ġout door
Ġac company
Ġun beat
Ġun spec
ant ry
AP P
Ġint ro
og uchi
ure a
hen ko
Ġcont ests
Ġte eth
Ġad ware
Ġdis ks
ĠSh ots
ason ic
Ġinc lusion
Ġcr us
Ġear s
reat h
tle t
Ġbl is
Ġbl ades
ĠLe ak
Ġback p
Ġback drop
ix es
Ġdef use
Ġdef ying
ĠEx c
IN ESS
Ġdes p
ĠAr rive
Ġme ter
Ġsur charge
Ġli ver
aj an
ĠBl ake
Ġcap acities
Ġcan n
ult an
ĠPl ummer
Ġrun away
ĠRes istance
Ġeconom ist
Ġunder est
Ġunder lined
Ġsign ificance
St ates
ient ist
Ġhome owners
ĠOlymp ique
ĠRed uce
Ġass ert
ĠZ ero
ik konen
ĠApp rentice
Ġ9 50
Ġsm iles
Ġsw at
Ġsw ir
ĠWeb b
ots wana
Ġgl orious
EN H
ale z
af a
used ski
Ġcost ing
Ġpass port
Ġgu est
ĠX serve
Ġprogram mes
Ġdeb acle
ench ing
Ġpar agraph
ĠBr ig
ĠCar ol
ĠAnd riy
Ġstud ied
10 1
aul ting
ĠGu ang
ĠBar ca
Ġstand still
ĠQu entin
ĠBu zz
ĠGr ud
ĠHigh lights
Ġmod ule
get own
Ġtrans f
Ġtrans ferred
Ġwhe els
Th at
Ġmar ry
Ġequ estrian
Ġloc als
ern ova
ett i
ĠPat ches
ĠSch midt
aff ected
Ġ0 9
Sp ecial
Ġpres erved
Sh rek
ĠDel io
Ġdist ances
Ġve get
Ġsem iconductors
asser stein
Ġinfl ict
ĠChe v
ĠChe chens
AD B
comm un
Ġconv ictions
Ġlo os
12 6
Ġground ed
anger ous
hy un
OM A
ĠPlan ets
ĠShe a
ĠExpl odes
Ġterm inal
ĠFire wall
Ġsepar ation
Ġcard iovascular
ĠRock star
Ġsqu arely
ĠKashmir i
ĠRich ter
ĠRod ney
Ġlim iting
Ġsurv ives
Ġcounter feiting
Ġpain t
ĠGen ome
ĠBen azir
Ġer ad
ĠBR AS
Ġwind ing
Ġfavor able
Ġcreat ure
Ġlegisl ature
Pro gress
Ġpers ons
Ġspark ling
ĠSem in
ĠHom est
ĠCit roen
iction ary
omen on
Ġorganiz er
Ġhon ors
Ġjud o
ĠBroad com
South west
Ġthr ashed
ĠSix th
Ġcat tle
ĠJon ny
Ġele ven
ĠMid land
ĠJack ie
ĠTax es
Comp any
ĠGh azi
Ġobserv ations
Ġobserv atory
Ġmal aria
Ġinstall ations
ĠPle as
ĠHD TV
Ġshel ved
ĠStrong er
ĠAppl ied
ĠSchw artz
stra pped
ĠBuff ett
FI FA
ĠPhill ips
Ġexplo iting
ĠSocial ist
Su ites
Ins urers
ĠAsk ed
Ag encies
ĠBER KEL
Ġdiss idents
ĠSand y
ĠCa uc
Ġnecess arily
ĠPut nam
Ġecl ips
ĠRE VIEW
Cont rovers
ĠAU BURN
Egypt ian
ĠEric kson
ĠSmall er
Ġdre amed
ĠSpec ulation
ĠSav ers
Ġbrew ing
ĠFair fax
ĠLock out
Ġ197 2
Ġsalv aged
ĠMontg omery
Ġaf raid
ĠJen in
ĠPers ia
Ġeditor ial
des ign
Ġgreet ing
ĠEmploy ment
Ġfu elled
Ġdisrup ting
ĠFer enc
Ġdress ing
Ġindef inite
WE B
ĠEsc al
ĠEsc apes
ĠSerge y
ĠCritic ism
Get ting
ĠStrate gic
Ġpromotion al
ĠGall ery
ĠFreed om
Reb el
ĠJoh annes
Ġgar age
Ġwarl ords
Ġhamp ered
Pad res
Pay Pal
Ġstabil ize
ĠPred icts
Ġmanip ulation
Celt ic
ĠLear n
ĠAx im
XT L
Ġphen omenon
compet itive
ĠIdent ity
meg apixel
ĠPier o
Ġdeser ter
Prod uct
ĠControvers y
ĠControvers ial
Clar ke
Ġscram ble
ĠResp onse
ĠGerm ans
Ġunderst ood
ĠAppro ach
Ġagric ulture
Ġundermin ed
ĠLars son
Ġsuprem acy
Lead ers
Ġintim idation
ĠViz quel
Ġcere al
ĠSK G
Democr ats
ĠPrinc eton
Ġrewrit e
ĠARS ENAL
Ġhots pots
ĠFij i
ĠVic ente
ĠYas ir
Ġhomosex ual
Aug ust
bh ajan
ĠFo ley
Ġpregn ant
Ġstopp age
Ġemph atic
ĠSubs id
Kl itschko
ĠAmeri Suites
Ġglob ally
ĠMUN ICH
Ġantenn as
Ġembro iled
ĠChronic le
Plugged In
ĠSECUR ITY
Jean ne
Parm alat
ĠJasch an
Ġunspec ified
ĠBERKEL EY
. --
6 75
B F
B in
B ody
C reat
C rew
D r
E qu
F M
F uel
G az
G atlin
H ad
H arr
J u
L oss
L anger
M el
M ut
M aker
M errill
N P
N XTL
O f
O kl
T ravel
U GH
U EFA
V I
V X
W HO
Z N
b ill
c ester
c enter
d eep
d eath
d umping
g arian
h appy
k aid
l ived
m obile
p aid
r ss
s ell
s ix
t able
t icket
u els
w eary
y oung
Ġt elescopes
Ġt ongue
Ġa ided
Ġs agging
Ġs keleton
en ia
it ar
it ution
Ġf o
Ġf ist
Ġo v
Ġc ave
Ġw art
Ġp our
Ġp ouring
Ġb ang
Ġb ows
Ġb ounty
ic ating
ĠS gt
ĠS porting
ĠS chedule
Ġm ens
Ġm aver
Ġm mO
Ġm ogul
il ak
Ġd ign
Ġd ish
Ġd ont
ĠA hold
ĠA wait
ĠA CE
ĠT ip
ĠT ree
ĠT ogether
ĠC ord
ĠC UP
id lp
ĠM ile
ac a
ur ances
ĠP ond
ĠP OL
ĠP urch
ad v
ĠB oo
ĠB uch
ĠB ung
ĠB oys
Ġl es
Ġl ops
Ġl agging
ig ata
ol z
ĠW ILL
ĠF ac
ĠF ate
ĠF ault
ĠR IO
Ġst alemate
Ġr ational
Ġr ides
Ġr aging
ow der
im ax
ĠD J
ĠD ivers
ĠD uff
ĠD oping
th rax
ĠU A
ĠU ph
ĠU Conn
ĠG one
ĠG ER
ĠG ibernau
un u
ĠH ich
ĠH ero
ĠH edge
ĠL in
ĠL igue
ĠE b
ĠE t
ĠE AG
ĠE ST
ĠE ritre
ĠO H
Ġbe am
Ġbe hemoth
ag g
ĠThe m
ĠThe ater
ess y
oc ity
all ess
Ġde port
um at
Ġle verage
Ġwh ip
Ġex ists
ĠK ris
Ġch urned
Ġcomp an
Ġag ony
Ġoff ens
Ġoff enses
Ġal tered
Ġal arming
ĠY am
ere es
Ġj oc
Ġj ock
Ġse g
ĠV IR
ĠV HS
ĠFr ust
ie ged
Ġcl ips
Ġquot es
Ġro oft
Ġun n
Ġint end
Ġab uzz
og y
ass ault
Ġres il
Ġres igning
oll o
Ġsc ared
Ġrec ount
Ġte ach
Ġte aching
Ġen act
Ġtr imming
iss ance
Ġnot ion
ĠSh ak
ĠSh ining
Ġar bitrator
Ġcr ises
ĠSp arta
pl er
ey eno
ĠPro cter
Ġwar fare
ĠRe ading
ĠRe ached
Ġdec k
ok il
Ġback ward
Ġsl oppy
Ġpol io
Ġseason ally
lp id
Ġph armaceuticals
ball s
ĠBl amed
onom a
ĠCl os
ĠCl inch
Ġinter rog
St an
ĠOlymp ian
ĠAd Sense
Ġass ignment
ax ter
Ġact ress
head ed
Ġfinal ists
Ġbr ush
ech y
ĠZ ach
Ġgl ut
EN CE
IS TAN
Ġsub stitute
ĠSe agate
Ġinf ecting
ĠAra fats
ĠAra gones
uk emia
AT ER
ific ent
ĠHe ading
ustom ed
ater no
uck ing
Ġturn over
Ġviol ates
Ġfree ing
Ġcustom s
Ġcustom ized
ĠMc Nealy
ĠBo at
ĠBo om
pe ace
sh ine
sh ares
ĠGr am
ĠDis cl
Ġbuild ers
ĠAng l
Ġste ered
ĠDes k
ĠCEO s
ĠWilliam son
Ġdiv isive
ĠWin ners
ĠTO DAY
ĠEl an
ID F
aff ar
Ġ25 6
ĠPer c
Sh i
Sh ort
Sh aq
ĠMac au
Ġfar ms
Ġdist ill
ĠMo zamb
ĠSm oltz
ĠSen ators
AD H
Ġnegoti ated
unt led
Ġshut ting
ĠReal ity
ĠAnn ounced
ĠKill er
uge ot
Ġey eb
Ġmon ument
Ġgener ations
ĠAM R
ĠAM ERIC
iber ger
uff s
Ġterm inated
Ġworth y
Un ilever
ĠSur face
ĠSur fers
Ġprop el
Ġprop onents
bo ks
ĠMont i
ĠRod gers
ĠIr ans
Ġcou rage
Ġdidn t
Ġwild ly
Ġclin ics
Ġdeep ening
ĠBer kshire
Ġsett ler
Sc an
Sc ot
ĠFound er
Ġpled ging
ĠGen entech
ĠRam sey
Mar athon
Ġcirc les
Ġcreat ures
ffic ient
ĠRel o
ĠSusp end
oura ge
ĠDisc over
Ġide al
Ġcommon ly
ĠWestern ers
erg en
Ġorig ins
Ġlack ing
Ġcrack ing
Ġansw ered
ĠMag na
35 400
LO W
ĠDow ning
ĠMcL e
ĠGM T
Ġstre ams
ĠMess ina
ĠMess ier
Ġens uring
Ġovert aken
Ġinstant ly
ĠBreak ing
ĠHass elb
Ġult imatum
Ġmal ware
ĠPet ter
Ġgri pped
Gold en
Se oul
CI O
Ġrelie ve
ĠRoll ins
Ġgro use
ĠProv ide
mon ton
ĠMult imedia
ĠEmp ire
sl ist
Brazil ian
ĠClear wire
Ġhat red
ĠEm ile
ĠReview s
Ġbra ins
ĠGain es
eme tery
Ġfrequ ently
ĠBi omedical
ĠHun ger
ĠVill ar
Ġescal ated
Ġhar ass
Ġhar ness
ĠCas ual
Ġscan ning
ĠSuccess or
ĠAp olog
Ġextrad ited
Ġrefin ery
ĠCustom er
Ġdog ged
ĠLarg est
Ġbag gage
ĠBU CH
ĠFleet Center
Ġfaith ful
ĠWithdraw s
Ġillness es
Ġhide out
ĠNi igata
Ġhook ed
ĠTrip oli
Venezuel an
inf oworld
sol aris
Ġskept ics
Ġcateg ories
Ġmerch ants
sm all
Ġvig ilant
ĠTreat ment
ĠCreat or
ĠRash id
ĠDer by
ĠHart ford
Ġworkst ation
Ġinstr uctions
ĠHok kaid
ĠInit iative
ĠParalymp ics
Ġru ins
Ġsustain able
ĠNord ic
Ġtot ally
Ġcongrat ulated
spot lights
spot rss
Ġinex per
Ġhistor ical
Ġnick el
Vol kswagen
Ġprol ific
ĠHum ans
Ġmerc enaries
ĠCham ber
ĠPostp oned
Ġscram jet
Ġturb ulent
sbc spotrss
ĠMead ows
ĠHind u
Ġremind ed
ĠEnh ances
Ġrebuff ed
Ġmultip layer
Ġsid ew
ĠBail ey
Ġalt itude
ĠDest ro
ĠGav in
orig inal
ĠSteroid s
Ġdazz ling
Buc s
Ġol ive
ĠBrook lyn
Stri ke
ĠThorn ton
Ġoutwe ighed
Ġfab ric
compat ible
CMC SA
Ġphr ase
ĠTradem ark
ĠPetrov a
ĠUR L
ĠBelf ast
Mas ri
ĠKAR ACHI
ĠBenj amin
onter ra
ĠCana veral
ĠWELL INGTON
Ġwholes al
Okl ahoma
ĠHich am
eyeno ord
35400 7
sbcspotrss feed
4 15
A lt
C oll
C ox
D ix
D omin
F av
F AST
G e
G ro
H u
J an
J une
J FK
K e
K ing
L ab
M Y
M organ
N ike
O Q
P av
R ookie
S Y
S outhern
S ainsbury
W oman
b attered
b ishop
c ope
d d
f ar
f ocused
g one
k it
k ill
k ens
k illed
l oss
l osing
m ic
m oney
o z
o ks
o oping
s ided
t een
u ivert
v or
v ang
v ale
Ġ ),
Ġt ide
Ġt igers
er ver
Ġs in
an ic
ar ts
ar ious
it ects
at oes
at che
Ġf ederation
Ġo usts
Ġc asts
Ġc odes
Ġc inema
re port
Ġto ut
Ġto mb
Ġb ribery
Ġin h
ic able
ĠS W
ĠS ic
ĠS hed
ĠS ink
ĠS TE
Ġm end
Ġm onster
ay ak
Ġh og
Ġh ubs
Ġh overing
Ġh inges
Ġh abits
le ad
Ġd ock
Ġd iary
Ġd aunting
ĠT ab
ĠT act
ĠT uf
ĠT EM
ĠT entative
ĠC rop
ĠC racks
st rom
ĠM N
ĠM ik
ĠM ouse
ĠM ald
et heless
el in
el on
el ance
ac as
Ġth riving
ec ks
ĠP O
ĠB il
ĠB UR
ig gers
ig ma
ot ation
Ġre pt
Ġg ut
Ġg arden
ut tered
Ġe leg
ĠW ed
ĠW ave
ĠW AR
ĠW ider
ĠW ealth
ĠN an
ĠN em
ĠN ASH
ĠN PR
ĠF argo
ĠR ul
ĠR ES
ĠR SA
Ġst oried
Ġr end
Ġr ang
ow ning
ĠD im
ĠD ES
ĠD AM
ĠD iplom
ĠU b
ĠG iving
ĠH or
ĠH ail
ĠL und
ĠL ives
ĠL oren
ĠL agos
ĠL arkin
ĠL ufthansa
qu ee
ch air
ch airman
up ply
up hor
ĠE mail
ĠO go
ĠO bs
Ġhe ck
Ġv illa
Ġde emed
Ġby e
ft en
ĠSt oud
Ġsh ines
ĠK asuri
Ġch ill
iv ans
Ġag on
Ġpr on
ug es
ob urn
ĠY u
ĠY om
ip ro
se ven
ĠV A
Ġout line
Ġac comp
Ġun iversal
AP AN
av ers
ĠMon za
ber ts
Ġsc ales
Ġsc orer
Ġsc hemes
ets k
Ġfin anced
Ġen cl
ĠSh ake
ĠSh oots
ĠSh oaib
ĠAn bar
ĠAn them
ib re
ĠSp itz
ĠCom b
ĠCom bat
ĠIs le
ang ling
Ġbl essing
cent ric
gr en
ĠRe vers
Ġsl ogan
Ġdef enders
Ġfl ip
Ġfl esh
Ġcons ent
Ġind igenous
ĠAr thur
pr ising
Ġwhen ever
Ġgo alless
Ġwork place
ĠPl ants
ĠAl ou
less ly
less ness
Ġec st
ĠRes umes
Ġmed iation
RE E
Ġins ol
Ġam bus
Ġam nesty
Ġrem nants
Ġsign atures
riv ed
ĠOp s
rov ing
Ġmanag es
ink y
ĠProf essor
ai jan
Ġsm ash
Ġdisc ounted
ĠWeb ber
rew ell
Ġfil tering
eed way
Ġstate hood
Ġsub poenas
ret ch
ĠWh ich
Ġsell out
Ġfound ing
ĠUN H
par ed
Ġpar aly
ĠBr in
Ġ12 9
Ġrest itution
ĠMan power
ĠCar roll
Ġbel oved
Ġrev iving
ĠBut ch
ĠWar rior
ES H
Ġspace flight
res earch
Ġhand led
ĠOr bit
Ġadv ers
ĠSan Disk
Ġref erring
Ġche at
10 2
ĠAll ows
ĠMc Car
ASA D
mail ing
Ġcor respondent
Ġred e
Ġred ef
Ġeng aging
ĠSw eet
ĠNov ar
ĠAc claim
ĠEd u
ĠCr ist
Ġinv ading
Ġinv aded
ĠHigh way
idd led
ĠDem onstr
Ġmod e
ĠPlay station
Ġbreak fast
Ġtrans mit
Ġed iting
sc oring
ĠGeor getown
Ġlik ed
Ġequ als
Ġemb raced
urt les
for ces
IL IA
ĠSch ering
ĠSing le
ĠAtt end
ĠAtt empt
LE GE
Ġdr astically
ĠHol m
Ġfar ther
ĠWe ir
ĠJan et
ĠMart y
ĠMart ian
Ġpopular ly
ĠHar vey
ĠSales force
vious ly
Ġsing ing
Ġter med
ĠAN K
Ġsn ack
ĠMiss iles
Ġwrit edown
ĠBusiness Week
Ġcoun sel
Ġpract ical
Ġaff l
IR I
Ġpack aging
Ġval id
Ġprotest ed
Ġspam mer
ĠPower Edge
ĠAcc ident
hy th
Ġsom eday
ĠTour ism
Ar m
Un ions
ĠAnt ivirus
." \\
Ġprop aganda
ĠSo aring
Ġdest ined
ĠSol ana
ĠYou zhny
urb an
Ġcritic izing
ĠHen an
Al aska
Ġsan ction
Ġnon etheless
ĠBeat les
Sun Trust
ĠInt elsat
ĠGen ocide
onstr uction
Ġarch itects
ĠIm port
Ġer ased
Ġrad icals
Ġran ch
Ġwel coming
ĠUt es
Ġcal ories
ĠSE VILLE
Ġsubsid y
Ġclass es
Cl ark
Ġprosp er
Ġcle ver
Ġpit ting
Pl ough
ĠKh mer
Con ocoPhillips
ĠSn ap
ĠSem p
Ġseed ed
ĠNob le
ĠVol ume
Ġsure ly
ĠLad ies
ogn os
Ġhandheld s
ĠAttorney s
Ġpun ished
Ġpun itive
ĠSk ulls
Ġlog o
Ġdescrib ing
ĠStan sted
Ġreserv ed
fort unately
Ġpostp onement
Ġperfect ly
ĠKar ol
Ġdial ysis
ĠId ea
Ġshel ter
ĠHy dro
Ġdeput ies
Ġregard ed
Ġpion eered
ĠAdd ed
work ers
ĠFind ing
High er
eder ations
abil ia
Ġadj our
Ġfish ermen
Ġmig rate
Ġmig rants
Ġmob il
ĠRE P
ĠHal ts
Ġfal tering
Ab u
ĠHun ting
Ġcomment ary
ĠCyber onics
UA E
Ġstir s
Ġdisp el
ĠTrib unal
Ġrespect ively
ĠSuz uka
Ġbuzz ing
Job s
ĠArch aeologists
ĠContinu ing
Ġwonder ful
Ġdistribut ors
ĠCre ates
Ġtemper ature
Ġsen ators
ĠBamb ino
Ġequal iser
ĠMill ar
Ġmeaning ful
Ġarr ays
ĠProsecut or
[...]
