{"<pad>":0,"<cls>":1,"<sep>":2,"!":3,"\"":4,"#":5,"$":6,"%":7,"&":8,"'":9,"(":10,")":11,"*":12,"+":13,",":14,"-":15,".":16,"/":17,"0":18,"1":19,"2":20,"3":21,"4":22,"5":23,"6":24,"7":25,"8":26,"9":27,":":28,";":29,"<":30,"=":31,">":32,"?":33,"@":34,"A":35,"B":36,"C":37,"D":38,"E":39,"F":40,"G":41,"H":42,"I":43,"J":44,"K":45,"L":46,"M":47,"N":48,"O":49,"P":50,"Q":51,"R":52,"S":53,"T":54,"U":55,"V":56,"W":57,"X":58,"Y":59,"Z":60,"[":61,"\\":62,"]":63,"^":64,"_":65,"`":66,"a":67,"b":68,"c":69,"d":70,"e":71,"f":72,"g":73,"h":74,"i":75,"j":76,"k":77,"l":78,"m":79,"n":80,"o":81,"p":82,"q":83,"r":84,"s":85,"t":86,"u":87,"v":88,"w":89,"x":90,"y":91,"z":92,"{":93,"|":94,"}":95,"~":96,"¡":97,"¢":98,"£":99,"¤":100,"¥":101,"¦":102,"§":103,"¨":104,"©":105,"ª":106,"«":107,"¬":108,"®":109,"¯":110,"°":111,"±":112,"²":113,"³":114,"´":115,"µ":116,"¶":117,"·":118,"¸":119,"¹":120,"º":121,"»":122,"¼":123,"½":124,"¾":125,"¿":126,"À":127,"Á":128,"Â":129,"Ã":130,"Ä":131,"Å":132,"Æ":133,"Ç":134,"È":135,"É":136,"Ê":137,"Ë":138,"Ì":139,"Í":140,"Î":141,"Ï":142,"Ð":143,"Ñ":144,"Ò":145,"Ó":146,"Ô":147,"Õ":148,"Ö":149,"×":150,"Ø":151,"Ù":152,"Ú":153,"Û":154,"Ü":155,"Ý":156,"Þ":157,"ß":158,"à":159,"á":160,"â":161,"ã":162,"ä":163,"å":164,"æ":165,"ç":166,"è":167,"é":168,"ê":169,"ë":170,"ì":171,"í":172,"î":173,"ï":174,"ð":175,"ñ":176,"ò":177,"ó":178,"ô":179,"õ":180,"ö":181,"÷":182,"ø":183,"ù":184,"ú":185,"û":186,"ü":187,"ý":188,"þ":189,"ÿ":190,"Ā":191,"ā":192,"Ă":193,"ă":194,"Ą":195,"ą":196,"Ć":197,"ć":198,"Ĉ":199,"ĉ":200,"Ċ":201,"ċ":202,"Č":203,"č":204,"Ď":205,"ď":206,"Đ":207,"đ":208,"Ē":209,"ē":210,"Ĕ":211,"ĕ":212,"Ė":213,"ė":214,"Ę":215,"ę":216,"Ě":217,"ě":218,"Ĝ":219,"ĝ":220,"Ğ":221,"ğ":222,"Ġ":223,"ġ":224,"Ģ":225,"ģ":226,"Ĥ":227,"ĥ":228,"Ħ":229,"ħ":230,"Ĩ":231,"ĩ":232,"Ī":233,"ī":234,"Ĭ":235,"ĭ":236,"Į":237,"į":238,"İ":239,"ı":240,"Ĳ":241,"ĳ":242,"Ĵ":243,"ĵ":244,"Ķ":245,"ķ":246,"ĸ":247,"Ĺ":248,"ĺ":249,"Ļ":250,"ļ":251,"Ľ":252,"ľ":253,"Ŀ":254,"ŀ":255,"Ł":256,"ł":257,"Ń":258,"Ġt":259,"in":260,"er":261,"Ġa":262,"on":263,"he":264,"es":265,"Ġs":266,"or":267,"an":268,"Ġthe":269,"ed":270,"en":271,"ar":272,"it":273,"at":274,"Ġf":275,"Ġo":276,"Ġc":277,"ing":278,"al":279,"Ġw":280,"re":281,"Ġp":282,"Ġto":283,"Ġb":284,"is":285,"Ġin":286,"ic":287,"ro":288,"as":289,"Ġof":290,"ĠS":291,"Ġm":292,"ay":293,"il":294,"nd":295,"Ġh":296,"ion":297,"ter":298,"le":299,"Ġd":300,"ĠA":301,"ou":302,"ĠT":303,"ĠC":304,"id":305,"om":306,"st":307,"ent":308,"Ġand":309,"ĠM":310,"Ġon":311,"et":312,"el":313,"ac":314,"ur":315,"Ġth":316,"ec":317,"ĠI":318,"ĠP":319,"ad":320,"Ġfor":321,"ĠB":322,"Ġn":323,"Ġl":324,"ig":325,"ol":326,"am":327,"ot":328,"ir":329,"Ġre":330,"Ġg":331,"ut":332,"Ġe":333,"Ġ-":334,"ers":335,"ĠW":336,"Ġ#":337,"day":338,"us":339,"ĠN":340,"39":341,"ĠF":342,"ve":343,"ĠR":344,"ill":345,"Ġst":346,"Ġr":347,"Ġ(":348,"ow":349,"est":350,"Ġit":351,"im":352,"ĠD":353,"th":354,"ver":355,"ĠU":356,"ra":357,"ation":358,"ĠG":359,"un":360,"ĠH":361,"ly":362,"ĠL":363,"qu":364,"ts":365,"ch":366,"up":367,"ith":368,"ĠE":369,"ew":370,"ear":371,"Ġan":372,"ĠO":373,"Ġat":374,"ce":375,"os":376,"ak":377,"igh":378,"Ġbe":379,"ul":380,"Ġas":381,"and":382,"Ġthat":383,"Ġwith":384,"ag":385,"ri":386,"em":387,"ld":388,"ters":389,"op":390,"ĠThe":391,"ess":392,"Ġcom":393,"Ġpro":394,"ain":395,"Ġ1":396,"Ġis":397,"Ġy":398,"ĠJ":399,"oc":400,"Ġsa":401,"ks":402,"Ġcon":403,"Ġits":404,"ĠIn":405,"'s":406,"ct":407,"all":408,"ian":409,"ap":410,"Ġ2":411,"Ġhe":412,"00":413,"Ġv":414,"Ġde":415,"ate":416,"uters":417,"ast":418,"Ġsaid":419,"um":420,"Ġby":421,"ft":422,"ĠSt":423,"ore":424,"ies":425,"ia":426,"ost":427,"our":428,"end":429,"Ġhas":430,"por":431,"Ġle":432,"rom":433,"ee":434,"Ġsh":435,"Ġqu":436,"Ġwh":437,"Ġex":438,"ight":439,"Ġpl":440,"ĠK":441,"ust":442,"euters":443,"Ġch":444,"oo":445,"ack":446,"und":447,"Ġcomp":448,"Ġfrom":449,"ist":450,"ment":451,"iv":452,"ity":453,"ard":454,"art":455,"Ġag":456,"ial":457,"pp":458,"if":459,"Ġpr":460,"oun":461,"Ġoff":462,"fter":463,"..":464,"esday":465,"ine":466,"ug":467,"ĠCh":468,"ive":469,"Ġhis":470,"ud":471,"ell":472,"Ġwas":473,"Ġwill":474,"Ġk":475,"ted":476,"ave":477,"Ġal":478,"ry":479,"gt":480,"ĠTh":481,"lt":482,"ab":483,"Ġnew":484,"ord":485,"Ġsp":486,"ice":487,"ob":488,"Ġafter":489,"ĠY":490,"ip":491,"Reuters":492,"oft":493,"Ġover":494,"mer":495,"ere":496,"Ġj":497,"Ġfir":498,"Ġse":499,"Ġwor":500,"ff":501,"ions":502,"arg":503,"ace":504,"ould":505,"se":506,"ĠV":507,"are":508,"ĠFr":509,"ans":510,"ie":511,"ub":512,"ĠUS":513,"ong":514,"Ġup":515,"ning":516,"ays":517,"\\$":518,"Ġcl":519,"Ġhave":520,"ick":521,"old":522,"any":523,"uc":524,"Ġyear":525,"tern":526,"out":527,"Ġtheir":528,"wo":529,"Ġare":530,"ue":531,"Ġout":532,"ame":533,"ge":534,"Ġac":535,"Ġ\\$":536,"ome":537,"Ġquot":538,"Ġro":539,"ail":540,"illion":541,"Ġun":542,"ke":543,"ĠPr":544,"over":545,"Ġsec":546,"ide":547,"ign":548,"ant":549,"ident":550,"ree":551,"ile":552,"ros":553,"ark":554,"AP":555,"ex":556,"ime":557,"od":558,"ire":559,"Ġexp":560,"ond":561,"raq":562,"Ġint":563,"ep":564,"Ġab":565,"ors":566,"og":567,"ake":568,"ens":569,"Ġfirst":570,"av":571,"own":572,"ĠMon":573,"ĠUn":574,"ass":575,"ich":576,"Ġres":577,"Ġtwo":578,"ish":579,"amp":580,"age":581,"ices":582,"ĠIraq":583,"ase":584,"urs":585,"ations":586,"eek":587,"ber":588,"one":589,"port":590,"Ġ200":591,"ON":592,"com":593,"Ġop":594,"Ġ--":595,"oll":596,"ure":597,"ates":598,"row":599,"ĠNew":600,"Ġagain":601,"ary":602,"Ġper":603,"rop":604,"ĠAP":605,"Ġmore":606,"ect":607,"hen":608,"Ġbut":609,"iday":610,"ther":611,"esident":612,"act":613,"Ġlead":614,"Ġcont":615,"Ġsc":616,"ach":617,"Ġ3":618,"Ġrec":619,"ets":620,"edn":621,"Ġfin":622,"ote":623,"ednesday":624,"erv":625,"ĠMonday":626,"ance":627,"...":628,"uesday":629,"Ġte":630,"hn":631,"hed":632,"rit":633,"ĠWednesday":634,"ov":635,"Ġwin":636,"ursday":637,"ĠTuesday":638,"ory":639,"Ġen":640,"iz":641,"mp":642,"Ġtr":643,"ank":644,"lect":645,"ĠInc":646,"ĠThursday":647,"ite":648,"Ġcompany":649,"anc":650,"iss":651,"aw":652,"Ġthis":653,"Ġnot":654,"Ġad":655,"ence":656,"ull":657,"ade":658,"Ġdis":659,"ated":660,"ĠFriday":661,"ational":662,"arter":663,"ous":664,"ict":665,"vest":666,"ount":667,"ood":668,"Ġone":669,"eop":670,"ĠSh":671,"ited":672,"ock":673,"ash":674,"earch":675,"ork":676,"ort":677,"Ġagainst":678,"icros":679,";/":680,"Ġapp":681,"Ġthan":682,"ester":683,"OR":684,"eople":685,"urn":686,"etw":687,"ican":688,"Ġinto":689,"Ġus":690,"oin":691,"ason":692,"gh":693,"Ġweek":694,"Ġlast":695,"ound":696,"esterday":697,"Ġacc":698,"oy":699,"orm":700,"ush":701,"ĠAn":702,"Ġwho":703,"Ġyesterday":704,"ven":705,"Ġabout":706,"Ġplay":707,"Ġinc":708,"icrosoft":709,"als":710,"Ġar":711,"ĠCor":712,"Ġcr":713,"eb":714,"ĠInd":715,"man":716,"her":717,"ib":718,"ĠSp":719,"Ġwere":720,"roup":721,"ĠCom":722,"Ġthey":723,"Ġoffic":724,"Ġann":725,"Ġall":726,"land":727,"overn":728,"Ġatt":729,"ware":730,"oss":731,"ina":732,"Ġbeen":733,"Ġear":734,"pl":735,"Ġ&":736,"ext":737,"ĠIs":738,"ĠIntern":739,"Ġim":740,"Ġworld":741,"ition":742,"ocks":743,"Ġor":744,"reat":745,"ey":746,"vel":747,"ical":748,"its":749,"Ġman":750,"Ġ4":751,"yst":752,"ird":753,"uct":754,"Ġhigh":755,"eat":756,"ang":757,"ton":758,"ll":759,"Ġmillion":760,"Ġhad":761,"Ġstr":762,"Ġmark":763,"ĠAs":764,"Ġthree":765,"ind":766,"Ġkill":767,"ĠCorp":768,"eral":769,"ced":770,"overnment":771,"ral":772,"onth":773,"AN":774,"ower":775,"Qu":776,"Ġret":777,"tle":778,"ose":779,"Ġbl":780,"ĠLe":781,"ook":782,"hes":783,"ased":784,"cent":785,"ilit":786,"ise":787,"Ġ6":788,"ĠPro":789,"uss":790,"gr":791,"line":792,"ected":793,"ting":794,"ĠSund":795,"urity":796,"ĠAmer":797,"Ġofficial":798,"AS":799,"ĠSunday":800,"Ġwar":801,"ĠRe":802,"ines":803,"Ġdec":804,"urop":805,"Ġwould":806,"Ġteam":807,"ok":808,"urope":809,"Ġback":810,"Ġend":811,"Ġoil":812,"ix":813,"az":814,"ating":815,"ĠUnited":816,"ove":817,"ĠSat":818,"olog":819,"Ġcould":820,"Ġserv":821,"Ġsl":822,"able":823,"Ġfour":824,"ely":825,"Ġdef":826,"Ġannoun":827,"Ġfl":828,"ports":829,"ugh":830,"Ġgovernment":831,"ph":832,"Ġbu":833,"Ġsecond":834,"Ġset":835,"ics":836,"ox":837,"Ġpol":838,"ĠEx":839,"FP":840,"Ġwhich":841,"Ġyears":842,"ales":843,"iness":844,"oftware":845,"Ġcons":846,"ents":847,"Ġmak":848,"IN":849,"ons":850,"ĠEn":851,"Ġsup":852,"ĠReuters":853,"ĠNE":854,"Ġtoday":855,"Ġpeople":856,"Ġmonth":857,"Ġco":858,"usiness":859,"ĠEurope":860,"ron":861,"ww":862,"ĠĠ":863,"inis":864,"ows":865,"Ġplan":866,"orld":867,"ĠMicrosoft":868,"Ġelect":869,"Ġind":870,"ubl":871,"tt":872,"ĠPresident":873,"Ġdes":874,"Ġprices":875,"air":876,"ĠAr":877,"echn":878,"pr":879,"Ġpercent":880,"Ġ5":881,"Ġseason":882,"ah":883,"ital":884,"ins":885,"ĠNEW":886,"Ġdown":887,"Ġwhen":888,"hip":889,"ier":890,"enc":891,"Ġsays":892,"Ġpart":893,"urday":894,"Ġquarter":895,"Ġnext":896,"Ġme":897,"uch":898,"Ġsur":899,"Ġtime":900,"les":901,"ef":902,"Ġpre":903,"ystem":904,"ĠSaturday":905,"Ġgo":906,"ally":907,"lp":908,"Ġnight":909,"atch":910,"ement":911,"ings":912,"ĠIt":913,"Ġwork":914,"Ġreg":915,"Ġcount":916,"Ġgame":917,"ief":918,"apan":919,"Ġli":920,"Ġph":921,"Ġthird":922,"Ġinvest":923,"Ġ7":924,"ild":925,"ecut":926,"aj":927,"ĠCo":928,"ists":929,"Ġprod":930,"ball":931,"US":932,"ĠBl":933,"aun":934,"ged":935,"onom":936,"Ġbec":937,"inister":938,"ORK":939,"uring":940,"ĠYORK":941,"echnolog":942,"Ġmarket":943,"ĠBrit":944,"under":945,"pt":946,"Ġrecord":947,"Ġvict":948,"Ġcap":949,"Ġmay":950,"Ġne":951,"ran":952,"Ġsoftware":953,"orn":954,"eal":955,"form":956,"Ġmilit":957,"cess":958,"ied":959,"omb":960,"ough":961,"ms":962,"Ġcan":963,"err":964,"ustral":965,"ision":966,"Ġprof":967,"=\"":968,"ars":969,"ult":970,"Ġhelp":971,"Ġ10":972,"rael":973,"ĠFor":974,"ames":975,"ĠAf":976,"ĠPl":977,"ĠWorld":978,"oot":979,"ĠOn":980,"ger":981,"Ġrele":982,"Ġopen":983,"ĠInternet":984,"Ġ2004":985,"Ġbusiness":986,"ĠAl":987,"els":988,"ned":989,"ner":990,"Ġannounced":991,"eld":992,"ourt":993,"less":994,"lear":995,"Ġec":996,"uter":997,"app":998,"Ġagre":999,"000":1000,"ported":1001,"use":1002,"ĠJapan":1003,"Ġdeal":1004,"Ġconf":1005,"Ġsome":1006,"Ġrun":1007,"Ġgroup":1008,"Quote":1009,"Ġbig":1010,"Ġbillion":1011,"ĠRes":1012,"Ġlarg":1013,"urr":1014,"ath":1015,"Ġdo":1016,"ĠAir":1017,"ands":1018,"Ġtop":1019,"outh":1020,"rough":1021,"ones":1022,"ble":1023,"Ġcall":1024,"istan":1025,"Ġsecurity":1026,"ica":1027,"led":1028,"rac":1029,"Ġtake":1030,"Ġmed":1031,"ĠCon":1032,"ĠChina":1033,"Ġmost":1034,"ĠCl":1035,"io":1036,"year":1037,"eep":1038,"ares":1039,"ious":1040,"Ġso":1041,"Ġpresident":1042,"ĠJo":1043,"inu":1044,"een":1045,"RE":1046,"Ġins":1047,"Ġcar":1048,"Ġtarg":1049,"Ġsay":1050,"ces":1051,"Ġeconom":1052,"Ġtal":1053,"Ġam":1054,"echnology":1055,"Ġstart":1056,"ague":1057,"ward":1058,"ert":1059,"ĠAustral":1060,"ĠPal":1061,"ince":1062,"Ġvictory":1063,"Ġinter":1064,"iam":1065,"ĠSec":1066,"Ġother":1067,"Ġunder":1068,"Ġnear":1069,"Ġrem":1070,"Ġkilled":1071,"Ġgrow":1072,"ĠRuss":1073,"Ġtri":1074,"acks":1075,"Ġday":1076,"Ġair":1077,"Ġcomm":1078,"gle":1079,"aim":1080,"ony":1081,"ives":1082,"Ġofficials":1083,"Ġsign":1084,"ĠFl":1085,"ield":1086,"ajor":1087,"round":1088,"ĠBush":1089,"Ġreported":1090,"Ġsales":1091,"Ġbo":1092,"ual":1093,"ures":1094,"co":1095,"ampions":1096,"vent":1097,"St":1098,"anad":1099,"Ġwe":1100,"ept":1101,"ants":1102,"riv":1103,"ER":1104,"etwork":1105,"orth":1106,"other":1107,"ĠIsrael":1108,"Ġoffer":1109,"rug":1110,"ĠAt":1111,"lymp":1112,"ĠCup":1113,"ĠEuropean":1114,"inian":1115,"lud":1116,"Ġhead":1117,"ING":1118,"Ġlaun":1119,"velop":1120,"Ġcut":1121,"ĠOp":1122,"ient":1123,"Ġ\"":1124,"nings":1125,"Ġoper":1126,"alif":1127,"Ġcountry":1128,"ool":1129,"ĠNo":1130,"rov":1131,"Ġplans":1132,"Ġtarget":1133,"ĠMar":1134,"ities":1135,"Ġprov":1136,"ĠPh":1137,"ĠComm":1138,"ling":1139,"fore":1140,"Ġjust":1141,"way":1142,"Ġget":1143,"Ġ19":1144,"BM":1145,"ops":1146,"Ġhome":1147,"usp":1148,"Ġbefore":1149,"usic":1150,"estinian":1151,"ĠOlymp":1152,"Ġdem":1153,"gan":1154,"gy":1155,"ium":1156,"Ġ8":1157,"Ġlaw":1158,"Ġmanag":1159,"Ġbuy":1160,"ĠAmerican":1161,"ederal":1162,"ĠSer":1163,"ency":1164,"ĠRed":1165,"gest":1166,"oogle":1167,"Ġshow":1168,"Ġser":1169,"ck":1170,"ĠStates":1171,"Ġimp":1172,"ember":1173,"ĠMinister":1174,"ns":1175,"su":1176,"ission":1177,"ording":1178,"ange":1179,"ĠAd":1180,"Ġass":1181,"Ġtak":1182,"ĠJohn":1183,"Ġlong":1184,";...":1185,"cer":1186,"Ġjob":1187,"ax":1188,"Ġact":1189,";...&":1190,"ĠYork":1191,"Ġbro":1192,"Ġno":1193,"Ġsystem":1194,"Ġcharg":1195,"Ġreport":1196,"DA":1197,"\"&":1198,"ury":1199,"ink":1200,"Ġnews":1201,"ington":1202,"Ġtra":1203,"Ġformer":1204,"icker":1205,"head":1206,"AFP":1207,"Ġhost":1208,"to":1209,"obile":1210,"iant":1211,"Ġkn":1212,"TON":1213,"Ġtro":1214,"Ġfinal":1215,"Ġyou":1216,"reak":1217,"Ġbr":1218,"ĠEng":1219,"Ġsu":1220,"anies":1221,"Ġbid":1222,"med":1223,"ech":1224,"Ġinclud":1225,"thern":1226,"ĠZ":1227,".,":1228,"Ġwon":1229,"Ġrel":1230,"AL":1231,"ump":1232,"AR":1233,"Ġfive":1234,"enn":1235,"ik":1236,"Ġbank":1237,"Ġtechnology":1238,"fo":1239,"ĠBritish":1240,"Ġleast":1241,"ata":1242,"Ġmade":1243,"ese":1244,"raw":1245,"ause":1246,"ĠApp":1247,"ipp":1248,"ular":1249,"ĠPalestinian":1250,"ublic":1251,"Ġhim":1252,"etween":1253,"Ġpoin":1254,"ending":1255,"Ġpost":1256,"Ġ9":1257,"Ġmajor":1258,"Ġher":1259,"Ġdevelop":1260,"ense":1261,"Ġhit":1262,"Ġindust":1263,"ĠProf":1264,"Ġmake":1265,"Ġbomb":1266,"ched":1267,"Ġmaker":1268,"erm":1269,"Ġlat":1270,"ollar":1271,"ai":1272,"Ġbetween":1273,"Ġeff":1274,"Ġexecut":1275,"ady":1276,"Ġchief":1277,"Ġsm":1278,"Ġlargest":1279,"error":1280,"Ġincre":1281,"Ġsw":1282,"ears":1283,"Ġthem":1284,"Ġprogr":1285,"//":1286,"ising":1287,"iew":1288,"Ġduring":1289,"Ġdisc":1290,"ĠIraqi":1291,"Ġprofit":1292,"ĠWith":1293,"://":1294,"ised":1295,"ttp":1296,"66":1297,"Ġreb":1298,"Ġif":1299,"Ġthrough":1300,"ards":1301,"ley":1302,"ĠWeb":1303,"Ġcompanies":1304,"http":1305,"Ġclaim":1306,"ĠIndia":1307,"ouse":1308,"Ġtalks":1309,"Ġwhat":1310,"rew":1311,"Ġaccording":1312,"ful":1313,"Ġhop":1314,"Ġpay":1315,"Ġext":1316,"ots":1317,"fer":1318,"ĠComp":1319,"ains":1320,"Ġtest":1321,"ĠCol":1322,"ĠOct":1323,"ivers":1324,"Ġadd":1325,"gin":1326,"Ġgl":1327,"eeks":1328,"Ġra":1329,"Ġservice":1330,"EN":1331,"rem":1332,"ered":1333,"ale":1334,"Ġsusp":1335,"ĠSc":1336,"Ġanother":1337,"Ġbat":1338,"Ġcoach":1339,"Ġleader":1340,"ireless":1341,"Ġloss":1342,"www":1343,"ĠCanad":1344,"alf":1345,"Ġow":1346,"Ġnow":1347,"ages":1348,"uction":1349,"ĠOff":1350,"ty":1351,"uclear":1352,"Ġintern":1353,"IS":1354,"Ġexpected":1355,"ract":1356,"Ġaut":1357,"Ġsix":1358,"ĠSouth":1359,"ution":1360,"rup":1361,"af":1362,"Ġgiant":1363,"ĠLeague":1364,"Ġfil":1365,"owing":1366,"ĠUp":1367,"used":1368,"Ġinj":1369,"Ġexpl":1370,"Ġstri":1371,"ility":1372,"ĠTr":1373,"Ġmeet":1374,"Ġsearch":1375,"Ġpe":1376,"ications":1377,"info":1378,"ticker":1379,"reuters":1380,"ects":1381,"eneral":1382,"ĠDe":1383,"Ġtele":1384,"REF":1385,"ĠHREF":1386,"Ġleft":1387,"erry":1388,"ife":1389,"Ġ20":1390,"In":1391,"eed":1392,"akistan":1393,"ĠSept":1394,"'t":1395,"Ġattack":1396,"Ġpower":1397,"Ġstate":1398,"Ġproduc":1399,"ashington":1400,"Ġcost":1401,"Ġway":1402,"ured":1403,"ĠAFP":1404,"son":1405,"ĠOpen":1406,"ĠBe":1407,"Ġsub":1408,"ret":1409,"ading":1410,"ĠWh":1411,"pos":1412,"Ġsince":1413,"Ġdel":1414,"Ġthreat":1415,"Ġpass":1416,"Ġgu":1417,"back":1418,"ĠSe":1419,"Ġstill":1420,"Ġwhile":1421,"Ġriv":1422,"50":1423,"Ġinf":1424,"iver":1425,"Ġmiss":1426,"Ġcourt":1427,"Ġbeing":1428,"Ġprot":1429,"Ġmov":1430,"Ġsell":1431,"Ġmove":1432,"Ġstrong":1433,"Ġearly":1434,"Ġindustry":1435,"Ġcamp":1436,"Ġfound":1437,"Ġpolice":1438,"Ġamp":1439,"ights":1440,"ments":1441,"vestor":1442,"asp":1443,"mb":1444,"Ġ11":1445,"str":1446,"Ġant":1447,"bers":1448,"uel":1449,"ĠInternational":1450,"ĠAg":1451,"ĠPrime":1452,"off":1453,"Ġreturn":1454,"Ch":1455,"Ġmusic":1456,"Ġdead":1457,"arm":1458,"ĠX":1459,"ĠOil":1460,"down":1461,"min":1462,"ĠAra":1463,"Ġput":1464,"ĠGroup":1465,"ghan":1466,"Ġany":1467,"ĠAss":1468,"ism":1469,"Ġshare":1470,"Ġagreed":1471,"Ġprogram":1472,"racle":1473,"Ġdeb":1474,"EL":1475,"ress":1476,"ison":1477,"Ġ'":1478,"Ġmilitary":1479,"date":1480,"ries":1481,"ne":1482,"be":1483,"obal":1484,"iol":1485,"tel":1486,"Ġcent":1487,"ĠUN":1488,"CO":1489,"par":1490,"Ġmonths":1491,"ator":1492,"ĠAfter":1493,"Ġi":1494,"ĠBank":1495,"aza":1496,"New":1497,"rupt":1498,"ĠNorth":1499,"ĠGoogle":1500,"oon":1501,"ench":1502,"Ġcol":1503,"ĠSox":1504,"ĠKore":1505,"Ġelection":1506,"Ġever":1507,"full":1508,"ys":1509,"ches":1510,"uk":1511,"stocks":1512,"ĠChampions":1513,"INGTON":1514,"Full":1515,"AT":1516,"quick":1517,"Ġlook":1518,"ators":1519,"idn":1520,"Ġgrowth":1521,"quote":1522,"investor":1523,"Ġdays":1524,"=/":1525,"aspx":1526,"fullquote":1527,"FullQuote":1528,"quickinfo":1529,"Ġrul":1530,"ĠWind":1531,"Ġonly":1532,"ource":1533,"ves":1534,"ific":1535,"Ġ...":1536,"Ġnuclear":1537,"Ġpar":1538,"ible":1539,"Ġbecause":1540,"Ġcomputer":1541,"Ġterror":1542,"Ġsold":1543,"ises":1544,"ĠPC":1545,"Ġeven":1546,"oci":1547,"Ġclos":1548,"ross":1549,"Ġdrug":1550,"ĠBr":1551,"ĠWill":1552,"ĠAb":1553,"reet":1554,"Ġ12":1555,"ASH":1556,"Ġrest":1557,"ĠMan":1558,"urg":1559,"ĠHe":1560,"oth":1561,"ĠDav":1562,"Ġmin":1563,"tain":1564,"erson":1565,"Ġonline":1566,"ips":1567,"ĠOlympic":1568,"ored":1569,"Ġnum":1570,"put":1571,"ĠGre":1572,"rest":1573,"irect":1574,"The":1575,"Ġmobile":1576,"sp":1577,"ootball":1578,"Ġhold":1579,"ĠAT":1580,"ustom":1581,"urrican":1582,"ider":1583,"iers":1584,"ĠCar":1585,"ĠCalif":1586,"Ġround":1587,"pite":1588,"Ġphone":1589,"ĠWindows":1590,"ĠBy":1591,"OS":1592,"ĠState":1593,"int":1594,"ĠAustralia":1595,"Soft":1596,"ude":1597,"Ġresearch":1598,"ĠAfghan":1599,"ĠAnd":1600,"Ġfoll":1601,"Ġleg":1602,"ĠAfr":1603,"Ġbeat":1604,"Ġincluding":1605,"ASHINGTON":1606,"Ġservices":1607,"leg":1608,"Ġfall":1609,"ĠWASHINGTON":1610,"Ġbel":1611,"Ġrev":1612,"enter":1613,"my":1614,"amil":1615,"Ġstud":1616,"ĠEngland":1617,"red":1618,"let":1619,"ative":1620,"ĠBag":1621,"ĠPakistan":1622,"Ġspec":1623,"Ġthere":1624,"cl":1625,"ĠBut":1626,"Ġshould":1627,"hd":1628,"Ġplayers":1629,"ĠFall":1630,"ater":1631,"chool":1632,"Ġago":1633,"Ġlatest":1634,"ĠWar":1635,"Ġconsum":1636,"hel":1637,"Ġjoin":1638,"Ġearnings":1639,"Ġhigher":1640,"ES":1641,"ners":1642,"ĠNational":1643,"Ġspace":1644,"Ġlike":1645,"Microsoft":1646,"res":1647,"Ġhand":1648,"ĠOr":1649,"Ġface":1650,"ida":1651,"Ġfirm":1652,"eopleSoft":1653,"raft":1654,"based":1655,"Ġretail":1656,"Ġpoints":1657,"Ġkeep":1658,"uck":1659,"Ġreleased":1660,"hdad":1661,"Ġcity":1662,"Ġkey":1663,"Ġnation":1664,"Ġadv":1665,"Ġmany":1666,"ĠMich":1667,"ĠWest":1668,"ĠWashington":1669,"Ġbiggest":1670,"Ġrose":1671,"ene":1672,"ĠSan":1673,"ĠIBM":1674,"Ġfut":1675,"AG":1676,"Ġbar":1677,"Ġcompet":1678,"iting":1679,"Ġneed":1680,"ores":1681,"Ġfight":1682,"Ġstock":1683,"ideo":1684,"Ġpublic":1685,"oston":1686,"Ġturn":1687,"quarter":1688,"Ġshares":1689,"Ġmem":1690,"Ġmuch":1691,"Ġgames":1692,"ĠGaza":1693,"lin":1694,"Ġtit":1695,"Ġdata":1696,"ott":1697,"imes":1698,"Ġacqu":1699,"ior":1700,"ĠIsraeli":1701,"Ġfell":1702,"Ġviol":1703,"BA":1704,"ians":1705,"Ġfree":1706,"ĠAug":1707,"ĠNetwork":1708,"ĠBaghdad":1709,"Ġpeace":1710,"der":1711,"Ġref":1712,"ize":1713,"36":1714,"Ġche":1715,"Ġdou":1716,"Ġ2005":1717,"ike":1718,"Ġrecent":1719,";&":1720,"Ġcustom":1721,"OND":1722,"ĠResearch":1723,"Ġtroops":1724,"Ġstocks":1725,"udan":1726,"Ġvers":1727,"ĠTe":1728,"ĠIran":1729,"ply":1730,"ended":1731,"ancial":1732,"Ġgold":1733,"10":1734,"ĠDec":1735,"osition":1736,"Ġusers":1737,"inux":1738,"uts":1739,"Ġfail":1740,"Ġvis":1741,"Ġheld":1742,"aul":1743,"eng":1744,"Ġpast":1745,"ĠSup":1746,"so":1747,"Ġav":1748,"Ġwom":1749,"Ġpolit":1750,"Ġsuc":1751,"ĠAll":1752,"ĠMc":1753,"aign":1754,"ONDON":1755,"Ġinternational":1756,"oods":1757,"Ġfourth":1758,"AM":1759,"ĠApple":1760,"ĠLONDON":1761,"ĠRussian":1762,"ĠNews":1763,"Ġcontract":1764,"ĠBo":1765,"Ġline":1766,"Ġcontinu":1767,"Ġrelease":1768,"hor":1769,"ĠDar":1770,"Ġahead":1771,"istr":1772,"ats":1773,"Ġfac":1774,"igital":1775,"iving":1776,"ASA":1777,"ĠBoston":1778,"Up":1779,"Ġregion":1780,"Ġord":1781,"rel":1782,"mail":1783,"elt":1784,"Ġdev":1785,"ized":1786,"Ġeconomy":1787,"rol":1788,"Ġweeks":1789,"Ġdemand":1790,"pe":1791,"Ġcor":1792,"Ġdirect":1793,"ĠAmerica":1794,"Ġwhere":1795,"Ġprice":1796,"ĠGu":1797,"ĠĠĠ":1798,"ĠSun":1799,"iger":1800,"ĠPress":1801,"Ġtrade":1802,"Ġleaders":1803,"oney":1804,"ĠOracle":1805,"Ġhom":1806,"ĠEar":1807,"isco":1808,"Ġred":1809,"ases":1810,"Ġlaunch":1811,"Ġreports":1812,"Ġexecutive":1813,"rib":1814,"opp":1815,"Ġsupport":1816,"ĠBar":1817,"Ġforces":1818,"Ġstand":1819,"loy":1820,"Ġgr":1821,"ĠQ":1822,"ober":1823,"Ġhalf":1824,"Ġeng":1825,"Ġposs":1826,"Ġhow":1827,"Ġprocess":1828,"ĠTo":1829,"Ġ15":1830,"ĠRussia":1831,"Ġban":1832,"aker":1833,"Ġconcer":1834,"ject":1835,"Ġ18":1836,"Ġpress":1837,"itch":1838,"ĠSw":1839,"Sports":1840,"ĠAssoci":1841,"Ġpresidential":1842,"Ġuse":1843,"ĠNov":1844,"Ġfederal":1845,"ĠStreet":1846,"fur":1847,"EO":1848,"ham":1849,"ĠLinux":1850,"ends":1851,"Ġeconomic":1852,"ĠQu":1853,"sh":1854,"ĠBu":1855,"EC":1856,"ĠFin":1857,"fat":1858,"Ġboost":1859,"erve":1860,"eor":1861,"Ġform":1862,"Ġstra":1863,"ĠGr":1864,"Ġbet":1865,"Ġenter":1866,"ientists":1867,"lo":1868,"ask":1869,"Ġhist":1870,"ided":1871,"ees":1872,"orida":1873,"Ġmain":1874,"Ġemp":1875,"ĠMay":1876,"urricane":1877,"Ġnumber":1878,"Ġdollar":1879,"elf":1880,"ĠSecurity":1881,"Ġyour":1882,"Ġinvestig":1883,"Ġopp":1884,"Ġrival":1885,"Ġtook":1886,"Ġright":1887,"Ġlower":1888,"ults":1889,"Ġtry":1890,"atic":1891,"hold":1892,"lim":1893,"Ġlow":1894,"Ġrece":1895,"Ġtitle":1896,"ying":1897,"Ġhard":1898,"ĠAc":1899,"BC":1900,"Ġev":1901,"ĠIndian":1902,"riz":1903,"Ġjobs":1904,"ĠFrench":1905,"ought":1906,"Ġmen":1907,"ness":1908,"Ġcalled":1909,"Ġnearly":1910,"ĠOut":1911,"ĠUnion":1912,"ĠEd":1913,"ĠDis":1914,"Ġdeath":1915,"Ġinvestors":1916,"veil":1917,"ann":1918,"anke":1919,"alt":1920,"Ġinterest":1921,"Ġseries":1922,"ĠMot":1923,"Ġused":1924,"Update":1925,"pped":1926,"ĠPhil":1927,"Ġsever":1928,"Ġfind":1929,"ĠWall":1930,"ĠItal":1931,"Ġseven":1932,"IT":1933,"ĠPeopleSoft":1934,"ills":1935,"Ġclose":1936,"Ġaim":1937,"ĠMin":1938,"Ġbuild":1939,"Ġaround":1940,"ĠServ":1941,"ĠCr":1942,"TO":1943,"Ġinv":1944,"ĠSudan":1945,"unications":1946,"key":1947,"lines":1948,"ides":1949,"ĠHigh":1950,"ankees":1951,"Ġ14":1952,"ired":1953,"Ġdri":1954,"Ġattacks":1955,"aring":1956,"ĠCity":1957,"ĠDep":1958,"ĠKorea":1959,"orks":1960,"Ġfund":1961,"Ġpop":1962,"Ġsent":1963,"ĠAng":1964,"ams":1965,"ĠOne":1966,"Ġcampaign":1967,"aid":1968,"ging":1969,"ades":1970,"IC":1971,"mit":1972,"ĠIntel":1973,"Ġlate":1974,"ĠElect":1975,"idd":1976,"Ġglobal":1977,"ĠMark":1978,"br":1979,"Ġkilling":1980,"ael":1981,"ĠFlorida":1982,"ĠDem":1983,"Ġworkers":1984,"akes":1985,"Ġnetwork":1986,"ened":1987,"ĠSte":1988,"ĠSays":1989,"15":1990,"Ġcare":1991,"Ġdet":1992,"ĠGame":1993,"Ġshort":1994,"iff":1995,"rod":1996,"udge":1997,"cy":1998,"uj":1999,"ĠPar":2000,"Ġquest":2001,"Ġlit":2002,"per":2003,"Ġmight":2004,"ĠDarfur":2005,"Ġ16":2006,"ĠAustralian":2007,"att":2008,"Ġmod":2009,"ĠSeptember":2010,"Ġ13":2011,"aving":2012,"Ġca":2013,"ĠUK":2014,"Ġdespite":2015,"ĠOctober":2016,"ergy":2017,"Ġ30":2018,"ung":2019,"Ġsuccess":2020,"top":2021,"Ġschool":2022,"Ġsmall":2023,"Ġprom":2024,"inals":2025,"abor":2026,"Ġcase":2027,"ĠSl":2028,"Ġleading":2029,"ĠNot":2030,"idence":2031,"Ġversion":2032,"Ġpat":2033,"ĠOver":2034,"Ġalso":2035,"orthern":2036,"ĠKerry":2037,"artment":2038,"ij":2039,"outhern":2040,"alk":2041,"Ġchamp":2042,"Ġremain":2043,"ĠFederal":2044,"Ġ17":2045,"ĠCommission":2046,"Ġfollowing":2047,"adr":2048,"Ġvideo":2049,"Ġbroad":2050,"get":2051,"ites":2052,"ait":2053,"Ġhol":2054,"Ġappl":2055,"by":2056,"Ġanal":2057,"Ġdom":2058,"ensive":2059,"Ġarrest":2060,"Ġagreement":2061,"itt":2062,"ĠPlay":2063,"amed":2064,"Ġbest":2065,"uman":2066,"ener":2067,"Ġgood":2068,"ĠSy":2069,"Ġnational":2070,"Ġtax":2071,"ances":2072,"igned":2073,"Ġrise":2074,"ĠJapanese":2075,"Ġbreak":2076,"Ġstar":2077,"ĠRep":2078,"ished":2079,"eth":2080,"Ġtrans":2081,"ugg":2082,"Ġshe":2083,"Ġed":2084,"ute":2085,"Ġpropos":2086,"Ġcapital":2087,"Ġfore":2088,"Ġcond":2089,"ornia":2090,"uce":2091,"mber":2092,"Ġste":2093,"ession":2094,"ĠTV":2095,"Ġproducts":2096,"sc":2097,"ĠTwo":2098,"uro":2099,"Ġeas":2100,"ved":2101,"ĠGeor":2102,"ĠRec":2103,"orts":2104,"ystems":2105,"time":2106,"Ġcre":2107,"Ġbegin":2108,"Ġboth":2109,"rove":2110,"ĠCourt":2111,"owed":2112,"Ġfamil":2113,"Ġwhe":2114,"ĠIv":2115,"ovember":2116,"ways":2117,"Ġfootball":2118,"Ġcustomers":2119,"),":2120,"Ġsol":2121,"Ġcurr":2122,"ape":2123,"ler":2124,"imb":2125,"ads":2126,"Ġregul":2127,"ole":2128,"aster":2129,"Ġgive":2130,"ĠDes":2131,"Ġlik":2132,"Ġaway":2133,"Ġtouch":2134,"ĠPol":2135,"ooks":2136,"Ġ:":2137,"Ġinst":2138,"ĠDef":2139,"OL":2140,"ĠBra":2141,"Ġminister":2142,"Ġdecision":2143,"ĠGl":2144,"ĠArafat":2145,"Ġwell":2146,"Ġforec":2147,"aseball":2148,"Ġouts":2149,"Ġwireless":2150,"ĠYankees":2151,"Ġstep":2152,"Ġfuture":2153,"erman":2154,"ocr":2155,"ont":2156,"Ġplayer":2157,"iversity":2158,"thers":2159,"Th":2160,"Ġperson":2161,"Ġhere":2162,"ĠFrance":2163,"Ġbattle":2164,"Ġmar":2165,"iants":2166,"Ġfinancial":2167,"Ġpolitical":2168,"Ġapprov":2169,"Ġcharges":2170,"ney":2171,"Ġsuch":2172,"ĠSAN":2173,"Ġcrit":2174,"Ġequ":2175,"ĠFir":2176,"Ġresp":2177,"ĠCanadian":2178,"Ġmeeting":2179,"Ġur":2180,"Ġrace":2181,"ĠNovember":2182,"umb":2183,"ĠAm":2184,"Ġmanager":2185,"ren":2186,"Ġforeign":2187,"Ġdue":2188,"ĠHam":2189,"Ġemploy":2190,"uf":2191,"Ġmatch":2192,"Ġscored":2193,"TA":2194,"ension":2195,"MS":2196,"Ġchampion":2197,"RAN":2198,"go":2199,"Ġdigital":2200,"Ġemb":2201,"Ġtold":2202,"Ġexper":2203,"of":2204,"ĠCEO":2205,"Ġcell":2206,"ĠWilliam":2207,"inal":2208,"ĠEU":2209,"Ġengine":2210,"ĠCalifornia":2211,"Ġbeh":2212,"urt":2213,"Pod":2214,"ĠTest":2215,"Ġlist":2216,"Ġlife":2217,"ago":2218,"Ġproble":2219,"ĠProfit":2220,"Ġpull":2221,"Ġresults":2222,"ming":2223,"Ġdiv":2224,"inese":2225,"ering":2226,"Ġloc":2227,"acy":2228,"airman":2229,"Ġreven":2230,"ours":2231,"exas":2232,"rows":2233,"formation":2234,"ric":2235,"adio":2236,"Ġunveil":2237,"ĠBritain":2238,"TE":2239,"ern":2240,"Ġmor":2241,"ĠWin":2242,"Ġissu":2243,"Ġwithout":2244,"Ġchip":2245,"prise":2246,"ĠMichael":2247,"oid":2248,"Ġmer":2249,"ston":2250,"Ġstraight":2251,"Ġseveral":2252,"hens":2253,"Ġwhether":2254,"lam":2255,"eg":2256,"Ġcosts":2257,"enal":2258,"ĠShar":2259,"ĠProfile":2260,"ĠTO":2261,"Ġevery":2262,"Ġsite":2263,"ĠBig":2264,"Ġsaying":2265,"Ġauthor":2266,"ĠNASA":2267,"ift":2268,"Ġtrial":2269,"ĠShares":2270,"estern":2271,"Is":2272,"Ġob":2273,"ĠMore":2274,"ett":2275,"Ġelections":2276,"Ġest":2277,"ĠQuote":2278,"ential":2279,"osp":2280,"Ġsettle":2281,"aps":2282,"Ġchampions":2283,"Ġperform":2284,"most":2285,"ana":2286,"ody":2287,"Ġbecome":2288,"view":2289,"ĠChampionship":2290,"idnapp":2291,"ĠSeries":2292,"ĠEl":2293,"Ġfew":2294,"for":2295,"rown":2296,"ĠPost":2297,"Ġ100":2298,"Ġlittle":2299,"ker":2300,"Ġexpect":2301,"etworks":2302,"IL":2303,"alth":2304,"retary":2305,"ermany":2306,"era":2307,"ĠPat":2308,"ĠMus":2309,"Ġreach":2310,"Ġeight":2311,"Ġmedia":2312,"ĠPe":2313,"ministr":2314,"Ġsk":2315,"ĠCont":2316,"Ġlaunched":2317,"ktop":2318,"Ġopt":2319,"Ġacross":2320,"Ġtrad":2321,"look":2322,"ĠAugust":2323,"Ġplace":2324,"Ġweekend":2325,"Ġmaking":2326,"ĠSch":2327,"ĠVir":2328,"ID":2329,"ĠMed":2330,"change":2331,"Ġpolic":2332,"Ġstrike":2333,"FL":2334,"Ġgreat":2335,"Ġagency":2336,"Ġdoes":2337,"Ġbetter":2338,"aff":2339,"Ġ25":2340,"ĠComputer":2341,"IBM":2342,"Ġrock":2343,"Ġwinning":2344,"ĠChr":2345,"Ġbankrupt":2346,"Ġ0":2347,"Ġown":2348,"Ġlost":2349,"Ġincrease":2350,"ĠGeneral":2351,"ĠCanada":2352,"Sp":2353,"ared":2354,"avy":2355,"Ġtelev":2356,"isk":2357,"ahoo":2358,"the":2359,"Ġrunning":2360,"ection":2361,"Ġquarterly":2362,"Ġneg":2363,"Ġwomen":2364,"ĠMa":2365,"ĠIT":2366,"icket":2367,"ĠTexas":2368,"ues":2369,"Ġhistory":2370,"Ġfire":2371,"Ġanalyst":2372,"iet":2373,"Ġwound":2374,"lex":2375,"aper":2376,"vers":2377,"ane":2378,"enior":2379,"Ġcontrol":2380,"akers":2381,"Ġusing":2382,"Ġpres":2383,"AC":2384,"ĠNet":2385,"Ġreac":2386,"ived":2387,"ĠSpace":2388,"ĠSing":2389,"Ġhealth":2390,"IA":2391,"Ġclear":2392,"asts":2393,"ĠWireless":2394,"Ġconsumer":2395,"Ġhostage":2396,"Ġvote":2397,"\\\\":2398,"Ġanti":2399,"Ġlikely":2400,"pected":2401,"Ġtaking":2402,"Ġpriv":2403,"icans":2404,"Ġchall":2405,"Ġhopes":2406,"field":2407,"ather":2408,"ĠAfghanistan":2409,"oint":2410,"Ġfield":2411,"ode":2412,"ousands":2413,"ories":2414,"Ġcome":2415,"Ġmanagement":2416,"Ġbelie":2417,"iles":2418,"ĠPer":2419,"Ġstat":2420,"Ġsame":2421,"Ġfans":2422,"Ġless":2423,"ament":2424,"Ġpoll":2425,"Ġattem":2426,"urance":2427,"ĠChinese":2428,"ĠiPod":2429,"Ġwarned":2430,"ufact":2431,"Ġsee":2432,"ĠStri":2433,"lier":2434,"adium":2435,"ience":2436,"ĠAtt":2437,"Ġ24":2438,"ondon":2439,"ĠIslam":2440,"ev":2441,"ona":2442,"ĠDepartment":2443,"Ġjump":2444,"itz":2445,"Ġboard":2446,"reen":2447,"oti":2448,"Ġbarrel":2449,"Ġmembers":2450,"ganiz":2451,"Sh":2452,"td":2453,"we":2454,"Ġlawsu":2455,"UN":2456,"Ġsum":2457,"Ġfeat":2458,"Ġchild":2459,"ĠWilliams":2460,"HE":2461,"Ġshot":2462,"ĠMac":2463,"Ġaccused":2464,"Ġshowed":2465,"LE":2466,"ĠDel":2467,"Ġtoward":2468,"Ġdr":2469,"lant":2470,"ĠHol":2471,"Ġamong":2472,"Ġtouchdown":2473,"Ġfar":2474,"Ġdist":2475,"ĠJe":2476,"etro":2477,"Ġmorning":2478,"ĠDavid":2479,"--":2480,"ication":2481,"ule":2482,"ĠPart":2483,"Ġve":2484,"Ġdid":2485,"Ġled":2486,"ĠGermany":2487,"ified":2488,"ĠThis":2489,"Ġoperating":2490,"Ġrates":2491,"Ġask":2492,"Oil":2493,"cil":2494,"ĠTal":2495,"ĠEast":2496,"Ġconfir":2497,"Ġposted":2498,"Bl":2499,"Ind":2500,"ele":2501,"Ġshar":2502,"ĠBay":2503,"Ġexplos":2504,"Ġ21":2505,"Ġent":2506,"Ġpo":2507,"Ġfull":2508,"ĠDemocr":2509,"leged":2510,"Ġdrop":2511,"Ġseek":2512,"aking":2513,"Ġaction":2514,"itive":2515,"ĠCong":2516,"Ġgas":2517,"Ġvir":2518,"ĠChief":2519,"Ġclub":2520,"Ġfuel":2521,"uses":2522,"ĠHurricane":2523,"olution":2524,"Ġbehind":2525,"set":2526,"Ġfoc":2527,"Ġprison":2528,"ĠUniversity":2529,"Ġmedal":2530,"Ġamid":2531,"An":2532,"Ġaccess":2533,"Ġtakes":2534,"Ġmilitants":2535,"Ġpossible":2536,"ĠRet":2537,"porate":2538,"que":2539,"ino":2540,"Ġball":2541,"ĠJust":2542,"draw":2543,"ota":2544,"ĠWe":2545,"vey":2546,"Ġvisit":2547,"zil":2548,"icago":2549,"Ġgoing":2550,"ĠLondon":2551,"Ġviolence":2552,"ĠSearch":2553,"ĠNations":2554,"Ġrate":2555,"Ġtoo":2556,"Ġwins":2557,"ĠLead":2558,"Ġclaims":2559,"yo":2560,"ĠMo":2561,"ately":2562,"ĠBill":2563,"ges":2564,"osing":2565,"band":2566,"ined":2567,"itions":2568,"amb":2569,"Ġbring":2570,"Ġmid":2571,"Ġtrading":2572,"ĠGold":2573,"Ġappear":2574,"reas":2575,"Ġsem":2576,"Ġinformation":2577,"Ġwatch":2578,"ĠPaul":2579,"Ġrepl":2580,"raud":2581,"Ġemer":2582,"Ġactiv":2583,"Ġcash":2584,"ready":2585,"Ġvot":2586,"ENS":2587,"ĠAfrica":2588,"ĠJan":2589,"Ġhuman":2590,"ĠFranc":2591,"ald":2592,"Ġbegan":2593,"Ġland":2594,"ĠTur":2595,"ĠStocks":2596,"asser":2597,"Ġcrude":2598,"Ġinfl":2599,"ening":2600,"ĠGerman":2601,"Ġphones":2602,"ĠLou":2603,"cast":2604,"ena":2605,"Ġtool":2606,"ouston":2607,"ĠMart":2608,"ĠFRAN":2609,"Ġcame":2610,"ONT":2611,"Ġinjured":2612,"ĠAthens":2613,"Ġel":2614,"ĠChe":2615,"Ġchang":2616,"Ġdoc":2617,"oes":2618,"ourn":2619,"Ġsim":2620,"ama":2621,"ĠFed":2622,"ĠLtd":2623,"ouncil":2624,"ĠChar":2625,"ĠFalluj":2626,"ĠSm":2627,"ĠHouse":2628,"Ġalmost":2629,"andid":2630,"Ġscientists":2631,"Ġgot":2632,"ĠHow":2633,"Ġvo":2634,"ivil":2635,"Ġsigned":2636,"inc":2637,"ĠSen":2638,"Ġtakeover":2639,"Ġbankruptcy":2640,"Ġpopular":2641,"Ex":2642,"BS":2643,"ption":2644,"Ġmass":2645,"ĠJu":2646,"Ġchange":2647,"Ġdoub":2648,"raph":2649,"Ġprofits":2650,"Ġhelped":2651,"6666":2652,"ministration":2653,"eles":2654,"AD":2655,"run":2656,"Ġsenior":2657,"owl":2658,"Ġoffering":2659,"Ġtelevision":2660,"ĠWhen":2661,"ĠSony":2662,"Ġmess":2663,"Ġpush":2664,"Ġreal":2665,"Ġsoldiers":2666,"ĠMuslim":2667,"ĠJones":2668,"Ġsaf":2669,"Ġthose":2670,"Ġrequ":2671,"ĠChicago":2672,"ources":2673,"oring":2674,"Ġnine":2675,"ĠRy":2676,"Ġalleged":2677,"Ġcontin":2678,"UR":2679,"ĠHar":2680,"Ġconfer":2681,"Ġold":2682,"ĠSales":2683,"Ġdied":2684,"ĠSecretary":2685,"wan":2686,"wide":2687,"Ġhot":2688,"Ġenergy":2689,"apons":2690,"Ġlevel":2691,"Ġended":2692,"icks":2693,"ĠHouston":2694,"rust":2695,"urch":2696,"ĠDeal":2697,"Ġintrod":2698,"Ġcarri":2699,"VD":2700,"ring":2701,"ecutive":2702,"Ġ199":2703,"asing":2704,"Ġsoon":2705,"ĠSu":2706,"Ġjudge":2707,"Ġmet":2708,"Ġunit":2709,"ĠArs":2710,"Ġproduct":2711,"Ġsource":2712,"ece":2713,"Ġcareer":2714,"anks":2715,"Ġunt":2716,"okes":2717,"gypt":2718,"Ġver":2719,"151":2720,"vious":2721,"Ġsing":2722,"Ġfact":2723,"Ġstorm":2724,"Ġearlier":2725,"Ġproduction":2726,"Ġstudy":2727,"Ġnegoti":2728,"Ġparty":2729,"icide":2730,"Ġnorthern":2731,"ĠRob":2732,"ĠGames":2733,"ream":2734,"Ġkidnapp":2735,"aces":2736,"ronics":2737,"HENS":2738,"UP":2739,"ĠMer":2740,"aced":2741,"Ġcuts":2742,"Ġgain":2743,"Ġfur":2744,"Ġmoney":2745,"ĠAirways":2746,"comm":2747,"ĠSP":2748,"ĠAfrican":2749,"Ġrevenue":2750,"Ġheart":2751,"anches":2752,"Ġmanufact":2753,"Ġsouthern":2754,"ĠSpain":2755,"ealth":2756,"Ġopening":2757,"ĠAtlant":2758,"Ġyet":2759,"yn":2760,"Ġbill":2761,"Ġcapt":2762,"utch":2763,"ĠIndones":2764,"ĠCub":2765,"ashed":2766,"Ġmust":2767,"ĠNext":2768,"ander":2769,"Ġpitch":2770,"Ġgets":2771,"isis":2772,"ĠCons":2773,"ĠDown":2774,"ĠOlympics":2775,"isc":2776,"urd":2777,"Ġsuff":2778,"Ġefforts":2779,"Ġdraw":2780,"ĠATHENS":2781,"YO":2782,"iron":2783,"undred":2784,"Ġlet":2785,"ĠOnline":2786,"ĠFRANC":2787,"Ġinit":2788,"Ġalready":2789,"Ġple":2790,"Ġpubl":2791,"expected":2792,"Ġannounce":2793,"ospital":2794,"ining":2795,"Ġweb":2796,"press":2797,"unt":2798,"ĠService":2799,"Ġter":2800,"Ġfre":2801,"ety":2802,"Ġperformance":2803,"ĠAmericans":2804,"Ġfast":2805,"Ġpot":2806,"Ġmat":2807,"Ġforce":2808,"Ġshut":2809,"Ġconcerns":2810,"Ġdefense":2811,"asket":2812,"ĠRo":2813,"ISCO":2814,"SE":2815,"eing":2816,"ym":2817,"Ġmult":2818,"Ġsched":2819,"Ġcalls":2820,"resh":2821,"Google":2822,"Ġconference":2823,"Ġfe":2824,"ĠAN":2825,"Ġgave":2826,"Ġcountries":2827,"Ġcorporate":2828,"ĠAssociation":2829,"Ġpersonal":2830,"Ġrej":2831,"ĠBlack":2832,"enger":2833,"ille":2834,"ĠTra":2835,"Ġgeneral":2836,"Ġaccount":2837,"reme":2838,"ya":2839,"Ġhours":2840,"ĠVirgin":2841,"ĠMars":2842,"Ġseem":2843,"ĠFRANCISCO":2844,"ĠReal":2845,"Ġmakes":2846,"Bush":2847,"wood":2848,"une":2849,"Ġforecast":2850,"Ġnet":2851,"Ġrecover":2852,"KYO":2853,"vert":2854,"iance":2855,"okyo":2856,"ĠReserve":2857,"Ġtrying":2858,"ĠCH":2859,"Ġwithdraw":2860,"Ġmarkets":2861,"Ġcurrent":2862,"olf":2863,"Ġconv":2864,"ĠCommunications":2865,"Ġcivil":2866,"Ġenough":2867,"anced":2868,"Ġaid":2869,"ĠCle":2870,"mir":2871,"Ġsug":2872,"ĠAst":2873,"ĠTOKYO":2874,"Ġoutside":2875,"ĠLouis":2876,"Mart":2877,"ĠSystems":2878,"ĠIf":2879,"unity":2880,"ĠHold":2881,"Ġconsider":2882,"Ġlegal":2883,"Ġexpand":2884,"Ġsn":2885,"Ġsale":2886,"Ġtow":2887,"Ġgrowing":2888,"iddle":2889,"rong":2890,"Ġport":2891,"Ġden":2892,"Ġqualif":2893,"Ġcomputers":2894,").":2895,"No":2896,"ĠCouncil":2897,"Ġwithin":2898,"Ġyards":2899,"China":2900,"aq":2901,"Ġready":2902,"rial":2903,"ily":2904,"Ġleague":2905,"Ġstake":2906,"Iraq":2907,"ayed":2908,"occer":2909,"ĠAnn":2910,"utin":2911,"Ġstop":2912,"ĠGeorge":2913,"tor":2914,"ually":2915,"ĠLos":2916,"Ġunion":2917,"ically":2918,"Stocks":2919,"Ġreached":2920,"Ġcontinue":2921,"ds":2922,"ront":2923,"Ġavail":2924,"Ġaimed":2925,"ĠNFL":2926,"Ġteams":2927,"Ġreve":2928,"rap":2929,"Ġarrested":2930,"Ġ23":2931,"Ġuntil":2932,"14":2933,"Canad":2934,"Ġcandid":2935,"Ġairline":2936,"Ġothers":2937,"utes":2938,"ple":2939,"Ġben":2940,"ĠAsia":2941,"Ġrebels":2942,"Ġopposition":2943,"ĠMiss":2944,"ĠKill":2945,"ĠArab":2946,"ender":2947,"Ġlift":2948,"ĠInter":2949,"Ġdefeat":2950,"Ġlocal":2951,"lege":2952,"ĠEnd":2953,"Ġsystems":2954,"ĠGrand":2955,"Ġfile":2956,"Ġcoll":2957,"Ġlo":2958,"Ġrep":2959,"rian":2960,"Ġprepar":2961,"Ġcop":2962,"Ġweapons":2963,"ulation":2964,"Ġ22":2965,"Ġslow":2966,"ertain":2967,"iami":2968,"Ġtaken":2969,"Ġcharged":2970,"Ġinvol":2971,"For":2972,"ĠGiants":2973,"Ġanalysts":2974,"CP":2975,"ishing":2976,"Ġeffort":2977,"anchester":2978,"Ġcompetition":2979,"Ġwrit":2980,"Ġrally":2981,"SP":2982,"enge":2983,"aud":2984,"bus":2985,"inks":2986,"Ġinsurg":2987,"FONT":2988,"orage":2989,"Ġquestion":2990,"oung":2991,"Ġstarting":2992,"Ġcontinued":2993,"Israel":2994,"12":2995,"EM":2996,"ĠThey":2997,"Ġfailed":2998,"Ġauthorities":2999,"ĠChrist":3000,"ault":3001,"aled":3002,"Ġspokes":3003,"Ġblock":3004,"Ġsuppl":3005,"asketball":3006,"ĠAirlines":3007,"ĠBrazil":3008,"Ġchampionship":3009,"ĠYasser":3010,"Ġsuper":3011,"uary":3012,"Ġfav":3013,"Ġwants":3014,"Ġeach":3015,"Ġarriv":3016,"Ġcentral":3017,"ĠBusiness":3018,"iven":3019,"ipped":3020,"Ġcoun":3021,"ĠTro":3022,"Ġonce":3023,"using":3024,"iffer":3025,"Ġprevious":3026,"Ġpract":3027,"Ġretailer":3028,"mar":3029,"Ġoffice":3030,"Ġdeliver":3031,"uge":3032,"held":3033,"oto":3034,"Ġdouble":3035,"Ġeuro":3036,"ability":3037,"Ġfinally":3038,"ĠAgain":3039,"Ġpos":3040,"Ġevent":3041,"Ġdisput":3042,"ĠBAG":3043,"Ġaff":3044,"ĠMadr":3045,"ĠBack":3046,"Ġsuggest":3047,"Ġspecial":3048,"ails":3049,"Russ":3050,"ĠDVD":3051,"Ġspending":3052,"bit":3053,"Ġfresh":3054,"Ġthousands":3055,"Ġdomin":3056,"icip":3057,"imate":3058,"Ġdownlo":3059,"Ġfiled":3060,"Ġfurther":3061,"ĠTHE":3062,"Ġinvestment":3063,"ĠItalian":3064,"comp":3065,"Ġraised":3066,"Ġfig":3067,"ims":3068,"DAD":3069,"IR":3070,"Ġrebel":3071,"ournal":3072,"Re":3073,"nes":3074,"tal":3075,"ĠMos":3076,"Ġquarterback":3077,"HDAD":3078,"tered":3079,"gers":3080,"han":3081,"ĠSet":3082,"Ġseen":3083,"Ġexecutives":3084,"ĠDavis":3085,"UL":3086,"ĠMadrid":3087,"kins":3088,"Ġpack":3089,"Ġhands":3090,"ellite":3091,"ĠFrancisco":3092,"ĠBAGHDAD":3093,"Ġcenter":3094,"ĠIvan":3095,"Ġsat":3096,"ĠSoftware":3097,"Ġdam":3098,"right":3099,"rich":3100,"Ġgun":3101,"onds":3102,"cing":3103,"Ġey":3104,"ĠNiger":3105,"30":3106,"ĠTit":3107,"Ġoperations":3108,"Ġpressure":3109,"ĠCent":3110,"phone":3111,"ĠManchester":3112,"Ġfamily":3113,"HL":3114,"ĠYahoo":3115,"Ġroll":3116,"Ġ2006":3117,"sue":3118,"Ġside":3119,"Ġpred":3120,"order":3121,"ollars":3122,"Ġcred":3123,"Ġstrugg":3124,"News":3125,"mark":3126,"Ġ27":3127,"Ġcrisis":3128,"Ġdesigned":3129,"Ġ50":3130,"Ġinjury":3131,"Ġlooking":3132,"ĠAut":3133,"ĠTop":3134,"ĠMiami":3135,"Ġenv":3136,"Ġpotential":3137,"ead":3138,"add":3139,"ĠStadium":3140,"rovers":3141,"ĠEarth":3142,"Ġdrive":3143,"aded":3144,"Ġground":3145,"ĠEgypt":3146,"ounds":3147,"Ġmon":3148,"Ġhits":3149,"ĠInvest":3150,"ĠPrices":3151,"Ġtravel":3152,"unes":3153,"Ġcoming":3154,"icted":3155,"asters":3156,"Ġspeed":3157,"ĠGreen":3158,"11":3159,"Ġsize":3160,"illeg":3161,"ĠHel":3162,"ĠFormer":3163,"liam":3164,"Ġ,":3165,"ĠBowl":3166,"ĠArmy":3167,".'":3168,"acing":3169,"Ġcomb":3170,"okia":3171,"Ġwent":3172,"ico":3173,"ĠTech":3174,"Ġgains":3175,"hib":3176,"Ġfraud":3177,"obe":3178,"ĠXP":3179,"liament":3180,"lom":3181,"ĠBro":3182,"ĠFrom":3183,"Ġrisk":3184,"ĠFirst":3185,"part":3186,"ural":3187,"Ġgener":3188,"Ġrights":3189,"Ġtrack":3190,"anked":3191,"Ġruling":3192,"Ġallow":3193,"undreds":3194,"Ġdon":3195,"Ġval":3196,"ipment":3197,"hest":3198,"iding":3199,"ĠDon":3200,"Ġtalk":3201,"ilt":3202,"eck":3203,"Ġgoal":3204,"Ġlarge":3205,"Ġpolicy":3206,"FT":3207,"Pal":3208,"urities":3209,"ĠBel":3210,"Ġdesktop":3211,"Ġdollars":3212,"Ġgetting":3213,"post":3214,"irc":3215,"verage":3216,"Ġchairman":3217,"men":3218,"Ġchips":3219,"ĠCenter":3220,"aged":3221,"ĠCoast":3222,"ĠThat":3223,"Ġinsurance":3224,"Ġpil":3225,"ĠTor":3226,"Ġstore":3227,"tors":3228,"ashes":3229,"aves":3230,"Ġsupply":3231,"opping":3232,"Ġchildren":3233,"Ġthen":3234,"arz":3235,"ĠPrem":3236,"ention":3237,"aging":3238,"porters":3239,"ĠExchange":3240,"ĠArsenal":3241,"itor":3242,"DATE":3243,"Ġprotest":3244,"rowser":3245,"thlet":3246,"ĠJob":3247,"Ġspot":3248,"ĠWhite":3249,"CC":3250,"ze":3251,"roll":3252,"ells":3253,"Ġspam":3254,"Ġcharge":3255,"Ġbenef":3256,"ĠAM":3257,"oman":3258,"cept":3259,"ably":3260,"uced":3261,"Fr":3262,"month":3263,"elta":3264,"Ġholiday":3265,"Ġname":3266,"Ġannual":3267,"Ġnever":3268,"Ġpowerful":3269,"Ġfears":3270,"Ġwant":3271,"icit":3272,"Ġstrate":3273,"ĠBlair":3274,"Ġtw":3275,"reland":3276,"Ġbeg":3277,"ĠPower":3278,"Ġworking":3279,"Ġproblems":3280,"Com":3281,"Ġtreat":3282,"ĠIP":3283,"ĠPac":3284,"ĠThere":3285,"illa":3286,"anger":3287,"Ġdiscuss":3288,"Ġinvestigation":3289,"elebr":3290,"icial":3291,"oper":3292,"Ġ28":3293,"Ġprime":3294,"Ġprovide":3295,"iber":3296,"Ġilleg":3297,"arra":3298,"Ġcanc":3299,"Ġpick":3300,"ĠMal":3301,"Ġfighting":3302,"ĠTom":3303,"uff":3304,"Ġident":3305,"alled":3306,"ĠAcc":3307,"itness":3308,"urning":3309,"Ġfired":3310,"hy":3311,"me":3312,"illing":3313,"rief":3314,"ĠVi":3315,"Ġbusinesses":3316,"kra":3317,"ĠNow":3318,"ula":3319,"Ġvol":3320,"Ġselling":3321,"ĠAngeles":3322,"OM":3323,"maker":3324,"ype":3325,"ĠCap":3326,"Ġplayoff":3327,"500":3328,"ceed":3329,"osed":3330,"Ġtimes":3331,"ĠPark":3332,"ailed":3333,"game":3334,"Ġsurvey":3335,"Ġtour":3336,"Ġdriv":3337,"rize":3338,"Ph":3339,"Ġheavy":3340,"ĠTrade":3341,"Ġattempt":3342,"IM":3343,"IP":3344,"Ġdisapp":3345,"aiwan":3346,"Ġrivals":3347,"NE":3348,"ĠTony":3349,"ĠMor":3350,"ria":3351,"ronic":3352,"Ġplanned":3353,"ĠPlan":3354,"Ġhope":3355,"ĠLaw":3356,"Ġweak":3357,"Ġexpectations":3358,"Ġavailable":3359,"Ġes":3360,"Ġarmy":3361,"ĠTokyo":3362,"ĠPM":3363,"ploy":3364,"ĠAsian":3365,"Ġcour":3366,"Ġchance":3367,";,":3368,"ĠEc":3369,"ennis":3370,"miss":3371,"sw":3372,"ĠCard":3373,"ifth":3374,"Ġrules":3375,"Ġsom":3376,"Ġbaseball":3377,"ĠMusic":3378,"ference":3379,"ukos":3380,"Ġprivate":3381,"ĠHew":3382,"ctions":3383,"anish":3384,"Ġdro":3385,"oming":3386,"ĠMe":3387,"ĠWins":3388,"Ġconsumers":3389,"ĠThree":3390,"merc":3391,"Ġdecided":3392,"Ġknown":3393,"Ġpoint":3394,"ĠShe":3395,"ords":3396,"eattle":3397,"ĠEnter":3398,"ĠRyder":3399,"echnologies":3400,"EU":3401,"ruct":3402,"ĠTour":3403,"overed":3404,"Ġblast":3405,"asd":3406,"Ġnamed":3407,"Ġflight":3408,"ĠExpl":3409,"Ġruns":3410,"ĠPalestinians":3411,"Ġdevelopment":3412,"asdaq":3413,"Ġterm":3414,"Ġhospital":3415,"Ġstores":3416,"Ġdiffer":3417,"Ġimport":3418,"ixed":3419,"Ġorder":3420,"ĠIslamic":3421,"ĠFire":3422,"ĠDrug":3423,"Ġworth":3424,"Ġimprove":3425,"Ġmissing":3426,"Ar":3427,"ume":3428,"awi":3429,"ini":3430,"Ġradio":3431,"oys":3432,"Ġunveiled":3433,"stit":3434,"ĠPay":3435,"ĠPort":3436,"agu":3437,"oreign":3438,"ackers":3439,"Ġabove":3440,"Ġapproved":3441,"ĠTalks":3442,"Ġconfirmed":3443,"World":3444,"anium":3445,"owell":3446,"Ġappeal":3447,"UPDATE":3448,"mo":3449,"ĠMil":3450,"Ġknow":3451,"mercial":3452,"ĠKen":3453,"actor":3454,"Ġasked":3455,"Ġbody":3456,"Ġwarning":3457,"UK":3458,"Ġprob":3459,"egr":3460,"Ġcrow":3461,"Ġleave":3462,"ĠExp":3463,"vention":3464,"Ġregulators":3465,"Ġtourn":3466,"Ġmort":3467,"ction":3468,"One":3469,"Ġhouse":3470,"ope":3471,"Ġfocus":3472,"NY":3473,"TS":3474,"ashmir":3475,"atives":3476,"Ġbird":3477,"Ġsepar":3478,"ĠParis":3479,"Col":3480,"MC":3481,"ently":3482,"ĠWal":3483,"ushed":3484,"ĠStock":3485,"20":3486,"ĠIreland":3487,"illions":3488,"ained":3489,"Ġ26":3490,"Ġsuicide":3491,"che":3492,"uit":3493,"Ġgra":3494,"Ġconn":3495,"ĠProt":3496,"MW":3497,"olph":3498,"Ġrising":3499,"Ġview":3500,"Ġcontrovers":3501,"ĠSharon":3502,"Un":3503,"ĠAdv":3504,"hic":3505,"Ġprobe":3506,"Ġarea":3507,"rought":3508,"ving":3509,"Ġshows":3510,"Ġlawsuit":3511,"ĠSur":3512,"term":3513,"Ġspe":3514,"Ġsuspected":3515,"Ġcolor":3516,"uments":3517,"ĠVer":3518,"Ġ2003":3519,"Ġcard":3520,"Ġissue":3521,"ĠAnt":3522,"Ġsharehold":3523,"Ġfirms":3524,"ination":3525,"elph":3526,"Ġlight":3527,"beat":3528,"Ġcelebr":3529,"Ġ40":3530,"Ġcaptain":3531,"Ġemployees":3532,"ĠLaun":3533,"light":3534,"AGO":3535,"ĠDecember":3536,"Japan":3537,"Ġmag":3538,"Ġthink":3539,"ĠRock":3540,"Ġdebt":3541,"ĠBuy":3542,"ganization":3543,"alls":3544,"Ġacquis":3545,"Ġposition":3546,"ĠNBA":3547,"ively":3548,"ify":3549,"season":3550,"Ġlater":3551,"Ġclaimed":3552,"Ġturned":3553,"Ġmerger":3554,"itors":3555,"Ġcomplet":3556,"Ġincreased":3557,".\"":3558,"Ġsqu":3559,"ĠWork":3560,"Ġstay":3561,"nesota":3562,"Austral":3563,"Ġoffers":3564,"ĠTeam":3565,"ĠMotor":3566,"pan":3567,"Ġhapp":3568,"ĠLa":3569,"andal":3570,"200":3571,"kes":3572,"ĠMike":3573,"Ġnewsp":3574,"ny":3575,"Ġsites":3576,"Ġbad":3577,"ocked":3578,"Ġgroups":3579,"Ġmoved":3580,"Ġcloser":3581,"etroit":3582,"ĠCongress":3583,"ironment":3584,"ease":3585,"ĠSeattle":3586,"ĠKashmir":3587,"Ġserver":3588,"Ġissues":3589,"App":3590,"ĠMex":3591,"Ġlink":3592,"ĠRich":3593,"Ġeffect":3594,"Ġadded":3595,"Ġmission":3596,"Ġprop":3597,"Ġappro":3598,"Intel":3599,"bo":3600,"Ġgiven":3601,"istry":3602,"ĠMont":3603,"Ġadministration":3604,"Ġequipment":3605,"ĠSo":3606,"iracy":3607,"ĠForeign":3608,"ĠCan":3609,"Ġalong":3610,"Ġrow":3611,"Ġlosses":3612,"ĠBE":3613,"Ġgiving":3614,"ĠRod":3615,"ibility":3616,"itional":3617,"ilities":3618,"Ġdevices":3619,"Ġurged":3620,"ĠStrip":3621,"sea":3622,"Ġspokesman":3623,"elphia":3624,"anted":3625,"Ġwater":3626,"Ġroad":3627,"Ġopened":3628,"Canadian":3629,"ĠIts":3630,"ires":3631,"Ġoutlook":3632,"Brit":3633,"CBS":3634,"iplom":3635,"Ġupgr":3636,"ĠSteve":3637,"ĠFallujah":3638,"ten":3639,"ĠDay":3640,"ĠData":3641,"Ġproject":3642,"coming":3643,"Red":3644,"craft":3645,"uting":3646,"Ġappar":3647,"ĠItaly":3648,"Ġfront":3649,"inger":3650,"eath":3651,"Ġreceived":3652,"ĠMinnesota":3653,"Ġtown":3654,"uries":3655,"wards":3656,"cc":3657,"yle":3658,"ilty":3659,"Ġdest":3660,"lywood":3661,"ockey":3662,"Ġslight":3663,"Ġapplications":3664,"ps":3665,"eric":3666,"ĠRise":3667,"Ġcomes":3668,"Ġrole":3669,"ED":3670,"ĠUs":3671,"HP":3672,"ĠTim":3673,"ĠIr":3674,"ĠBomb":3675,"Ġlim":3676,"iring":3677,"Ġstation":3678,"Ġstaff":3679,"eather":3680,"Ġdivision":3681,"CA":3682,"Ġpurch":3683,"ĠJohnson":3684,"Ġcreate":3685,"bn":3686,"ĠMS":3687,"ĠMy":3688,"Ġthough":3689,"Ġwinter":3690,"Ġavoid":3691,"yc":3692,"ĠPri":3693,"ĠField":3694,"Ġpartners":3695,"Ġmilitant":3696,"atory":3697,"Ġcou":3698,"ĠDo":3699,"ĠIndust":3700,"new":3701,"Ġimprov":3702,"helsea":3703,"Ġtournament":3704,"Ġbased":3705,"ĠTime":3706,"Ġunc":3707,"Ġdidn":3708,"uled":3709,"orney":3710,"ĠSingh":3711,"ford":3712,"Ġbrowser":3713,"Ġresearchers":3714,"ĠBoeing":3715,"ĠSil":3716,"ĠBang":3717,"ĠDutch":3718,"lection":3719,"ĠForm":3720,"ĠVal":3721,"ĠDemocratic":3722,"oma":3723,"Ġautom":3724,"ĠDetroit":3725,"ova":3726,"Ġterrorism":3727,"Ġwounded":3728,"ever":3729,"lish":3730,"Ġwid":3731,"ids":3732,"Ġpros":3733,"ences":3734,"ajaf":3735,"strong":3736,"Ġdrugs":3737,"ĠMobile":3738,"ĠFootball":3739,"enez":3740,"AK":3741,"ĠSome":3742,"ĠJuly":3743,"ĠIN":3744,"ĠWi":3745,"Ġcommercial":3746,"assic":3747,"ĠGreece":3748,"Ġjoint":3749,"Ġsingle":3750,"ĠAtlanta":3751,"west":3752,"Ġpri":3753,"Ġstorage":3754,"Ġcarry":3755,"tainment":3756,"Ġfaces":3757,"Ġforward":3758,"Ġcompl":3759,"igns":3760,"Factor":3761,"NA":3762,"onto":3763,"ĠHait":3764,"wa":3765,"ĠTaiwan":3766,"elling":3767,"ĠJanuary":3768,"Ġfifth":3769,"Ġovers":3770,"read":3771,"iller":3772,"play":3773,"ĠVirginia":3774,"LAN":3775,"Ġnetworks":3776,"Ġdecl":3777,"GA":3778,"Ġable":3779,"ĠShi":3780,"Ġserious":3781,"Ġestim":3782,"ĠSol":3783,"unk":3784,"Ġsigns":3785,"ĠZeal":3786,"ICAGO":3787,"ijing":3788,"ĠAstros":3789,"arzai":3790,"gage":3791,"Ġton":3792,"ĠWoods":3793,"Ġstreak":3794,"ĠYou":3795,"ittee":3796,"Ġexperts":3797,"25":3798,"Ġtight":3799,"aches":3800,"ĠLong":3801,"ĠCharg":3802,"Ġplayed":3803,"Ġcheck":3804,"vet":3805,"ĠMilit":3806,"ellig":3807,"ĠCHICAGO":3808,"igan":3809,"ĠNear":3810,"than":3811,"pres":3812,"Ġdistrib":3813,"kn":3814,"urb":3815,"Ġlosing":3816,"Ġquick":3817,"Ġsouth":3818,"Ġbasketball":3819,"ĠLabor":3820,"Ġsex":3821,"Ġsurv":3822,"pro":3823,"Ġwild":3824,"ĠDell":3825,"ĠGo":3826,"Ġclin":3827,"Ġmeas":3828,"Ġcritic":3829,"Ġinitial":3830,"ĠZealand":3831,"ĠHen":3832,"ĠIns":3833,"Amer":3834,"atform":3835,"ental":3836,"ĠMic":3837,"ĠBob":3838,"ager":3839,"Ġblood":3840,"inn":3841,"Ġcam":3842,"Ġmach":3843,"stron":3844,"olina":3845,"ĠRoy":3846,"ĠReb":3847,"Ġminutes":3848,"Ġwoman":3849,"ĠPre":3850,"ival":3851,"Ġproposed":3852,"mas":3853,"Ġsources":3854,"ĠCisco":3855,"ĠDisney":3856,"ĠTw":3857,"Ġincreasing":3858,"Af":3859,"Ġlooks":3860,"ĠNajaf":3861,"epend":3862,"Ġvehic":3863,"Ġalleg":3864,"Ġadvert":3865,"Ġstarted":3866,"anel":3867,"riots":3868,"Ġwhose":3869,"ĠReport":3870,".\\":3871,"Ġq":3872,"eda":3873,"Ġshoot":3874,"Ġruled":3875,"Ġacquire":3876,"ĠMarket":3877,"ĠPolice":3878,"Ġprosecut":3879,"ster":3880,"Ġaud":3881,"Ġmom":3882,"adelphia":3883,"oles":3884,"ĠDev":3885,"Ġoffensive":3886,"Ġprotect":3887,"ĠToronto":3888,"Ġplaying":3889,"ALL":3890,"Ġreview":3891,"Ġstatement":3892,"Al":3893,"Ġty":3894,"Ġboss":3895,"acked":3896,"istic":3897,"Ġholding":3898,"iot":3899,"Ġforced":3900,"ĠBrown":3901,"Ġren":3902,"ĠDeb":3903,"Ġcho":3904,"Ġdebate":3905,"ĠTele":3906,"Ġevidence":3907,"Ġrocket":3908,"orrow":3909,"Ġnorth":3910,"Ġbuilding":3911,"UT":3912,"ville":3913,"Ġsit":3914,"Ġinning":3915,"ĠRog":3916,"ĠDiv":3917,"ewart":3918,"Ġart":3919,"uz":3920,"Ġaverage":3921,"ĠTechnology":3922,"Ġisland":3923,"onduct":3924,"Ġofficer":3925,"angers":3926,"ĠCompany":3927,"Ġaccounting":3928,"Fi":3929,"ĠPit":3930,"Ġguard":3931,"ĠSuper":3932,"Ġhomes":3933,"Ġfood":3934,"ĠHealth":3935,"ĠKorean":3936,"Ġfri":3937,"ada":3938,"dog":3939,"fox":3940,"Ġdeep":3941,"ĠYukos":3942,"assy":3943,"ength":3944,"Ġsuccessful":3945,"FA":3946,"Ġour":3947,"ĠUkra":3948,"Ġleaving":3949,"udy":3950,"Ġdoesn":3951,"aeda":3952,"Ġsan":3953,"ari":3954,"Ġwestern":3955,"ĠFour":3956,"Ġremains":3957,"Ġsuspended":3958,"Ġreturned":3959,"fl":3960,"irl":3961,"ĠSpr":3962,"Ġthreatened":3963,"Ġkidnapped":3964,"icon":3965,"Ġhuge":3966,"Ġhundreds":3967,"ĠCount":3968,"ighest":3969,"Ġbecame":3970,"Ġoffered":3971,"Ġdebut":3972,"Ġtem":3973,"ĠBeijing":3974,"Apple":3975,"Oracle":3976,"Tunes":3977,"aming":3978,"Ġreform":3979,"medi":3980,";.":3981,"Ġbus":3982,"ĠBer":3983,"Ġsett":3984,"Ġseeking":3985,"Ġacquisition":3986,"Ġwitness":3987,"ĠAL":3988,"Ġnon":3989,"udd":3990,"Ġcrash":3991,"ĠSpanish":3992,"ĠBlue":3993,"Ġrejected":3994,"net":3995,"Ġhaving":3996,"agles":3997,"Ġearth":3998,"Ġfilm":3999,"Ġdropped":4000,"IE":4001,"ĠMasters":4002,"Ġmedical":4003,"Wh":4004,"gent":4005,"hio":4006,"ipping":4007,"ĠIndonesia":4008,"ĠMass":4009,"Ġreason":4010,"Ġbeating":4011,"Ġ29":4012,"Ġcleric":4013,";-":4014,"Iran":4015,"come":4016,"ĠTreas":4017,"Ġread":4018,"ulf":4019,"Ġvend":4020,"Ġwinner":4021,"Ġdevice":4022,"augh":4023,"bed":4024,"self":4025,"ĠTy":4026,"ĠHall":4027,"ĠNextel":4028,"ĠEconom":4029,"As":4030,"ients":4031,"ko":4032,"ĠAlex":4033,"enture":4034,"Ġrepres":4035,"Ġgen":4036,"Ġagree":4037,"ĠID":4038,"Ġprovider":4039,"ĠPhiladelphia":4040,"Dollar":4041,"ati":4042,"Ġcode":4043,"Ġparliament":4044,"Bay":4045,"ranked":4046,"iders":4047,"urder":4048,"ĠRecord":4049,"CS":4050,"iar":4051,"serv":4052,"ented":4053,"ansas":4054,"Ġinterim":4055,"Ġchallenge":4056,"Ġsafety":4057,"Ġscandal":4058,"Ġconfl":4059,"Ġhostages":4060,"ĠWarner":4061,"ĠParty":4062,"Ġcarrier":4063,"Ġcrowd":4064,"ux":4065,"Ġsoccer":4066,"Ġfear":4067,"Ġretire":4068,"Ġtroubl":4069,"Ġdirector":4070,"Ġsupplies":4071,"Ġdispute":4072,"elligence":4073,".&":4074,"Ġfly":4075,"ĠMajor":4076,"acec":4077,"thing":4078,"ĠLOS":4079,"pping":4080,"Ġraise":4081,"ĠOffice":4082,"Ġvery":4083,"Ġcourse":4084,"NN":4085,"aut":4086,"astern":4087,"riel":4088,"ĠVo":4089,"Ġrob":4090,"ograph":4091,"gery":4092,"ĠCarolina":4093,"olphins":4094,"Sc":4095,"house":4096,"Ġexpects":4097,"ĠServer":4098,"Ġtotal":4099,"Ġstage":4100,"Ġresult":4101,"Ġdecline":4102,"Ġcontinues":4103,"ĠANG":4104,"Ġcounter":4105,"Mac":4106,"larg":4107,"source":4108,"Ġ\\":4109,"Ġmillions":4110,"Ġthought":4111,"though":4112,"Ġfutures":4113,"lined":4114,"ĠPhilipp":4115,"ma":4116,"Ġpain":4117,"ĠCut":4118,"ĠBeat":4119,"ĠOS":4120,"Ġcontent":4121,"Ġconfidence":4122,"Ġinternet":4123,"acecraft":4124,"yware":4125,"idel":4126,"Ġsave":4127,"Ġship":4128,"Ġplant":4129,"Ġcomple":4130,"ELES":4131,"ĠPCs":4132,"Ġexplosion":4133,"ris":4134,"Ġz":4135,"Ġdiplom":4136,"oud":4137,"urer":4138,"Ġlic":4139,"ĠOak":4140,"ĠStar":4141,"endo":4142,"reek":4143,"Ġdoz":4144,"ĠCardinals":4145,"chen":4146,"iest":4147,"Ġdeficit":4148,"ĠANGELES":4149,",\\":4150,"Ġsend":4151,"Ġwanted":4152,"ĠFund":4153,"ĠFound":4154,"ĠGrow":4155,"Ġbrought":4156,"tery":4157,"Ġenc":4158,"ATO":4159,"Ġsummer":4160,"ĠHoward":4161,"Ġbit":4162,"ĠHis":4163,"Ġpled":4164,"Ġrecently":4165,"Sun":4166,"iling":4167,"ĠChelsea":4168,"oping":4169,"ĠInt":4170,"Ġ35":4171,"Ġgoes":4172,"ificant":4173,"ailand":4174,"ĠGen":4175,"ĠOw":4176,"Ġclimb":4177,"Ġending":4178,"point":4179,"Ġastron":4180,"Ġocc":4181,"Ġrain":4182,"Ġproposal":4183,"Ġchanges":4184,"isl":4185,"ĠDie":4186,"verd":4187,"Ġkept":4188,"iod":4189,"Ġaward":4190,"ado":4191,"ĠDen":4192,"Ġplane":4193,"ĠiTunes":4194,"Ġclosed":4195,"ĠBen":4196,"Ġstates":4197,"Ġchain":4198,"racy":4199,"onstr":4200,"idents":4201,"ĠConference":4202,"ĠMexico":4203,"lad":4204,"ray":4205,"Ġwalk":4206,"Ġpace":4207,"Ġborder":4208,"ĠSant":4209,"ĠDelta":4210,"Ġconsecutive":4211,"ĠSupreme":4212,"ĠServices":4213,"Ġillegal":4214,"ky":4215,"ĠAriz":4216,"Ġnations":4217,"Ġarch":4218,"Ġdesign":4219,"Ġproblem":4220,"audi":4221,"Ġslightly":4222,",\"":4223,"cel":4224,"Ġ.":4225,"oned":4226,"ority":4227,"arn":4228,"alo":4229,"Ġwa":4230,"ĠIm":4231,"Ġservers":4232,"Ġelectronics":4233,"Ġapplication":4234,"bur":4235,"Ġer":4236,"ĠAriel":4237,"ĠBR":4238,"ĠHost":4239,"ĠExt":4240,"ĠCentral":4241,"Ġsending":4242,"Ġciting":4243,"ĠJames":4244,"apore":4245,"Ġdep":4246,"izon":4247,"Ġaircraft":4248,"Ġlawy":4249,"ĠAgainst":4250,"ĠPrix":4251,"enezuel":4252,"NL":4253,"makers":4254,"noon":4255,"ĠTiger":4256,"estic":4257,"umm":4258,"Ġguilty":4259,"Ġissued":4260,"Ġsharply":4261,"ĠChristmas":4262,"100":4263,"Ġsil":4264,"Ġfun":4265,"Ġmy":4266,"ĠTrop":4267,"udget":4268,"Ġcoal":4269,"Ġcommission":4270,"ĠJeff":4271,"Ġund":4272,"owers":4273,"ĠStewart":4274,"Ġfinance":4275,"eban":4276,"Ġscheduled":4277,"ĠSans":4278,"ĠReds":4279,"Ġlonger":4280,"Ġsubs":4281,"ĠGlobal":4282,"OO":4283,"ĠSir":4284,"igning":4285,"ĠFord":4286,"ĠGet":4287,"encies":4288,"Ġcommit":4289,"Ġbelow":4290,"Ġsettlement":4291,"itzer":4292,"ĠSaf":4293,"ĠPutin":4294,"unch":4295,"Ġyoung":4296,"ĠAgency":4297,"Ġconcern":4298,"ara":4299,"ĠTimes":4300,"ĠHome":4301,"Ġkick":4302,"ansion":4303,"Ġimmedi":4304,"Ġstriker":4305,"Ġesc":4306,"Ġnewspaper":4307,"13":4308,"PEC":4309,"hing":4310,"inary":4311,"oses":4312,"ĠCarl":4313,"ĠMedia":4314,"ĠSenate":4315,"GH":4316,"Ġurg":4317,"arial":4318,"iconduct":4319,"Ġmoon":4320,"Ġrange":4321,"rag":4322,"Ġterrorist":4323,"Ġneeds":4324,"high":4325,"Ġsets":4326,"ĠNor":4327,"ĠEver":4328,"ĠStores":4329,"Ġbuying":4330,"ĠElection":4331,"ĠFeder":4332,"Ġbas":4333,"oul":4334,"ĠUr":4335,"ĠKn":4336,"ĠYear":4337,"Ġhimself":4338,"Ġpoor":4339,"inet":4340,"ĠMem":4341,"ĠWay":4342,"ĠDod":4343,"Ġdesc":4344,"force":4345,"Ġimportant":4346,"16":4347,"heast":4348,"enced":4349,"Ġcertain":4350,"ĠNHL":4351,"Ġplatform":4352,"Ġroom":4353,"oxx":4354,"=\"#":4355,"=\"-":4356,"ĠSerif":4357,"helvet":4358,"ĠMichigan":4359,"ĠHollywood":4360,"666666":4361,"verdana":4362,"helvetica":4363,"ĠMicros":4364,"ĠSecurities":4365,"ĠHigher":4366,"Ġfeatures":4367,"Ġsanctions":4368,"Ġcover":4369,"Ġhighest":4370,"omin":4371,"Ġthrew":4372,"Ġlabor":4373,"Ġblow":4374,"Ġmemory":4375,"India":4376,"ĠNets":4377,"Ġcrim":4378,"ĠClassic":4379,"ĠAbu":4380,"ĠRepublic":4381,"ĠDespite":4382,"Ġcopy":4383,"Ġtonight":4384,"Ġupdate":4385,"ĠMotors":4386,"Report":4387,"ĠNigeria":4388,"80":4389,"iation":4390,"ĠRam":4391,"ags":4392,"Ġconc":4393,"Ġvac":4394,"Ġflu":4395,"Ġhostile":4396,"ĠTurkey":4397,"rees":4398,"idge":4399,"earing":4400,"ĠThailand":4401,"ublican":4402,"ĠWhile":4403,"Ġbroadband":4404,"Europe":4405,"kl":4406,"Ġrad":4407,"Ġsector":4408,"Ġwind":4409,"Ġinflation":4410,"Ġtools":4411,"Co":4412,"Ġsports":4413,"Ġthese":4414,"ĠAv":4415,"Ġsaw":4416,"ikely":4417,"ething":4418,"Ġvoters":4419,"Ġrequest":4420,"Ġcredit":4421,"17":4422,"ĠJav":4423,"aily":4424,"Mar":4425,"con":4426,"ĠCase":4427,"Ġran":4428,"Ġafternoon":4429,"Ġjournal":4430,"usharra":4431,"angu":4432,"ĠPeace":4433,"ĠSprint":4434,"usharraf":4435,"Ġcirc":4436,"Ġwel":4437,"Ġinvent":4438,"ĠCamp":4439,"ĠOK":4440,"ORON":4441,"Ġ60":4442,"Ġdeveloped":4443,"Ġcaused":4444,"scri":4445,"Ġcandidate":4446,"Ġtough":4447,"ĠAre":4448,"ĠMP":4449,"Ġsweep":4450,"Ġneeded":4451,"ĠJean":4452,"Ġnegotiations":4453,"Ġrevealed":4454,"Ġfigures":4455,"jects":4456,"Ġwat":4457,"inds":4458,"ĠReg":4459,"Ġpilots":4460,"Ġtoll":4461,"Ġsees":4462,"Ġpublished":4463,"Ġtech":4464,"Ġap":4465,"ani":4466,"Ġbox":4467,"urers":4468,"ĠOhio":4469,"Ġspacecraft":4470,"overs":4471,"lands":4472,"Ġ400":4473,"Ġexplod":4474,"intendo":4475,"ORONTO":4476,"fect":4477,"rad":4478,"Ġseeks":4479,"oric":4480,"stand":4481,"Ġ31":4482,"Ġstruck":4483,"Ġmoves":4484,"ingular":4485,"ĠTORONTO":4486,"omber":4487,"Ġgives":4488,"ĠDou":4489,"Ġdeploy":4490,"umer":4491,"Ġflaw":4492,"Ġsignificant":4493,"Ġfunds":4494,"BER":4495,"Ġlab":4496,"inisters":4497,"Ġuranium":4498,"Ġmurder":4499,"lett":4500,"Ġvs":4501,"Ġfavor":4502,"ĠOakland":4503,"ration":4504,"Ġcreat":4505,"ĠBry":4506,"ĠUt":4507,"Ġplanning":4508,"Ġtraining":4509,"Ġowners":4510,"adesh":4511,"ĠIrish":4512,"uation":4513,"Ġtoget":4514,"Ġexpress":4515,"Ġperiod":4516,"Ġbuilt":4517,"Ġtogether":4518,"mers":4519,"orer":4520,"Ġweather":4521,"ĠEr":4522,"ĠRepublican":4523,"addam":4524,"yard":4525,"Ġtie":4526,"kei":4527,"ikkei":4528,"Ġreduce":4529,"ĠDefense":4530,"ĠHaiti":4531,"ki":4532,"Ġcal":4533,"ĠSE":4534,"Ġhurt":4535,"ĠTake":4536,"Ġitself":4537,"ĠFinancial":4538,"going":4539,"ĠRadio":4540,"ĠLoss":4541,"gress":4542,"Ġdecades":4543,"Ġinsurgents":4544,"AB":4545,"Ġinnings":4546,"ĠNokia":4547,"Ġrule":4548,"ĠLast":4549,"cep":4550,"Ġworst":4551,"ffic":4552,"Ġbombing":4553,"Ġfiles":4554,"Ġbanks":4555,"mitted":4556,"Ġcontroversial":4557,"MP":4558,"alv":4559,"ĠGets":4560,"ĠHit":4561,"ĠHus":4562,"isted":4563,"Ġgoals":4564,"Ġinterview":4565,"Ġ80":4566,"Ġeasy":4567,"ĠVioxx":4568,"Ġconflict":4569,"cow":4570,"Ġsong":4571,"Ġmis":4572,"ĠIS":4573,"Ġpulled":4574,"ĠPatriots":4575,"ĠFormula":4576,"Fed":4577,"Ġbook":4578,"ĠCy":4579,"Ġlay":4580,"ĠRel":4581,"ĠOf":4582,"allas":4583,"Ġlaunches":4584,"Ġmissile":4585,"Ġmovie":4586,"Ġfreed":4587,"Ġshareholders":4588,"here":4589,"rig":4590,"ĠBaseball":4591,"Ġresol":4592,"Ġprograms":4593,"iscal":4594,"Ġpractice":4595,"ĠJobs":4596,"Ġsubsid":4597,"ĠLab":4598,"Ġintegr":4599,"Ġhelping":4600,"Ġoperator":4601,"ĠGeorg":4602,"Ġappeared":4603,"Ġenvironment":4604,"ĠIPO":4605,"iconductor":4606,"Ġtechn":4607,"Ġshopping":4608,"Ġclass":4609,"Ġsecure":4610,"ORE":4611,"ĠEngine":4612,"NYSE":4613,"largest":4614,"rick":4615,"iny":4616,"Ġwide":4617,"ĠSusp":4618,"oteb":4619,"veland":4620,"ĠEnron":4621,"Ġrelations":4622,"annie":4623,"Ġintroduced":4624,"Ġmember":4625,"Ġ(\\$":4626,"imir":4627,"ĠKing":4628,"ĠKong":4629,"Ġbroker":4630,"ĠSwed":4631,"Ġquestions":4632,"Ġrespons":4633,"Russia":4634,"Ġstrategy":4635,"ĠSouthern":4636,"ĠDame":4637,"ifts":4638,"Ġdismiss":4639,"En":4640,"pool":4641,"ror":4642,"icult":4643,"ĠGovernment":4644,"Ġexc":4645,"ĠProd":4646,"Ġtouchdowns":4647,"Ġtack":4648,"ĠTarg":4649,"ĠUnd":4650,"ification":4651,"ĠArizona":4652,"):":4653,"Cl":4654,"mart":4655,"ĠRa":4656,"Ġspent":4657,"merce":4658,"izing":4659,"ancing":4660,"Ġprotection":4661,"Cr":4662,"ery":4663,"ĠCost":4664,"ĠNorthern":4665,"ounts":4666,"Ġworries":4667,"Ġinsp":4668,"ladimir":4669,"Sony":4670,"reed":4671,"ĠST":4672,"Ġlock":4673,"ĠKills":4674,"ĠChairman":4675,"Ġmakers":4676,"Ġprogress":4677,"urricanes":4678,"Ġsatellite":4679,"It":4680,"ĠFree":4681,"ounded":4682,"Ġcalling":4683,"Ġparts":4684,"uke":4685,"Ġthings":4686,"ĠPan":4687,"ĠBonds":4688,"illed":4689,"Ġshowing":4690,"iverpool":4691,"Ġrecovery":4692,"ĠAMD":4693,"ĠMiddle":4694,"Ġprosp":4695,"Ġhel":4696,"Ġenterprise":4697,"Ġdifferent":4698,"ladesh":4699,"Ġauction":4700,"ĠStep":4701,"Ġphot":4702,"Ġassault":4703,"Ġpasses":4704,"ĠMartin":4705,"Ġdamage":4706,"Ġsport":4707,"agement":4708,"ĠInto":4709,"Ġ2000":4710,"Ġdecade":4711,"Ġsurgery":4712,"ĠPlans":4713,"ĠDead":4714,"ĠAbout":4715,"Ġfix":4716,"ĠTenn":4717,"ĠPAR":4718,"ĠDrop":4719,"ulner":4720,"ried":4721,"ements":4722,"ĠJets":4723,"ĠThom":4724,"Ġjail":4725,"Ġsurf":4726,"Ġsurpr":4727,"burgh":4728,"Pakistan":4729,"RA":4730,"Ġcle":4731,"ensions":4732,"Ġwarns":4733,"azon":4734,"ranch":4735,"Ġordered":4736,"ĠCleveland":4737,"Ġdownload":4738,"Ġprobably":4739,"backs":4740,"ios":4741,"ĠAust":4742,"ĠDallas":4743,"ĠLow":4744,"Ġwhy":4745,"ĠKy":4746,"ĠKansas":4747,"ĠVladimir":4748,"venth":4749,"ĠScott":4750,"Ġowner":4751,"Ġpassed":4752,"ĠPakistani":4753,"Ġmoment":4754,"ĠDivision":4755,"ĠNAS":4756,"emb":4757,"Ġisn":4758,"ibr":4759,"Ġtargets":4760,"ĠFla":4761,"Ġoperation":4762,"Ġproducer":4763,"Ġterms":4764,"Ġarrived":4765,"ĠRoger":4766,"Ġpair":4767,"Ġlose":4768,"Ġgather":4769,"uted":4770,"ĠJason":4771,"ucks":4772,"Ġindepend":4773,"zilla":4774,"Ġpit":4775,"poration":4776,"Ġprocessor":4777,"Ġremained":4778,"VER":4779,"week":4780,"Ġcatch":4781,"rain":4782,"ĠOs":4783,"phoon":4784,"Ġseconds":4785,"ĠForce":4786,"Ġbroke":4787,"Ġextended":4788,"Ġdomestic":4789,"Ġapproval":4790,"Ġrepresent":4791,"NASA":4792,"ĠNort":4793,"ighb":4794,"action":4795,"Ġprep":4796,"Ġlegisl":4797,"Ġbeginning":4798,"Ġbelieve":4799,"ĠUkraine":4800,"war":4801,"ĠSaddam":4802,"ola":4803,"ques":4804,"Ġcricket":4805,"CH":4806,"Pl":4807,"ĠKarzai":4808,"ĠFirefox":4809,"ĠMSN":4810,"Ġrenew":4811,"Nasdaq":4812,"Pro":4813,"itrust":4814,"ĠMOS":4815,"ĠRon":4816,"Ġyen":4817,"Ġsurprise":4818,"Ġprevent":4819,"Ġextra":4820,"ĠIvory":4821,"Ġsharp":4822,"ĠMicrosystems":4823,"ality":4824,"Ġpict":4825,"ĠImp":4826,"Ġ49":4827,"ĠEnergy":4828,"Ġmassive":4829,"ĠCubs":4830,"Ġsomething":4831,"Ġcomplete":4832,"Pr":4833,"fire":4834,"ĠTechnologies":4835,"ĠVict":4836,"Ġarg":4837,"ĠOfficial":4838,"aterial":4839,"Ġadvertising":4840,"Ġwrong":4841,"isions":4842,"ackard":4843,"enspan":4844,"Ġ64":4845,"Ġtrain":4846,"Ġrefug":4847,"amsung":4848,"ĠHamas":4849,"Ġshr":4850,"WA":4851,"break":4852,"night":4853,"onents":4854,"Ġcrew":4855,"ĠAct":4856,"ĠMets":4857,"ĠPowell":4858,"utions":4859,"iment":4860,"Ġblack":4861,"Ġimpact":4862,"Ġrelief":4863,"Ġhoping":4864,"Ġbatt":4865,"Ġreplace":4866,"ĠMoscow":4867,"Web":4868,"oor":4869,"ĠCuts":4870,"Ġrank":4871,"ocracy":4872,"ĠKh":4873,"Ġblue":4874,"Ġindic":4875,"Ġbrok":4876,"ĠSteel":4877,"Ġearthqu":4878,"au":4879,"heim":4880,"oura":4881,"abinet":4882,"ĠArgent":4883,"Ġdelay":4884,"ĠSees":4885,"box":4886,"raig":4887,"ĠHits":4888,"ĠEagles":4889,"ĠOkl":4890,"ĠStart":4891,"Ġarm":4892,"Ġcoast":4893,"ackson":4894,"Ġknee":4895,"computer":4896,"Ġdisappoin":4897,"inh":4898,"erem":4899,"ĠSaudi":4900,"ĠMillion":4901,"oshib":4902,"ĠJose":4903,"Ġresc":4904,"ĠClub":4905,"ĠEarnings":4906,"ĠDisc":4907,"Ġtroubled":4908,"CL":4909,"Con":4910,"Ġide":4911,"Ġfiscal":4912,"ĠBalt":4913,"tsburgh":4914,"Ġflat":4915,"Ġ500":4916,"Ġdiscovered":4917,"essional":4918,"JA":4919,"arters":4920,"igers":4921,"ĠJim":4922,"Ġarms":4923,"Ġdeadline":4924,"Ġlawsuits":4925,"Ġvirus":4926,"oshiba":4927,"gency":4928,"ĠSam":4929,"eling":4930,"otion":4931,"Ġcool":4932,"Ġtrip":4933,"Ġcommon":4934,"ĠColin":4935,"Ġpositive":4936,"Two":4937,"finals":4938,"Ġcause":4939,"ĠHot":4940,"ĠLeban":4941,"Ġpromp":4942,"Ġoutput":4943,"Ġamb":4944,"Ġsubscri":4945,"Ġstandard":4946,"richment":4947,"ĠCam":4948,"Ġ2002":4949,"ĠExpress":4950,"ĠAngels":4951,"On":4952,"bes":4953,"Ġathlet":4954,"arian":4955,"Ġcas":4956,"Ġboy":4957,"Ġdone":4958,"ĠFood":4959,"ĠHat":4960,"Ġworldwide":4961,"athon":4962,"Ġtried":4963,"Ġfacing":4964,"Ġstruggling":4965,"CAR":4966,"Packard":4967,"Ġdanger":4968,"elves":4969,"ĠBid":4970,"ĠRises":4971,"awks":4972,"Ġfalling":4973,"ĠQuarter":4974,"Ġexploded":4975,"eals":4976,"ature":4977,"Ġcross":4978,"ĠVenezuel":4979,"Ġintelligence":4980,"ĠRele":4981,"Ġmarketing":4982,"Ġsuit":4983,"ĠScientists":4984,"ĠDevelop":4985,"Ġwounding":4986,"Ġmortgage":4987,"American":4988,"ĠGrowth":4989,"Man":4990,"RO":4991,"ht":4992,"yl":4993,"ĠWestern":4994,"ĠStand":4995,"odies":4996,"ĠPosts":4997,"ĠMae":4998,"Ġveter":4999,"ĠJustice":5000,"aron":5001,"Ġappears":5002,"atings":5003,"ĠExpos":5004,"Ġdemands":5005,"ĠEnglish":5006,"ĠPercent":5007,"Ġties":5008,"Ġsession":5009,"Ġpers":5010,"lew":5011,"ĠCA":5012,"irac":5013,"ĠLank":5014,"Ġcollege":5015,"ĠBoard":5016,"ĠMerck":5017,"24":5018,"dick":5019,"orado":5020,"Ġpaid":5021,"Ġpension":5022,"Ġbase":5023,"ĠDolphins":5024,"ighth":5025,"usted":5026,"ĠFrank":5027,"Ġsurge":5028,"Ġcommun":5029,"Ġmoving":5030,"ĠDesktop":5031,"Ġbenefits":5032,"ĠExplorer":5033,"Tr":5034,"omic":5035,"ĠBat":5036,"Ġlot":5037,"Ġfinish":5038,"Ġadop":5039,"ĠExecutive":5040,"ahoma":5041,"Ġaddress":5042,"ACE":5043,"Ġannouncement":5044,"ĠMary":5045,"ecial":5046,"Ġgreen":5047,"Ġventure":5048,"Ġspark":5049,"ization":5050,"Ġimage":5051,"ĠCrude":5052,"Ġdetails":5053,"Ġwatchdog":5054,"Ġsuffered":5055,"Ġapproach":5056,"erg":5057,"ĠTri":5058,"ĠPen":5059,"ĠGar":5060,"ĠLower":5061,"eman":5062,"ocial":5063,"ĠIraqis":5064,"Ġscore":5065,"Ġhighs":5066,"ĠConn":5067,"Ġdeveloping":5068,"Ġdeadly":5069,"imbab":5070,"PeopleSoft":5071,"ao":5072,"rive":5073,"DAY":5074,"ĠWhat":5075,"Mc":5076,"ums":5077,"ucial":5078,"ĠNotre":5079,"imbabwe":5080,"Don":5081,"Mo":5082,"We":5083,"half":5084,"ias":5085,"aris":5086,"Ġmiles":5087,"imore":5088,"tha":5089,"ĠJune":5090,"istance":5091,"Ġresign":5092,"Ġ2001":5093,"Ġallowed":5094,"efore":5095,"Ġneighb":5096,"erty":5097,"Ġfiling":5098,"Ġsoldier":5099,"ĠHewlett":5100,"Ġcriminal":5101,"ĠUtah":5102,"ued":5103,"inth":5104,"Ġhun":5105,"ĠGulf":5106,"ĠScot":5107,"speed":5108,"ĠSmith":5109,"BI":5110,"ION":5111,"roke":5112,"Ġrap":5113,"ĠHas":5114,"Ġunl":5115,"Ġ34":5116,"awn":5117,"Ġpitcher":5118,"ĠBangladesh":5119,"ĠJava":5120,"Air":5121,"ET":5122,"edd":5123,"real":5124,"ĠSn":5125,"ĠAG":5126,"ĠPent":5127,"Ġdeter":5128,"ĠCorporation":5129,"ĠCoach":5130,"mselves":5131,"COW":5132,"oke":5133,"Ġcable":5134,"reg":5135,"ĠSem":5136,"ĠMusharraf":5137,"Ġstem":5138,"ĠLiverpool":5139,"ĠOld":5140,"acher":5141,"Ġbombs":5142,"Ġtelephone":5143,"Ġrestruct":5144,"Ġallegations":5145,"ĠPittsburgh":5146,"Ġplot":5147,"enses":5148,"Ġscr":5149,"Ġorig":5150,"Ġflights":5151,"Ġtwice":5152,"Australia":5153,"ĠPARIS":5154,"ĠMOSCOW":5155,"atab":5156,"Ġlack":5157,"essee":5158,"Ġseed":5159,"avens":5160,"ucted":5161,"Ġvictims":5162,"Ġoptim":5163,"ĠDiego":5164,"PC":5165,"Ġthemselves":5166,"eline":5167,"Ġgirl":5168,"Ġnumbers":5169,"Ġgrand":5170,"Ġmessage":5171,"NBA":5172,"eated":5173,"not":5174,"Ġtom":5175,"Ġministers":5176,"awa":5177,"ĠAirbus":5178,"Ġinside":5179,"Ġorders":5180,"Ġlevels":5181,"communications":5182,"GM":5183,"ĠNetworks":5184,"ĠEmb":5185,"Ġvulner":5186,"Ġbecoming":5187,"Ġpurchase":5188,"ĠBaltimore":5189,"ni":5190,"washington":5191,"Ġhy":5192,"Ġhous":5193,"ĠMount":5194,"ĠBern":5195,"ĠHom":5196,"Ġcrack":5197,"Ġraising":5198,"Ġhistoric":5199,"ĠOutlook":5200,"Ġattemp":5201,"ĠPremier":5202,"board":5203,"ĠTreasury":5204,"washingtonpost":5205,"aries":5206,"Ġnames":5207,"Ġcommunity":5208,"Ġthreats":5209,"Ġspecies":5210,"Ġpolls":5211,"weight":5212,"ĠMarsh":5213,"ĠTrophy":5214,"fin":5215,"ĠPrize":5216,"Ġansw":5217,"ĠStill":5218,"ĠThreat":5219,"Ġseventh":5220,"Ġreportedly":5221,"ĠMalays":5222,"fe":5223,"iled":5224,"ĠIll":5225,"ami":5226,"irst":5227,"ĠNob":5228,"Ġoffense":5229,"Ġtraders":5230,"Ġqualifying":5231,"Ġvalue":5232,"75":5233,"help":5234,"Ġbudget":5235,"ecurity":5236,"ĠRangers":5237,"ĠVol":5238,"Ġareas":5239,"ĠSaturn":5240,"Ġassets":5241,"Ġsoft":5242,"ĠCit":5243,"oting":5244,"Ġexchange":5245,"Ġsixth":5246,"Ġwebs":5247,"ĠRichard":5248,"Ġestimates":5249,"bs":5250,"cri":5251,"ius":5252,"keep":5253,"nam":5254,"ano":5255,"ĠMag":5256,"Ġchar":5257,"Ġ70":5258,"ĠColorado":5259,"ĠAssociates":5260,"ĠSingapore":5261,"ĠMicro":5262,"rate":5263,"Ġsure":5264,"Ġmut":5265,"etary":5266,"ĠLook":5267,"ither":5268,"Ġupset":5269,"Ġscient":5270,"Ġdisplay":5271,"Ġadvanced":5272,"Ġdriver":5273,"ĠIndustry":5274,"ĠDodgers":5275,"35":5276,"aur":5277,"Ġdraft":5278,"ĠHong":5279,"Ġshift":5280,"ĠChall":5281,"Ġprovince":5282,"Ġtests":5283,"ĠTrans":5284,"Ġpatent":5285,"news":5286,"ĠGeorgia":5287,"'re":5288,".-":5289,"gener":5290,"arrow":5291,"Ġpanel":5292,"Ġbrief":5293,"Ġgrew":5294,"ĠWeek":5295,"ĠHP":5296,"ĠPrice":5297,"ĠAbb":5298,"istrict":5299,"Ġinstead":5300,"Ġcritical":5301,"ĠKilled":5302,"ĠBryant":5303,"cat":5304,"atural":5305,"Ġpurs":5306,"ctic":5307,"Ġheating":5308,"ickets":5309,"Ġexpansion":5310,"Ġresolution":5311,"Ġkills":5312,"Ġmean":5313,"Ġbegins":5314,"LO":5315,"eas":5316,"Ġtennis":5317,"teroid":5318,"ĠChen":5319,"ĠJackson":5320,"Ġhear":5321,"ĠStation":5322,"ulls":5323,"Ġprem":5324,"ruption":5325,"ifficult":5326,"ĠHoldings":5327,"ĠOklahoma":5328,"At":5329,"tering":5330,"ĠMost":5331,"Ġstory":5332,"ĠDow":5333,"ĠGreek":5334,"ĠEy":5335,"ĠJac":5336,"Ġaccept":5337,"Ġsecret":5338,"Ġregular":5339,"Ġairport":5340,"Ġlooked":5341,"Ġmount":5342,"otype":5343,"ĠFight":5344,"oph":5345,"iction":5346,"Ġopener":5347,"Ġsummit":5348,"Ġfastest":5349,"Ġupgrade":5350,"otebook":5351,"ĠUnder":5352,"za":5353,"ero":5354,"Ġbur":5355,"iced":5356,"Ġlands":5357,"Ġspl":5358,"urns":5359,"ĠFalls":5360,"Ġfamiliar":5361,"Ġvoting":5362,"Ġseems":5363,"Ġcompleted":5364,"Yahoo":5365,"Ġmiddle":5366,"ĠCelt":5367,"ĠRem":5368,"ĠLad":5369,"ules":5370,"anda":5371,"Ġvar":5372,"Ġquit":5373,"Ġrelated":5374,"ĠCollege":5375,"ĠMinistry":5376,"eer":5377,"Ġcars":5378,"omen":5379,"olis":5380,"ĠLat":5381,"Ġexports":5382,"ĠMarch":5383,"Ġcurrency":5384,"Ġvirt":5385,"ĠShiite":5386,"Car":5387,"Dow":5388,"tr":5389,"edro":5390,"Ġfoot":5391,"Ġninth":5392,"Ġlines":5393,"Ġgolf":5394,"imin":5395,"ĠGood":5396,"ument":5397,"ivity":5398,"ordan":5399,"ogn":5400,"aze":5401,"Ġdefensive":5402,"range":5403,"ĠPalm":5404,"ĠRobert":5405,"eckham":5406,"LC":5407,"arry":5408,"ĠMatt":5409,"Ġthing":5410,"Ġrall":5411,"quir":5412,"anded":5413,"aining":5414,"Ġunexpected":5415,"Ġstrength":5416,"Ġantitrust":5417,"Ġcollect":5418,"ĠAssociated":5419,"ĠSudanese":5420,"Ġpackage":5421,"ĠTennessee":5422,"Net":5423,"erate":5424,"Ġreally":5425,"Ġcrucial":5426,"ĠClaim":5427,"Ġindustrial":5428,"Ġstudents":5429,"Ġforecasts":5430,"ĠFalluja":5431,"Ġhotel":5432,"iro":5433,"te":5434,"Ġoften":5435,"ĠSeen":5436,"ĠSEC":5437,"ĠCould":5438,"portunity":5439,"azine":5440,"Ġrecords":5441,"ĠCommittee":5442,"Ġhandheld":5443,"ITY":5444,"Ara":5445,"edia":5446,"icop":5447,"ĠBell":5448,"ĠWales":5449,"aks":5450,"elled":5451,"Ġupd":5452,"Ġdemonstr":5453,"Ġtreatment":5454,"long":5455,"Ġlive":5456,"ĠRoman":5457,"Ġstun":5458,"ĠJew":5459,"Ġclimate":5460,"Ġchalleng":5461,"Ġcy":5462,"Ġhurricane":5463,"ĠBet":5464,"ĠLines":5465,"uble":5466,"Ġfinished":5467,"izer":5468,"overnor":5469,"Ġorganiz":5470,"ĠNovell":5471,"Ġentire":5472,"Ġsemif":5473,"Ġconsidering":5474,"British":5475,"Ġtomorrow":5476,"IJ":5477,"van":5478,"onse":5479,"Ġhon":5480,"Ġhor":5481,"ĠKeep":5482,"Ġincome":5483,"Ġends":5484,"Ġheaded":5485,"Ġjoined":5486,"Ġmatter":5487,"Ġpreviously":5488,"bury":5489,"ique":5490,"usion":5491,"aine":5492,"ĠVote":5493,"Ġallows":5494,"Ġtesting":5495,"Ġformat":5496,"Ġdram":5497,"Ġprepared":5498,"PS":5499,"TER":5500,"pre":5501,"iners":5502,"acity":5503,"isting":5504,"ivid":5505,"sein":5506,"Ġarmed":5507,"apping":5508,"ĠMcL":5509,"Ġjumped":5510,"engt":5511,"Ġways":5512,"ĠCal":5513,"Ġclash":5514,"Ġenrichment":5515,"Ġmissed":5516,"ĠLeader":5517,"Ġmanufacturing":5518,"Palestinian":5519,"Ġpartnership":5520,"Ġdeclared":5521,"ein":5522,"gen":5523,"Ġbought":5524,"ĠSay":5525,"ĠCingular":5526,"ĠBall":5527,"Ġrefer":5528,"Ġring":5529,"Ġvia":5530,"Ġleads":5531,"iban":5532,"Ġinclude":5533,"ALEM":5534,"ĠPacific":5535,"ĠNASCAR":5536,"hell":5537,"inez":5538,"ĠVik":5539,"Ġaccep":5540,"Ġresume":5541,"Ġresidents":5542,"ously":5543,"Ġindex":5544,"ĠAlan":5545,"Ġcreated":5546,"Ġvoted":5547,"Ġschedule":5548,"Israeli":5549,"stitution":5550,"Ġfaster":5551,"asc":5552,"Ġhalt":5553,"Ġstars":5554,"Ġjud":5555,"antage":5556,"Ġwarming":5557,"Ġretailers":5558,"evin":5559,"Ġdenied":5560,"Ġquickly":5561,"hard":5562,"kish":5563,"Ġdate":5564,"ĠCraig":5565,"olic":5566,"ogs":5567,"Ġteen":5568,"struction":5569,"Ġoptions":5570,"ĠBroad":5571,"Tech":5572,"Ġmaterial":5573,"Ġdifficult":5574,"ĠCell":5575,"ĠPGA":5576,"umble":5577,"abilities":5578,"Ġcustomer":5579,"ĠHamid":5580,"Ġbringing":5581,"lan":5582,"Ġill":5583,"ĠStorm":5584,"Ġnothing":5585,"Ġthanks":5586,"print":5587,"Ġclosing":5588,"ĠManning":5589,"Ġhomer":5590,"icipated":5591,"Ġeyes":5592,"beaten":5593,"Ticker":5594,"horn":5595,"Ġcents":5596,"Ġcards":5597,"ĠWrap":5598,"assini":5599,"Ġelectronic":5600,"ĠAndy":5601,"ĠOrganization":5602,"Ġconditions":5603,"fielder":5604,"Ġdocuments":5605,"Ġwitnesses":5606,"Ġcopyright":5607,"oom":5608,"ĠNep":5609,"ocol":5610,"ĠArt":5611,"bean":5612,"Ġmodel":5613,"Ġeastern":5614,"ĠDonald":5615,"ml":5616,"mates":5617,"igroup":5618,"eway":5619,"Ġrecall":5620,"Ġdisease":5621,"Ġtraffic":5622,"Ġbanking":5623,"Ġextend":5624,"Ġadding":5625,"Ġdelayed":5626,"helps":5627,"Fl":5628,"lers":5629,"ĠSim":5630,"odaf":5631,"Ġdiscl":5632,"AMD":5633,"ĠBraves":5634,"ĠIndonesian":5635,"Iraqi":5636,"ATODAY":5637,"South":5638,"Ġfigh":5639,"ĠMov":5640,"ĠBur":5641,"ĠJER":5642,"Ġdeals":5643,"rys":5644,"Ġspr":5645,"aval":5646,"ushing":5647,"Ġdecide":5648,"ĠBarry":5649,"ĠElectronics":5650,"ĠChris":5651,"Ġchanged":5652,"ĠCharles":5653,"Ġdoubt":5654,"Ġgeneration":5655,"ĠPhilippines":5656,"odafone":5657,"ĠSystem":5658,"Ġmixed":5659,"Ġeighth":5660,"apolis":5661,"Ġorgan":5662,"Ġsetting":5663,"eful":5664,"USALEM":5665,"ĠAnnan":5666,"atabase":5667,"ĠJERUSALEM":5668,"19":5669,"GE":5670,"eded":5671,"ĠOPEC":5672,"Ġcomputing":5673,"Ġjet":5674,"Ġscience":5675,"Ġstrengt":5676,"Ġcutting":5677,"ĠColomb":5678,"html":5679,"generation":5680,"IJING":5681,"40":5682,"400":5683,"ĠSchool":5684,"enty":5685,"ĠPack":5686,"ĠDam":5687,"aint":5688,"Ġwasn":5689,"Ġsmart":5690,"Ġreturns":5691,"Ġinflu":5692,"Ġpreparing":5693,"Ġlinked":5694,"ĠHussein":5695,"hi":5696,"Ġson":5697,"Ġfr":5698,"Ġbodies":5699,"ĠTakes":5700,"ĠNY":5701,"Ġ300":5702,"Ġsteps":5703,"Ġemergency":5704,"castle":5705,"Ġinvolved":5706,"ĠBEIJING":5707,"ĠFederer":5708,"ĠLanka":5709,"Look":5710,"ali":5711,"ĠIndiana":5712,"bl":5713,"road":5714,"ĠTerror":5715,"Ġthr":5716,"ĠGM":5717,"porter":5718,"Ġ32":5719,"ĠMozilla":5720,"Ġcandidates":5721,"ĠHelp":5722,"Ġpriority":5723,"ĠLaden":5724,"Sadr":5725,"lins":5726,"uan":5727,"ĠHug":5728,"ewis":5729,"ampa":5730,"Ġscores":5731,"ught":5732,"ĠZimbabwe":5733,"Ġadvance":5734,"ĠQaeda":5735,"ĠAttack":5736,"Ġdoctors":5737,"Ġeye":5738,"Ġcancer":5739,"Ġapparently":5740,"ilar":5741,"ĠTigers":5742,"ador":5743,"ĠGun":5744,"ĠKevin":5745,"Ġupcoming":5746,"ONG":5747,"izes":5748,"Ġcrashed":5749,"Ġmovies":5750,"ĠSwiss":5751,"Ġoption":5752,"Ġbelieves":5753,"ĠTitan":5754,"OU":5755,"ils":5756,"Ġrare":5757,"errill":5758,"ĠAllawi":5759,"Ġboosted":5760,"Ġsolid":5761,"Ġbelieved":5762,"ymn":5763,"rec":5764,"ĠSix":5765,"ĠPoll":5766,"ĠRally":5767,"uburn":5768,"ibly":5769,"Ġreceiver":5770,"Ġcoalition":5771,"RM":5772,"oe":5773,"rd":5774,"oning":5775,"Ġsought":5776,"Ġband":5777,"ĠTer":5778,"ĠFannie":5779,"ĠDS":5780,"ĠEv":5781,"ĠVideo":5782,"ĠFrances":5783,"ĠAnti":5784,"quiry":5785,"55":5786,"Ġcat":5787,"ersey":5788,"apse":5789,"Ġ33":5790,"anging":5791,"Ġactivities":5792,"Ġbegun":5793,"Ġcarrying":5794,"rysler":5795,"Ġsens":5796,"ĠLife":5797,"Ġalways":5798,"aven":5799,"ierce":5800,"Ġincludes":5801,"ĠSyria":5802,"Ġallegedly":5803,"TI":5804,"ĠSri":5805,"ĠCall":5806,"ĠBillion":5807,"Ġanim":5808,"Ġhearing":5809,"ĠLeg":5810,"Ġmanagers":5811,"ĠAdministration":5812,"Ġputs":5813,"Ġcentury":5814,"ĠAttorney":5815,"ĠCuba":5816,"Ġiniti":5817,"aheim":5818,"hman":5819,"Ġbott":5820,"ĠDigital":5821,"ĠGra":5822,"ĠGreat":5823,"aceut":5824,"racts":5825,"Ġtrib":5826,"Ġaims":5827,"yan":5828,"Ġut":5829,"Ġpun":5830,"ĠAz":5831,"ĠProp":5832,"ĠNintendo":5833,"ĠNikkei":5834,"Ġstre":5835,"ĠOT":5836,"ĠJon":5837,"Ġabd":5838,"Ġpartner":5839,"Ġsurged":5840,"armaceut":5841,"Ġestab":5842,"Ġretirement":5843,"ĠCarlos":5844,"Ġwife":5845,"stant":5846,"Ġgone":5847,"ĠDeath":5848,"umn":5849,"Ġshock":5850,"ĠChip":5851,"Star":5852,"Ġterrorists":5853,"iership":5854,"Ġsmaller":5855,"Ġactivity":5856,"Ġconnect":5857,"ĠRoyal":5858,"Ġfriend":5859,"Ġhelicop":5860,"Sch":5861,"TV":5862,"gic":5863,"iary":5864,"ĠSk":5865,"ĠCITY":5866,"ĠPedro":5867,"irth":5868,"Ġgoods":5869,"ĠLib":5870,"Ġalthough":5871,"Ġunions":5872,"Ġflood":5873,"Ġconfident":5874,"ĠConf":5875,"Ġspeculation":5876,"Ġentered":5877,"Ġbroadcast":5878,"Ġindependent":5879,"49":5880,"65":5881,"AZ":5882,"Gr":5883,"Ġturning":5884,"usive":5885,"Ġadmitted":5886,"Ġmajority":5887,"ĠPlayer":5888,"ĠBigley":5889,")--":5890,"million":5891,"inter":5892,"Ġwait":5893,"ĠMess":5894,"ĠFOR":5895,"ucing":5896,"Ġuns":5897,"ĠJoe":5898,"Ġbuys":5899,"Ġputting":5900,"Russian":5901,"ĠHewitt":5902,"ĠLaunch":5903,"22":5904,"Ġtext":5905,"Ġbooks":5906,"ĠWatch":5907,"ĠNuclear":5908,"ubble":5909,"ĠSatellite":5910,"Ġdeveloper":5911,"ĠCongo":5912,"ĠMartinez":5913,"ĠConsumer":5914,"Ġshooting":5915,"ĠTarget":5916,"mission":5917,"Ġens":5918,"inning":5919,"Ġcit":5920,"Ġpushed":5921,"Ġhal":5922,"Ġvice":5923,"ĠChile":5924,"Ġspend":5925,"Ġspect":5926,"ĠVis":5927,"isher":5928,"bert":5929,"rowing":5930,"Ġregional":5931,"attled":5932,"Ġsteel":5933,"ĠInvestors":5934,"Nokia":5935,"Ġawa":5936,"asion":5937,"Ġmys":5938,"ĠII":5939,"ĠRun":5940,"osen":5941,"istons":5942,"Ġage":5943,"Ġscreen":5944,"Ġdevast":5945,"ĠCharl":5946,"ĠMeet":5947,"Ġimproved":5948,"finance":5949,"Ad":5950,"UM":5951,"cape":5952,"rist":5953,"Ġbol":5954,"Ġliving":5955,"Ġele":5956,"Ġease":5957,"ĠWil":5958,"Ġagent":5959,"Ġresigned":5960,"Ġ45":5961,"type":5962,"ELS":5963,"Ġstarts":5964,"ĠTaliban":5965,"Ġwithdrawal":5966,"operation":5967,"Ġmachines":5968,"ĠScotland":5969,"Ġmutual":5970,"rast":5971,"Ġcities":5972,"Ġpatch":5973,"terror":5974,"chie":5975,"Ġrook":5976,"Ġdefending":5977,"Ġparties":5978,"Ġpromised":5979,"Ġremaining":5980,"ĠAmazon":5981,"ĠHamm":5982,"Ġprisoners":5983,"hit":5984,"heastern":5985,"esis":5986,"Ġmist":5987,"ĠBears":5988,"ushes":5989,"Ġstadium":5990,"Ġbehead":5991,"ĠKey":5992,"Ġovertime":5993,"ĠShow":5994,"Ġofficers":5995,"place":5996,"Ġremote":5997,"rawl":5998,"Ġ90":5999,"Ġresponse":6000,"Ġembassy":6001,"ĠRoddick":6002,"Ġveteran":6003,"AU":6004,"election":6005,"init":6006,"ĠTampa":6007,"ĠAnaheim":6008,"ĠProbe":6009,"Ġflash":6010,"Ġstronger":6011,"othing":6012,"incinn":6013,"Ġimmediately":6014,"incinnati":6015,"Gl":6016,"HI":6017,"Sing":6018,"wait":6019,"room":6020,"Ġnarrow":6021,"Ġvill":6022,"iple":6023,"ĠSpeed":6024,"Ġindivid":6025,"Ġtrouble":6026,"ysis":6027,"Ġstandards":6028,"Ġedge":6029,"Ġsimilar":6030,"Ġdestro":6031,"60":6032,"CE":6033,"erc":6034,"onent":6035,"ĠHop":6036,"ĠEuro":6037,"rier":6038,"ĠJr":6039,"ĠJournal":6040,"ĠJordan":6041,"icky":6042,"assi":6043,"ĠNewcastle":6044,"ĠSha":6045,"Ġdeclined":6046,"Ġassist":6047,"ĠGreenspan":6048,"ĠAndre":6049,"Ġhanded":6050,"ĠNewsFactor":6051,"Ġfinding":6052,"Ġvotes":6053,"jan":6054,"uild":6055,"Ġhum":6056,"Ġlog":6057,"uster":6058,"ĠRand":6059,"Ġabuse":6060,"ĠBoost":6061,"Ġhardware":6062,"ĠLaunches":6063,"Ġcast":6064,"ĠHeat":6065,"ĠLiber":6066,"argo":6067,"Ġattend":6068,"Ġadvantage":6069,"Ġvoice":6070,"Ġmatches":6071,"NewsFactor":6072,"ĠPremiership":6073,"ĠVerizon":6074,"Ġwidely":6075,"ca":6076,"hran":6077,"ĠAOL":6078,"ĠRaid":6079,"odak":6080,"Ġattention":6081,"ĠRev":6082,"phere":6083,"ĠPhone":6084,"Ġstrikes":6085,"Ġinvestigating":6086,"Ġshuttle":6087,"ĠTwins":6088,"Ġincreasingly":6089,"Ġsituation":6090,"Kerry":6091,"OP":6092,"Ġsides":6093,"Ġfine":6094,"Ġdual":6095,"ĠMid":6096,"ĠInf":6097,"abul":6098,"Ġovernight":6099,"Ġ38":6100,"Ġprelim":6101,"ĠBlu":6102,"otten":6103,"Ġentertainment":6104,"Ġterrit":6105,"ĠPacers":6106,"Ġdescrib":6107,"Ġbroken":6108,"cription":6109,"arq":6110,"Ġword":6111,"Ġpur":6112,"ĠBas":6113,"ĠBron":6114,"Ġrecomm":6115,"ĠLewis":6116,"ĠThan":6117,"Ġunbeaten":6118,"ĠReports":6119,"annel":6120,"Ġfinds":6121,"ĠRetail":6122,"ĠAtlantic":6123,"ĠMontreal":6124,"Ġrenewed":6125,"Cent":6126,"TC":6127,"ped":6128,"Ġhole":6129,"ĠHer":6130,"apova":6131,"ĠStan":6132,"Ġleaves":6133,"ĠKAB":6134,"Ġkind":6135,"Ġ41":6136,"Ġplanet":6137,"Ġdoing":6138,"iversary":6139,"minent":6140,"Ġacquired":6141,"Ġunveils":6142,"Ġmagazine":6143,"prof":6144,"Ġvehicle":6145,"ĠRedskins":6146,"Vo":6147,"yond":6148,"Ġtent":6149,"inch":6150,"Ġwave":6151,"irus":6152,"Ġbeyond":6153,"Ġquiet":6154,"Ġreserv":6155,"ointed":6156,"ĠColumb":6157,"opped":6158,"Ġsemi":6159,"Ġseparate":6160,"Ġspeech":6161,"ĠKABUL":6162,"PA":6163,"PM":6164,"cks":6165,"zy":6166,"ĠToshiba":6167,"Ġvowed":6168,"Ġspir":6169,"ĠYour":6170,"Ġovert":6171,"Ġdisaster":6172,"USS":6173,"Ġparent":6174,"ietnam":6175,"ĠStrike":6176,"Ġdisappointing":6177,"ĠJewish":6178,"05":6179,"Will":6180,"cons":6181,"Ġbin":6182,"Ġinn":6183,"Ġmine":6184,"outs":6185,"state":6186,"ĠMr":6187,"ĠMove":6188,"ĠBefore":6189,"ĠNL":6190,"ests":6191,"iana":6192,"Ġaband":6193,"Ġscoring":6194,"ĠSecond":6195,"Ġremov":6196,"Ġadds":6197,"Ġtelecommunications":6198,"Ġdeaths":6199,"buster":6200,"arqawi":6201,".;":6202,"feld":6203,"ĠMet":6204,"ĠHard":6205,"ĠJack":6206,"antec":6207,"Ġdefence":6208,"INE":6209,"Ġmeans":6210,"Intern":6211,"Ġfeature":6212,"Ġsupercomputer":6213,"ĠWayne":6214,"cient":6215,"iter":6216,"Ġcorn":6217,"Ġprize":6218,"ĠCincinnati":6219,"ĠMakes":6220,"ĠBrian":6221,"ĠRad":6222,"ĠDr":6223,"Ġopens":6224,"Ġimages":6225,"Ġheading":6226,"Ġlaws":6227,"Ġbrand":6228,"Ġfailure":6229,"Ġcontinuing":6230,"Ġdirectors":6231,"Ġmaintain":6232,"ĠCapital":6233,"Ġclean":6234,"Ġearthquake":6235,"aver":6236,"fort":6237,"iece":6238,"jhtml":6239,"Ġfranch":6240,"Ġmic":6241,"Ġmot":6242,"ĠHockey":6243,"arta":6244,"Ġcontrib":6245,"Ġappeals":6246,"ĠForec":6247,"Ġsued":6248,"Ġbombings":6249,"Ġleadership":6250,"Ġtraditional":6251,"Space":6252,"ĠRooney":6253,"ĠMorgan":6254,"Ġwebsite":6255,"21":6256,"Cisco":6257,"Kore":6258,"sym":6259,"Ġwords":6260,"ĠMach":6261,"ĠIM":6262,"igious":6263,"ĠWalk":6264,"ĠFive":6265,"ĠRavens":6266,"Ġrather":6267,"owb":6268,"ĠDollar":6269,"ĠGary":6270,"oca":6271,"ĠThird":6272,"Ġworm":6273,"seeded":6274,"anged":6275,"Ġassass":6276,"Ġpostp":6277,"oppers":6278,"ijay":6279,"ĠPlayers":6280,"ofi":6281,"Ġgrab":6282,"Ġrallied":6283,"Dell":6284,"Ġtiny":6285,"esh":6286,"Ġbarg":6287,"ĠSA":6288,"ĠSi":6289,"ĠTax":6290,"star":6291,"ĠMake":6292,"ĠeBay":6293,"Ġrac":6294,"ordon":6295,"Ġcrimes":6296,"Ġ700":6297,"ooth":6298,"QuoteLook":6299,"Ġsuspects":6300,"Ġinfotype":6301,"Ġkeeping":6302,"Ġnationwide":6303,"Former":6304,"Ġqcat":6305,"Ġqtype":6306,"financeQuoteLook":6307,"financeQuoteLookup":6308,"LS":6309,"Ser":6310,"Ship":6311,"va":6312,"inos":6313,"Ġbacks":6314,"icious":6315,"rob":6316,"ĠSub":6317,"ĠSeeks":6318,"Ġder":6319,"Ġdie":6320,"ĠAid":6321,"ĠPT":6322,"Ġlives":6323,"Ġplays":6324,"Ġplaced":6325,"ĠChart":6326,"aby":6327,"Ġalliance":6328,"apped":6329,"umped":6330,"Ġincreases":6331,"Ġdiscover":6332,"Ġcompete":6333,"ĠTehran":6334,"Ġcaptured":6335,"ĠAuto":6336,"ĠBelg":6337,"Ġtackle":6338,"ĠArgentina":6339,"Pol":6340,"aug":6341,"fizer":6342,"arily":6343,"Ġfan":6344,"icts":6345,"Ġdies":6346,"idered":6347,"Ġreject":6348,"ĠRiver":6349,"Ġrises":6350,"ĠLarry":6351,"Ġlear":6352,"Ġslam":6353,"Ġknock":6354,"umps":6355,"Ġrebounds":6356,"Ġclaiming":6357,"Ġsucceed":6358,"ĠGuard":6359,"Ġinstant":6360,"stitute":6361,"United":6362,"Ġcamera":6363,"Ġdozens":6364,"celona":6365,"ĠNobel":6366,"ymnast":6367,"Ġcitiz":6368,"Off":6369,"Sudan":6370,"Ġten":6371,"Ġfair":6372,"Ġham":6373,"ĠMel":6374,"Ġnatural":6375,"ĠWor":6376,"illy":6377,"ĠLee":6378,"apers":6379,"berg":6380,"rowns":6381,"Ġallowing":6382,"Ġattorney":6383,"Ġofficially":6384,"Ġsupporters":6385,"Ġextension":6386,"ĠOffer":6387,"Ġrookie":6388,"BUR":6389,"cos":6390,"cine":6391,"well":6392,"Ġwest":6393,"Ġbell":6394,"estone":6395,"Ġabs":6396,"anges":6397,"Ġlineup":6398,"Ġlaunching":6399,"Ġsentenced":6400,"Ġcaught":6401,"Ġpredict":6402,"Comp":6403,"ĠAccording":6404,"Ġvehicles":6405,"ĠEconomic":6406,"TLE":6407,"mond":6408,"yad":6409,"Ġsun":6410,"ĠSports":6411,"ĠWalt":6412,"ĠEqu":6413,"agon":6414,"aints":6415,"ĠInj":6416,"ĠIsland":6417,"Ġcapacity":6418,"Ġattacked":6419,"Ġevening":6420,"ĠIndianapolis":6421,"ĠTroops":6422,"ĠAuthor":6423,"70":6424,"Bra":6425,"More":6426,"Ġtechnologies":6427,"het":6428,"anes":6429,"urton":6430,"ĠBreak":6431,"Ġstret":6432,"lying":6433,"Ġrout":6434,"Ġperfect":6435,"iburton":6436,"Ġkeeps":6437,"Ġedged":6438,"Ġsolution":6439,"Ġelimin":6440,"ĠEgyptian":6441,"ĠMilan":6442,"Ġrestructuring":6443,"kle":6444,"Ġsy":6445,"Ġsal":6446,"Ġpip":6447,"igger":6448,"Ġrein":6449,"Ġcomeb":6450,"Ġoverall":6451,"ucation":6452,"Ġdefeated":6453,"Ġdemocracy":6454,"Ġholds":6455,"ervez":6456,"Ġprosecutors":6457,"ĠJacques":6458,"AA":6459,"First":6460,"Ġbi":6461,"Ġdatabase":6462,"ĠHass":6463,"Ġability":6464,"ĠAnother":6465,"Ġproviders":6466,"Ġreporting":6467,"Ġauto":6468,"Ġfeel":6469,"ĠEntertainment":6470,"CAA":6471,"Ġcoup":6472,"Ġtell":6473,"arks":6474,"Ġwake":6475,"ĠSY":6476,"ĠPervez":6477,"Ġemail":6478,"ĠGh":6479,"Ġcomments":6480,"Ġwhite":6481,"Ġking":6482,"Ġunless":6483,"venue":6484,"Ġchoice":6485,"ĠDenver":6486,"Ġexpressed":6487,"Ġsongs":6488,"Ġrapid":6489,"Ġwond":6490,"Ġpra":6491,"ĠSum":6492,"ĠSamsung":6493,"ĠPeople":6494,"adem":6495,"Ġgiants":6496,"ĠHear":6497,"Ġchances":6498,"Ġagencies":6499,"iege":6500,"ĠAli":6501,"Ġassoci":6502,"Ġviolent":6503,"engers":6504,"Ġtowards":6505,"Ġseparat":6506,"Ġapolog":6507,"DS":6508,"IG":6509,"hood":6510,"Ġachie":6511,"icals":6512,"olm":6513,"owled":6514,"ĠDun":6515,"aked":6516,"Ġvan":6517,"enders":6518,"ounce":6519,"Ġseized":6520,"Ġenj":6521,"Ġraises":6522,"Ġthreatening":6523,"Ġobserv":6524,"Ġcomeback":6525,"18":6526,"AOL":6527,"haps":6528,"icing":6529,"ĠSING":6530,"ĠAthlet":6531,"Ġonto":6532,"ĠBeckham":6533,"Ġeased":6534,"thrit":6535,"ĠGov":6536,"ourcing":6537,"ĠUnveil":6538,"Ġbacked":6539,"Ġtelecom":6540,"ĠManagement":6541,"Ġadvis":6542,"Ġpoised":6543,"Ġtempor":6544,"Ġvendor":6545,"Ġzone":6546,"ĠThomas":6547,"Ġpreliminary":6548,"04":6549,"Ġpen":6550,"Ġbomber":6551,"Ġdrove":6552,"ecess":6553,"ĠGates":6554,"ĠHO":6555,"ĠStore":6556,"Ġwash":6557,"Ġimm":6558,"Ġcommand":6559,"sule":6560,"foWorld":6561,"ĠTurkish":6562,"rolled":6563,"ShipOne":6564,"had":6565,"met":6566,"Ġult":6567,"reens":6568,"Ġmal":6569,"ĠPet":6570,"ĠHave":6571,"APORE":6572,"Ġblasts":6573,"ĠLeads":6574,"gram":6575,"pril":6576,"elson":6577,"Study":6578,"ĠColts":6579,"posed":6580,"ĠSeven":6581,"ĠQue":6582,"Ġprocessors":6583,"Ġevents":6584,"Ġlifted":6585,"Ġdrives":6586,"udden":6587,"Ġvendors":6588,"Ġwelcom":6589,"ĠChallenge":6590,"ĠClaims":6591,"och":6592,"Ġfees":6593,"Ġcerem":6594,"aling":6595,"Ġpiracy":6596,"Ġdream":6597,"ĠAuburn":6598,"ached":6599,"ĠNe":6600,"ĠVietnam":6601,"Ġtruck":6602,"ĠHead":6603,"ĠToday":6604,"raphics":6605,"Ġinvolving":6606,"ĠSteelers":6607,"ĠSINGAPORE":6608,"thritis":6609,"FC":6610,"Source":6611,"ae":6612,"sters":6613,"Ġtur":6614,"Ġsidel":6615,"Ġfort":6616,"ĠHoll":6617,"osh":6618,"umph":6619,"ĠVijay":6620,"ĠUnit":6621,"Ġannounces":6622,"Ġfailing":6623,"ĠSchilling":6624,"ĠLeaders":6625,"Ġemerged":6626,"Ġcriticism":6627,"29":6628,"itude":6629,"Ġbul":6630,"ĠCarter":6631,"Ġworks":6632,"ĠUSA":6633,"Ġgovernments":6634,"Ġrefused":6635,"Ġcondem":6636,"Ġsafe":6637,"Ġportable":6638,"ĠVenezuela":6639,"Ġunlikely":6640,"Bomb":6641,"born":6642,"Ġice":6643,"eland":6644,"ĠPhelps":6645,"Ġlap":6646,"ĠDirect":6647,"unich":6648,"Ġaltern":6649,"Ġwinds":6650,"ebr":6651,"Ġpartic":6652,"Ġdelays":6653,"ĠSeason":6654,"Ġstreets":6655,"EA":6656,"aida":6657,"auts":6658,"eras":6659,"ĠBus":6660,"agers":6661,"Ġshipping":6662,"Ġplun":6663,"uggle":6664,"Ġnewly":6665,"Ġjury":6666,"Ġplanes":6667,"Ġsurround":6668,"ĠForces":6669,"ĠMcC":6670,"ĠFinal":6671,"Ġinstall":6672,"Ġdoubled":6673,"Ġproperty":6674,"Ġencoura":6675,"Ġwaiting":6676,"Ġdramatic":6677,"ST":6678,"power":6679,"etts":6680,"amous":6681,"ĠRap":6682,"rav":6683,"ĠLions":6684,"Ġoffset":6685,"Ġalive":6686,"Ġresum":6687,"Ġanniversary":6688,"ĠPlc":6689,"Ġpassenger":6690,"Ġdeadl":6691,"Ġturns":6692,"Ġpeacekeep":6693,"sharing":6694,"ĠBuild":6695,"ĠAcqu":6696,"Ġbreaking":6697,"Ġmanufacturer":6698,"Central":6699,"EG":6700,"haul":6701,"Ġself":6702,"ĠSign":6703,"ĠAB":6704,"ĠApril":6705,"Ġgri":6706,"ĠGolf":6707,"ĠGordon":6708,"emen":6709,"Ġheat":6710,"ĠKar":6711,"ĠKobe":6712,"Ġconsidered":6713,"Ġrevers":6714,"Ġbanned":6715,"Blair":6716,"Ġcollapse":6717,"Ġpicked":6718,"ĠRebels":6719,"Ġoccup":6720,"Ġerup":6721,"anguage":6722,"Ġtechnical":6723,"47":6724,"Bar":6725,"gu":6726,"side":6727,"Ġcurb":6728,"Ġris":6729,"quarters":6730,"ĠJagu":6731,"ables":6732,"Ġtrigger":6733,"oya":6734,"oyal":6735,"Ġ65":6736,"Ġannouncing":6737,"italia":6738,"Ġsoaring":6739,"Ġraid":6740,"inois":6741,"ĠChechen":6742,"NEY":6743,"owboys":6744,"sun":6745,"Ġcold":6746,"usetts":6747,"Ġstreet":6748,"ĠYoung":6749,"achusetts":6750,"oyota":6751,"Ġfalls":6752,"known":6753,"ummary":6754,"Ġcreating":6755,"ĠLebanon":6756,"aire":6757,"tada":6758,"Ġinquiry":6759,"ĠSource":6760,"Ġhurricanes":6761,"lement":6762,"Ġongoing":6763,"ĠPle":6764,"ĠPass":6765,"ĠOpt":6766,"ĠJays":6767,"ĠJersey":6768,"Ġquite":6769,"ĠKim":6770,"Ġuser":6771,"ĠĠĠĠ":6772,"Ġseasons":6773,"Ġheads":6774,"eseason":6775,"Ġpostseason":6776,"Ġpatients":6777,"Ġtraded":6778,"Ġmessages":6779,"Ġpushing":6780,"ĠEnterprise":6781,"Ġlawyers":6782,"ĠJeanne":6783,"Ġidea":6784,"cont":6785,"pass":6786,"ister":6787,"irates":6788,"ĠRay":6789,"imp":6790,"ĠStud":6791,"ĠKofi":6792,"Ġsecurities":6793,"ector":6794,"Ġcontracts":6795,"Ġtries":6796,"Ġconvicted":6797,"Ġfranchise":6798,"Ġeither":6799,"ĠDEL":6800,"ĠJam":6801,"aped":6802,"Ġclashes":6803,"Ġunf":6804,"Ġliqu":6805,"ĠMartha":6806,"Ġschools":6807,"Ġcivilians":6808,"Ġimproving":6809,"Ġuncertain":6810,"ĠBobby":6811,"Ġsurprising":6812,"Big":6813,"Wal":6814,"bar":6815,"burg":6816,"dollar":6817,"Ġdial":6818,"ĠCD":6819,"ĠMah":6820,"ĠPH":6821,"ĠVI":6822,"ĠCommerce":6823,"Ġinjuring":6824,"related":6825,"Ġpossibly":6826,"Ġstatus":6827,"Ġfavour":6828,"Ġmeasures":6829,"ĠMassachusetts":6830,"Ġdismissed":6831,"PH":6832,"Ġpact":6833,"ĠCurt":6834,"ĠMiller":6835,"ĠId":6836,"ĠPackers":6837,"ĠWild":6838,"Ġconvention":6839,"Ġcontest":6840,"lected":6841,"atcher":6842,"ennan":6843,"Ġposts":6844,"Ġdevelopers":6845,"arming":6846,"ĠNigerian":6847,"Ġwashington":6848,"\"\\":6849,"Am":6850,"DNEY":6851,"EFA":6852,"SA":6853,"bel":6854,"cost":6855,"ez":6856,"wh":6857,"Ġsigning":6858,"aret":6859,"Ġfit":6860,"Ġbirth":6861,"ĠSold":6862,"ĠDaily":6863,"ĠLo":6864,"Ġshots":6865,"Ġexam":6866,"Ġunits":6867,"ĠAnton":6868,"ibbean":6869,"Ġslide":6870,"Ġconserv":6871,"airs":6872,"ĠBlock":6873,"Ġinsisted":6874,"ĠIranian":6875,"Ġexplosives":6876,"ĠSettle":6877,"ĠMilitants":6878,"Ġradical":6879,"Ġrefugee":6880,"Ġwashingtonpost":6881,"How":6882,"ĠSqu":6883,"Ġmos":6884,"ĠTre":6885,"Ġlows":6886,"ĠNO":6887,"akarta":6888,"ĠKenn":6889,"ĠKabul":6890,"acking":6891,"outheast":6892,"ĠShare":6893,"herlands":6894,"ĠSpam":6895,"Ġworker":6896,"Ġcommunications":6897,"Ġweight":6898,"iversal":6899,"shot":6900,"Ġreceive":6901,"Ġcondition":6902,"Ġpractices":6903,"Ġfigure":6904,"Ġmachine":6905,"Arafat":6906,"ĠSYDNEY":6907,"Gold":6908,"General":6909,"Le":6910,"SEC":6911,"pen":6912,"Ġera":6913,"Ġsound":6914,"ĠHD":6915,"ĠLim":6916,"Ġatomic":6917,"ĠStudy":6918,"azer":6919,"ĠPlus":6920,"Ġswitch":6921,"ĠOffers":6922,"MSFT":6923,"ĠDelhi":6924,"elesc":6925,"Ġmulti":6926,"ĠBrazilian":6927,"Ġdriving":6928,"Ġlawyer":6929,"Neal":6930,"Qaida":6931,"isation":6932,"Ġhockey":6933,"ĠPast":6934,"ĠPistons":6935,"endum":6936,"Ġimpress":6937,"ĠWarns":6938,"ĠBarcelona":6939,"Ġgreater":6940,"ĠDemocrats":6941,"Ġgained":6942,"ĠArabia":6943,"Ġsquad":6944,"Ġlegislation":6945,"Ġrescue":6946,"Se":6947,"Sm":6948,"uros":6949,"Ġbench":6950,"ĠTel":6951,"ĠTurn":6952,"ĠWomen":6953,"Ġracing":6954,"cher":6955,"Ġrecogn":6956,"Ġstruggle":6957,"Ġinfring":6958,"ructure":6959,"ĠAdvanced":6960,"standing":6961,"embly":6962,"ergus":6963,"ĠMcLennan":6964,"final":6965,"itect":6966,"ĠSBC":6967,"lee":6968,"oline":6969,"employ":6970,"Ġopportunity":6971,"ashion":6972,"Ġdriven":6973,"Ġholy":6974,"Sharon":6975,"ĠCounty":6976,"IV":6977,"ban":6978,"mate":6979,"Ġcur":6980,"ĠSeek":6981,"ĠWon":6982,"ĠGe":6983,"ĠThanks":6984,"Ġspread":6985,"Ġ48":6986,"Ġreleases":6987,"Ġevac":6988,"ĠPeter":6989,"Ġviruses":6990,"Phil":6991,"ĠVoIP":6992,"USSELS":6993,"Ġ)":6994,"esters":6995,"Ġdi":6996,"Ġnotebook":6997,"Ġlibr":6998,"Ġheard":6999,"Ġattract":7000,"ERS":7001,"Ġprovided":7002,"Ġpassengers":7003,"ĠWorkers":7004,"Australian":7005,"ĠFields":7006,"Ġdozen":7007,"Ġconclud":7008,"ĠConnect":7009,"300":7010,"Ġshel":7011,"rett":7012,"ayer":7013,"ĠCos":7014,"ĠPad":7015,"ĠBBC":7016,"ĠNeed":7017,"ĠFerr":7018,"ĠGas":7019,"ĠEven":7020,"Ġprove":7021,"artner":7022,"AND":7023,"iamond":7024,"AMA":7025,"Ġpromises":7026,"Ġsolar":7027,"Ġeverything":7028,"Ġsemiconductor":7029,"Ġplayoffs":7030,"ĠUsers":7031,"ĠMalaysia":7032,"TT":7033,"bor":7034,"mits":7035,"hem":7036,"Ġconstruction":7037,"Ġspring":7038,"Ġenh":7039,"Ġorganization":7040,"Ġ76":7041,"Ġthroughout":7042,"ĠCaribbean":7043,"Ġfellow":7044,"ĠSunni":7045,"Ġtaxes":7046,"Ġfriends":7047,"ĠStandard":7048,"Ġsplit":7049,"CI":7050,"mens":7051,"Ġbal":7052,"ĠAhead":7053,"ĠCassini":7054,"Ġstopped":7055,"Ġdeleg":7056,"avez":7057,"ovo":7058,"uresmo":7059,"ĠMariners":7060,"Ġadditional":7061,"Ġsells":7062,"armony":7063,"iolence":7064,"Ġbeta":7065,"ĠFirm":7066,"Ġconnection":7067,"Ġbitter":7068,"ĠKyoto":7069,"Ġbottom":7070,"erguson":7071,"45":7072,"90":7073,"Bo":7074,"Ver":7075,"inters":7076,"rell":7077,"ĠTrial":7078,"Ġgear":7079,"ĠNA":7080,"ĠDan":7081,"ĠHy":7082,"ĠStrong":7083,"Ġaggress":7084,"ipe":7085,"ashing":7086,"Ġaren":7087,"Ġbeats":7088,"Ġbreaks":7089,"Ġsteady":7090,"Ġpresent":7091,"Ġmessaging":7092,"Ġcombat":7093,"French":7094,"Ġclimbed":7095,"ĠBRUSSELS":7096,"Ġresolve":7097,"Ġenvironmental":7098,"BO":7099,"Berry":7100,"Ġbre":7101,"Ġhour":7102,"otes":7103,"Ġrat":7104,"ĠOv":7105,"cean":7106,"Ġrecr":7107,"Ġcommittee":7108,"Ġrelie":7109,"Ġjoining":7110,"Ġidentity":7111,"LAND":7112,"Ġpledged":7113,"Ġsemifinals":7114,"Ġcorner":7115,"All":7116,"oen":7117,"ua":7118,"Ġfrust":7119,"alyst":7120,"ĠSears":7121,"Ġmaster":7122,"ĠLyn":7123,"emens":7124,"Ġphys":7125,"Ġairlines":7126,"Ġmanaged":7127,"ĠAppl":7128,"Ġinjuries":7129,"Ġfounder":7130,"azaa":7131,"ĠOrd":7132,"ĠNetherlands":7133,"Ġpredicted":7134,"Ġsubscribers":7135,"Ġfighters":7136,"ĠLibya":7137,"46":7138,"Judge":7139,"ground":7140,"like":7141,"Ġtable":7142,"Ġtied":7143,"Ġsudden":7144,"arr":7145,"icated":7146,"omer":7147,"eled":7148,"ĠBOS":7149,"Ġdeput":7150,"enda":7151,"ĠKmart":7152,"ifying":7153,"Ġspyware":7154,"ubs":7155,"ossible":7156,"ĠArrest":7157,"Ġsuspension":7158,"redit":7159,"Ġpolitic":7160,"ĠQuest":7161,"Ġmodels":7162,"ĠSchw":7163,"CoMo":7164,"Ġresignation":7165,"rastructure":7166,"ĠHOUS":7167,"Card":7168,"Delta":7169,"Zarqawi":7170,"zz":7171,"Ġcease":7172,"ĠSalv":7173,"leans":7174,"ĠJer":7175,"Ġdepart":7176,"ensing":7177,"Ġregard":7178,"Ġmilitia":7179,"inking":7180,"Ġanything":7181,"Ġsky":7182,"Ġclinch":7183,"Ġjournalists":7184,"Ġprepare":7185,"Ġdangerous":7186,"awaited":7187,"Ġenjoy":7188,"CD":7189,"IAN":7190,"Sup":7191,"qtada":7192,"Ġsteroid":7193,"ĠSEO":7194,"omes":7195,"omers":7196,"amo":7197,"ĠHand":7198,"ounces":7199,"Ġalert":7200,"antas":7201,"ocket":7202,"ORTS":7203,"Ġbacking":7204,"Ġflags":7205,"Ġbigger":7206,"athan":7207,"Station":7208,"ĠPhoto":7209,"Ġknew":7210,"Ġextrem":7211,"ATION":7212,"eneg":7213,"Ġfaced":7214,"ĠEdwards":7215,"enalty":7216,"Ġcarried":7217,"Ġpleaded":7218,"Ġseemed":7219,"Ġbenefit":7220,"Ġapparent":7221,"ĠDevices":7222,"Ġdetermin":7223,"Ġhousing":7224,"28":7225,"Gu":7226,"Pac":7227,"lor":7228,"oil":7229,"wich":7230,"stra":7231,"ĠSpitzer":7232,"ĠAirport":7233,"ĠBrad":7234,"ĠEdition":7235,"Ġstepped":7236,"Ġmarathon":7237,"Ġrespond":7238,"ĠRyan":7239,"Ġintroduce":7240,"ĠLonghorn":7241,"Ġstrengthen":7242,"ĠAntonio":7243,"Qaeda":7244,"Ġfather":7245,"Ġnort":7246,"olid":7247,"ĠFoods":7248,"owa":7249,"Ġankle":7250,"ĠTheir":7251,"ĠJakarta":7252,"Ġvide":7253,"Ġsharing":7254,"Ġaccident":7255,"Ġaccounts":7256,"ĠClin":7257,"Ġlawmakers":7258,"Ġshowdown":7259,"Ġserve":7260,"Ġminute":7261,"ĠOrleans":7262,"Ġcleared":7263,"Ġexpanding":7264,"Ġdominated":7265,"Ġpotentially":7266,"ĠMaryland":7267,"Ġceremony":7268,"rated":7269,"Ġpion":7270,"ĠSite":7271,"ĠSadr":7272,"ĠPil":7273,"ĠRoll":7274,"iab":7275,"Ġhighly":7276,"Ġmedals":7277,"Ġclosely":7278,"Ġopponents":7279,"iffe":7280,"This":7281,"mohan":7282,"Afghan":7283,"Ġwatched":7284,"ĠRaises":7285,"ĠOfficials":7286,"Ġdestroy":7287,"ĠHassan":7288,"SU":7289,"Time":7290,"can":7291,"king":7292,"Ġsust":7293,"Ġpaper":7294,"Ġmind":7295,"apter":7296,"anson":7297,"uces":7298,"urned":7299,"Ġinvestor":7300,"ĠSerb":7301,"ĠAdd":7302,"ĠAdrian":7303,"Ġstronghold":7304,"utsche":7305,"ĠBuff":7306,"ĠRockets":7307,"ĠAustria":7308,"ĠColumbia":7309,"piracy":7310,"work":7311,"ĠPublic":7312,"uty":7313,"ĠFox":7314,"Ġaside":7315,"ĠPrince":7316,"Ġearn":7317,"Ġslipped":7318,"Ġdefend":7319,"ĠEnv":7320,"Ġanticipated":7321,"cliffe":7322,"Ġvisiting":7323,"uggish":7324,"Ġreaching":7325,"ambod":7326,"Ġlandmark":7327,"Ġqualifier":7328,"ĠGenesis":7329,"ĠOsama":7330,"Donald":7331,"ĠOTTA":7332,"Internet":7333,"FI":7334,"Ġir":7335,"around":7336,"Ġfarm":7337,"Ġcore":7338,"Ġporn":7339,"ĠMad":7340,"ĠMut":7341,"ĠMour":7342,"Ġcompens":7343,"Ġoffices":7344,"Ġarthritis":7345,"Ġcannot":7346,"Ġheadquarters":7347,"Ġcorruption":7348,"Ġreduced":7349,"Ġholes":7350,"ĠEls":7351,"Ġsuffering":7352,"Ġrejects":7353,"ĠCharges":7354,"ĠLabour":7355,"Ġpicture":7356,"ĠEmbassy":7357,"ĠHOUSTON":7358,"Brief":7359,"FID":7360,"SBC":7361,"den":7362,"uing":7363,"oral":7364,"Ġfat":7365,"ĠColl":7366,"ĠCanc":7367,"ĠMarg":7368,"ĠFar":7369,"ĠRw":7370,"ocal":7371,"Ġagents":7372,"Ġworry":7373,"ĠShort":7374,"azz":7375,"Ġproduce":7376,"arsh":7377,"Ġlargely":7378,"ĠFlat":7379,"Ġ198":7380,"umping":7381,"Ġhitting":7382,"Ġchem":7383,"Ġpresence":7384,"Ġrequire":7385,"Ġsuggests":7386,"ĠTitans":7387,"ĠBattle":7388,"ĠOTTAWA":7389,"54":7390,"Cons":7391,"Court":7392,"NFL":7393,"Top":7394,"arant":7395,"ittle":7396,"Ġbrawl":7397,"Ġmus":7398,"ili":7399,"level":7400,"omet":7401,"acco":7402,"ĠBol":7403,"Ġgran":7404,"Ġprojects":7405,"ĠStaff":7406,"ĠVodafone":7407,"lando":7408,"Ġcouldn":7409,"Ġ55":7410,"ahawks":7411,"Ġparticip":7412,"ĠForest":7413,"Ġbids":7414,"amilton":7415,"Ġsuccessor":7416,"ILLE":7417,"Cola":7418,"ĠMotorola":7419,"Ġassistant":7420,"Ed":7421,"def":7422,"tops":7423,"Ġcart":7424,"ĠCalls":7425,"ĠOb":7426,"ĠOpp":7427,"ulate":7428,"ĠKodak":7429,"uccess":7430,"onda":7431,"ĠArctic":7432,"Ġtriumph":7433,"ĠPhill":7434,"ĠApprov":7435,"Ġpaying":7436,"EST":7437,"ĠMotion":7438,"Ġmodest":7439,"Ġeasier":7440,"Ġcritics":7441,"ĠHelens":7442,"Ġcameras":7443,"Ġpitched":7444,"ĠGarc":7445,"ĠCitigroup":7446,"azeera":7447,"cott":7448,"giving":7449,"Ġdig":7450,"stone":7451,"irt":7452,"ĠWenger":7453,"ĠFind":7454,"ĠRules":7455,"ĠUEFA":7456,"ĠTheft":7457,"umacher":7458,"Ġexpert":7459,"izards":7460,"Ġads":7461,"grade":7462,"urred":7463,"Ġamount":7464,"Ġsuspect":7465,"Ġexplo":7466,"Ġproduced":7467,"Ġanyone":7468,"Ġconduct":7469,"Ġmanufacturers":7470,"Ġwrites":7471,"ĠMosul":7472,"ĠMyan":7473,"Ġurges":7474,"Ġranking":7475,"ĠForecast":7476,"Sw":7477,"TH":7478,"fall":7479,"life":7480,"rone":7481,"Ġign":7482,"Ġhur":7483,"leet":7484,"Ġdoping":7485,"idend":7486,"through":7487,"ĠLine":7488,"Ġsav":7489,"ounced":7490,"inea":7491,"ĠAnth":7492,"ĠOper":7493,"Ġimplement":7494,"BAD":7495,"Ġcausing":7496,"Ġkidnappers":7497,"Ġmeasure":7498,"ĠHostage":7499,"Ġinventories":7500,"Ġresponsible":7501,"Ġchallenges":7502,"Ġdescribed":7503,"sunami":7504,"ĠBOSTON":7505,"ateway":7506,"aying":7507,"ĠFut":7508,"ĠDC":7509,"ĠESP":7510,"Ġproceed":7511,"aching":7512,"Ġimpl":7513,"Ġorbit":7514,"Ġproviding":7515,"ikes":7516,"ĠSea":7517,"Ġjoins":7518,"ucky":7519,"Ġpossibility":7520,"ĠSym":7521,"ĠMuslims":7522,"Ġsuccessfully":7523,"Korea":7524,"ĠMyanmar":7525,".\\\\":7526,"DP":7527,"Ital":7528,"dney":7529,"nel":7530,"ss":7531,"tech":7532,"woman":7533,"Ġcases":7534,"alem":7535,"ĠSocial":7536,"ĠTool":7537,"ĠMany":7538,"Ġlinks":7539,"Ġgro":7540,"ĠFal":7541,"ĠFace":7542,"ĠDet":7543,"Ġseat":7544,"icken":7545,"ĠProv":7546,"ologists":7547,"UST":7548,"Ġagrees":7549,"ĠClose":7550,"Ġcentre":7551,"ĠEdge":7552,"Ġnetworking":7553,"Three":7554,"ĠSharapova":7555,"ĠTitle":7556,"Ġsubsidiary":7557,"ĠNepal":7558,"Ġhelicopter":7559,"Su":7560,"eter":7561,"hill":7562,"atively":7563,"Ġousted":7564,"Ġbull":7565,"Ġmarg":7566,"Ġhike":7567,"Ġdaily":7568,"ĠBan":7569,"ĠBrowns":7570,"ĠWood":7571,"ĠJoin":7572,"abled":7573,"ective":7574,"Ġearned":7575,"Ġworlds":7576,"minute":7577,"Ġexperim":7578,"Ġobtain":7579,"Ġentry":7580,"Ġinsurgent":7581,"Ġsuggested":7582,"Ġillegally":7583,"missions":7584,"ycos":7585,"ĠSolaris":7586,"Ġanswer":7587,"Ġvirtual":7588,"Ġcitizens":7589,"ĠDELHI":7590,"ĠESPN":7591,"Nov":7592,"ln":7593,"mon":7594,"Ġ/":7595,"reck":7596,"isner":7597,"acement":7598,"Ġnorm":7599,"Ġgam":7600,"Ġgraphics":7601,"ĠFoll":7602,"ĠJP":7603,"umber":7604,"Ġsecretary":7605,"enson":7606,"active":7607,"away":7608,"ĠIndians":7609,"Ġblamed":7610,"Ġhelps":7611,"Ġweaker":7612,"ĠMarlins":7613,"remlin":7614,"ĠXbox":7615,"ĠOrlando":7616,"ĠPlayStation":7617,"Ġexpanded":7618,"Ġdelivered":7619,"Ġtalking":7620,"France":7621,"Ġcouple":7622,"Ġreforms":7623,"GB":7624,"High":7625,"Mon":7626,"OC":7627,"lon":7628,"itches":7629,"Ġfate":7630,"aser":7631,"ĠCat":7632,"ĠCross":7633,"ĠCowboys":7634,"ache":7635,"Ġem":7636,"Ġeuros":7637,"ĠWants":7638,"ĠDick":7639,"aste":7640,"Ġoverhaul":7641,"Ġintens":7642,"ample":7643,"Ġ2008":7644,"Ġdisrupt":7645,"Ġ42":7646,"Ġstring":7647,"Ġwarnings":7648,"Ġrecording":7649,"ĠScience":7650,"Ġinfrastructure":7651,"ĠAbd":7652,"Ġversions":7653,"Ġdemanding":7654,"egas":7655,"etrole":7656,"ĠCharley":7657,"Ġaffect":7658,"Ġoverseas":7659,"umsfeld":7660,"ĠUnveils":7661,"Networks":7662,"VILLE":7663,"burn":7664,"nie":7665,"zech":7666,"Ġtre":7667,"eder":7668,"Ġpowers":7669,"Ġbreat":7670,"Ġinaug":7671,"Ġmil":7672,"olves":7673,"Ġep":7674,"ĠGains":7675,"Ġ150":7676,"ĠStra":7677,"Ġspin":7678,"Ġjailed":7679,"Ġ2007":7680,"Ġ66":7681,"Ġ600":7682,"Ġplants":7683,"Ġroundup":7684,"ĠAndrew":7685,"Ġestimated":7686,"Ġfeared":7687,"Ġfavorite":7688,"ĠSEAT":7689,"Ġlockout":7690,"inho":7691,"ĠIllinois":7692,"employment":7693,"99":7694,"LIN":7695,"best":7696,"cle":7697,"tion":7698,"ĠBasketball":7699,"Ġlove":7700,"ĠFav":7701,"ĠEff":7702,"rif":7703,"ĠYears":7704,"fford":7705,"Ġscreens":7706,"Ġ36":7707,"Ġreturning":7708,"Ġcapsule":7709,"ĠConvention":7710,"Ġtargeting":7711,"ĠAgassi":7712,"Ġprogramme":7713,"ĠElectric":7714,"ĠSydney":7715,"ĠAmid":7716,"Ġeveryone":7717,"ĠPartners":7718,"Ġemerging":7719,"Ġpositions":7720,"Ġdownloads":7721,"Ġesp":7722,"Ġhappy":7723,"ĠEconomy":7724,"Ġflying":7725,"European":7726,"Crude":7727,"ecially":7728,"ĠVIEN":7729,"El":7730,"MT":7731,"SS":7732,"Ġtim":7733,"ĠStern":7734,"ĠWater":7735,"ĠGAZ":7736,"ordin":7737,"Ġperhaps":7738,"Ġfined":7739,"Ġdispl":7740,"ortium":7741,"Ġlarger":7742,"Ġrebound":7743,"Ġtitles":7744,"Ġlowest":7745,"ĠSmart":7746,"ĠSPORTS":7747,"ĠTravel":7748,"ĠEnds":7749,"Ġrolled":7750,"Ġsilver":7751,"ĠSweden":7752,"ymnastics":7753,"etroleum":7754,"Business":7755,"Ins":7756,"LD":7757,"dem":7758,"hour":7759,"nya":7760,"race":7761,"western":7762,"Ġhired":7763,"ĠTay":7764,"stroke":7765,"stein":7766,"ĠHere":7767,"ĠHuman":7768,"chnya":7769,"astic":7770,"ipse":7771,"icking":7772,"Ġremember":7773,"Ġmeetings":7774,"ĠATLAN":7775,"ĠGuinea":7776,"ĠChampionships":7777,"Ġcollabor":7778,"Ġdepartment":7779,"ĠNortel":7780,"Ġensure":7781,"53":7782,"Val":7783,"Yankees":7784,"billion":7785,"oard":7786,"ohn":7787,"vic":7788,"Ġet":7789,"Ġcyc":7790,"aly":7791,"ĠCBC":7792,"olen":7793,"ĠEri":7794,"Ġcompared":7795,"Ġcomplex":7796,"ĠVs":7797,"Ġunpre":7798,"odd":7799,"ĠShan":7800,"ANG":7801,"Ġmonthly":7802,"ĠItanium":7803,"ĠCompanies":7804,"Ġfollow":7805,"Ġfollowed":7806,"ĠBlackBerry":7807,"Ġheavyweight":7808,"ĠProtocol":7809,"ĠSilicon":7810,"ography":7811,"Ġcommissioner":7812,"avaliers":7813,"Ġterritory":7814,"PR":7815,"ien":7816,"na":7817,"ĠSince":7818,"Ġdark":7819,"ĠFerguson":7820,"Ġstands":7821,"ĠEst":7822,"ĠInstitute":7823,"Ġackn":7824,"cedented":7825,"Ġelectric":7826,"ĠFlight":7827,"Ġofferings":7828,"Ġbrother":7829,"Ġinstit":7830,"umbled":7831,"Ġspammers":7832,"What":7833,"Ġdiplomats":7834,"Ġastronauts":7835,"Ġreferendum":7836,"Ġparticular":7837,"ĠGAZA":7838,"48":7839,"AH":7840,"Bank":7841,"card":7842,"ga":7843,"making":7844,"Ġsiege":7845,"Ġpole":7846,"Ġbron":7847,"Ġhunt":7848,"ĠTen":7849,"ĠToyota":7850,"ĠMult":7851,"ĠBuc":7852,"ĠRaf":7853,"ĠDani":7854,"ĠDistrict":7855,"Ġasks":7856,"Ġexec":7857,"Ġexact":7858,"Ġpreseason":7859,"Ġwilling":7860,"abe":7861,"Ġsea":7862,"arket":7863,"oints":7864,"ĠRef":7865,"ĠMaria":7866,"Ġshoulder":7867,"Ġformally":7868,"Ġinvasion":7869,"Ġoutsourcing":7870,"Ġdistribution":7871,"ĠTelecom":7872,"Ġaccepted":7873,"Ġdeputy":7874,"ĠAnthony":7875,"dom":7876,"eet":7877,"no":7878,"sized":7879,"vard":7880,"Ġcabinet":7881,"Ġpan":7882,"ĠPfizer":7883,"ĠBA":7884,"ĠWell":7885,"ĠFile":7886,"ĠRest":7887,"Ġrich":7888,"veral":7889,"Ġprim":7890,"Ġworried":7891,"Ġmarked":7892,"Ġdesert":7893,"Ġprofessional":7894,"ĠAlthough":7895,"Ġdoor":7896,"Ġmostly":7897,"urgents":7898,"ĠSupply":7899,"ITED":7900,"Ġsentiment":7901,"Ġdrivers":7902,"Ġarchitect":7903,"Ġmosque":7904,"elescope":7905,"Ġacknowled":7906,"'ve":7907,"43":7908,"Olymp":7909,"itas":7910,"ĠSell":7911,"teries":7912,"ĠTE":7913,"ĠMeg":7914,"Ġrushed":7915,"ĠLand":7916,"ĠONL":7917,"abil":7918,"Ġclient":7919,"portation":7920,"ĠAdobe":7921,"inked":7922,"offs":7923,"ĠManmohan":7924,"Ġcompetitive":7925,"Ġcompetitors":7926,"aska":7927,"ĠCricket":7928,"Ġwatching":7929,"Ġcapture":7930,"Ġsupplier":7931,"Ġstruggled":7932,"Palm":7933,"Britain":7934,"ĠHenman":7935,"ĠNetscape":7936,"Ġsurface":7937,"ĠHollinger":7938,"Fire":7939,"Res":7940,"fol":7941,"ĠCrit":7942,"ĠFil":7943,"ĠRace":7944,"ĠHills":7945,"riend":7946,"Ġvast":7947,"usts":7948,"ĠChase":7949,"ĠChavez":7950,"obb":7951,"ĠUniversal":7952,"Ġapprove":7953,"Ġappointed":7954,"Ġaccusing":7955,"Ġelected":7956,"ĠiMac":7957,"Ġparents":7958,"Ġpolitics":7959,"ĠParliament":7960,"Ġengineers":7961,"ĠHarry":7962,"Ġgunmen":7963,"ĠUrges":7964,"Ġvaccine":7965,"Ġrelationship":7966,"Ġprospects":7967,"Ġshrine":7968,"vania":7969,"LAMA":7970,"big":7971,"core":7972,"dro":7973,"foot":7974,"worth":7975,"ych":7976,"zen":7977,"Ġtrop":7978,"inoc":7979,"itarian":7980,"ĠMoon":7981,"ĠPict":7982,"imming":7983,"rah":7984,"emale":7985,"ĠVa":7986,"Ġadj":7987,"Ġcru":7988,"ĠBlast":7989,"ĠCommun":7990,"ĠSerena":7991,"ippi":7992,"ĠEarly":7993,"Ġexperience":7994,"ĠPeru":7995,"Indones":7996,"ĠWeigh":7997,"ĠHarr":7998,"Ġfactory":7999,"ĠTrafford":8000,"Canada":8001,"market":8002,"Ġbusy":8003,"ĠFoundation":8004,"ĠCampaign":8005,"ĠSemiconductor":8006,"Ġupdates":8007,"Ġbronze":8008,"LAMABAD":8009,"Can":8010,"Tur":8011,"cut":8012,"gs":8013,"ka":8014,"Ġ39":8015,"Ġtells":8016,"Ġapart":8017,"onics":8018,"rect":8019,"ĠSummary":8020,"ĠMen":8021,"eless":8022,"ĠBes":8023,"oted":8024,"ĠNCAA":8025,"ĠDNA":8026,"ĠHu":8027,"ĠEmp":8028,"ĠOl":8029,"aken":8030,"ugby":8031,"ĠThousands":8032,"Ġflo":8033,"inson":8034,"ĠConcer":8035,"Ġprovides":8036,"Ġincluded":8037,"ĠElectronic":8038,"Ġtransfer":8039,"ĠControl":8040,"Ġcurrently":8041,"Ġshareholder":8042,"Ġawarded":8043,"ĠISLAMABAD":8044,"ĠStephen":8045,"ĠColombia":8046,"ĠATLANTA":8047,"ĠONLINE":8048,"'ll":8049,"23":8050,"85":8051,"Ear":8052,"sl":8053,"Ġtap":8054,"hew":8055,"atically":8056,"Ġfelt":8057,"Ġcult":8058,"ĠCoca":8059,"ĠLinks":8060,"ĠEastern":8061,"ems":8062,"umers":8063,"ĠVegas":8064,"eps":8065,"achi":8066,"Ġfinancing":8067,"ĠAsk":8068,"Ġblame":8069,"ĠProgram":8070,"oking":8071,"phis":8072,"Ġoperators":8073,"Ġtargeted":8074,"ipper":8075,"Ġpayments":8076,"ĠOffic":8077,"ĠAttacks":8078,"Ġlimit":8079,"Ġreasons":8080,"Ġattempts":8081,"Ġindividual":8082,"Brazil":8083,"ĠMargaret":8084,"ĠSEATTLE":8085,"Ag":8086,"Mobile":8087,"Sec":8088,"Ġfamous":8089,"ĠPct":8090,"vement":8091,"ĠGard":8092,"ĠLen":8093,"ĠLuc":8094,"ĠLakers":8095,"Ġang":8096,"osn":8097,"ully":8098,"Ġlets":8099,"Ġcooperation":8100,"Ġprec":8101,"Ġphoto":8102,"ĠZone":8103,"Ġinternal":8104,"Ġsubject":8105,"ĠSupport":8106,"alties":8107,"Ġpatents":8108,"ĠJustin":8109,"Ġmultiple":8110,"Ġeffective":8111,"ĠDoCoMo":8112,"ĠVictory":8113,"ĠRelease":8114,"Ġunprecedented":8115,"AV":8116,"Week":8117,"Ġpet":8118,"Ġtoug":8119,"Ġbrain":8120,"ishes":8121,"icut":8122,"ĠSep":8123,"Ġhackers":8124,"ĠMatch":8125,"ĠDiamond":8126,"Ġhasn":8127,"Ġ37":8128,"Ġuses":8129,"Ġaccel":8130,"Ġsupposed":8131,"Ġsentence":8132,"ĠDemand":8133,"ĠChechnya":8134,"Ġconvoy":8135,"Ġrobot":8136,"ĠPentium":8137,"CNN":8138,"MB":8139,"Putin":8140,"inition":8141,"Ġpounds":8142,"ĠCRM":8143,"ĠMat":8144,"ader":8145,"ĠBec":8146,"uth":8147,"ĠNic":8148,"ĠHalf":8149,"Ġbeef":8150,"Ġheav":8151,"ifies":8152,"Ġwhole":8153,"ĠReady":8154,"Ġserving":8155,"Ġ78":8156,"Ġ800":8157,"Ġassess":8158,"Ġknows":8159,"atorial":8160,"Ġfreeze":8161,"Ġhomered":8162,"ĠPolit":8163,"ĠPeters":8164,"Ġmembership":8165,"Ġlanding":8166,"ĠClemens":8167,"Ġcopies":8168,"Ġcontroversy":8169,"ĠNearly":8170,"uxury":8171,"Ġshipments":8172,"Ġseparatist":8173,"ĠSEOUL":8174,"Ġpenalty":8175,"Ġblew":8176,"ĠSets":8177,"ĠProm":8178,"iga":8179,"ĠNavy":8180,"unar":8181,"ĠEll":8182,"ulated":8183,"ORLD":8184,"ghai":8185,"Ġ43":8186,"Ġboom":8187,"Ġbright":8188,"ĠMcN":8189,"ernand":8190,"apster":8191,"Ġprivately":8192,"Ġfocused":8193,"Ġ1990":8194,"urdoch":8195,"Ġstrategic":8196,"ĠHalliburton":8197,"Scientists":8198,"Ġimmediate":8199,"ĠAbbey":8200,"ĠCeltic":8201,"armaceutical":8202,"ĠVIENNA":8203,"ahead":8204,"face":8205,"Ġfish":8206,"Ġmeth":8207,"ĠTops":8208,"ĠBER":8209,"ĠBills":8210,"ĠNick":8211,"Ġdeterm":8212,"ĠKe":8213,"ĠVice":8214,"Ġreserve":8215,"Ġcrime":8216,"ANN":8217,"ĠUNITED":8218,"Ġpromise":8219,"Ġembattled":8220,"Ġgreatest":8221,"ĠReturn":8222,"Ġprotests":8223,"ĠValley":8224,"Ġtyp":8225,"Ġphotos":8226,"ĠVikings":8227,"DT":8228,"mouth":8229,"ints":8230,"attered":8231,"Ġwides":8232,"Ġwickets":8233,"ĠCOL":8234,"ĠCabinet":8235,"Ġgaming":8236,"ĠHospital":8237,"ĠHamilton":8238,"ĠOF":8239,"ception":8240,"ocide":8241,"Ġcongr":8242,"endi":8243,"Ġshown":8244,"Ġexhib":8245,"Ġuniversity":8246,"Ġmanage":8247,"Ġsluggish":8248,"Ġweigh":8249,"Ġbrings":8250,"leyton":8251,"Ġregulatory":8252,"ĠDefeat":8253,"Ġrevenues":8254,"ointment":8255,"Ġappearance":8256,"Ġresponsibility":8257,"Ġgathered":8258,"Ġscientific":8259,"ĠSymantec":8260,"BR":8261,"Do":8262,"Group":8263,"Hol":8264,"Shell":8265,"said":8266,"wag":8267,"Ġpal":8268,"Ġmother":8269,"ayers":8270,"Ġdiss":8271,"ouble":8272,"Ġgovernor":8273,"ĠFaces":8274,"ĠLleyton":8275,"Ġspons":8276,"Ġclothing":8277,"antan":8278,"ĠSpe":8279,"Ġallies":8280,"ĠRevenue":8281,"Ġbackup":8282,"Ġmeters":8283,"Ġcommander":8284,"Ġpayment":8285,"Ġproducers":8286,"ĠAllen":8287,"Ġfacility":8288,"Ġfamilies":8289,"Ġfeet":8290,"Ġdenies":8291,"Ġlimited":8292,"ĠMilitary":8293,"Ġcrackdown":8294,"ĠRaptors":8295,"Ġflagship":8296,"FCC":8297,"ding":8298,"orp":8299,"armed":8300,"Ġfought":8301,"Ġod":8302,"isf":8303,"ĠClear":8304,"ĠCzech":8305,"ĠPa":8306,"ĠPenn":8307,"ĠRoss":8308,"Ġconver":8309,"ĠInv":8310,"Ġexcl":8311,"abad":8312,"Ġaboard":8313,"ossil":8314,"Ġfloods":8315,"ĠNEC":8316,"ĠMarines":8317,"Ġgrid":8318,"ĠWinter":8319,"ĠDemocrat":8320,"Ġcommitted":8321,"Ġsweeping":8322,"Ġbrokerage":8323,"Ġlandsl":8324,"Ġespecially":8325,"27":8326,"600":8327,"Hurricane":8328,"KO":8329,"gate":8330,"pread":8331,"whel":8332,"ario":8333,"ĠSoon":8334,"ĠSigns":8335,"Ġmig":8336,"oms":8337,"ĠBrew":8338,"ĠNasdaq":8339,"imately":8340,"agues":8341,"Ġconcess":8342,"Ġexerc":8343,"ĠChamp":8344,"Ġfiring":8345,"amped":8346,"roper":8347,"planes":8348,"Ġreligious":8349,"ĠAlliance":8350,"Ġformal":8351,"Ġeducation":8352,"Ġemployee":8353,"Ġpolicies":8354,"meter":8355,"ĠEvery":8356,"Ġpictures":8357,"Ġinitiative":8358,"ĠKenneth":8359,"oenix":8360,"Mer":8361,"UJA":8362,"Year":8363,"has":8364,"ram":8365,"ties":8366,"rey":8367,"Ġhat":8368,"Ġloyal":8369,"Ġreporters":8370,"ĠLas":8371,"ksson":8372,"Ġshoppers":8373,"ĠKremlin":8374,"ĠChirac":8375,"actions":8376,"Ġretired":8377,"ĠExpected":8378,"ĠBriton":8379,"Ġcapabilities":8380,"cessor":8381,"ventus":8382,"fully":8383,"ĠDeutsche":8384,"Ġthreatens":8385,"Ġstudios":8386,"ĠDepot":8387,"Ġpopulation":8388,"Ġequity":8389,"Ġdrops":8390,"Ġreality":8391,"Ġslowdown":8392,"ĠRepublicans":8393,"ĠSwedish":8394,"ĠDevelopment":8395,"Ġorigin":8396,"ebruary":8397,"ĠConnecticut":8398,"After":8399,"Life":8400,"uwait":8401,"where":8402,"Ġtank":8403,"ono":8404,"Ġfierce":8405,"ĠSoutheast":8406,"ĠCNN":8407,"ĠMu":8408,"ĠNATION":8409,"Ġraces":8410,"ĠDoc":8411,"ĠEm":8412,"Ġancient":8413,"acker":8414,"ounter":8415,"Quarter":8416,"Ġblog":8417,"ĠReview":8418,"azard":8419,"Ġsetback":8420,"prises":8421,"Ġ75":8422,"ĠIsraelis":8423,"Ġowned":8424,"Chrysler":8425,"ersonal":8426,"Ġconcerned":8427,"Ġlowered":8428,"anny":8429,"ĠChiefs":8430,"ADEL":8431,"ĠMerc":8432,"IRO":8433,"ĠHenry":8434,"Ġcalm":8435,"Ġbolster":8436,"Ġalternative":8437,"Money":8438,"North":8439,"gins":8440,"gling":8441,"icle":8442,"Ġmob":8443,"Ġmail":8444,"ĠTD":8445,"stop":8446,"ĠBCS":8447,"ĠRFID":8448,"ĠDomin":8449,"ĠUse":8450,"unction":8451,"ĠJul":8452,"istics":8453,"ĠLeast":8454,"Ġteammates":8455,"Ġslowing":8456,"Ġmeets":8457,"ikh":8458,"backed":8459,"ĠSeahawks":8460,"Ġrestore":8461,"Ġrevolution":8462,"ĠBuys":8463,"Eng":8464,"Ġsparked":8465,"Ġoptimistic":8466,"Ġdetermine":8467,"Calif":8468,"Ham":8469,"yers":8470,"Ġbra":8471,"ĠSH":8472,"Ġthin":8473,"ĠIE":8474,"Ġlif":8475,"Ġgap":8476,"Ġstations":8477,"third":8478,"ryst":8479,"ĠSpurs":8480,"Ġimports":8481,"onsin":8482,"aimler":8483,"Ġmodern":8484,"Ġgasoline":8485,"Ġcarriers":8486,"ĠSPACE":8487,"isconsin":8488,"ĠKnicks":8489,"ĠMemphis":8490,"William":8491,"ĠClinton":8492,"ĠShanghai":8493,"inochet":8494,"Ġwidespread":8495,"800":8496,"cap":8497,"iVo":8498,"uate":8499,"Ġcrown":8500,"ĠSoccer":8501,"ĠAC":8502,"ĠRose":8503,"ĠGain":8504,"changed":8505,"Ġquality":8506,"ĠVen":8507,"Ġenforce":8508,"Ġtrend":8509,"ancy":8510,"Ġadap":8511,"Ġdism":8512,"ĠShows":8513,"ĠLehman":8514,"ology":8515,"ĠPhoenix":8516,"Ġswing":8517,"string":8518,"ĠMayor":8519,"ĠContract":8520,"ĠHolds":8521,"ĠLaur":8522,"ĠPentagon":8523,"Ġpipeline":8524,"ingham":8525,"ĠSand":8526,"Ġhurd":8527,"Ġdrag":8528,"ĠCa":8529,"ĠMI":8530,"ĠMust":8531,"ĠMAR":8532,"ĠPS":8533,"adow":8534,"ighed":8535,"ĠJama":8536,"Ġshake":8537,"osevic":8538,"ological":8539,"Ġvictim":8540,"useum":8541,"Ġmedic":8542,"Ġtrials":8543,"Ġeffects":8544,"Ġsuspend":8545,"Ġcoaching":8546,"Ġpeer":8547,"ĠFinance":8548,"Ġfunding":8549,"Ġdisputed":8550,"AKAR":8551,"chenko":8552,"ĠSirius":8553,"Ġmomentum":8554,"Ġorganizations":8555,"Ġfriendly":8556,"Ġrisks":8557,"ĠThanksgiving":8558,"Ġcompensation":8559,"Gre":8560,"Real":8561,"po":8562,"ui":8563,"Ġfemale":8564,"Ġwreck":8565,"ĠSven":8566,"ĠCavaliers":8567,"acom":8568,"ĠPros":8569,"ĠGartner":8570,"ewhere":8571,"eme":8572,"ocus":8573,"ĠKazaa":8574,"ĠChild":8575,"Ġally":8576,"Ġtrue":8577,"angered":8578,"ĠProject":8579,"ASE":8580,"Ġpassing":8581,"backer":8582,"Ġopponent":8583,"ette":8584,"Ġexplosions":8585,"Ġdelivery":8586,"Ġhandsets":8587,"ĠLawsu":8588,"ĠSilver":8589,"Ġstretch":8590,"ĠOfficer":8591,"antanamo":8592,"38":8593,"VP":8594,"WN":8595,"lus":8596,"prom":8597,"oren":8598,"ĠBull":8599,"ĠHarmony":8600,"charg":8601,"ĠOri":8602,"oco":8603,"ivors":8604,"ellor":8605,"Ġclients":8606,"ĠNEWS":8607,"Ġknocked":8608,"ĠAndreas":8609,"ĠResearchers":8610,"peer":8611,"Ġ1999":8612,"Ġpublisher":8613,"Ġcivilian":8614,"Ġcollaps":8615,"Ġloans":8616,"Ġguns":8617,"Ġgenet":8618,"Ġlicense":8619,"breaking":8620,"Ġscientist":8621,"ĠRaiders":8622,"Ġlearned":8623,"Ġliquid":8624,"Ġinfringement":8625,"ĠBuffalo":8626,"44":8627,"Sy":8628,"more":8629,"match":8630,"win":8631,"Ġsue":8632,"Ġtheft":8633,"Ġbowl":8634,"ĠSal":8635,"ĠMO":8636,"Ġnecess":8637,"ĠFebruary":8638,"ĠGro":8639,"Ġplenty":8640,"ĠKo":8641,"ounted":8642,"ogue":8643,"Ġfled":8644,"Ġcoaches":8645,"Ġdesper":8646,"Ġ77":8647,"Ġvictories":8648,"ĠAlso":8649,"ĠResults":8650,"Ġproved":8651,"Ġdiscount":8652,"ENT":8653,"Ġeasily":8654,"Ġrepair":8655,"Ġhandset":8656,"ircuit":8657,"ĠCheney":8658,"ĠHopes":8659,"Ġhumans":8660,"ĠAthletics":8661,"Che":8662,"pur":8663,"rict":8664,"senal":8665,"world":8666,"Ġtape":8667,"Ġsense":8668,"Ġfashion":8669,"Ġbills":8670,"roc":8671,"ĠSO":8672,"ĠMAN":8673,"ĠPut":8674,"ĠBul":8675,"Ġloses":8676,"ĠGives":8677,"ĠGene":8678,"ups":8679,"ĠEisner":8680,"uls":8681,"iable":8682,"Ġcha":8683,"ĠThai":8684,"eyer":8685,"Ġconsole":8686,"encing":8687,"Ġecl":8688,"Ġextending":8689,"Ġteleph":8690,"Ġsubmar":8691,"struments":8692,"Ġlegend":8693,"Ġbarely":8694,"ĠMedical":8695,"Ġconfirm":8696,"Ġstorms":8697,"SPACE":8698,"Ġdominant":8699,"Ġsettled":8700,"Ġinfluence":8701,"Ġtentative":8702,"Ġwelcomed":8703,"ĠDaniel":8704,"250":8705,"Dis":8706,"FOR":8707,"lights":8708,"nan":8709,"Ġpage":8710,"lets":8711,"ĠMAD":8712,"ĠPy":8713,"Ġlanguage":8714,"igation":8715,"ĠGoes":8716,"Ġcomfort":8717,"Ġexisting":8718,"ĠKl":8719,"ivendi":8720,"Ġoverwhel":8721,"Ġunus":8722,"issippi":8723,"tty":8724,"Ġjustice":8725,"Ġrestaur":8726,"ĠSymb":8727,"scar":8728,"ĠGlazer":8729,"Ġdividend":8730,"Ġreaches":8731,"ambling":8732,"Ġsimple":8733,"ĠSuit":8734,"ĠBerlin":8735,"ĠBeats":8736,"Ġprepares":8737,"Ġcasual":8738,"ylvania":8739,"Ġunexpectedly":8740,"Ġinnov":8741,"Ret":8742,"Vir":8743,"ruction":8744,"Ġ\\\\":8745,"inion":8746,"Ġpound":8747,"ĠSach":8748,"acter":8749,"ĠFen":8750,"ĠRE":8751,"ĠHal":8752,"ĠHill":8753,"ĠLittle":8754,"ĠJay":8755,"ĠInst":8756,"ĠKidnapp":8757,"Ġagenda":8758,"ĠChad":8759,"ĠThatcher":8760,"abb":8761,"Ġworked":8762,"Ġmovement":8763,"Ġcolumn":8764,"spam":8765,"Ġgrad":8766,"Ġstrained":8767,"load":8768,"rizz":8769,"Ġpromising":8770,"Ġmarch":8771,"ĠSchumacher":8772,"Ġarrives":8773,"Ġcombined":8774,"Ġvolunt":8775,"ĠInsurance":8776,"Ġbattles":8777,"Ġutility":8778,"Ġgranted":8779,"Nort":8780,"Pat":8781,"Ġbug":8782,"ĠBest":8783,"Ġeast":8784,"ĠWrit":8785,"ĠWisconsin":8786,"ĠRacing":8787,"Ġrum":8788,"imedia":8789,"rage":8790,"ĠHorn":8791,"rie":8792,"sey":8793,"ĠIndies":8794,"Ġconsolid":8795,"Ġ51":8796,"ĠAlitalia":8797,"Ġhopeful":8798,"Ġrounds":8799,"Ġrevised":8800,"Ġengines":8801,"Ġboosting":8802,"Ġdetained":8803,"Ġpromote":8804,"Ġcreation":8805,"ĠSpaceShipOne":8806,"ĠGolden":8807,"Ġletter":8808,"Ġplea":8809,"Ġfrequ":8810,"Ġcrowded":8811,"itzerland":8812,"ĠEverton":8813,"Ġwaters":8814,"ĠAuthority":8815,"ĠBusch":8816,"ĠPHIL":8817,"Cont":8818,"De":8819,"John":8820,"KS":8821,"Powell":8822,"mos":8823,"Ġsand":8824,"orious":8825,"ĠCast":8826,"ĠCredit":8827,"ĠBi":8828,"ĠWake":8829,"Ġrail":8830,"ĠHung":8831,"ĠKent":8832,"ampton":8833,"ELL":8834,"uki":8835,"flix":8836,"ĠBeslan":8837,"Day":8838,"Karzai":8839,"Ukra":8840,"West":8841,"bro":8842,"font":8843,"py":8844,"Ġtask":8845,"Ġfixed":8846,"leading":8847,"ĠAU":8848,"ĠIowa":8849,"utious":8850,"ĠWizards":8851,"ĠLu":8852,"aka":8853,"Ġvows":8854,"Ġexceed":8855,"ĠView":8856,"Ġrough":8857,"Ġroads":8858,"Ġunemployment":8859,"ĠMonetary":8860,"assador":8861,"Ġbecomes":8862,"Ġremove":8863,"ĠMarc":8864,"nsylvania":8865,"Ġ2012":8866,"ĠWho":8867,"Ġministry":8868,"ĠGuid":8869,"Ġcautious":8870,"Ġregulator":8871,"Ġmerge":8872,"Ġestate":8873,"ĠContin":8874,"Black":8875,"Ġdocument":8876,"Ġmagn":8877,"OOG":8878,"Ġpersu":8879,"ĠCeltics":8880,"Ġpeacekeepers":8881,"Briefly":8882,"ĠGarcia":8883,"ĠNATIONS":8884,"Def":8885,"ML":8886,"Not":8887,"bi":8888,"bank":8889,"elect":8890,"vin":8891,"Ġtail":8892,"Ġfal":8893,"ĠDi":8894,"ĠDies":8895,"rapped":8896,"Ġexport":8897,"Ġplaces":8898,"ellow":8899,"ĠUSATODAY":8900,"ĠPrison":8901,"ĠIncre":8902,"Ġdisarm":8903,"Ġ62":8904,"Ġ69":8905,"Ġslowed":8906,"Ġconsortium":8907,"ĠArm":8908,"Ġ56":8909,"USATODAY":8910,"Ġimproper":8911,"Ġhero":8912,"Ġtested":8913,"otte":8914,"Ġdemanded":8915,"ĠArsene":8916,"Ġbillions":8917,"Ġwrite":8918,"Ġidentified":8919,"ĠKenya":8920,"Ġbloody":8921,"ĠNorway":8922,"ĠDoub":8923,"Ġestabl":8924,"ĠEnvironment":8925,"Valley":8926,"folio":8927,"AKARTA":8928,"ĠFenway":8929,"Ab":8930,"Gen":8931,"House":8932,"Sprint":8933,"Tokyo":8934,"War":8935,"care":8936,"jected":8937,"prod":8938,"oran":8939,"enters":8940,"Ġfully":8941,"Ġthrown":8942,"ĠNames":8943,"ĠHun":8944,"Ġanger":8945,"ĠChange":8946,"ĠYank":8947,"ĠUSC":8948,"overning":8949,"Ġscene":8950,"izz":8951,"ĠBln":8952,"nedy":8953,"Ġsoared":8954,"ĠSean":8955,"Ġinvestigators":8956,"holders":8957,"Ġcells":8958,"ĠPatrick":8959,"Ġenvoy":8960,"aughter":8961,"ĠOwen":8962,"Ġmountain":8963,"ĠBroncos":8964,"Nortel":8965,"Egypt":8966,"LA":8967,"alks":8968,"rets":8969,"Ġpath":8970,"Ġpiece":8971,"Ġhiring":8972,"ĠAR":8973,"ĠBird":8974,"Ġluxury":8975,"ira":8976,"ĠFinds":8977,"ĠRays":8978,"ĠEric":8979,"agn":8980,"Ġworse":8981,"Ġoutl":8982,"overty":8983,"Ġhighlight":8984,"AST":8985,"Ġmeant":8986,"Ġcapable":8987,"Ġsomeone":8988,"Ġhoped":8989,"Ġfails":8990,"engals":8991,"Ġpitching":8992,"Ġpilot":8993,"Ġtyphoon":8994,"Ġcommitment":8995,"Feder":8996,"Ġrefugees":8997,"Ġpostponed":8998,"PHIA":8999,"ĠFerrari":9000,"ĠOrders":9001,"41":9002,"Halo":9003,"Security":9004,"To":9005,"bon":9006,"mad":9007,"ping":9008,"Ġticket":9009,"Ġsle":9010,"ĠMod":9011,"Ġneck":9012,"ĠFiles":9013,"ĠGil":9014,"ĠHurt":9015,"ĠLP":9016,"ĠLCD":9017,"Ġcomment":9018,"Ġyield":9019,"Ġperman":9020,"Ġdisk":9021,"Ġdefended":9022,"Ġpreview":9023,"ĠForbes":9024,"ĠClimb":9025,"Ġsearching":9026,"ELD":9027,"ukee":9028,"ĠSwitzerland":9029,"Blue":9030,"Ġsimply":9031,"ĠSmall":9032,"Ġseriously":9033,"Ġsexual":9034,"ĠRamad":9035,"ĠOKs":9036,"initely":9037,"Ġreserves":9038,"Ġrecru":9039,"arrass":9040,"ĠFollowing":9041,"Ġheavily":9042,"ADELPHIA":9043,"NHL":9044,"Wall":9045,"Ziff":9046,"aith":9047,"lies":9048,"with":9049,"inated":9050,"Ġwider":9051,"ĠAmb":9052,"acre":9053,"ĠWhe":9054,"Ġride":9055,"ĠDream":9056,"ĠLOU":9057,"ĠJAKARTA":9058,"Ġconstitution":9059,"ĠStake":9060,"ĠChips":9061,"ĠVill":9062,"owned":9063,"hent":9064,"Ġcoordin":9065,"ĠOpens":9066,"ĠZiff":9067,"ippers":9068,"Ġsuspic":9069,"amily":9070,"ĠAnnounces":9071,"Ġweakness":9072,"Ġcelebrate":9073,"Ġprior":9074,"Ġescal":9075,"Ġwelcome":9076,"Ġprospect":9077,"Ġprompting":9078,"ĠQuarterly":9079,"Ġrecommend":9080,"ĠSquare":9081,"aimlerChrysler":9082,"Williams":9083,"ĠOrioles":9084,"cats":9085,"ratings":9086,"icy":9087,"icate":9088,"ĠSoy":9089,"Ġhar":9090,"Ġdre":9091,"ĠAff":9092,"ĠTalk":9093,"ĠCath":9094,"ĠBor":9095,"Ġreading":9096,"ĠJudge":9097,"Ġacadem":9098,"airn":9099,"ĠPalace":9100,"Ġgren":9101,"Ġaiming":9102,"ICE":9103,"Thursday":9104,"ĠEliot":9105,"ĠMauresmo":9106,"Ġelse":9107,"Ġstormed":9108,"IEW":9109,"ographic":9110,"ĠHugo":9111,"Ġdiscovery":9112,"Ġsurrounding":9113,"Ġaggressive":9114,"Ġexactly":9115,"Cong":9116,"WORLD":9117,"die":9118,"erth":9119,"itable":9120,"Ġfeed":9121,"Ġfinger":9122,"Ġbow":9123,"eted":9124,"ĠWTA":9125,"ĠFort":9126,"Ġrushing":9127,"ĠList":9128,"akh":9129,"agle":9130,"lton":9131,"ĠViolence":9132,"Ġintended":9133,"ancellor":9134,"Ġ67":9135,"Ġflag":9136,"ĠSeveral":9137,"Ġbeaten":9138,"Ġreflect":9139,"ĠAngel":9140,"Ġdetain":9141,"Ġolder":9142,"Ġloan":9143,"Ġstruggles":9144,"Ġsomet":9145,"ĠRodrig":9146,"Ġdestruction":9147,"Ġprosecutor":9148,"coni":9149,"ĠCyber":9150,"Ġhorse":9151,"ĠTaylor":9152,"ĠPHILADELPHIA":9153,"82":9154,"Br":9155,"Treas":9156,"mes":9157,"wall":9158,"Ġtoss":9159,"ĠBelt":9160,"Ġgovern":9161,"ĠNight":9162,"ĠFraud":9163,"Ġstyle":9164,"Ġrape":9165,"ĠHundreds":9166,"ĠEight":9167,"ĠKaz":9168,"Ġupbeat":9169,"ĠIndex":9170,"ĠSpec":9171,"Ġconspiracy":9172,"Ġregime":9173,"Ġsues":9174,"ĠBankrupt":9175,"Ġadvoc":9176,"Ġbreakthrough":9177,"Ġproposals":9178,"Ġrocked":9179,"Indian":9180,"waukee":9181,"ĠSafety":9182,"Ġbaseman":9183,"Ġcommunist":9184,"ĠSiemens":9185,"ĠEquatorial":9186,"Ġdeadliest":9187,"ĠJaguar":9188,"Virgin":9189,"86":9190,"Niger":9191,"UA":9192,"oration":9193,"Ġcos":9194,"Ġwage":9195,"Ġbond":9196,"ĠSav":9197,"irming":9198,"Ġeve":9199,"ĠFans":9200,"Ġstood":9201,"Ġrig":9202,"ĠLet":9203,"oster":9204,"uling":9205,"Ġexit":9206,"Ġroy":9207,"Ġfinals":9208,"ĠPhones":9209,"ĠManager":9210,"ĠATA":9211,"ĠMusab":9212,"Ġpoison":9213,"OME":9214,"Ġaudio":9215,"ĠTyphoon":9216,"Ġkicked":9217,"ĠCosts":9218,"Ġathletes":9219,"ĠEyes":9220,"ĠBallmer":9221,"Ġmaterials":9222,"ĠLynch":9223,"ĠYankee":9224,"Boston":9225,"FDA":9226,"Giants":9227,"double":9228,"gl":9229,"iences":9230,"ta":9231,"ĠSale":9232,"Ġded":9233,"Ġdistrict":9234,"ĠAh":9235,"ĠAward":9236,"ĠCas":9237,"ĠMunich":9238,"acts":9239,"ĠPLC":9240,"Ġgoverning":9241,"ĠRams":9242,"ĠRicky":9243,"Ġstir":9244,"estyle":9245,"ĠDU":9246,"ĠHonda":9247,"ĠLike":9248,"ĠLSU":9249,"chip":9250,"Ġheight":9251,"ĠThrough":9252,"Ġwinners":9253,"ĠLeft":9254,"Ġdesk":9255,"Ġrecorded":9256,"rants":9257,"Ġsignal":9258,"Ġjobless":9259,"lining":9260,"Ġsteam":9261,"iety":9262,"ĠJuventus":9263,"Ġdoubts":9264,"Ġreveal":9265,"ĠKennedy":9266,"newratings":9267,"ĠDebate":9268,"uzz":9269,"ĠPhilippine":9270,"Ġjournalist":9271,"Ġprompted":9272,"Ġabducted":9273,"Global":9274,"Ġassassination":9275,"rystal":9276,"BALL":9277,"Search":9278,"cr":9279,"tiz":9280,"yon":9281,"Ġerr":9282,"Ġaer":9283,"enport":9284,"Ġpool":9285,"Ġbrew":9286,"ĠSAP":9287,"ĠAlt":9288,"ĠCro":9289,"ĠCop":9290,"idays":9291,"ĠBox":9292,"ĠBosn":9293,"uttle":9294,"Ġsteal":9295,"Ġstroke":9296,"Ġranks":9297,"ĠStorage":9298,"Ġlearn":9299,"ĠKhan":9300,"ially":9301,"Ġdisp":9302,"ortgage":9303,"ĠReach":9304,"Ġtops":9305,"Ġ84":9306,"ociety":9307,"ĠDavenport":9308,"ĠBarb":9309,"ĠMoham":9310,"Ġfactories":9311,"Ġgaining":9312,"ĠIND":9313,"Ġdiplomatic":9314,"Ġflaws":9315,"ĠScottish":9316,"Ġrepresenting":9317,"Ġregarding":9318,"ambodia":9319,"ĠPhillies":9320,"Milit":9321,"Nintendo":9322,"OPEC":9323,"RP":9324,"Ty":9325,"ean":9326,"friend":9327,"iec":9328,"yang":9329,"Ġaide":9330,"Ġpark":9331,"Ġmour":9332,"oum":9333,"ĠTown":9334,"ĠCour":9335,"stri":9336,"style":9337,"Ġones":9338,"ĠIR":9339,"Ġforcing":9340,"Ġnomin":9341,"Ġla":9342,"Ġlifts":9343,"ĠFair":9344,"ĠFuel":9345,"Ġrush":9346,"ĠGive":9347,"ighter":9348,"Ġshrug":9349,"Ġcomprom":9350,"uez":9351,"Ġexpensive":9352,"Ġscan":9353,"Ġtrust":9354,"ORCL":9355,"ĠRejects":9356,"Ġ54":9357,"Ġimpose":9358,"Ġactually":9359,"iverse":9360,"ĠAgrees":9361,"OSE":9362,"Ġstudent":9363,"ĠGuantanamo":9364,"Ġprocessing":9365,"perts":9366,"Ġcaution":9367,"uggets":9368,"ĠEli":9369,"Ġballot":9370,"Ġmidfielder":9371,"Ġreplaced":9372,"ĠMississippi":9373,"Ġinsurgency":9374,"ĠChristian":9375,"Ġsurvived":9376,"ĠInsurgents":9377,"ĠRebel":9378,"ĠCharlotte":9379,"ĠMachines":9380,"ĠBelgium":9381,"ĠWorries":9382,"biggest":9383,"ĠDiamondbacks":9384,"51":9385,"Bron":9386,"Per":9387,"gment":9388,"kar":9389,"orial":9390,"Ġpushes":9391,"Ġinform":9392,"Ġhij":9393,"ĠTry":9394,"ĠTrib":9395,"ĠPinochet":9396,"ĠBert":9397,"irk":9398,"riage":9399,"Ġpricing":9400,"Ġexpands":9401,"ishi":9402,"ORT":9403,"Ġslip":9404,"Ġpretty":9405,"ĠMarion":9406,"Ġbattered":9407,"Ġcompeting":9408,"Ġasking":9409,"Ġballots":9410,"Ġhumanitarian":9411,"ĠRoad":9412,"ĠInvestment":9413,"Phill":9414,"ĠMilwaukee":9415,"2004":9416,"olesale":9417,"ĠOwens":9418,"Ġoriginal":9419,"ĠAbbas":9420,"Ġcyber":9421,"Ġquietly":9422,"Ġdetermined":9423,"Ġdestroyed":9424,"ĠTEH":9425,"ĠLOUIS":9426,"Ast":9427,"QL":9428,"ha":9429,"uals":9430,"Ġtelling":9431,"Ġtsunami":9432,"arus":9433,"atile":9434,"atched":9435,"ingly":9436,"Ġpm":9437,"ĠSom":9438,"ĠSues":9439,"ĠSuccess":9440,"stan":9441,"utt":9442,"ĠRates":9443,"Ġstarter":9444,"Ġramp":9445,"ĠLock":9446,"chiro":9447,"kswag":9448,"Ġvision":9449,"ĠKuwait":9450,"Ġcompat":9451,"ĠVan":9452,"Ġregis":9453,"ĠFlu":9454,"ĠAdam":9455,"Ġswept":9456,"Ġlinebacker":9457,"ĠQB":9458,"ĠElections":9459,"Ġconducted":9460,"OLIS":9461,"Ġrespect":9462,"146":9463,"Ġrepeat":9464,"Ġrolling":9465,"ĠProtection":9466,"ĠVeritas":9467,"ĠErnie":9468,"ĠPennsylvania":9469,"Ġoptimism":9470,"ĠAziz":9471,"Ġconnections":9472,"ĠPilots":9473,"ĠMADR":9474,"kswagen":9475,"SH":9476,"mind":9477,"rant":9478,"uable":9479,"ateral":9480,"icient":9481,"Ġmap":9482,"ĠBa":9483,"ĠBad":9484,"ĠBreed":9485,"Ġnative":9486,"ĠDoes":9487,"ĠHaw":9488,"ĠHubble":9489,"ivirus":9490,"Ġfires":9491,"ĠVers":9492,"Ġresources":9493,"ookie":9494,"Ġimposed":9495,"Ġrelatives":9496,"Ġextends":9497,"Ġcolle":9498,"Ġminor":9499,"Ġmining":9500,"Ġrecovered":9501,"Ġportfolio":9502,"UKOS":9503,"Ġbirds":9504,"ĠAdvance":9505,"Ġthinking":9506,"Ġhappened":9507,"Ġlicensing":9508,"Ġdeployment":9509,"PSFT":9510,"ĠHughes":9511,"ĠRandy":9512,"ĠWalker":9513,"ĠEriksson":9514,"rizzlies":9515,"Linux":9516,"drew":9517,"fr":9518,"fit":9519,"gets":9520,"xy":9521,"eries":9522,"Ġberth":9523,"ĠPA":9524,"irty":9525,"Ġreput":9526,"Ġgad":9527,"usalem":9528,"Ġstalled":9529,"raib":9530,"oured":9531,"Ġchannel":9532,"ello":9533,"Ġjunk":9534,"ubbed":9535,"ubishi":9536,"Ġadministr":9537,"Ġincent":9538,"itsubishi":9539,"Ġ44":9540,"Ġmarking":9541,"ĠConway":9542,"Ġ197":9543,"Ġ86":9544,"Ġbuyers":9545,"Ġdiscip":9546,"ĠScient":9547,"Ġchecks":9548,"ĠFinland":9549,"Ġforeigners":9550,"Ġobject":9551,"ospace":9552,"Ġreplacement":9553,"ĠSuz":9554,"ĠLouisiana":9555,"Ġnewspapers":9556,"ĠChargers":9557,"ĠHostages":9558,"Ġsubsidies":9559,"ĠPanthers":9560,"ĠSnow":9561,"ĠGhraib":9562,"Ġtemporary":9563,"Ġenforcement":9564,"lusconi":9565,"German":9566,"Yukos":9567,"rish":9568,"Ġsocial":9569,"Ġsoph":9570,"ĠSab":9571,"Ġhailed":9572,"Ġdict":9573,"ĠTem":9574,"ĠPop":9575,"ĠBoy":9576,"ĠFast":9577,"ĠRain":9578,"ĠRumsfeld":9579,"ĠDom":9580,"ĠLA":9581,"andan":9582,"Ġhell":9583,"abs":9584,"ongyang":9585,"APOLIS":9586,"ĠMonth":9587,"hnic":9588,"ĠShr":9589,"uctions":9590,"Ġwarn":9591,"Ġbuzz":9592,"racuse":9593,"Ġbrands":9594,"Ġguarant":9595,"Ġrestrict":9596,"Ġminers":9597,"Ġsupporting":9598,"Ġboosts":9599,"Ġsevere":9600,"Ġeasing":9601,"Spam":9602,"ĠMao":9603,"Ġhealthy":9604,"Ġsnap":9605,"Ġsatisf":9606,"UTH":9607,"ĠProduc":9608,"ĠLebanese":9609,"Ġdisclosed":9610,"errillas":9611,"ĠSoldiers":9612,"Federer":9613,"Dutch":9614,"Four":9615,"Job":9616,"Ken":9617,"MR":9618,"OH":9619,"OX":9620,"WMT":9621,"body":9622,"size":9623,"town":9624,"Ġ_":9625,"itoring":9626,"isse":9627,"ĠSee":9628,"ĠSaid":9629,"ĠAp":9630,"ĠTH":9631,"ĠMln":9632,"ĠMurdoch":9633,"Ġthrowing":9634,"ĠPirates":9635,"ĠNC":9636,"ĠDuring":9637,"ĠOcean":9638,"osure":9639,"Ġwithdrew":9640,"Ġprominent":9641,"Ġexporters":9642,"istide":9643,"Ġalone":9644,"avi":9645,"Ġresort":9646,"Ġweekly":9647,"Ġdefender":9648,"ĠArch":9649,"ĠOnt":9650,"Ġinsurer":9651,"Ġinsurers":9652,"rives":9653,"Ġtrail":9654,"ĠProfits":9655,"Ġthreaten":9656,"ĠBrand":9657,"ĠAccess":9658,"Ġembarrass":9659,"IAA":9660,"ĠHoliday":9661,"Ġvisitors":9662,"Ġdoubles":9663,"Ġdropping":9664,"Ġcriticized":9665,"Ġcoverage":9666,"ĠDrops":9667,"Ġstunning":9668,"Ġestablish":9669,"Ġremoved":9670,"ĠBERLIN":9671,"Be":9672,"EE":9673,"Jazeera":9674,"Samsung":9675,"pond":9676,"wire":9677,"Ġailing":9678,"Ġsalv":9679,"arch":9680,"Ġpounded":9681,"terious":9682,"Ġdust":9683,"start":9684,"Ġthrow":9685,"ĠICC":9686,"ĠPush":9687,"ĠPriv":9688,"ĠBT":9689,"ĠBoth":9690,"Ġlunar":9691,"Ġgymnastics":9692,"ĠRu":9693,"ĠRoma":9694,"Ġstuff":9695,"ĠGib":9696,"unal":9697,"Ġatop":9698,"ulting":9699,"essed":9700,"ineon":9701,"Ġresistance":9702,"aware":9703,"Ġ63":9704,"Ġslug":9705,"Ġ52":9706,"ĠAlbert":9707,"ĠPhot":9708,"ĠTrading":9709,"Inter":9710,"ĠBegins":9711,"claim":9712,"Ġvisits":9713,"Ġinvestigate":9714,"ĠPoland":9715,"umbling":9716,"Ġhotels":9717,"Ġspokeswoman":9718,"Ġgenocide":9719,"Ġfunction":9720,"Online":9721,"ĠMoves":9722,"ĠSpeedway":9723,"Police":9724,"Ġmalicious":9725,"Ġexhibition":9726,"ieces":9727,"Nikkei":9728,"UAL":9729,"Wednesday":9730,"rising":9731,"Ġtend":9732,"Ġsight":9733,"orr":9734,"Ġfro":9735,"ional":9736,"ĠAuss":9737,"ĠMVP":9738,"utton":9739,"ĠWas":9740,"ĠFA":9741,"ĠRub":9742,"ĠStrug":9743,"Ġjun":9744,"Ġoutfielder":9745,"Ġroute":9746,"ĠAnim":9747,"Ġ47":9748,"ĠAdds":9749,"Ġprotesters":9750,"Ġviolations":9751,"Ġevolution":9752,"ĠCommissioner":9753,"Ġpullout":9754,"Ġfewer":9755,"Ġeventually":9756,"ĠPortable":9757,"ĠMontg":9758,"ĠDevil":9759,"ĠSafin":9760,"Ġboycott":9761,"ĠBroadband":9762,"Ġbeheaded":9763,"profile":9764,"Ġlaptop":9765,"Ġimpressive":9766,"ĠOvitz":9767,"Ġangry":9768,"Cit":9769,"Dar":9770,"Ford":9771,"San":9772,"With":9773,"called":9774,"ita":9775,"Ġwine":9776,"isers":9777,"ĠSky":9778,"Ġhaven":9779,"ĠPDA":9780,"Ġlaid":9781,"otal":9782,"ĠGovernor":9783,"Ġ250":9784,"ouness":9785,"Ġrot":9786,"Ġnotice":9787,"ĠIssu":9788,"INTC":9789,"Ġcoff":9790,"Ġphase":9791,"ĠOnly":9792,"Ġ99":9793,"click":9794,"Ġdirectly":9795,"Ġbuildings":9796,"perform":9797,"Ġsolutions":9798,"Ġemployment":9799,"ĠTests":9800,"ĠContinu":9801,"Ġsuggesting":9802,"ĠHelps":9803,"Ġimprovement":9804,"Afr":9805,"ĠFunds":9806,"Ġurging":9807,"hardt":9808,"Ġmotor":9809,"Ġwonder":9810,"Ġplunged":9811,"ĠTreo":9812,"Verizon":9813,"Ġsubmarine":9814,"ĠTEHRAN":9815,"Baseball":9816,"Law":9817,"Tuesday":9818,"bing":9819,"vy":9820,"will":9821,"Ġaf":9822,"anim":9823,"ouri":9824,"ĠMick":9825,"ĠMaster":9826,"usband":9827,"ĠRound":9828,"Ġrental":9829,"ĠLess":9830,"ĠEMC":9831,"ĠStop":9832,"istent":9833,"Ġnewest":9834,"ĠPres":9835,"Ġfinishing":9836,"ANA":9837,"azi":9838,"Ġquarterfinals":9839,"ĠClar":9840,"Ġtrapped":9841,"Ġsweet":9842,"Ġextrad":9843,"Ġexplain":9844,"ĠBeach":9845,"Ġminority":9846,"Ġrefin":9847,"Ġversus":9848,"Ġdirection":9849,"ĠCrash":9850,"Ġarrests":9851,"ĠDescription":9852,"Ġinvolvement":9853,"Ġtourists":9854,"ĠPreview":9855,"Ġtyco":9856,"Ġwalked":9857,"ĠFighting":9858,"Ġrapidly":9859,"omerie":9860,"Novell":9861,"Ġeclipse":9862,"ĠPyongyang":9863,"mosphere":9864,"Cub":9865,"MO":9866,"Point":9867,"Sil":9868,"iqu":9869,"person":9870,"wart":9871,"Ġtickets":9872,"Ġpoverty":9873,"isive":9874,"ĠSett":9875,"Ġharm":9876,"ĠMig":9877,"ĠMerrill":9878,"elie":9879,"ĠBANG":9880,"ols":9881,"Ġemissions":9882,"ĠDR":9883,"ĠGri":9884,"ĠON":9885,"empt":9886,"alling":9887,"Ġshook":9888,"Ġovercome":9889,"Ġcloud":9890,"Ġintense":9891,"porting":9892,"Ġenem":9893,"ĠProble":9894,"ĠExec":9895,"Ġbuyout":9896,"Ġaddition":9897,"Ġraids":9898,"idden":9899,"ĠSlam":9900,"ILL":9901,"Ġpollution":9902,"Ġsingles":9903,"Ġcaptors":9904,"ĠCuban":9905,"urdue":9906,"ĠAutom":9907,"ĠPortug":9908,"Ġindicated":9909,"Ġambitions":9910,"ĠRadcliffe":9911,"Ġgrabbed":9912,"Ġimmig":9913,"ĠJerusalem":9914,"ĠFuture":9915,"26":9916,"52":9917,"BOR":9918,"Des":9919,"MA":9920,"cts":9921,"equ":9922,"hind":9923,"hander":9924,"writ":9925,"words":9926,"Ġ;":9927,"Ġax":9928,"Ġwoes":9929,"ĠSent":9930,"ĠSender":9931,"ĠAaron":9932,"ĠTerry":9933,"ĠCrew":9934,"ĠGP":9935,"ĠGaz":9936,"ĠJen":9937,"ĠInfoWorld":9938,"eeves":9939,"Ġplug":9940,"Ġseats":9941,"Ġquoted":9942,"Ġintel":9943,"ĠAsh":9944,"Ġwouldn":9945,"azers":9946,"encia":9947,"Ġprofession":9948,"onym":9949,"ĠCompet":9950,"Ġmini":9951,"BAI":9952,"Ġstanding":9953,"shore":9954,"Ġsettlements":9955,"Ġseeing":9956,"Ġconfirms":9957,"Ang":9958,"Ġactivists":9959,"Ġlanded":9960,"ĠConsumers":9961,"EMBER":9962,"Ġmonitor":9963,"Ġhousehold":9964,"Ġviews":9965,"Japanese":9966,"Ġautomaker":9967,"Ġparliamentary":9968,"Ġrobust":9969,"JAF":9970,"Ġburied":9971,"Ġdevastating":9972,"Ġvillage":9973,"ottenham":9974,"FIELD":9975,"Ġnormal":9976,"Ġparticularly":9977,"Ġconcessions":9978,"ĠGuidant":9979,"DVD":9980,"Sur":9981,"Soccer":9982,"cairn":9983,"eers":9984,"linked":9985,"Ġtun":9986,"Ġcrop":9987,"Ġcraft":9988,"alore":9989,"alcomm":9990,"ĠSa":9991,"Ġhang":9992,"ĠAS":9993,"ĠCable":9994,"omed":9995,"urable":9996,"ĠBow":9997,"Ġlocked":9998,"Ġgall":9999,"ĠFish":10000,"ĠRight":10001,"quel":10002,"ĠInformation":10003,"umi":10004,"ĠKel":10005,"abit":10006,"obby":10007,"Ġabroad":10008,"compl":10009,"Ġteammate":10010,"phones":10011,"Ġphishing":10012,"ALI":10013,"ĠUpdate":10014,"ĠPhilips":10015,"screen":10016,"ocratic":10017,"Ġreveals":10018,"Ġquestioned":10019,"Ġvolume":10020,"Afee":10021,"UTER":10022,"Ġcompleting":10023,"Ġneighbor":10024,"Ġvarious":10025,"Ġmystery":10026,"Ġsymb":10027,"Ġerupted":10028,"ĠNAJAF":10029,"Ġpoliticians":10030,"Astros":10031,"ĠMADRID":10032,"Ġintellect":10033,"Sen":10034,"Te":10035,"UE":10036,"gun":10037,"rical":10038,"Ġbiot":10039,"idency":10040,"store":10041,"ĠIyad":10042,"ĠPers":10043,"ĠPuts":10044,"ĠBh":10045,"Ġrepe":10046,"ĠFool":10047,"Ġstayed":10048,"ĠHalo":10049,"ĠOrange":10050,"ĠJOSE":10051,"ouring":10052,"ĠChanges":10053,"orders":10054,"Ġoverc":10055,"Ġoutcome":10056,"Ġscare":10057,"ĠShawn":10058,"Ġaccus":10059,"ĠSpot":10060,"ANS":10061,"Ġretreat":10062,"Ġsuperm":10063,"Ġsurr":10064,"ĠBegin":10065,"COMP":10066,"Ġcheap":10067,"Ġstandings":10068,"Ġreceiving":10069,"ICH":10070,"Ġbroadc":10071,"Ġchallenger":10072,"Ġreplacing":10073,"Ġelite":10074,"ĠHarvard":10075,"Ġhappen":10076,"Ġundis":10077,"Ġcasino":10078,"ĠArtest":10079,"uilding":10080,"Ġelectricity":10081,"Ġunusual":10082,"IX":10083,"Mot":10084,"Sol":10085,"cu":10086,"colm":10087,"pson":10088,"rum":10089,"ture":10090,"Ġfill":10091,"Ġwealth":10092,"reement":10093,"ĠSus":10094,"Ġmand":10095,"Ġhire":10096,"ĠToll":10097,"ĠCustom":10098,"ĠPo":10099,"Ġlure":10100,"Ġeager":10101,"ĠLight":10102,"Ġatmosphere":10103,"Ġconced":10104,"pper":10105,"Ġprinc":10106,"ĠChannel":10107,"ods":10108,"irez":10109,"Ġresigns":10110,"ecting":10111,"Ġincident":10112,"itsch":10113,"erald":10114,"Ġretain":10115,"Ġslump":10116,"icsson":10117,"Ġindicted":10118,"Ġsurging":10119,"Ġcounting":10120,"erred":10121,"Ġinsists":10122,"Ġ88":10123,"Ġsuite":10124,"Ġrelay":10125,"ARD":10126,"Ġstripped":10127,"ĠBranson":10128,"Ġshortage":10129,"Ġedition":10130,"Ġeditor":10131,"ufacturing":10132,"eleb":10133,"ĠCheck":10134,"Ġchanging":10135,"ĠLouisville":10136,"Ġchampionships":10137,"ĠMalcolm":10138,"ĠAccount":10139,"Ġmortar":10140,"ĠIndustries":10141,"Ġjointly":10142,"ĠMichel":10143,"Ġpremier":10144,"record":10145,"ĠJonathan":10146,"Ġspectac":10147,"Ġhamstring":10148,"ĠPadres":10149,"Ġethnic":10150,"Ġacknowledged":10151,"ĠLenovo":10152,"COMPUTER":10153,"33":10154,"FO":10155,"IO":10156,"bat":10157,"Ġtens":10158,"Ġtrees":10159,"heme":10160,"Ġflex":10161,"Ġfossil":10162,"Ġpicks":10163,"Ġhusband":10164,"ĠTennis":10165,"ĠCash":10166,"idia":10167,"ĠNation":10168,"ĠRut":10169,"ĠRising":10170,"ĠGE":10171,"Ġvital":10172,"ĠStr":10173,"ishers":10174,"ĠSpending":10175,"ussels":10176,"oked":10177,"Ġworkforce":10178,"Ġmedium":10179,"Ġeconomists":10180,"ĠFlaw":10181,"Ġweighed":10182,"ĠMarine":10183,"Ġlongest":10184,"Ġextin":10185,"Ġproducing":10186,"ĠAgree":10187,"Ġhandle":10188,"Ġpublicly":10189,"opper":10190,"ĠBarrel":10191,"Ġemerge":10192,"Ġsuffer":10193,"Ġavailability":10194,"Ġlimits":10195,"Ġclinched":10196,"Ġchoose":10197,"rispy":10198,"Cricket":10199,"ĠMagic":10200,"ĠEye":10201,"ĠLatest":10202,"Ġteenager":10203,"Boeing":10204,"ĠOpposition":10205,"ĠRafael":10206,"England":10207,"COMPUTERWORLD":10208,"Dem":10209,"GOOG":10210,"He":10211,"VIEW":10212,"cest":10213,"des":10214,"torn":10215,"Ġtact":10216,"Ġshed":10217,"Ġflew":10218,"Ġwrap":10219,"asy":10220,"ĠSER":10221,"ouch":10222,"ĠPoor":10223,"Ġlon":10224,"olt":10225,"Ġrating":10226,"ĠLog":10227,"ĠLikely":10228,"aky":10229,"Ġcong":10230,"ĠInstruments":10231,"Ġshape":10232,"ĠKreme":10233,"ĠChrysler":10234,"udh":10235,"Ġspre":10236,"Ġroster":10237,"Ġunh":10238,"Ġunrest":10239,"ĠUnix":10240,"Ġscam":10241,"inder":10242,"ĠResources":10243,"atham":10244,"ĠBruce":10245,"Ġrevive":10246,"ĠOrtiz":10247,"Ġcheaper":10248,"Ġentering":10249,"bridge":10250,"Ġdeton":10251,"iffs":10252,"ĠTVs":10253,"Ġengineer":10254,"Ġcourts":10255,"Ġappealed":10256,"Ġcomplaint":10257,"Ġsettlers":10258,"Ġastronomers":10259,"ĠTargets":10260,"ĠBrewers":10261,"ĠJamaica":10262,"irmingham":10263,"National":10264,"Rec":10265,"de":10266,"eel":10267,"iat":10268,"alysis":10269,"Ġwall":10270,"Ġtopp":10271,"Ġbaby":10272,"ischer":10273,"stam":10274,"ĠMission":10275,"ĠMixed":10276,"ĠIan":10277,"Ġnerv":10278,"Ġgift":10279,"ĠFears":10280,"ĠRO":10281,"ĠLake":10282,"ateg":10283,"ĠThink":10284,"ĠYug":10285,"iebel":10286,"ucr":10287,"Ġintr":10288,"oyono":10289,"ĠSpecial":10290,"Ġwarm":10291,"Ġslash":10292,"Ġslower":10293,"Ġplanets":10294,"Ġpharmaceutical":10295,"onomy":10296,"Ġdealers":10297,"Ġsignals":10298,"Ġassists":10299,"Ġ96":10300,"Ġadvances":10301,"ĠMcDonald":10302,"ĠGuill":10303,"brid":10304,"ĠJuan":10305,"running":10306,"ĠAstron":10307,"rolling":10308,"ĠRockies":10309,"Ġdistribut":10310,"ĠPrep":10311,"ĠIDC":10312,"Ġboxing":10313,"ĠSEP":10314,"Ġintegration":10315,"ĠLatin":10316,"Ġeliminate":10317,"ĠHeart":10318,"Ġtriggered":10319,"ĠMutu":10320,"itschko":10321,"udhoyono":10322,"Book":10323,"GO":10324,"RIM":10325,"Sat":10326,"do":10327,"nold":10328,"wolves":10329,"zone":10330,"Ġsear":10331,"Ġpunch":10332,"rog":10333,"ilateral":10334,"oup":10335,"ĠTiVo":10336,"ĠTottenham":10337,"ĠCre":10338,"ether":10339,"Ġformed":10340,"irts":10341,"Ġgreet":10342,"ĠNATO":10343,"ĠRate":10344,"Ġripped":10345,"ĠEmer":10346,"ĠOR":10347,"agging":10348,"endul":10349,"iform":10350,"ĠYet":10351,"Ġjets":10352,"ĠFredd":10353,"Ġupon":10354,"kept":10355,"Ġrecalled":10356,"Ġenters":10357,"Ġ68":10358,"ĠCooper":10359,"ĠForum":10360,"DAM":10361,"Ġfinale":10362,"Ġbidding":10363,"ĠZook":10364,"enna":10365,"ĠWithout":10366,"Ġauthent":10367,"Ġpeak":10368,"Ġsubstant":10369,"Ġstudio":10370,"mitting":10371,"ĠSyracuse":10372,"Ġnegative":10373,"Ġcontrols":10374,"enault":10375,"ĠTommy":10376,"Ġdisappear":10377,"aguered":10378,"Ġcelebrated":10379,"Ġcertainly":10380,"Ġinventory":10381,"Ġfreedom":10382,"Ġawaited":10383,"Ġconservative":10384,"alysts":10385,"Ġsuddenly":10386,"Ġsteroids":10387,"ĠApproves":10388,"Monday":10389,"Ġemotion":10390,"ĠEmploy":10391,"orenstam":10392,"Ġnecessary":10393,"ĠRodriguez":10394,"Kee":10395,"Music":10396,"Oct":10397,"Tro":10398,"VA":10399,"WS":10400,"bucks":10401,"sych":10402,"onz":10403,"edge":10404,"Ġfu":10405,"ĠPey":10406,"Ġforg":10407,"ĠBarg":10408,"ĠWTO":10409,"ĠGrizzlies":10410,"ĠLuk":10411,"ĠLanger":10412,"ĠLycos":10413,"umes":10414,"ĠKONG":10415,"ustody":10416,"Ġchase":10417,"artoum":10418,"eller":10419,"gtime":10420,"Ġunle":10421,"Ġpermission":10422,"Ġadmits":10423,"Ġusual":10424,"ĠIslands":10425,"Ġmanned":10426,"ultane":10427,"Ġremark":10428,"Ġmanaging":10429,"Ġposting":10430,"Ġrivalry":10431,"ĠMarkets":10432,"Ġanalysis":10433,"Ġbarrels":10434,"Shar":10435,"ĠBlackburn":10436,"party":10437,"Ġovershad":10438,"ĠAlexander":10439,"omberg":10440,"Ġsignificantly":10441,"Singapore":10442,"Ġcondemned":10443,"Ġconcluded":10444,"Ġbalance":10445,"Ġvideot":10446,"ĠFalcons":10447,"Ġreputation":10448,"Ġtycoon":10449,"Ġrepeated":10450,"95":10451,"Germany":10452,"Hew":10453,"Irish":10454,"fax":10455,"sets":10456,"tax":10457,"Ġtensions":10458,"Ġaw":10459,"heed":10460,"Ġbrac":10461,"Ġbases":10462,"urrier":10463,"ĠBAR":10464,"oly":10465,"ĠNTT":10466,"ĠFur":10467,"ĠFDA":10468,"ĠRice":10469,"ĠRAM":10470,"Ġitems":10471,"ripp":10472,"endar":10473,"ardy":10474,"ifer":10475,"Ġkidn":10476,"abama":10477,"Ġspy":10478,"Ġunable":10479,"Ġcontact":10480,"Ġenable":10481,"Ġendors":10482,"Ġbillionaire":10483,"Ġunderstand":10484,"ĠAtomic":10485,"Ġrelatively":10486,"Ġmissiles":10487,"Ġcontractor":10488,"ĠQantas":10489,"Ġengineering":10490,"Ġauthority":10491,"Ġsimpl":10492,"Ġfeeling":10493,"ĠTrojan":10494,"Ġdamaged":10495,"Ġtemper":10496,"ĠVoters":10497,"ĠProduct":10498,"ĠSamarra":10499,"Ġhydro":10500,"Ġanimals":10501,"Ġspirit":10502,"Ġenhance":10503,"Ġinaugural":10504,"Ġcollapsed":10505,"ĠSymbian":10506,"Ukraine":10507,"Treasuries":10508,"ĠBreeders":10509,"31":10510,"Mont":10511,"Terror":10512,"Works":10513,"bec":10514,"food":10515,"mand":10516,"weg":10517,"Ġsen":10518,"organ":10519,"Ġpages":10520,"Ġbon":10521,"ĠCare":10522,"ĠCode":10523,"ĠPanel":10524,"ĠBrett":10525,"ĠBirmingham":10526,"ĠDave":10527,"ĠHa":10528,"ĠHurricanes":10529,"Ġshop":10530,"Ġquarters":10531,"Ġexpenses":10532,"ĠAnwar":10533,"Ġbloc":10534,"Ġblade":10535,"Ġwars":10536,"Ġdefends":10537,"Ġelectoral":10538,"ierre":10539,"Ġ89":10540,"Ġactions":10541,"Ġstandoff":10542,"Ġinterests":10543,"attan":10544,"scale":10545,"Ġmarks":10546,"ĠFirms":10547,"Ġpulls":10548,"Ġpulling":10549,"ĠWeak":10550,"Ġverge":10551,"ĠMerger":10552,"Ġlifting":10553,"Ġspotlight":10554,"ĠPayPal":10555,"ĠDebut":10556,"ĠUkrainian":10557,"Ġsettles":10558,"Ġpledges":10559,"Ġrankings":10560,"Conn":10561,"Ġadopted":10562,"Palestinians":10563,"Ġmicrop":10564,"Ġsustained":10565,"ĠCatholic":10566,"endulkar":10567,"Fannie":10568,"Mail":10569,"Mass":10570,"Max":10571,"bour":10572,"free":10573,"kin":10574,"oons":10575,"taking":10576,"Ġtorn":10577,"ala":10578,"alat":10579,"rex":10580,"isp":10581,"rokes":10582,"leaguered":10583,"Ġdog":10584,"ĠBamb":10585,"otive":10586,"ĠWant":10587,"ĠNat":10588,"ĠNapster":10589,"ĠDh":10590,"ĠDaimlerChrysler":10591,"rained":10592,"ĠGer":10593,"ĠHONG":10594,"riors":10595,"endant":10596,"Ġintention":10597,"berwolves":10598,"Ġwarplanes":10599,"ĠArena":10600,"appy":10601,"ĠOpter":10602,"InfoWorld":10603,"Ġclosest":10604,"Ġfallen":10605,"Ġbelong":10606,"ĠOrgan":10607,"ĠEarn":10608,"ĠSlip":10609,"IDS":10610,"ĠIslamabad":10611,"Another":10612,"ĠMilosevic":10613,"Ġsurvivors":10614,"ĠDebt":10615,"Ġinspect":10616,"Ġsurprised":10617,"Ġearthquakes":10618,"Ġhunting":10619,"Ġhouses":10620,"Ġjudges":10621,"ĠStanley":10622,"Ġobservers":10623,"Ġpenalties":10624,"BOUR":10625,"Ġfarmers":10626,"Suicide":10627,"Firefox":10628,"Ġacceler":10629,"doubleclick":10630,"ĠPeyton":10631,"ho":10632,"nets":10633,"rand":10634,"vo":10635,"inate":10636,"Ġfract":10637,"Ġwaves":10638,"ĠSr":10639,"Ġdrew":10640,"ĠCore":10641,"ĠMONT":10642,"ĠBengals":10643,"Ġlying":10644,"amy":10645,"Ġric":10646,"Ġranked":10647,"ĠLarg":10648,"ĠLooks":10649,"Ġchosen":10650,"outheastern":10651,"Ġresident":10652,"Ġdisrup":10653,"Ġaccord":10654,"ĠAristide":10655,"Ġambit":10656,"Chinese":10657,"ĠAmong":10658,"Ġcellular":10659,"TEM":10660,"Ġrequired":10661,"ĠHolding":10662,"ĠTroy":10663,"Ġdominate":10664,"Ġaudience":10665,"Ġagreeing":10666,"ĠReleases":10667,"Ġvulnerable":10668,"ĠHomeland":10669,"Ġpursue":10670,"Singh":10671,"Computer":10672,"Ġoccupied":10673,"ĠMahm":10674,"Amazon":10675,"ĠMadison":10676,"Ġexclusive":10677,"Ġchaos":10678,"FORD":10679,"Retail":10680,"Ġsuspicion":10681,"'d":10682,"Fin":10683,"Long":10684,"Video":10685,"iate":10686,"nation":10687,"vis":10688,"inting":10689,"Ġwrest":10690,"Ġbag":10691,"ĠACC":10692,"ĠPorts":10693,"ĠPersonal":10694,"ĠBU":10695,"ĠBacks":10696,"Ġlived":10697,"ĠFer":10698,"ĠFocus":10699,"ĠGiant":10700,"ĠGOP":10701,"ĠThen":10702,"ĠJeeves":10703,"iano":10704,"ourney":10705,"Ġshadow":10706,"Ġworms":10707,"ĠFred":10708,"Ġscale":10709,"Ġendangered":10710,"Ġslid":10711,"Ġslashed":10712,"Ġliber":10713,"oots":10714,"Ġreleasing":10715,"Ġ1980":10716,"Ġasset":10717,"Ġhosts":10718,"ART":10719,"resent":10720,"shire":10721,"imbled":10722,"Ġapproves":10723,"Ġequal":10724,"ĠMaver":10725,"Ġnegotiating":10726,"ĠRealNetworks":10727,"ĠUsing":10728,"Ġbasis":10729,"President":10730,"Ġambassador":10731,"ylum":10732,"Ġvulnerabilities":10733,"Consumer":10734,"ĠFavre":10735,"ĠVenus":10736,"ĠSoyuz":10737,"Ġambitious":10738,"Ec":10739,"PP":10740,"aus":10741,"bird":10742,"jet":10743,"onage":10744,"Ġpays":10745,"Ġbrows":10746,"Ġdress":10747,"ĠCards":10748,"ĠMill":10749,"ĠPav":10750,"ĠParm":10751,"ĠBanks":10752,"Ġling":10753,"ĠFel":10754,"ĠFun":10755,"Ġsteep":10756,"Ġstolen":10757,"ĠDere":10758,"oser":10759,"aga":10760,"ĠJos":10761,"ateur":10762,"ĠChapter":10763,"Ġkids":10764,"Ġclues":10765,"Ġunw":10766,"odes":10767,"amples":10768,"Ġscheme":10769,"Ġfines":10770,"ĠShould":10771,"Ġarrive":10772,"ĠComcast":10773,"Ġregions":10774,"ĠOnce":10775,"elsewhere":10776,"ĠManh":10777,"AMI":10778,"ĠMedic":10779,"Ġprescription":10780,"ĠRobinson":10781,"ynam":10782,"bitration":10783,"Arsenal":10784,"agued":10785,"moil":10786,"ĠBombs":10787,"ĠRamirez":10788,"Ġgathering":10789,"ĠMalaysian":10790,"Ġpursuit":10791,"Ġupdated":10792,"ĠViktor":10793,"Florida":10794,"ĠGunmen":10795,"Ġhammer":10796,"ĠSummer":10797,"Ġuncertainty":10798,"ĠBlockbuster":10799,"Ġsometimes":10800,"ĠIssues":10801,"Ġintellectual":10802,"Ġovercame":10803,"ĠSERV":10804,"wegian":10805,"imbledon":10806,"Hard":10807,"Mal":10808,"Reg":10809,"Sl":10810,"zed":10811,"esl":10812,"Ġsort":10813,"itals":10814,"Ġwire":10815,"etooth":10816,"ĠBaker":10817,"Ġlength":10818,"irms":10819,"ĠNeg":10820,"imony":10821,"very":10822,"ĠGal":10823,"ĠJerem":10824,"ĠKurt":10825,"nington":10826,"izumi":10827,"ullah":10828,"Ġ46":10829,"ĠAppeal":10830,"Ġswap":10831,"afi":10832,"Ġfilms":10833,"ĠAssembly":10834,"ĠBrussels":10835,"ĠATP":10836,"ĠAnderson":10837,"ĠPhilip":10838,"Ġemployers":10839,"Ġdivided":10840,"Ġfueled":10841,"ĠTrail":10842,"ĠInterest":10843,"Ġafford":10844,"Ġdominance":10845,"IMF":10846,"ALLAH":10847,"ĠBerlusconi":10848,"White":10849,"Ġadopt":10850,"Ġvulnerability":10851,"feit":10852,"Ġmeaning":10853,"ĠGraeme":10854,"armaceuticals":10855,"Ġmysterious":10856,"terrorism":10857,"Ġmicro":10858,"Ġfavourite":10859,"ĠLimited":10860,"Ġlibrary":10861,"Ġgamers":10862,"Ġmilestone":10863,"rahim":10864,"Merck":10865,"ĠMIAMI":10866,"Ġpermanent":10867,"Congress":10868,"Darfur":10869,"Ġprofessionals":10870,"Ġconglom":10871,"ĠSEPTEM":10872,"ĠDerek":10873,"ĠSERVICE":10874,"ĠSEPTEMBER":10875,"Deal":10876,"Hall":10877,"Sox":10878,"bell":10879,"brahim":10880,"found":10881,"mn":10882,"Ġtanks":10883,"Ġcenters":10884,"isman":10885,"Ġmix":10886,"Ġdamp":10887,"ĠTelescope":10888,"ĠCBS":10889,"otic":10890,"ĠWimbledon":10891,"ĠRup":10892,"ĠRisk":10893,"ĠGam":10894,"ithuan":10895,"ĠOuts":10896,"osa":10897,"ĠJet":10898,"Ġspoke":10899,"ĠVivendi":10900,"Ġuprising":10901,"Ġintent":10902,"Ġtrucks":10903,"Ġarr":10904,"Ġorb":10905,"Ġstruct":10906,"Ġindef":10907,"ĠBlog":10908,"Ġmaybe":10909,"ĠAlabama":10910,"Ġcharging":10911,"Ġadvice":10912,"Ġacquiring":10913,"Ġfacilities":10914,"Ġhowever":10915,"ĠSlov":10916,"ĠDefence":10917,"umbles":10918,"Ġlisted":10919,"Ġrevenge":10920,"IDG":10921,"ĠMacCentral":10922,"ĠHolmes":10923,"ĠBayern":10924,"ĠRetire":10925,"ĠMissile":10926,"Ġslowly":10927,"Ġwriter":10928,"ĠDVDs":10929,"ĠExplos":10930,"ĠSurv":10931,"Ġsquee":10932,"Ġarticle":10933,"MacCentral":10934,"ĠExtends":10935,"Ġescape":10936,"indsay":10937,"Ġbattling":10938,"ĠVolkswagen":10939,"ĠJacksonville":10940,"ĠRomania":10941,"TERDAM":10942,"ascus":10943,"ĠCharlie":10944,"ĠBelgian":10945,"Ġnortheast":10946,"ĠProsecut":10947,"Disney":10948,"Motor":10949,"ucrative":10950,"Cingular":10951,"DO":10952,"HS":10953,"Hen":10954,"KE":10955,"Tennis":10956,"general":10957,"selling":10958,"vision":10959,"zens":10960,"Ġelsewhere":10961,"Ġtender":10962,"Ġtype":10963,"Ġsights":10964,"Ġbes":10965,"ĠSug":10966,"ĠAims":10967,"ĠIRA":10968,"ĠBC":10969,"ĠBLO":10970,"Ġnote":10971,"Ġreign":10972,"Ġreass":10973,"ĠNV":10974,"ĠFew":10975,"ĠFleet":10976,"ĠFischer":10977,"ĠRights":10978,"ĠRenault":10979,"ĠDanny":10980,"ĠHamp":10981,"ĠLLC":10982,"ulations":10983,"ĠStat":10984,"Ġusually":10985,"plus":10986,"ĠLeaves":10987,"Ġflow":10988,"Ġfloor":10989,"Ġ72":10990,"ĠConrad":10991,"ĠMarathon":10992,"enne":10993,"Ġbatteries":10994,"ĠGreg":10995,"Ġviolating":10996,"Ġdomain":10997,"ĠRepresent":10998,"ĠAmelie":10999,"ĠContent":11000,"ĠVirus":11001,"ĠNetflix":11002,"Ġprivacy":11003,"ĠDelaware":11004,"Ant":11005,"Ġwritten":11006,"Ġmonitoring":11007,"Ġtreaty":11008,"ĠMexican":11009,"ĠHispan":11010,"ĠAviation":11011,"ĠKhartoum":11012,"Ġgirls":11013,"Official":11014,"Ġassociation":11015,"Ġdelegation":11016,"Ġpioneer":11017,"ĠMourinho":11018,"Ġexperimental":11019,"Ġtelephony":11020,"ĠHornets":11021,"ĠMaoist":11022,"ĠOpteron":11023,";\\":11024,"FE":11025,"Ro":11026,"Taiwan":11027,"Watch":11028,"gn":11029,"rino":11030,"Ġtall":11031,"Ġtort":11032,"Ġfilled":11033,"Ġcustody":11034,"Ġink":11035,"ĠSenior":11036,"Ġhip":11037,"ĠTow":11038,"ĠCS":11039,"ĠCur":11040,"ĠMir":11041,"ĠPurdue":11042,"Ġreward":11043,"Ġstream":11044,"Ġratings":11045,"imum":11046,"ĠDw":11047,"ĠDET":11048,"ĠGDP":11049,"ĠLindsay":11050,"ewell":11051,"ulating":11052,"apon":11053,"ĠKings":11054,"Ġunique":11055,"Ġunanim":11056,"Ġ57":11057,"Ġsurpass":11058,"ĠPlace":11059,"Ġagreements":11060,"Ġconfront":11061,"Ġprovision":11062,"Ġassembly":11063,"afe":11064,"bersecurity":11065,"ĠSlow":11066,"Ġpatches":11067,"ĠSyrian":11068,"ĠMaur":11069,"ĠReturns":11070,"Ġdoctor":11071,"Ġmassacre":11072,"ĠBangalore":11073,"ĠCharge":11074,"Ġsitting":11075,"ĠTreasuries":11076,"inhua":11077,"Ġabsence":11078,"Ġachieve":11079,"Ġresumed":11080,"Ġdeparture":11081,"Pacific":11082,"ĠJPEG":11083,"Ġestablished":11084,"ĠManhattan":11085,"67":11086,"Eagles":11087,"Rod":11088,"Sk":11089,"Toshiba":11090,"WE":11091,"bacco":11092,"gar":11093,"mine":11094,"mare":11095,"Ġicon":11096,"aning":11097,"Ġfault":11098,"Ġfaith":11099,"Ġwear":11100,"ref":11101,"Ġpir":11102,"Ġtouc":11103,"Ġtobacco":11104,"Ġbail":11105,"isan":11106,"ĠSCO":11107,"Ġhundred":11108,"Ġthinks":11109,"Ġthwart":11110,"eca":11111,"ĠPact":11112,"ĠBali":11113,"Ġlucrative":11114,"olas":11115,"ĠNuggets":11116,"ĠRick":11117,"ĠRival":11118,"ĠDrew":11119,"agger":11120,"Ġconven":11121,"Ġexporter":11122,"Ġkil":11123,"ĠVows":11124,"overy":11125,"portun":11126,"Ġscrap":11127,"erved":11128,"ĠLeave":11129,"Ġ71":11130,"Ġcarries":11131,"Ġbridge":11132,"Ġguerrillas":11133,"ukat":11134,"ĠAbove":11135,"percent":11136,"Ġmarriage":11137,"Ġskipper":11138,"ĠPaula":11139,"Ġrepublic":11140,"uffle":11141,"Ġvolatile":11142,"ĠSurvey":11143,"EDS":11144,"ĠValencia":11145,"Ġclinical":11146,"Ġdiplomat":11147,"Ġpledge":11148,"ĠFederation":11149,"160":11150,"Ġrepresentatives":11151,"regon":11152,"ĠOptim":11153,"ĠRwanda":11154,"Ġdisruptions":11155,"Ġsleep":11156,"Ġgrenade":11157,"ĠSuzuki":11158,"Ġmicropro":11159,"Open":11160,"Rob":11161,"Some":11162,"cano":11163,"hand":11164,"lav":11165,"winning":11166,"ĠSU":11167,"ĠSar":11168,"ĠAMS":11169,"stream":11170,"ĠMoss":11171,"ĠMys":11172,"acr":11173,"uri":11174,"igar":11175,"Ġreop":11176,"ĠNag":11177,"ĠFI":11178,"ĠFALL":11179,"ĠROME":11180,"ĠEle":11181,"ĠOC":11182,"essing":11183,"ĠJOH":11184,"ĠYudhoyono":11185,"sequ":11186,"ĠVenture":11187,"Ġintends":11188,"oviet":11189,"Ġtracks":11190,"ushchenko":11191,"Ġcommod":11192,"ĠAds":11193,"Ġbatting":11194,"Ġguy":11195,"Ġstrongest":11196,"Ġ''":11197,"Ġmatchup":11198,"Ġestimate":11199,"Ġtelevisions":11200,"Ġclearing":11201,"Ġdrama":11202,"Ġblocked":11203,"Ġarrival":11204,"Ġcanceled":11205,"Ġupgrades":11206,"ĠTimberwolves":11207,"ĠRoyals":11208,"Ġfilmmaker":11209,"Ġencounter":11210,"Ġsilicon":11211,"ĠDouble":11212,"Ġbattled":11213,"ROIT":11214,"Ġpunish":11215,"Ġtemporarily":11216,"ĠDirector":11217,"Ġgrip":11218,"Ġdialogue":11219,"USTR":11220,"bestos":11221,"Greenspan":11222,"ĠInstead":11223,"ĠKazakh":11224,"Ġsupermarket":11225,"ĠJeremy":11226,"Ġconglomerate":11227,"ĠBLOOM":11228,"ĠDETROIT":11229,"Cor":11230,"DE":11231,"Greek":11232,"Trust":11233,"aters":11234,"repr":11235,"Ġbound":11236,"ĠTurns":11237,"ĠPSP":11238,"ĠFuj":11239,"ĠRome":11240,"ĠRovers":11241,"Ġstick":11242,"ĠHawks":11243,"quille":11244,"ĠEsc":11245,"Ġleap":11246,"Ġquake":11247,"ighting":11248,"Ġchair":11249,"ideast":11250,"ghans":11251,"azing":11252,"ĠExecut":11253,"Ġsupported":11254,"ĠResigns":11255,"ĠSerge":11256,"Ġ92":11257,"Ġrebounded":11258,"Ġpayroll":11259,"Ġguide":11260,"Ġantivirus":11261,"ĠNorthwest":11262,"ĠBridge":11263,"class":11264,"ĠMcG":11265,"Ġcorrect":11266,"ĠEddie":11267,"Ġembry":11268,"Ġdistance":11269,"Ġsimultane":11270,"Ġdraws":11271,"Ġrecovering":11272,"Ġdamages":11273,"ĠInvestig":11274,"ĠBelarus":11275,"ĠShell":11276,"Ġastronaut":11277,"ĠNorwegian":11278,"Martha":11279,"anguly":11280,"Ġintegrated":11281,"ĠVenezuelan":11282,"ĠBernie":11283,"ĠLooking":11284,"Ġsemifinal":11285,"hello":11286,"ĠDamascus":11287,"Ġsensitive":11288,"Ġmistake":11289,"ĠRevolution":11290,"Ġabandoned":11291,"Smith":11292,"Italy":11293,"Ġroyal":11294,"Citigroup":11295,"Ġspectacular":11296,"Keefe":11297,"ĠMavericks":11298,"ĠRupert":11299,"ĠAMSTERDAM":11300,"Just":11301,"dam":11302,"growing":11303,"kom":11304,"water":11305,"Ġsyn":11306,"atures":11307,"Ġcouncil":11308,"Ġborn":11309,"Ġborrow":11310,"Ġmad":11311,"ĠToo":11312,"ĠMaine":11313,"ĠIbrahim":11314,"ĠBee":11315,"ĠRat":11316,"Ġstakes":11317,"ĠDrive":11318,"ĠHil":11319,"ĠHist":11320,"ĠLind":11321,"ĠOmar":11322,"ĠJump":11323,"ocaine":11324,"ardier":11325,"ĠYen":11326,"ĠIssue":11327,"Ġelectrical":11328,"ĠArk":11329,"Ġ53":11330,"hips":11331,"Ġdealt":11332,"Ġtroop":11333,"ĠWithdraw":11334,"official":11335,"puting":11336,"Ġreducing":11337,"richello":11338,"Ġclubs":11339,"ĠMoqtada":11340,"ĠHowever":11341,"Ġpopularity":11342,"Expl":11343,"ADS":11344,"Ġ1996":11345,"Ġnegotiators":11346,"Ġdrawn":11347,"Ġtowns":11348,"Ġblockbuster":11349,"Ġcelebration":11350,"Ġeffectively":11351,"Ġcounterpart":11352,"ĠEricsson":11353,"ĠNortheast":11354,"ĠVictor":11355,"Ġburst":11356,"ĠShaquille":11357,"ĠStanford":11358,"Ġslammed":11359,"Ġtelecoms":11360,"Ġphysical":11361,"ĠCritic":11362,"ĠPicture":11363,"Ġcasualties":11364,"Phillips":11365,"Goran":11366,"Marsh":11367,"Ow":11368,"Rock":11369,"pts":11370,"pect":11371,"school":11372,"uy":11373,"uly":11374,"inner":11375,"onic":11376,"Ġsends":11377,"Ġtheory":11378,"itation":11379,"Ġfol":11380,"Ġfest":11381,"rock":11382,"ĠABC":11383,"acle":11384,"ĠBah":11385,"Ġlov":11386,"ĠRB":11387,"imates":11388,"ĠDraw":11389,"ĠStraw":11390,"ĠKurd":11391,"Ġcompound":11392,"Ġunchanged":11393,"amps":11394,"Ġcrashes":11395,"angle":11396,"Ġblocks":11397,"iambi":11398,"Ġactive":11399,"Ġowns":11400,"ĠTrump":11401,"Ġguards":11402,"struct":11403,"Ġanticip":11404,"Ġcompetitor":11405,"mails":11406,"umbent":11407,"Ġembargo":11408,"Ġrockets":11409,"amento":11410,"Ġkidnapping":11411,"Ġpacked":11412,"arzeneg":11413,"Friday":11414,"ĠProtest":11415,"Ġmoments":11416,"uznets":11417,"ĠDoug":11418,"Ġcalendar":11419,"ĠRonald":11420,"ĠHotel":11421,"Ġanswers":11422,"Ġillness":11423,"Ġtribunal":11424,"BURG":11425,"ĠJamal":11426,"Ġlibraries":11427,"Ġcartel":11428,"ĠMuqtada":11429,"ĠMercury":11430,"Ġpersuade":11431,"ĠVersion":11432,"ĠMontgomerie":11433,"Ġlongtime":11434,"Ġdetonated":11435,"ĠFreddie":11436,"acramento":11437,"arzenegger":11438,"Get":11439,"NT":11440,"Vodafone":11441,"cane":11442,"jo":11443,"sec":11444,"orse":11445,"itan":11446,"Ġwearing":11447,"Ġboys":11448,"Ġhikes":11449,"idance":11450,"ĠMGM":11451,"ĠMeyer":11452,"Ġthrows":11453,"ĠPetroleum":11454,"ĠWars":11455,"ĠFame":11456,"ĠFCC":11457,"ĠRac":11458,"Ġstable":11459,"imination":11460,"ĠLocal":11461,"Ġhed":11462,"ĠStrate":11463,"ĠKan":11464,"ĠKath":11465,"ĠKidd":11466,"oof":11467,"Ġjourney":11468,"Ġselect":11469,"Ġselected":11470,"ĠVotes":11471,"Ġoutbreak":11472,"APL":11473,"Ġresh":11474,"anking":11475,"Ġcrunch":11476,"inai":11477,"ples":11478,"Ġimminent":11479,"itsu":11480,"Ġconsult":11481,"ĠPresidential":11482,"ooting":11483,"ĠAlaska":11484,"Ġsuing":11485,"ENE":11486,"Ġbattery":11487,"Ġcostly":11488,"Chief":11489,"clestone":11490,"liners":11491,"Ġinterested":11492,"Ġpresented":11493,"Ġpresidency":11494,"ĠIslamist":11495,"Ġrolls":11496,"ĠPortland":11497,"ĠExpands":11498,"ĠHaitian":11499,"aught":11500,"ĠSantander":11501,"ĠTropical":11502,"Ġbasic":11503,"Ġathletic":11504,"Ġvirtually":11505,"Grand":11506,"ĠShaukat":11507,"Ġsalary":11508,"controlled":11509,"while":11510,"ĠGarden":11511,"Ġexercise":11512,"poena":11513,"ĠBankruptcy":11514,"69":11515,"Cal":11516,"DI":11517,"FK":11518,"LY":11519,"Wind":11520,"Zen":11521,"bot":11522,"base":11523,"hist":11524,"Ġbonds":11525,"icits":11526,"ĠSells":11527,"ĠCars":11528,"ĠMax":11529,"elro":11530,"aders":11531,"ĠWolf":11532,"ĠFM":11533,"Ġrugby":11534,"ĠDu":11535,"ribe":11536,"emin":11537,"occo":11538,"apes":11539,"Ġspots":11540,"ĠYUKOS":11541,"Ġclock":11542,"Ġcontain":11543,"ousand":11544,"Ġ650":11545,"Ġpercentage":11546,"Ġsurve":11547,"ĠCole":11548,"Ġdealing":11549,"REAL":11550,"erties":11551,"Ġundergo":11552,"ĠGuilty":11553,"iddles":11554,"Ġpromotion":11555,"Ġholidays":11556,"Ġtransform":11557,"MSN":11558,"Spain":11559,"URT":11560,"Ġfeels":11561,"Ġfreshman":11562,"NET":11563,"Reds":11564,"Ġalleging":11565,"ĠPitcairn":11566,"Ġescaped":11567,"ĠLegal":11568,"Ġmistakes":11569,"Ġabandon":11570,"ĠSalvation":11571,"Ġsavings":11572,"Ġtougher":11573,"Ġoverwhelming":11574,"mandu":11575,"reprene":11576,"uznetsova":11577,"Bonds":11578,"Cell":11579,"Euro":11580,"Home":11581,"MAN":11582,"OB":11583,"gies":11584,"wing":11585,"Ġtumbled":11586,"Ġtoy":11587,"Ġbund":11588,"ĠSaints":11589,"ilo":11590,"ĠAction":11591,"ĠCond":11592,"ĠCircuit":11593,"ĠNev":11594,"ĠNFC":11595,"ĠFul":11596,"ĠFOX":11597,"Ġstops":11598,"Ġstrokes":11599,"ĠGround":11600,"ĠGateway":11601,"Ġproof":11602,"Ġoffshore":11603,"ffield":11604,"ĠVac":11605,"ĠAny":11606,"Ġ61":11607,"Ġserved":11608,"ĠCoal":11609,"ĠPlane":11610,"Ġoperate":11611,"header":11612,"ĠSouthampton":11613,"ĠTrack":11614,"Ġsuburb":11615,"Ġguidance":11616,"Ġcloses":11617,"lete":11618,"TOBER":11619,"Ġpatient":11620,"Ġtradition":11621,"ĠDelays":11622,"Ġpublishing":11623,"Ġwithdrawn":11624,"ĠInterior":11625,"Ġcounted":11626,"Asian":11627,"ĠAviv":11628,"ĠPalmOne":11629,"Ġchallenging":11630,"ravaged":11631,"ĠPleads":11632,"ĠCancer":11633,"definition":11634,"ĠPolitical":11635,"Ġcongressional":11636,"Ġdetainees":11637,"ĠShrine":11638,"ĠMONTREAL":11639,"ĠPortsmouth":11640,"450":11641,"700":11642,"Half":11643,"NO":11644,"Next":11645,"NAS":11646,"PO":11647,"RI":11648,"Sept":11649,"Washington":11650,"del":11651,"Ġtree":11652,"Ġsacked":11653,"Ġcow":11654,"Ġwr":11655,"ĠSouness":11656,"ĠMetro":11657,"ĠIchiro":11658,"ĠBook":11659,"ĠNJ":11660,"ĠFidel":11661,"ĠFernand":11662,"ĠGall":11663,"Ġbeaut":11664,"Ġbeleaguered":11665,"opes":11666,"Ġyoun":11667,"Ġwhales":11668,"Ġabuses":11669,"ĠMoney":11670,"ureau":11671,"ĠSpring":11672,"Ġkiller":11673,"Ġdeclines":11674,"errard":11675,"Ġbru":11676,"Ġstriking":11677,"Invest":11678,"ATI":11679,"idnight":11680,"closed":11681,"ĠSteven":11682,"ĠPolicy":11683,"ILLS":11684,"Ġdrink":11685,"lantic":11686,"ĠEastman":11687,"Ġshutout":11688,"Forbes":11689,"Ġidentify":11690,"Ġimportance":11691,"ĠDrugs":11692,"ĠPorto":11693,"Americans":11694,"ĠCountry":11695,"service":11696,"ĠSanta":11697,"Trans":11698,"Airbus":11699,"ĠThreatens":11700,"Ġpremium":11701,"ĠKeeps":11702,"ĠLiberty":11703,"Ġreliever":11704,"Ġcornerback":11705,"Ġoriginally":11706,"Ġdesperate":11707,"ĠOCTOBER":11708,"bal":11709,"car":11710,"gio":11711,"ja":11712,"killer":11713,"two":11714,"Ġsick":11715,"Ġcargo":11716,"Ġbear":11717,"Ġbold":11718,"Ġmph":11719,"ĠAud":11720,"ĠCAR":11721,"ĠBanc":11722,"ĠBurn":11723,"Ġreiter":11724,"ĠNist":11725,"ĠFBI":11726,"ĠFamily":11727,"ĠRal":11728,"Ġraw":11729,"esty":11730,"ĠLift":11731,"ĠLyon":11732,"ĠERP":11733,"Ġbeer":11734,"Ġbeach":11735,"ulator":11736,"asty":11737,"Ġships":11738,"Ġplus":11739,"ivals":11740,"Ġaccompl":11741,"Ġunknown":11742,"Ġuniform":11743,"Ġopinion":11744,"INS":11745,"gedy":11746,"ĠSerie":11747,"rawford":11748,"spyware":11749,"ĠWarning":11750,"Ġreduction":11751,"Ġgrant":11752,"ĠDisput":11753,"ACH":11754,"Ġfeaturing":11755,"Ġtwin":11756,"Ġdiscussions":11757,"ĠAntar":11758,"Ġplatforms":11759,"Ġownership":11760,"ĠPanama":11761,"Ġdisappointed":11762,"Ġattendants":11763,"Ġmargin":11764,"Ġdesktops":11765,"Ġcompromise":11766,"Ġcolleagues":11767,"ĠEarnhardt":11768,"ĠHampshire":11769,"ĠNistelro":11770,"/&":11771,"Brown":11772,"GP":11773,"Mex":11774,"bound":11775,"dict":11776,"holm":11777,"Ġace":11778,"Ġce":11779,"alom":11780,"Ġtopped":11781,"ĠSoft":11782,"ĠSacramento":11783,"ĠSinai":11784,"Ġmud":11785,"Ġdot":11786,"Ġdubbed":11787,"ĠTob":11788,"ĠCome":11789,"ĠPitch":11790,"Ġforth":11791,"ĠWright":11792,"ĠFreed":11793,"ĠRow":11794,"illes":11795,"Ġstages":11796,"ĠOregon":11797,"riot":11798,"Ġproced":11799,"ĠJun":11800,"ĠJerry":11801,"ummer":11802,"ĠKyle":11803,"Ġunp":11804,"Ġscen":11805,"ologist":11806,"Ġbusinessman":11807,"eeper":11808,"Ġnearby":11809,"Ġgrows":11810,"lington":11811,"enny":11812,"Ġsmooth":11813,"Ġswimming":11814,"ĠWhy":11815,"Ġdeliber":11816,"ĠSeoul":11817,"Ġcamps":11818,"Ġstrain":11819,"Ġopposed":11820,"Ġdetailed":11821,"Ġmoderate":11822,"Ġregulations":11823,"ĠPolish":11824,"Ġexperiment":11825,"wanted":11826,"ĠMissing":11827,"Ġsurvival":11828,"Asia":11829,"ĠArgentine":11830,"Ġgreenhouse":11831,"Ġhunger":11832,"Ġbriefly":11833,"Ġflooding":11834,"ĠSettlement":11835,"ĠNOV":11836,"Ġnortheastern":11837,"ĠStraight":11838,"Ġcycling":11839,"ĠChildren":11840,"ĠLuis":11841,"ĠLPGA":11842,"ĠProducts":11843,"ĠGazprom":11844,"ĠBLOOMFIELD":11845,"caneers":11846,"ĠNistelrooy":11847,"'m":11848,"87":11849,"Five":11850,"Or":11851,"Pe":11852,"Sign":11853,"Sonics":11854,"Why":11855,"government":11856,"hot":11857,"hire":11858,"ienced":11859,"vidia":11860,"Ġerror":11861,"Ġaides":11862,"Ġcert":11863,"ĠSites":11864,"ĠAwards":11865,"aco":11866,"ĠBAL":11867,"ĠBrowser":11868,"ĠBudd":11869,"Ġreaction":11870,"ĠFarm":11871,"ĠDa":11872,"that":11873,"ĠLive":11874,"ework":11875,"Ġasylum":11876,"ĠChancellor":11877,"ĠThough":11878,"ĠVince":11879,"outi":11880,"anta":11881,"Ġabrupt":11882,"ogts":11883,"Ġopportun":11884,"achers":11885,"ovan":11886,"itez":11887,"oyed":11888,"Ġimag":11889,"ĠReaches":11890,"Ġsupports":11891,"Ġcapped":11892,"errilla":11893,"iamen":11894,"Ġtriple":11895,"State":11896,"Ġweapon":11897,"Ġsubst":11898,"ĠHeisman":11899,"Ġcheer":11900,"Ġstepping":11901,"ĠSuisse":11902,"Ġnegotiate":11903,"Ġconviction":11904,"ĠMissouri":11905,"Ġcombination":11906,"Ġvalued":11907,"ĠLawyers":11908,"Ġblasted":11909,"ĠSilv":11910,"Ġcomplaints":11911,"ĠIntrod":11912,"Ġcircuit":11913,"ĠProduction":11914,"ĠLowe":11915,"Ġhonor":11916,"Ġdevastated":11917,"Ġunfair":11918,"Ġchemical":11919,"Ġtreated":11920,"California":11921,"Ġwreckage":11922,"Ġadvocates":11923,"ĠOntario":11924,"Ġaccusations":11925,"elebrex":11926,"37":11927,"64":11928,"Center":11929,"Dec":11930,"Fall":11931,"Reb":11932,"Sym":11933,"WTO":11934,"boy":11935,"named":11936,"Ġawards":11937,"arc":11938,"Ġpsych":11939,"ĠSend":11940,"ĠSue":11941,"Ġhide":11942,"Ġhaul":11943,"ĠCFO":11944,"ĠMCI":11945,"ĠPension":11946,"ĠPiracy":11947,"ĠWH":11948,"ĠWel":11949,"ĠWarming":11950,"ĠNi":11951,"ĠNears":11952,"ĠHim":11953,"ĠLU":11954,"ĠEth":11955,"essor":11956,"ĠInsp":11957,"ĠStay":11958,"Ġwhom":11959,"ĠKum":11960,"ĠYushchenko":11961,"ĠFront":11962,"avior":11963,"ĠAsks":11964,"Ġcooper":11965,"airy":11966,"Ġtalent":11967,"coa":11968,"ainsbury":11969,"Ġglory":11970,"Ġstrongly":11971,"Ġspecific":11972,"Ġhandling":11973,"Ġgolden":11974,"Ġvisited":11975,"Ġaviation":11976,"oneywell":11977,"ĠSlips":11978,"ĠElena":11979,"Ġpolicemen":11980,"Ġenth":11981,"Ġaffected":11982,"Ġmonitors":11983,"Ġdisappointment":11984,"AKE":11985,"ĠTyler":11986,"ĠIntegr":11987,"Ġfuneral":11988,"Ġlocker":11989,"Prince":11990,"ĠCAIRO":11991,"Adobe":11992,"ĠBluetooth":11993,"Ġpraise":11994,"Ġturmoil":11995,"boro":11996,"Indonesia":11997,"cutting":11998,"Hollywood":11999,"ĠKazakhstan":12000,"Zeneca":12001,"32":12002,"DC":12003,"Death":12004,"EI":12005,"Let":12006,"Pass":12007,"Power":12008,"Tw":12009,"TAN":12010,"When":12011,"but":12012,"brough":12013,"hol":12014,"low":12015,"oos":12016,"Ġeld":12017,"inted":12018,"rehens":12019,"Ġbranch":12020,"ĠSex":12021,"sted":12022,"ĠMaking":12023,"ela":12024,"ĠBrom":12025,"ĠBulls":12026,"Ġge":12027,"ĠWid":12028,"ĠWNBA":12029,"ĠNZ":12030,"Ġstaged":12031,"ĠHoping":12032,"ĠLose":12033,"ĠLuke":12034,"osis":12035,"ĠJud":12036,"Ġsaving":12037,"iang":12038,"Ġdeg":12039,"Ġquits":12040,"Ġcomponents":12041,"Ġkicks":12042,"Ġclassic":12043,"Ġcloning":12044,"ailing":12045,"computing":12046,"Ġtrim":12047,"ĠShot":12048,"ĠProgress":12049,"Ġdeclining":12050,"Ġ74":12051,"ĠPlant":12052,"ĠJoh":12053,"ARA":12054,"ĠBehind":12055,"enteris":12056,"Ġspecif":12057,"ĠSanctions":12058,"Ġ160":12059,"ijsters":12060,"Ġsolve":12061,"Ġchipmaker":12062,"ĠPatent":12063,"Ġstatements":12064,"Ġprisoner":12065,"Ġdrawing":12066,"Ġblockade":12067,"ĠPlanet":12068,"Ġdifferences":12069,"Ġacquisitions":12070,"Ġwildlife":12071,"Ġprotecting":12072,"ĠMemory":12073,"ĠLabs":12074,"ĠSuspected":12075,"Ġdemonstrated":12076,"ĠBetter":12077,"Ġhalted":12078,"ĠBasque":12079,"Ġknockout":12080,"powered":12081,"ĠBuccaneers":12082,"ĠHarrington":12083,"ĠPeterson":12084,"Ġregistered":12085,"ĠRuud":12086,"Ġdistributor":12087,"150":12088,"89":12089,"AI":12090,"Call":12091,"KH":12092,"Med":12093,"Port":12094,"Six":12095,"Ġtore":12096,"iner":12097,"itting":12098,"Ġfake":12099,"asa":12100,"Ġmun":12101,"Ġhook":12102,"ĠAyad":12103,"ĠTough":12104,"ĠCambodia":12105,"stad":12106,"ĠPope":12107,"Ġforest":12108,"ĠWould":12109,"ĠWired":12110,"ĠNine":12111,"ĠNuke":12112,"ĠRuling":12113,"ĠRookie":12114,"Ġstays":12115,"Ġrains":12116,"ĠDE":12117,"ĠHend":12118,"ĠLate":12119,"ĠLiving":12120,"ulted":12121,"Ġasp":12122,"Ġconvers":12123,"Ġshared":12124,"Ġexample":12125,"ometer":12126,"Ġaccuses":12127,"ĠSpurrier":12128,"ĠLeon":12129,"oken":12130,"alese":12131,"president":12132,"racted":12133,"eeping":12134,"ĠMarat":12135,"Ġbombed":12136,"Ġdelight":12137,"Ġdelivers":12138,"Ġprogramming":12139,"beki":12140,"ĠWillingham":12141,"ĠManufacturing":12142,"Ġfollows":12143,"respond":12144,"Ġviolated":12145,"ĠSuns":12146,"Ġshortly":12147,"Ġpatrol":12148,"Ġdrinks":12149,"ĠHarris":12150,"ĠConsider":12151,"utiny":12152,"Ġdefeating":12153,"ĠViacom":12154,"Ġcompletely":12155,"ĠIndustrial":12156,"ĠStarts":12157,"Ġlabels":12158,"Ġindependence":12159,"ĠTrip":12160,"Ġlackl":12161,"Ġcharacter":12162,"Ġevacu":12163,"Philipp":12164,"Ġceasefire":12165,"ĠKeith":12166,"ĠRossi":12167,"Ġlandslides":12168,"Ġgenetic":12169,"Ġcomfortable":12170,"ĠKlitschko":12171,"Ġmagnitude":12172,"ĠEnvironmental":12173,"UAIR":12174,"Ġerrors":12175,"Ġaerospace":12176,"Typhoon":12177,"ĠScientific":12178,"Ġvideotape":12179,"ĠMahmoud":12180,"ĠFALLUJA":12181,"Cap":12182,"Cassini":12183,"Gun":12184,"Month":12185,"Now":12186,"Venezuel":12187,"after":12188,"bow":12189,"fare":12190,"jans":12191,"kina":12192,"pot":12193,"yer":12194,"Ġtip":12195,"inf":12196,"Ġcocaine":12197,"Ġpill":12198,"Ġbears":12199,"iser":12200,"royo":12201,"ĠAverage":12202,"ĠTed":12203,"ĠCIA":12204,"ĠMain":12205,"ĠMuseum":12206,"irmed":12207,"Ġgang":12208,"user":12209,"ĠNBC":12210,"ĠFact":12211,"Ġrib":12212,"ĠDig":12213,"ĠUlt":12214,"asted":12215,"Ġcomponent":12216,"ellation":12217,"avs":12218,"ocking":12219,"ĠAns":12220,"ĠSpir":12221,"ĠLeBron":12222,"ĠBlasts":12223,"ĠWorldwide":12224,"ĠClimate":12225,"ĠClippers":12226,"Ġunderway":12227,"Ġbankers":12228,"Ġexecution":12229,"ĠHeads":12230,"Ġhomers":12231,"share":12232,"Ġtradem":12233,"ĠMedal":12234,"ĠStrikes":12235,"Ġactivist":12236,"ĠLoses":12237,"Ġtravelers":12238,"Ġidentification":12239,"Ġsurvive":12240,"ĠRelief":12241,"Ġsubscription":12242,"ĠPennington":12243,"edding":12244,"Ġattempted":12245,"ĠMatthew":12246,"olicited":12247,"ĠRwandan":12248,"ĠAbdullah":12249,"Ġprimary":12250,"epsi":12251,"Ġadapters":12252,"ĠCourse":12253,"Ġslugger":12254,"UALA":12255,"ĠNegoti":12256,";\\&":12257,"Chelsea":12258,"Drug":12259,"Im":12260,"Tel":12261,"You":12262,"flight":12263,"host":12264,"oop":12265,"rating":12266,"Ġtons":12267,"Ġsac":12268,"Ġsank":12269,"iton":12270,"itted":12271,"Ġfee":12272,"Ġfights":12273,"Ġoust":12274,"Ġpieces":12275,"Ġdu":12276,"Ġdaughter":12277,"ĠAim":12278,"ĠAIDS":12279,"ĠMol":12280,"ĠMideast":12281,"uration":12282,"ĠPip":12283,"ĠPORT":12284,"ĠBO":12285,"Ġgambling":12286,"Ġstiff":12287,"ĠETA":12288,"ĠOAK":12289,"emic":12290,"opoly":12291,"essential":12292,"romedia":12293,"Ġshipped":12294,"ĠKa":12295,"Ġpriced":12296,"ĠChurch":12297,"ĠVonage":12298,"Ġrovers":12299,"ogg":12300,"Ġ2009":12301,"Ġcontrolled":12302,"awati":12303,"Ġadults":12304,"ĠShip":12305,"Ġincumbent":12306,"ĠReported":12307,"Ġinvestments":12308,"RES":12309,"Ġ85":12310,"DAL":12311,"ika":12312,"iki":12313,"Ġ94":12314,"Ġsworn":12315,"Ġprofitable":12316,"Ġglass":12317,"ĠXM":12318,"ĠXinhua":12319,"atories":12320,"ĠDecline":12321,"Ġinteresting":12322,"Ġshortstop":12323,"Ġshell":12324,"ĠVirt":12325,"ĠDelay":12326,"Blast":12327,"ĠGoldman":12328,"Ġmetres":12329,"Ġquestionable":12330,"ĠBelow":12331,"Colomb":12332,"Ġpurchased":12333,"ĠValent":12334,"ĠVoice":12335,"Ġoccurred":12336,"ĠExtend":12337,"ĠJeffrey":12338,"GHz":12339,"Ġurgent":12340,"Ġphotograph":12341,"ĠAustin":12342,"ĠHotels":12343,"ĠMeeting":12344,"ĠBreaks":12345,"Ġsidelined":12346,"ĠArrested":12347,"ĠRolls":12348,"ĠBolton":12349,"Olympics":12350,"Earth":12351,"Angels":12352,"Senate":12353,"iddlesbrough":12354,"Digital":12355,"Jets":12356,"Key":12357,"PK":12358,"Woods":12359,"da":12360,"kies":12361,"now":12362,"Ġx":12363,"hening":12364,"enged":12365,"Ġcripp":12366,"inging":12367,"Ġpending":12368,"Ġbounce":12369,"aya":12370,"Ġdawn":12371,"ĠCO":12372,"ĠCold":12373,"urich":12374,"ĠPubl":12375,"ĠPath":12376,"Ġforms":12377,"ĠBund":12378,"amm":12379,"uties":12380,"Ġstability":12381,"Ġriot":12382,"ravel":12383,"ĠLithuan":12384,"andals":12385,"essions":12386,"ĠJint":12387,"ĠJazz":12388,"umin":12389,"ĠKos":12390,"abr":12391,"ensus":12392,"Ġcontaining":12393,"ebuck":12394,"ĠSpyware":12395,"pled":12396,"Ġregain":12397,"Ġmayor":12398,"Ġcarmaker":12399,"Ġremarks":12400,"ĠJohnny":12401,"Ġpowered":12402,"Ġinfected":12403,"ĠGrace":12404,"ĠMaybe":12405,"TOC":12406,"Ġinstalled":12407,"ĠFires":12408,"Ġjumps":12409,"ĠHoly":12410,"Ġsafely":12411,"ĠRoebuck":12412,"ĠCHAR":12413,"mirates":12414,"Ġtracking":12415,"Ġspeak":12416,"ĠIntelligence":12417,"Ġunders":12418,"Ġdeterior":12419,"Ġplotting":12420,"Ġfighter":12421,"ĠGunners":12422,"ĠTerrell":12423,"Ġhelicopters":12424,"initi":12425,"Ġindividuals":12426,"ĠJaguars":12427,"Ġbirthday":12428,"Ġmuscle":12429,"ĠEstimates":12430,"ĠAnimation":12431,"Ġcoffee":12432,"ĠMickelson":12433,"Ġrichest":12434,"Motorola":12435,"ĠRepresentatives":12436,"Symantec":12437,"350":12438,"42":12439,"88":12440,"AY":12441,"And":12442,"Football":12443,"Health":12444,"Op":12445,"SM":12446,"VE":12447,"case":12448,"count":12449,"laim":12450,"poin":12451,"ximately":12452,"Ġiron":12453,"Ġpond":12454,"Ġpensions":12455,"Ġble":12456,"ĠAer":12457,"ouds":12458,"ĠTies":12459,"ĠCandid":12460,"ĠMand":12461,"ĠMob":12462,"ĠMitsubishi":12463,"oli":12464,"iri":12465,"ĠWells":12466,"ĠFat":12467,"ĠHope":12468,"ĠLay":12469,"ĠLove":12470,"ulent":12471,"ulous":12472,"Ġconcl":12473,"Ġexcess":12474,"Ġchurch":12475,"Ġwors":12476,"Ġsecured":12477,"odox":12478,"ropri":12479,"ĠShuttle":12480,"Ġincor":12481,"Ġteamed":12482,"Ġprev":12483,"Ġeconomies":12484,"Ġnears":12485,"ĠOpportunity":12486,"iented":12487,"Ġimpossible":12488,"ĠDean":12489,"Inf":12490,"ĠAgreement":12491,"ĠManuel":12492,"Ġstockp":12493,"AMP":12494,"Ġcampaigns":12495,"ĠRepl":12496,"Ġcellphone":12497,"Ġ1998":12498,"Ġpleads":12499,"ĠCentrino":12500,"ĠSheffield":12501,"unkett":12502,"Ġdistributed":12503,"ĠHealthDay":12504,"Ġbrokers":12505,"Ġtribal":12506,"Ġtextile":12507,"Ġinnoc":12508,"ĠInjured":12509,"ĠQueen":12510,"ĠQuestions":12511,"Ġpornography":12512,"Ġodds":12513,"Ġmedicine":12514,"ĠIncrease":12515,"Ġcosm":12516,"frame":12517,"Ġincentives":12518,"ĠGibbs":12519,"ĠContinues":12520,"ĠProblems":12521,"ĠSusilo":12522,"Ġremarkable":12523,"ĠRAMALLAH":12524,"ĠFulham":12525,"ĠRalph":12526,"ĠSilvio":12527,"Bel":12528,"Boss":12529,"Golf":12530,"ba":12531,"bian":12532,"dis":12533,"gie":12534,"oa":12535,"Ġeth":12536,"Ġtear":12537,"eds":12538,"Ġwer":12539,"Ġwrapped":12540,"rek":12541,"ĠSave":12542,"ĠSorenstam":12543,"Ġmurd":12544,"ayan":12545,"Ġhung":12546,"ĠPull":12547,"ados":12548,"ĠBHP":12549,"ĠBureau":12550,"olfer":12551,"Ġgar":12552,"ĠDip":12553,"ĠHILLS":12554,"Ġanonym":12555,"oslav":12556,"agged":12557,"ema":12558,"ĠKat":12559,"Ġalb":12560,"Ġwarl":12561,"ĠReform":12562,"ĠArms":12563,"prus":12564,"Strong":12565,"Ġdemocratic":12566,"Ġprotocol":12567,"parts":12568,"ĠBrands":12569,"Ġrefusing":12570,"ĠPressure":12571,"ĠCrisis":12572,"ĠSharp":12573,"ospitals":12574,"Ġexpecting":12575,"Ġskills":12576,"Ġexplosive":12577,"ĠBilliton":12578,"Ġfactor":12579,"Ġplead":12580,"ĠSurge":12581,"Ġdeeper":12582,"Ġintegrate":12583,"Ġmounting":12584,"Ġvariety":12585,"ĠMessenger":12586,"Ġracist":12587,"Ġpanels":12588,"ĠSilverstone":12589,"ocoPhillips":12590,"ĠKoizumi":12591,"Patriots":12592,"Ġhellip":12593,"Ġfrozen":12594,"ĠBambang":12595,"ĠOrganisation":12596,"63":12597,"End":12598,"GC":12599,"HD":12600,"Rad":12601,"SB":12602,"distance":12603,"handed":12604,"ken":12605,"lit":12606,"liest":12607,"sol":12608,"xious":12609,"Ġskept":12610,"Ġcement":12611,"Ġcateg":12612,"Ġpin":12613,"rote":12614,"Ġmidnight":12615,"Ġhamp":12616,"ĠAk":12617,"ĠTa":12618,"ĠTendulkar":12619,"ĠCelebrex":12620,"ĠMillions":12621,"ĠFT":12622,"ĠFan":12623,"ĠRivers":12624,"ĠRule":12625,"ĠRSS":12626,"ĠUF":12627,"ĠGiambi":12628,"ĠLed":12629,"tson":12630,"Ġancest":12631,"ĠOther":12632,"ĠOtt":12633,"tersh":12634,"ocation":12635,"ĠStars":12636,"Ġchose":12637,"Ġaging":12638,"ĠThunder":12639,"ĠYesterday":12640,"ĠYanks":12641,"ubai":12642,"Ġunity":12643,"eoples":12644,"ĠShopping":12645,"ĠIndy":12646,"ĠSpani":12647,"Ġimpr":12648,"ĠBlazers":12649,"Ġrunner":12650,"Steel":12651,"Ġtragedy":12652,"Ġchiefs":12653,"Ġswitches":12654,"Ġguerrilla":12655,"Ġ120":12656,"Ġstudies":12657,"Ġmemor":12658,"Ġmainly":12659,"Ġbroader":12660,"Ġstead":12661,"Thousands":12662,"Ġlisten":12663,"Ġmerch":12664,"Annan":12665,"ĠFedEx":12666,"ĠSuite":12667,"Ġmeteor":12668,"Ġmultimedia":12669,"iveness":12670,"Ġspecialist":12671,"Ġcreditors":12672,"ĠBrothers":12673,"Ġvaluable":12674,"Ġvolcano":12675,"flation":12676,"ĠMembers":12677,"Ġresolving":12678,"ĠKyi":12679,"CLA":12680,"Mozilla":12681,"Ġhybrid":12682,"ĠBeta":12683,"Ġsprinters":12684,"ĠWilson":12685,"robat":12686,"Ġbenchmark":12687,"Ġdelegates":12688,"Ġmastermind":12689,"ĠSchwab":12690,"Ġbullpen":12691,"Ġdisplays":12692,"alymp":12693,"Ġexecs":12694,"Ġarchitecture":12695,"Turkey":12696,"ĠConcerns":12697,"Ġculture":12698,"ĠLawsuit":12699,"Ġroughly":12700,"Ġdreams":12701,"ĠAccounting":12702,"Hewitt":12703,"Ġstructure":12704,"ĠMaurice":12705,"Ġsimultaneously":12706,"Ġhedge":12707,"ĠJintao":12708,".)":12709,"Dream":12710,"Go":12711,"Pad":12712,"PTI":12713,"Texas":12714,"fund":12715,"oiled":12716,"pnet":12717,"Ġaver":12718,"onia":12719,"Ġfrag":12720,"Ġpetroleum":12721,"roeder":12722,"ĠSutton":12723,"Ġmice":12724,"Ġmotion":12725,"Ġhub":12726,"Ġduty":12727,"ĠTamil":12728,"ĠMills":12729,"ĠPossible":12730,"ĠBash":12731,"ĠBett":12732,"Ġnov":12733,"Ġgay":12734,"ĠWord":12735,"ĠLE":12736,"ĠLord":12737,"ĠLatham":12738,"osite":12739,"aping":12740,"Ġshaky":12741,"ĠKost":12742,"Ġchat":12743,"ĠCho":12744,"ĠThose":12745,"abies":12746,"ĠYao":12747,"erez":12748,"ĠVin":12749,"ĠVoting":12750,"ĠFresh":12751,"comes":12752,"Ġtruce":12753,"ousing":12754,"ĠIndepend":12755,"Ġdeficits":12756,"Ġ79":12757,"ĠPlot":12758,"ĠAlmost":12759,"Ġtrio":12760,"ĠFlash":12761,"ĠTrust":12762,"Ġguys":12763,"Ġcampus":12764,"Ġcollection":12765,"ĠButton":12766,"Ġengaged":12767,"Ġbanning":12768,"Ġpressed":12769,"attrone":12770,"Ġsuccessive":12771,"Ġurge":12772,"Ġdownloading":12773,"ĠVienna":12774,"Ġimprovements":12775,"ĠExpo":12776,"Ġpitches":12777,"Ġarguments":12778,"Ġstunned":12779,"Ġanimal":12780,"ĠBoosts":12781,"SpaceShipOne":12782,"ĠIMF":12783,"Ġadviser":12784,"ĠCDs":12785,"ĠQuestion":12786,"Cardinals":12787,"Ġfatal":12788,"Ġtropical":12789,"Ġrestaurant":12790,"ĠKentucky":12791,"Ġjunior":12792,"ĠMiguel":12793,"ĠCompetition":12794,"ĠBargh":12795,"Roddick":12796,"ĠVirtual":12797,"57":12798,"CR":12799,"DR":12800,"Mich":12801,"Out":12802,"PN":12803,"TW":12804,"eering":12805,"fast":12806,"nell":12807,"Ġtrem":12808,"itational":12809,"Ġcigar":12810,"ĠSong":12811,"Ġdrought":12812,"ĠMIL":12813,"Ġlie":12814,"ĠGap":12815,"ĠLik":12816,"ĠEmirates":12817,"Ġproper":12818,"asting":12819,"ĠKirk":12820,"ieva":12821,"eploy":12822,"Ġ350":12823,"ĠLeading":12824,"encer":12825,"Ġpartial":12826,"ementieva":12827,"Ġbooming":12828,"riving":12829,"Ġswift":12830,"leyball":12831,"Ġtestimony":12832,"Ġstrip":12833,"Ġresearcher":12834,"Ġprocesses":12835,"annon":12836,"Ġfindings":12837,"ĠDeputy":12838,"Ġcauses":12839,"Ġtransport":12840,"ĠDesign":12841,"Ġbehavior":12842,"ACK":12843,"Ġentreprene":12844,"Ġportal":12845,"Ġqualify":12846,"Ġdisputes":12847,"icipal":12848,"Ġconnected":12849,"Ġuncon":12850,"Ġreadies":12851,"ĠStarbucks":12852,"Ġwalking":12853,"Ġresolved":12854,"ĠDiscuss":12855,"iracle":12856,"Ġteenage":12857,"ĠMovie":12858,"Ġunsolicited":12859,"Ġbeheading":12860,"profit":12861,"Server":12862,"Ġwelcomes":12863,"Ġencourage":12864,"Ġencouraged":12865,"Ġenjoyed":12866,"Ġgrocer":12867,"Ġexperiments":12868,"Ġscreensaver":12869,"demand":12870,"ĠFilm":12871,"ĠChampion":12872,"Hamas":12873,"Ġfalse":12874,"Nigerian":12875,"Militants":12876,"Ġshrugged":12877,"xygen":12878,"Ġgadgets":12879,"ĠSettles":12880,"Ġemotional":12881,"ĠKathmandu":12882,"Ġreiterated":12883,"ĠKumar":12884,"Bur":12885,"Bell":12886,"CEO":12887,"Hit":12888,"HAR":12889,"Ma":12890,"MMC":12891,"Pay":12892,"Rel":12893,"cue":12894,"gages":12895,"lift":12896,"sign":12897,"test":12898,"wise":12899,"Ġtum":12900,"eri":12901,"Ġsamples":12902,"orry":12903,"Ġfold":12904,"Ġpig":12905,"Ġtox":12906,"ila":12907,"Ġdug":12908,"ĠTex":12909,"ĠMiddlesbrough":12910,"etown":12911,"ĠBuck":12912,"ĠBatt":12913,"Ġnom":12914,"Ġnav":12915,"Ġstabil":12916,"ĠLic":12917,"ĠLloy":12918,"ĠOscar":12919,"again":12920,"istle":12921,"Ġprinters":12922,"abi":12923,"obod":12924,"Ġoutstanding":12925,"Ġrocks":12926,"commerce":12927,"inding":12928,"ilitary":12929,"efeated":12930,"ĠAustralians":12931,"Ġ82":12932,"Ġbrink":12933,"Ġsmoke":12934,"Ġ2010":12935,"Ġdebuts":12936,"ĠManny":12937,"ĠMcGr":12938,"Ġhalfway":12939,"ĠGrid":12940,"ĠMotley":12941,"Ġcreates":12942,"Ġlikes":12943,"HEIM":12944,"ĠWeis":12945,"ĠFRANK":12946,"ĠSenator":12947,"ĠSuu":12948,"Ġdoubleheader":12949,"Ġtwist":12950,"Ġtourism":12951,"ĠEcclestone":12952,"ĠRichards":12953,"Ġpurchases":12954,"Ġprosecution":12955,"Ġlicenses":12956,"Ġradar":12957,"ĠCasey":12958,"Ġcirculation":12959,"ĠCampbell":12960,"ĠCyprus":12961,"rigley":12962,"Ġclears":12963,"Ġlegislative":12964,"Ġstemming":12965,"ĠInfineon":12966,"ĠRivera":12967,"ĠSummit":12968,"Super":12969,"Ġproceedings":12970,"Ġadjust":12971,"ĠWriter":12972,"ĠBarbados":12973,"Ġrotation":12974,"Silicon":12975,"ĠGriff":12976,"ĠKelly":12977,"Ġundisclosed":12978,"Ġspreading":12979,"ĠToward":12980,"ĠFOXBOR":12981,"Ġenthus":12982,"Ġweren":12983,"Aut":12984,"Bert":12985,"Chen":12986,"Iv":12987,"KA":12988,"Mets":12989,"Major":12990,"Musharraf":12991,"Wenger":12992,"aigning":12993,"fold":12994,"iw":12995,"sm":12996,"sup":12997,"waves":12998,"incess":12999,"Ġsch":13000,"atlin":13001,"Ġwish":13002,"ĠSiebel":13003,"ĠAuction":13004,"ĠPoint":13005,"Ġlav":13006,"Ġlights":13007,"Ġgest":13008,"ĠWat":13009,"ĠWoes":13010,"ĠRos":13011,"ĠRatings":13012,"Ġrub":13013,"ĠLah":13014,"ĠLifts":13015,"ching":13016,"ĠThese":13017,"Ġisol":13018,"Ġyouth":13019,"Ġsaved":13020,"ĠInn":13021,"allah":13022,"Ġvig":13023,"ĠKuznetsova":13024,"ĠKenteris":13025,"ardo":13026,"Ġoffseason":13027,"ellites":13028,"ternal":13029,"ĠPrim":13030,"ilever":13031,"Ġenables":13032,"mann":13033,"manned":13034,"azir":13035,"ĠEuropeans":13036,"ĠArts":13037,"Ġdowntown":13038,"Ġquarterbacks":13039,"Ġnightmare":13040,"Ġdoors":13041,"Ġ81":13042,"ĠRedmond":13043,"airo":13044,"Int":13045,"Ġattacker":13046,"Ġpeaceful":13047,"ĠAcrobat":13048,"Ġeval":13049,"uja":13050,"Thai":13051,"ĠChem":13052,"Ġintroducing":13053,"Ġmetal":13054,"ĠConserv":13055,"Ġaffili":13056,"Ġspeeds":13057,"ĠTechWeb":13058,"ĠMorris":13059,"ĠStockholm":13060,"Ġapproximately":13061,"ĠMSFT":13062,"ĠSolutions":13063,"ĠDenies":13064,"ĠSantana":13065,"Ġwaited":13066,"Ġdeployed":13067,"Ġ802":13068,"Ġsecretly":13069,"Ġcybersecurity":13070,"Ġreferee":13071,"Ġawaits":13072,"Ġpurported":13073,"ĠDunhill":13074,"Ġoccupation":13075,"ĠSalvador":13076,"Ġexploit":13077,"ĠInvitational":13078,"Ġdismant":13079,"ĠMarcus":13080,"ĠTribune":13081,"bourne":13082,"ĠSlovak":13083,"ĠFIFA":13084,"Explos":13085,"Ġopportunities":13086,"Ġtrademark":13087,"obodan":13088,":-":13089,"BB":13090,"Beckham":13091,"Broad":13092,"Gates":13093,"Har":13094,"Kidnapp":13095,"Lay":13096,"Mil":13097,"Software":13098,"Tiger":13099,"cell":13100,"from":13101,"lis":13102,"math":13103,"pet":13104,"session":13105,"virus":13106,"iture":13107,"Ġpriz":13108,"Ġdinos":13109,"ĠTreat":13110,"ĠTerm":13111,"ĠToys":13112,"ĠCR":13113,"ĠCreat":13114,"ĠMaker":13115,"ĠPierce":13116,"ĠBrief":13117,"ĠWR":13118,"ĠFL":13119,"ĠFear":13120,"ĠFix":13121,"ĠFlex":13122,"ĠRout":13123,"ĠRivals":13124,"ĠHon":13125,"ĠLi":13126,"Ġasbestos":13127,"Ġven":13128,"ĠKell":13129,"ĠKrispy":13130,"rying":13131,"Ġseize":13132,"Ġselection":13133,"ieves":13134,"Ġexpense":13135,"ortion":13136,"Ġ59":13137,"oughlin":13138,"Ġbuyer":13139,"Ġswim":13140,"ĠOffensive":13141,"Ġexploration":13142,"Ġattacking":13143,"Ġattackers":13144,"ĠBrady":13145,"Ġlegacy":13146,"ĠQwest":13147,"Ġformats":13148,"ĠGren":13149,"Ġempire":13150,"Ġdetention":13151,"Ġobst":13152,"IAEA":13153,"ĠMoore":13154,"ournament":13155,"ĠRobb":13156,"Ġaffairs":13157,"Ġspotted":13158,"Ġtourist":13159,"ĠUrban":13160,"Ġcatcher":13161,"ĠRunning":13162,"Ġeleph":13163,"Ġturf":13164,"ĠBuilding":13165,"ĠRaymond":13166,"Ġconservation":13167,"ĠTelstra":13168,"Ġpolitician":13169,"Research":13170,"ĠSachs":13171,"ĠArmstrong":13172,"ĠParmalat":13173,"Malays":13174,"Ġindefinitely":13175,"Ġpirated":13176,"rehensive":13177,"ĠLikud":13178,"59":13179,"Bill":13180,"Back":13181,"Dav":13182,"Good":13183,"Ray":13184,"Saudi":13185,"Va":13186,"cite":13187,"member":13188,"nasdaq":13189,"pers":13190,"Ġtears":13191,"ito":13192,"Ġfier":13193,"Ġcra":13194,"Ġwing":13195,"Ġpose":13196,"Ġmention":13197,"Ġhers":13198,"terdam":13199,"ĠTs":13200,"ĠTodd":13201,"ĠCairo":13202,"ĠMond":13203,"ĠMIN":13204,"ĠMuch":13205,"ura":13206,"ĠPIT":13207,"Ġforget":13208,"ĠBit":13209,"ĠBASE":13210,"Ġnone":13211,"Ġgross":13212,"ĠRash":13213,"ĠDO":13214,"ĠDer":13215,"ĠGators":13216,"ĠGanguly":13217,"ĠHart":13218,"ĠLibr":13219,"ulators":13220,"Ġconcent":13221,"porations":13222,"ustry":13223,"Ġspurred":13224,"Ġjoy":13225,"ograp":13226,"oven":13227,"Ġtrick":13228,"Ġincidents":13229,"Ġdecisions":13230,"appers":13231,"ledge":13232,"Ġsole":13233,"Ġcarbon":13234,"Ġheadlines":13235,"Ġpointed":13236,"Ġindustries":13237,"ĠProfessional":13238,"ISH":13239,"Ġrestart":13240,"Ġhomeland":13241,"ĠQualcomm":13242,"Ġinvestigations":13243,"Ġregulation":13244,"Ġclearly":13245,"ĠBayer":13246,"Ġoldest":13247,"ĠAstra":13248,"ĠBEA":13249,"Ġuncovered":13250,"ĠCharged":13251,"ĠRogers":13252,"Ġreaders":13253,"ĠTyrone":13254,"Ġconcert":13255,"Ġsporting":13256,"Ġfixes":13257,"ĠThomson":13258,"ĠActiv":13259,"ĠNepalese":13260,"Ġinitiatives":13261,"ĠWilkins":13262,"Ġbargain":13263,"Ġpraised":13264,"Ġbullet":13265,"ĠCollins":13266,"Italian":13267,"ĠJoins":13268,"Ġcycle":13269,"Johnson":13270,"ĠCastro":13271,"Ġrecruits":13272,"Ġacademic":13273,"ĠBeltran":13274,"Ġelder":13275,"34":13276,"?\"":13277,"Bus":13278,"Dolphins":13279,"FURT":13280,"Mars":13281,"YA":13282,"dec":13283,"mor":13284,"pace":13285,"trick":13286,"Ġrom":13287,"Ġsne":13288,"Ġflee":13289,"Ġfleet":13290,"Ġburn":13291,"ĠSD":13292,"Ġmild":13293,"Ġminds":13294,"Ġdip":13295,"Ġdiver":13296,"ĠAy":13297,"eto":13298,"ĠPaper":13299,"ĠPRO":13300,"Ġlaser":13301,"Ġgolfer":13302,"Ġeg":13303,"ĠWash":13304,"Ġrings":13305,"Ġranging":13306,"ĠDeep":13307,"vered":13308,"ĠUg":13309,"ĠHoya":13310,"ĠLam":13311,"ĠOthers":13312,"ĠOvers":13313,"terson":13314,"ĠJunich":13315,"ftime":13316,"ĠStem":13317,"Ġexcept":13318,"Ġpride":13319,"Ġjack":13320,"Ġupheld":13321,"Ġoutfit":13322,"ĠUnions":13323,"Ġscor":13324,"plant":13325,"Ġdefin":13326,"ĠExperts":13327,"Ġdowngr":13328,"atching":13329,"Ġworkst":13330,"Ġinvesting":13331,"Ġ101":13332,"Ġ103":13333,"athlon":13334,"luding":13335,"ĠAdams":13336,"Ġassum":13337,"Ġhosted":13338,"ĠZurich":13339,"Ġ95":13340,"Ġbombers":13341,"Ġtestified":13342,"AGUE":13343,"Ġturnaround":13344,"ĠDecision":13345,"ĠOutput":13346,"ĠParad":13347,"Ġpromoting":13348,"ĠSlobodan":13349,"ittal":13350,"There":13351,"Ġskies":13352,"Ġoptical":13353,"ĠAugusto":13354,"Ġballistic":13355,"Ġconvinc":13356,"147":13357,"Ġgeneric":13358,"Ġpicking":13359,"Photo":13360,"ĠEnterprises":13361,"Ġdifference":13362,"ĠExpand":13363,"Ġupgrading":13364,"Ġreviews":13365,"Alitalia":13366,"Ġislands":13367,"ĠBenitez":13368,"Ġboxes":13369,"Ġlabel":13370,"Ġideas":13371,"Ġstrengthening":13372,"Ġinfluential":13373,"Schilling":13374,"Ġsideline":13375,"Ġsurprisingly":13376,"Ġmargins":13377,"Ġobtained":13378,"ĠWeighs":13379,"ĠEllison":13380,"Ġhurdles":13381,"MLB":13382,"ĠAhmed":13383,"Ġdictator":13384,"Ġextradition":13385,"Ġconceded":13386,"Ġtactics":13387,"ĠDhaka":13388,"ĠCorey":13389,"tershocks":13390,"Att":13391,"Green":13392,"Hait":13393,"Link":13394,"Saf":13395,"court":13396,"hole":13397,"iop":13398,"tz":13399,"Ġ*":13400,"Ġug":13401,"Ġessential":13402,"ĠAFC":13403,"ĠTight":13404,"ĠCivil":13405,"steps":13406,"ĠPR":13407,"ĠPak":13408,"Ġlists":13409,"Ġgal":13410,"ĠRic":13411,"ĠResident":13412,"ĠRober":13413,"Ġstuck":13414,"ĠDale":13415,"ĠUtd":13416,"ĠGmail":13417,"ĠGENE":13418,"ĠJenn":13419,"ĠStun":13420,"Ġshield":13421,"Ġshocked":13422,"Ġshattered":13423,"Ġwholesale":13424,"Ġexist":13425,"Ġplastic":13426,"ugged":13427,"ĠVilla":13428,"Ġroof":13429,"ĠPred":13430,"anticipated":13431,"exmark":13432,"odom":13433,"Ġresulted":13434,"Ġscams":13435,"Ġrecalls":13436,"icting":13437,"ounty":13438,"Ġuseful":13439,"Ġdecisive":13440,"errero":13441,"Ġunderw":13442,"rival":13443,"echan":13444,"ĠWhere":13445,"Ġminer":13446,"clays":13447,"enges":13448,"Ġgrim":13449,"ĠFinn":13450,"Ġharder":13451,"Ġhardly":13452,"ĠCrim":13453,"Ġembrace":13454,"Ġlocation":13455,"\\\\\"":13456,"Ġintroduces":13457,"Ġfreestyle":13458,"company":13459,"Ġgunfire":13460,"ĠInvestments":13461,"ĠMean":13462,"ĠAdvances":13463,"Ġsquare":13464,"ĠGoing":13465,"ĠOwn":13466,"ĠArea":13467,"ĠRaise":13468,"ĠBernard":13469,"Ġwebsites":13470,"ĠRomanian":13471,"Ġorganizers":13472,"Ġrecommended":13473,"BURGH":13474,"ĠInjury":13475,"Ġfortunes":13476,"Ġpeacekeeping":13477,"Howard":13478,"Philips":13479,"Els":13480,"Ġtrophy":13481,"rieve":13482,"ĠCasino":13483,"ĠHawai":13484,"MRK":13485,"ĠPrivate":13486,"Ġextinction":13487,"Ġnervous":13488,"Ġorbiting":13489,"Ġunanimously":13490,"Ġfolks":13491,"ĠNOVEMBER":13492,"ĠSpirit":13493,"ĠFRANKFURT":13494,"EY":13495,"FD":13496,"GI":13497,"Game":13498,"Gateway":13499,"Old":13500,"euro":13501,"lig":13502,"mont":13503,"nesty":13504,"turn":13505,"uous":13506,"zing":13507,"Ġing":13508,"oni":13509,"aration":13510,"arely":13511,"Ġbump":13512,"Ġinstr":13513,"ĠSoviet":13514,"Ġdairy":13515,"ĠCrawford":13516,"ĠMEL":13517,"eli":13518,"acted":13519,"olved":13520,"Ġeat":13521,"ĠNazi":13522,"ĠFail":13523,"ĠRover":13524,"ĠRio":13525,"ĠDism":13526,"ĠHague":13527,"ĠEN":13528,"rome":13529,"ĠKraft":13530,"identified":13531,"eph":13532,"Ġabusing":13533,"ĠCorporate":13534,"ĠSpencer":13535,"Ġblind":13536,"Ġdeciding":13537,"Ġslain":13538,"Ġslams":13539,"onsored":13540,"Ġgoalk":13541,"Ġmedi":13542,"ĠConv":13543,"Ġintervention":13544,"Ġairports":13545,"Ġsignaled":13546,"ĠPharmaceuticals":13547,"Ġefficient":13548,"Ġsubpoena":13549,"Ġanywhere":13550,"ATA":13551,"ĠHeavy":13552,"Ġmainstream":13553,"Ġ130":13554,"Ġremainder":13555,"Ġdivisions":13556,"Ġlocations":13557,"Ġchallenged":13558,"ĠWeapons":13559,"Ġelig":13560,"Ġverdict":13561,"Ġdelivering":13562,"Ġpredicts":13563,"itnesses":13564,"swapping":13565,"Ġknowledge":13566,"Ġprobes":13567,"Ġstaying":13568,"Ġalongside":13569,"Ġwidened":13570,"ĠLaboratories":13571,"Ġaudit":13572,"ĠCountries":13573,"Ġrepresents":13574,"Ġwindow":13575,"ĠHitachi":13576,"otebooks":13577,"Ġexcited":13578,"Ġfixing":13579,"ĠStandards":13580,"stitutional":13581,"ĠColombian":13582,"ĠChilean":13583,"Ġawaiting":13584,"Ġvillagers":13585,"Ġmaintained":13586,"ĠAcquire":13587,"Ġinstitution":13588,"ĠMegawati":13589,"ĠCommunist":13590,"Ġlandslide":13591,"Ġhurdle":13592,"Ġcoordinator":13593,"Ġreflecting":13594,"ĠCroat":13595,"ĠCopy":13596,"Ġauthentication":13597,"Ġdisrupted":13598,"Halliburton":13599,"ĠFujitsu":13600,"ĠExecutives":13601,"ĠJunichiro":13602,"FS":13603,"Lycos":13604,"NM":13605,"NZ":13606,"bsp":13607,"eu":13608,"ferred":13609,"hop":13610,"law":13611,"vens":13612,"Ġtar":13613,"Ġavert":13614,"Ġawait":13615,"oriented":13616,"alia":13617,"Ġwrist":13618,"Ġwrote":13619,"Ġbounced":13620,"ĠSvet":13621,"ĠSMB":13622,"Ġmood":13623,"Ġhanging":13624,"Ġduties":13625,"ĠAth":13626,"ĠTA":13627,"ĠMoya":13628,"acc":13629,"Ġthumb":13630,"ĠBase":13631,"Ġnbsp":13632,"utu":13633,"ĠRen":13634,"ĠRole":13635,"thodox":13636,"rapping":13637,"ĠHok":13638,"riends":13639,"ĠTheo":13640,"ĠInit":13641,"astrop":13642,"Ġcomprehensive":13643,"Ġupper":13644,"Ġclar":13645,"Ġuniverse":13646,"Ġunwanted":13647,"ensed":13648,"Ġreconstr":13649,"Ġarray":13650,"Ġslim":13651,"Ġsliding":13652,"Ġconsiders":13653,"INCE":13654,"ĠArnold":13655,"ĠArroyo":13656,"Ġsoar":13657,"Stock":13658,"Ġformerly":13659,"ĠAppeals":13660,"Ġsmugg":13661,"ĠColo":13662,"Ġgloom":13663,"Ġraided":13664,"ĠTrin":13665,"Ġinfilt":13666,"Ġrestive":13667,"liner":13668,"ottest":13669,"ĠMcAfee":13670,"Ġformula":13671,"Ġempty":13672,"annels":13673,"Ġdetect":13674,"ĠParalymp":13675,"Ġanaly":13676,"Ġtransaction":13677,"ĠRece":13678,"ynix":13679,"Ġwriters":13680,"ĠDonovan":13681,"Ġtalked":13682,"Ġviewing":13683,"ĠSurgery":13684,"ĠTwenty":13685,"ĠMarketing":13686,"ĠTelecommunications":13687,"ĠLosses":13688,"Enter":13689,"Ġveterans":13690,"Ġrestructure":13691,"ĠPalmSource":13692,"Ġspectrum":13693,"Ġoverturn":13694,"ĠMelbourne":13695,"ĠStudios":13696,"Small":13697,"ĠNeeds":13698,"Ġfrustrated":13699,"Pacers":13700,"Ġinstitutions":13701,"Indonesian":13702,"ĠMcNair":13703,"ĠLawsuits":13704,"ĠContinue":13705,"ĠRamadan":13706,"Ġsymbol":13707,"ĠYugoslav":13708,"ĠGuillen":13709,"Ġfuels":13710,"Ġovershadowed":13711,"esliga":13712,"Ġlackluster":13713,"Bertrand":13714,"ĠGrenada":13715,"06":13716,"79":13717,"Blo":13718,"Before":13719,"EP":13720,"Myan":13721,"She":13722,"kara":13723,"lana":13724,"uert":13725,"Ġsample":13726,"Ġocean":13727,"Ġwal":13728,"Ġwaste":13729,"ĠSeb":13730,"ĠSMS":13731,"Ġhints":13732,"ĠTournament":13733,"ĠMd":13734,"ĠMing":13735,"ĠMun":13736,"ĠMall":13737,"eting":13738,"aciers":13739,"ĠPot":13740,"ĠPra":13741,"Ġlending":13742,"Ġloud":13743,"Ġreporter":13744,"ĠWeather":13745,"ĠNad":13746,"ĠNash":13747,"ĠNelson":13748,"ĠRing":13749,"ĠRou":13750,"Ġru":13751,"ĠDubai":13752,"thard":13753,"ĠGRE":13754,"ĠGaming":13755,"ĠLands":13756,"ĠEAST":13757,"ĠOd":13758,"ĠJup":13759,"ĠJoy":13760,"ĠJumps":13761,"Ġsabot":13762,"iful":13763,"ablo":13764,"Ġsealed":13765,"ĠVogts":13766,"ansson":13767,"iev":13768,"ollah":13769,"issan":13770,"Ġnotes":13771,"Ġdisgr":13772,"Ġaccur":13773,"ĠComing":13774,"Ġmanip":13775,"Ġslows":13776,"ĠArg":13777,"ĠArmed":13778,"insula":13779,"aunch":13780,"Ġmilitiamen":13781,"msterdam":13782,"ĠAlban":13783,"Ġundergoing":13784,"Ġassured":13785,"Ġexplore":13786,"Ġsubmitted":13787,"Ġlegit":13788,"ESTER":13789,"ĠBarrichello":13790,"ĠQuick":13791,"Ġmainland":13792,"ĠHighbury":13793,"Ġfundament":13794,"Ġcurrencies":13795,"ĠDefends":13796,"onaut":13797,"Ġentr":13798,"Ġfocusing":13799,"Ġsnow":13800,"Ġwriting":13801,"ĠBombardier":13802,"ĠBobcats":13803,"ĠBenef":13804,"oulthard":13805,"ĠMPs":13806,"Ġapartment":13807,"Ġtechnique":13808,"Ġinspired":13809,"ĠSteps":13810,"regular":13811,"ĠSkype":13812,"cahn":13813,"ĠHardie":13814,"ĠABUJA":13815,"ipei":13816,"ĠPictures":13817,"ĠNicolas":13818,"Ġsponsors":13819,"Ġrestrictions":13820,"ĠMasterCard":13821,"Ġenemy":13822,"ĠExecs":13823,"October":13824,"Ġhydrogen":13825,"Ġliberal":13826,"ĠDispute":13827,"ĠAnsari":13828,"Ġherself":13829,"Myanmar":13830,"Cle":13831,"Celt":13832,"ci":13833,"cop":13834,"dated":13835,"gles":13836,"mile":13837,"pound":13838,"works":13839,"only":13840,"Ġsociety":13841,"isure":13842,"ĠSTOC":13843,"Ġmaj":13844,"Ġmouse":13845,"Ġhazard":13846,"Ġhospitals":13847,"lects":13848,"ĠCL":13849,"ĠCP":13850,"ĠMumb":13851,"Ġnor":13852,"Ġnic":13853,"Ġlobby":13854,"ĠFre":13855,"illance":13856,"Ġrid":13857,"ĠDEN":13858,"ĠGB":13859,"ĠLink":13860,"ĠEases":13861,"akar":13862,"kster":13863,"astro":13864,"ĠStreak":13865,"Ġshops":13866,"ĠKIE":13867,"Ġspike":13868,"Ġseal":13869,"ĠVeter":13870,"keley":13871,"Ġsecrets":13872,"ignment":13873,"ovt":13874,"Ġarena":13875,"Ġcrushed":13876,"Ġhighway":13877,"Ġmilitias":13878,"ĠAlcoa":13879,"ĠSecret":13880,"ĠAdvert":13881,"Ġreluct":13882,"Ġcolon":13883,"Ġfollowers":13884,"ĠWarriors":13885,"Ġhanding":13886,"Ġbarred":13887,"oppy":13888,"ĠDisapp":13889,"ĠMining":13890,"Ġpersonnel":13891,"Ġfirewall":13892,"Ġsinger":13893,"Ġconvince":13894,"148":13895,"Ġquestioning":13896,"Ġsupercomputing":13897,"Ġcancel":13898,"nyse":13899,"ĠMilitant":13900,"Ġsexually":13901,"ĠBerkeley":13902,"Ġtroubles":13903,"ĠTakeover":13904,"rigging":13905,"ĠImpact":13906,"Ġattempting":13907,"Atlantic":13908,"Ġdramatically":13909,"Ġrecalling":13910,"ĠTerrorism":13911,"ĠConfidence":13912,"Ġlearning":13913,"ĠOval":13914,"Ġextremists":13915,"Ġsustain":13916,"Ġparticipate":13917,"Ġcruise":13918,"Second":13919,"ĠLucent":13920,"Ġassessment":13921,"Ġgovernance":13922,"ĠPAUL":13923,"ĠCustomers":13924,"ĠLukoil":13925,"BOURNE":13926,"Hardenne":13927,"ĠThunderbird":13928,"Ġconvincing":13929,"ĠMELBOURNE":13930,"ĠSvetlana":13931,"ĠSebast":13932,"ĠKIEV":13933,"92":13934,"AF":13935,"Bag":13936,"Bri":13937,"Bry":13938,"Cy":13939,"From":13940,"Free":13941,"Ivan":13942,"Jet":13943,"SI":13944,"Si":13945,"SAP":13946,"ais":13947,"bitz":13948,"iy":13949,"iSign":13950,"zie":13951,"Ġcited":13952,"Ġcaf":13953,"Ġburning":13954,"asse":13955,"ĠSM":13956,"ĠSends":13957,"ĠAce":13958,"ĠAway":13959,"ĠAmsterdam":13960,"ĠTaj":13961,"ĠBP":13962,"ĠBY":13963,"ĠBud":13964,"ĠBey":13965,"Ġlunch":13966,"ĠWis":13967,"ĠNord":13968,"Ġrural":13969,"ested":13970,"estine":13971,"ĠDennis":13972,"ĠDuke":13973,"una":13974,"ĠHAV":13975,"ĠLear":13976,"ĠLows":13977,"riati":13978,"iances":13979,"Ġheated":13980,"endants":13981,"usty":13982,"Ġchicken":13983,"undi":13984,"Ġcomply":13985,"ĠThor":13986,"Ġspare":13987,"icked":13988,"keys":13989,"Ġsection":13990,"aved":13991,"bery":13992,"ovich":13993,"ĠAnalysts":13994,"Ġcracked":13995,"Ġteaming":13996,"Ġslipping":13997,"ieri":13998,"ĠCool":13999,"ĠAlb":14000,"istani":14001,"racks":14002,"Ġinterface":14003,"Ġdemol":14004,"Ġhosting":14005,"Ġrelax":14006,"Ġ900":14007,"ĠWebS":14008,"Ġbats":14009,"rete":14010,"Chirac":14011,"ĠGroups":14012,"Ġrefund":14013,"Ġvisa":14014,"Ġinvestigated":14015,"ĠEducation":14016,"Ġdetected":14017,"Ġtransition":14018,"ĠDeficit":14019,"Ġobvious":14020,"Ġclubhouse":14021,"Ġproductivity":14022,"ĠCentre":14023,"ĠExpect":14024,"TSBURGH":14025,"Ġapproached":14026,"Ġthoughts":14027,"ĠTelekom":14028,"Ġpainkiller":14029,"Ġdepend":14030,"Ġundefeated":14031,"Ġlaboratory":14032,"Ġrequested":14033,"ĠSuspects":14034,"Enron":14035,"ĠAustrian":14036,"ĠFranklin":14037,"ĠDeaths":14038,"Ġapology":14039,"Ġplunge":14040,"Ġshelves":14041,"Ġextremely":14042,"Ġcollaboration":14043,"PalmOne":14044,"Ġrestaurants":14045,"ĠSachin":14046,"ĠKidnappers":14047,"ĠRamadi":14048,"Ġdedicated":14049,"ĠBoxing":14050,"African":14051,"ĠPortugal":14052,"ĠHistory":14053,"ĠUFJ":14054,"ĠMondavi":14055,"Ġugly":14056,"ĠGENEVA":14057,"58":14058,"BT":14059,"BOS":14060,"Hz":14061,"Pan":14062,"Pfizer":14063,"Rangers":14064,"TTE":14065,"Wireless":14066,"business":14067,"five":14068,"iots":14069,"km":14070,"mode":14071,"ser":14072,"wind":14073,"Ġtumble":14074,"erous":14075,"oro":14076,"Ġfoul":14077,"Ġcoin":14078,"Ġpump":14079,"Ġpocket":14080,"Ġtot":14081,"Ġtoys":14082,"Ġbed":14083,"Ġbone":14084,"Ġinev":14085,"ĠSC":14086,"ione":14087,"Ġdim":14088,"Ġdipped":14089,"ĠTries":14090,"idad":14091,"ĠPAL":14092,"ĠBudget":14093,"igo":14094,"ĠWeeks":14095,"ĠNamed":14096,"Ġstance":14097,"ĠDementieva":14098,"ĠUCLA":14099,"ĠHav":14100,"Ġconsequ":14101,"iah":14102,"Ġexch":14103,"ugabe":14104,"aba":14105,"Ġjeop":14106,"Ġups":14107,"Ġoutgoing":14108,"Ġunmanned":14109,"ishop":14110,"actice":14111,"Ġcontention":14112,"Ġkillings":14113,"Ġflies":14114,"ĠBlo":14115,"ĠBlade":14116,"Ġmedall":14117,"Ġaired":14118,"Storm":14119,"Ġcountrys":14120,"Ġrelent":14121,"Ġsmoking":14122,"Ġdiscr":14123,"ĠSouthwest":14124,"ĠDeals":14125,"Ġclosure":14126,"ĠBrent":14127,"ĠManagers":14128,"ĠGrey":14129,"Ġenterprises":14130,"ĠAcross":14131,"ĠEditor":14132,"Ġmarines":14133,"Ġunveiling":14134,"looking":14135,"Analysis":14136,"ĠFranco":14137,"ĠCharlton":14138,"incial":14139,"Ġintroduction":14140,"Ġ1995":14141,"Ġsuffers":14142,"Ġplease":14143,"unta":14144,"Ġrevealing":14145,"Force":14146,"Ġcancelled":14147,"Ġvolleyball":14148,"Ġweakened":14149,"tenance":14150,"ĠWiMax":14151,"Ġsettling":14152,"aughan":14153,"Ġwindows":14154,"ĠHuskies":14155,"ĠSuspended":14156,"ĠDeadline":14157,"ĠOsset":14158,"Ġargument":14159,"Ġhalftime":14160,"Ġseparatists":14161,"Ġreverse":14162,"Ġbreast":14163,"Ġfrustration":14164,"Ġresponded":14165,"iability":14166,"ĠSiliconValley":14167,"Ġcongrat":14168,"KOK":14169,"Ġsandwich":14170,"ĠHungary":14171,"ĠBosnia":14172,"ĠTemple":14173,"ĠBANGKOK":14174,"cuers":14175,"Windows":14176,"ĠTobacco":14177,"ĠIntroduces":14178,"stadt":14179,"ĠBundesliga":14180,"SiliconValley":14181,"ĠPITTSBURGH":14182,"ĠAstraZeneca":14183,"ĠAthlon":14184,"Bloomberg":14185,"ĠMumbai":14186,"72":14187,"96":14188,"Miss":14189,"SW":14190,"book":14191,"dig":14192,"ihad":14193,"sen":14194,"search":14195,"Ġid":14196,"Ġaware":14197,"Ġwages":14198,"Ġwedding":14199,"asks":14200,"Ġharsh":14201,"Ġdil":14202,"ĠCrystal":14203,"ĠMail":14204,"ĠMLS":14205,"ĠBrem":14206,"iggs":14207,"aments":14208,"amework":14209,"irm":14210,"Ġrevel":14211,"ĠNOR":14212,"ĠFee":14213,"ĠRey":14214,"Ġstamp":14215,"Ġstories":14216,"ĠDays":14217,"ĠUAL":14218,"ĠGerrard":14219,"Ġprojected":14220,"Ġyuan":14221,"ellar":14222,"ordinary":14223,"Ġaftermath":14224,"Ġclashed":14225,"berger":14226,"Ġcontrolling":14227,"oody":14228,"ĠShin":14229,"ĠShane":14230,"ĠAnkara":14231,"ibillion":14232,"Ġhighlights":14233,"ĠRead":14234,"Ġslumped":14235,"ierry":14236,"USC":14237,"Ġprofile":14238,"ĠClass":14239,"ĠPalmer":14240,"ĠSecure":14241,"Ġairstri":14242,"Ġacting":14243,"ermo":14244,"ĠWithin":14245,"Ġrebuild":14246,"iversities":14247,"Inj":14248,"Ġmisses":14249,"isoned":14250,"ificial":14251,"ĠBrid":14252,"ĠDecl":14253,"Ġhometown":14254,"Ġgrass":14255,"Ġpressing":14256,"Ġbetting":14257,"keyes":14258,"Ġtransl":14259,"Ġexperienced":14260,"Ġperformances":14261,"Ġskin":14262,"Ġfields":14263,"Ġjumping":14264,"Ġcontinent":14265,"Ġfactors":14266,"Ġcounts":14267,"ĠExpects":14268,"Ġmortgages":14269,"Ġgrabs":14270,"Ġspeaking":14271,"ĠRocket":14272,"ĠWorking":14273,"Ġautomotive":14274,"Ġrobots":14275,"Ġdesigner":14276,
[...]
